<unk>	0
<s>	0
</s>	0
[PAD]	0
[CLS]	0
[SEP]	0
[MASK]	0
en	-0
ar	-1
▁e	-2
ta	-3
▁.	-4
ak	-5
er	-6
an	-7
▁b	-8
▁,	-9
at	-10
ko	-11
in	-12
▁h	-13
▁1	-14
▁z	-15
al	-16
tz	-17
▁-	-18
or	-19
▁d	-20
▁*	-21
te	-22
ia	-23
ur	-24
▁i	-25
▁a	-26
▁g	-27
▁m	-28
▁eta	-29
il	-30
ik	-31
tu	-32
ra	-33
▁19	-34
on	-35
▁l	-36
▁s	-37
un	-38
re	-39
▁j	-40
▁k	-41
de	-42
▁)	-43
▁(	-44
▁p	-45
aren	-46
ri	-47
io	-48
us	-49
▁:	-50
ol	-51
atu	-52
iz	-53
is	-54
▁f	-55
ako	-56
▁ar	-57
es	-58
▁n	-59
az	-60
▁zu	-61
ek	-62
el	-63
▁es	-64
ai	-65
as	-66
▁eg	-67
eta	-68
ari	-69
▁2	-70
▁zi	-71
▁t	-72
os	-73
ren	-74
go	-75
ro	-76
▁da	-77
du	-78
▁iz	-79
▁ber	-80
▁al	-81
▁er	-82
eh	-83
▁zen	-84
ea	-85
it	-86
▁bat	-87
▁di	-88
▁ez	-89
iko	-90
ez	-91
ten	-92
ul	-93
ain	-94
di	-95
▁ko	-96
ab	-97
ts	-98
arra	-99
▁in	-100
eko	-101
atz	-102
era	-103
▁20	-104
▁c	-105
ag	-106
▁her	-107
eg	-108
▁ur	-109
▁18	-110
▁zuen	-111
le	-112
▁eus	-113
▁"	-114
▁eusk	-115
uz	-116
ail	-117
▁o	-118
et	-119
ki	-120
arr	-121
ir	-122
tor	-123
▁du	-124
▁or	-125
tzen	-126
do	-127
og	-128
ean	-129
antz	-130
tatu	-131
and	-132
tan	-133
▁euskal	-134
am	-135
ti	-136
alde	-137
aria	-138
tzak	-139
▁ger	-140
▁era	-141
au	-142
▁izan	-143
▁w	-144
etan	-145
entz	-146
em	-147
▁kon	-148
ura	-149
▁200	-150
ip	-151
ena	-152
▁id	-153
to	-154
ber	-155
▁erre	-156
▁te	-157
id	-158
iotzak	-159
▁estatu	-160
▁urte	-161
iar	-162
▁dira	-163
tza	-164
▁jo	-165
om	-166
▁arte	-167
▁as	-168
▁ja	-169
tal	-170
▁em	-171
op	-172
ria	-173
▁fr	-174
ut	-175
▁egun	-176
ch	-177
um	-178
▁leh	-179
ed	-180
▁ere	-181
▁3	-182
bil	-183
iako	-184
▁az	-185
im	-186
▁mun	-187
▁v	-188
▁hor	-189
▁ak	-190
▁zuten	-191
ad	-192
ika	-193
▁idaz	-194
▁am	-195
ende	-196
▁aur	-197
ter	-198
▁zitu	-199
▁mundu	-200
end	-201
ide	-202
▁biz	-203
iak	-204
▁15	-205
uru	-206
▁198	-207
lo	-208
olog	-209
arri	-210
gin	-211
▁197	-212
tik	-213
▁bere	-214
▁mar	-215
entzia	-216
▁ald	-217
▁os	-218
ka	-219
ian	-220
oa	-221
ala	-222
▁hil	-223
▁an	-224
▁199	-225
▁esp	-226
ateg	-227
▁on	-228
▁194	-229
▁har	-230
▁lehen	-231
▁bes	-232
tr	-233
ita	-234
▁fil	-235
▁edo	-236
▁ik	-237
▁191	-238
▁ditu	-239
▁ziren	-240
ig	-241
ela	-242
▁sor	-243
ologia	-244
ke	-245
▁na	-246
▁beh	-247
▁egin	-248
▁201	-249
▁tx	-250
▁192	-251
▁el	-252
▁de	-253
▁196	-254
▁aktor	-255
sun	-256
▁ir	-257
itz	-258
kun	-259
▁ab	-260
ekin	-261
tura	-262
▁;	-263
la	-264
arte	-265
▁hau	-266
▁x	-267
ub	-268
▁195	-269
▁pol	-270
ategor	-271
ug	-272
▁193	-273
▁kul	-274
res	-275
batu	-276
▁190	-277
▁zientzia	-278
arren	-279
▁beste	-280
▁herria	-281
ioa	-282
erak	-283
▁eur	-284
tasun	-285
atzen	-286
iaren	-287
▁estatubatu	-288
kn	-289
ua	-290
▁mundua	-291
▁lan	-292
▁pro	-293
▁frantz	-294
▁mende	-295
▁erabil	-296
▁ing	-297
etako	-298
▁kultura	-299
▁gerta	-300
tx	-301
▁esk	-302
▁kategor	-303
ob	-304
▁tekn	-305
tar	-306
▁zituen	-307
▁th	-308
▁kir	-309
uk	-310
of	-311
▁ira	-312
ariak	-313
tzeko	-314
▁ba	-315
teg	-316
endu	-317
▁kirol	-318
▁has	-319
ib	-320
da	-321
ara	-322
aile	-323
▁bain	-324
▁herri	-325
▁heriotzak	-326
tako	-327
▁gertaerak	-328
dor	-329
iarra	-330
ilaren	-331
▁jaiotzak	-332
▁teknologia	-333
▁kirolak	-334
▁mus	-335
atik	-336
ikoa	-337
▁gre	-338
man	-339
tin	-340
ista	-341
ck	-342
ien	-343
azio	-344
▁zuz	-345
▁batu	-346
ma	-347
▁17	-348
▁hiz	-349
ier	-350
▁hon	-351
▁u	-352
▁bil	-353
▁orri	-354
itu	-355
▁lo	-356
▁lur	-357
ex	-358
▁behar	-359
▁/	-360
▁at	-361
▁europ	-362
ard	-363
▁ro	-364
▁arg	-365
▁agin	-366
ic	-367
▁bi	-368
▁zer	-369
▁bai	-370
▁geh	-371
00	-372
▁giz	-373
lea	-374
▁16	-375
▁ip	-376
▁sar	-377
istor	-378
▁gar	-379
▁han	-380
iter	-381
▁mo	-382
▁antz	-383
▁berri	-384
▁idazle	-385
ing	-386
▁espain	-387
▁histor	-388
azi	-389
ego	-390
▁en	-391
▁r	-392
▁guz	-393
▁per	-394
ge	-395
▁hizkun	-396
uteg	-397
▁the	-398
▁aktore	-399
▁eguteg	-400
▁kategoria	-401
▁ch	-402
ial	-403
lan	-404
oak	-405
arrak	-406
rik	-407
▁mat	-408
▁amer	-409
▁polit	-410
osof	-411
▁den	-412
eman	-413
▁batz	-414
ald	-415
▁le	-416
ente	-417
▁dago	-418
▁ikus	-419
▁4	-420
ok	-421
ton	-422
bai	-423
oko	-424
▁hasi	-425
▁hori	-426
▁filosof	-427
▁$	-428
▁5	-429
arl	-430
▁go	-431
dako	-432
oaren	-433
▁emak	-434
▁liter	-435
▁14	-436
▁joh	-437
▁emakum	-438
aur	-439
eak	-440
▁gor	-441
▁literat	-442
▁ad	-443
▁fran	-444
▁ondor	-445
gor	-446
iri	-447
▁sortu	-448
per	-449
▁kan	-450
▁izen	-451
▁baina	-452
hi	-453
▁ek	-454
▁is	-455
zten	-456
▁aleman	-457
▁|	-458
bide	-459
▁arab	-460
aldeko	-461
tariak	-462
bol	-463
ina	-464
▁189	-465
▁ots	-466
▁gain	-467
ris	-468
▁otsail	-469
eb	-470
tur	-471
▁jos	-472
▁handi	-473
▁idazlea	-474
▁estatubatuar	-475
pen	-476
teko	-477
▁guzti	-478
▁agintariak	-479
tel	-480
▁otsailaren	-481
▁–	-482
▁nag	-483
arekin	-484
ism	-485
▁man	-486
uan	-487
agun	-488
▁err	-489
▁orrialde	-490
ill	-491
ist	-492
arre	-493
tarr	-494
▁gal	-495
aketa	-496
▁nagus	-497
ei	-498
raz	-499
talde	-500
ken	-501
▁bak	-502
▁bar	-503
ikoak	-504
▁amai	-505
▁kim	-506
▁ital	-507
▁pres	-508
▁ap	-509
▁ta	-510
ezko	-511
▁wik	-512
inatu	-513
▁un	-514
▁horre	-515
▁politik	-516
th	-517
tre	-518
▁ne	-519
ortu	-520
▁nob	-521
▁hiri	-522
▁urtarr	-523
▁bal	-524
▁bur	-525
▁ge	-526
uak	-527
urren	-528
▁john	-529
▁amerik	-530
▁su	-531
uzko	-532
▁naf	-533
▁urteko	-534
dun	-535
▁ham	-536
▁its	-537
▁dute	-538
co	-539
men	-540
▁ag	-541
ailea	-542
▁jose	-543
den	-544
aiak	-545
atzeko	-546
▁nobel	-547
▁aktorea	-548
▁6	-549
▁bo	-550
▁ma	-551
eztu	-552
▁azken	-553
ilo	-554
aten	-555
land	-556
▁itsas	-557
▁diren	-558
▁hartu	-559
▁urtarrilaren	-560
gan	-561
▁us	-562
iago	-563
keta	-564
▁des	-565
▁ind	-566
▁san	-567
▁literatura	-568
ile	-569
▁mil	-570
▁alde	-571
▁estre	-572
ap	-573
din	-574
ion	-575
tea	-576
arik	-577
▁jarra	-578
son	-579
▁re	-580
▁bio	-581
▁estatubatuarra	-582
tes	-583
▁fut	-584
▁hel	-585
istan	-586
▁erro	-587
▁hand	-588
▁hego	-589
▁futbol	-590
▁ondoren	-591
ran	-592
ubl	-593
zko	-594
▁adi	-595
▁hir	-596
▁duen	-597
▁musik	-598
▁zituzten	-599
▁estreinatu	-600
ne	-601
edi	-602
▁ban	-603
▁fis	-604
eratu	-605
aldean	-606
▁batean	-607
▁gregor	-608
ph	-609
▁#	-610
▁of	-611
▁bis	-612
▁aurk	-613
▁>	-614
fer	-615
raf	-616
▁lu	-617
▁187	-618
▁188	-619
▁egit	-620
▁eman	-621
▁filma	-622
▁hizkuntza	-623
aki	-624
kon	-625
orm	-626
▁pa	-627
▁gip	-628
qu	-629
▁?	-630
bat	-631
gia	-632
log	-633
tua	-634
uen	-635
earen	-636
▁zuzendu	-637
xt	-638
ada	-639
age	-640
bert	-641
▁gab	-642
tasuna	-643
▁batek	-644
▁nafar	-645
▁presid	-646
ba	-647
▁8	-648
tron	-649
▁asko	-650
▁gero	-651
▁lurr	-652
tzaile	-653
▁eguna	-654
▁wikip	-655
▁presidente	-656
tek	-657
abal	-658
aite	-659
eles	-660
itar	-661
▁mug	-662
atzaile	-663
igarren	-664
ii	-665
esl	-666
▁so	-667
▁bez	-668
▁bor	-669
▁aurki	-670
▁gehien	-671
▁dau	-672
▁fal	-673
▁lib	-674
▁hildako	-675
ler	-676
tri	-677
▁ah	-678
▁mon	-679
▁par	-680
▁zin	-681
▁2014	-682
▁antzeztu	-683
▁gregorio	-684
li	-685
pe	-686
▁—	-687
uts	-688
▁ka	-689
buru	-690
etik	-691
▁kom	-692
▁oso	-693
▁errep	-694
▁y	-695
ola	-696
▁af	-697
▁ed	-698
▁ii	-699
text	-700
▁leg	-701
erako	-702
▁dela	-703
▁daite	-704
▁historia	-705
▁7	-706
err	-707
ona	-708
▁ri	-709
aska	-710
ator	-711
tanle	-712
▁ezta	-713
▁hala	-714
▁urtea	-715
▁zerren	-716
▁gipuzko	-717
na	-718
▁9	-719
ein	-720
iki	-721
tzi	-722
atur	-723
▁gai	-724
▁iri	-725
▁konp	-726
▁aldiz	-727
▁baten	-728
▁falta	-729
▁aktoreek	-730
ioak	-731
iste	-732
tzea	-733
▁kar	-734
▁nor	-735
▁abesl	-736
▁ingeles	-737
kin	-738
las	-739
▁km	-740
▁sa	-741
urte	-742
▁eki	-743
▁min	-744
▁zeh	-745
▁2008	-746
▁jaiak	-747
▁perts	-748
▁talde	-749
▁inguru	-750
▁amaitzeko	-751
▁urteurren	-752
▁ol	-753
tzat	-754
▁and	-755
▁erak	-756
▁inde	-757
▁garai	-758
▁nazio	-759
▁eragin	-760
ce	-761
▁%	-762
▁bri	-763
▁seh	-764
kunde	-765
urteetan	-766
▁sehaska	-767
▁egutegiko	-768
▁bisurteetan	-769
▁urteurrenak	-770
ov	-771
▁sh	-772
iber	-773
▁186	-774
▁kal	-775
▁med	-776
▁duten	-777
▁erres	-778
▁lagun	-779
endegia	-780
▁biztanle	-781
▁izendegia	-782
ie	-783
min	-784
▁gu	-785
▁ra	-786
▁bide	-787
▁hain	-788
▁sari	-789
▁idatz	-790
▁eztabai	-791
▁errepubl	-792
ana	-793
lin	-794
utx	-795
pend	-796
▁bid	-797
▁grez	-798
▁irab	-799
▁kanp	-800
▁baino	-801
▁errus	-802
▁bereiz	-803
▁emakume	-804
if	-805
gol	-806
ire	-807
▁12	-808
▁13	-809
▁ho	-810
▁bas	-811
▁bel	-812
▁nah	-813
▁oin	-814
▁sal	-815
▁esku	-816
▁musika	-817
▁gregoriotar	-818
aug	-819
erk	-820
koa	-821
ula	-822
aldi	-823
tain	-824
▁gaz	-825
▁zabal	-826
▁independ	-827
▁erabiltzen	-828
000	-829
uel	-830
▁pas	-831
▁1980	-832
▁artean	-833
▁arteko	-834
▁bezala	-835
▁egutegiaren	-836
▁po	-837
▁uh	-838
edia	-839
idun	-840
▁buru	-841
▁izat	-842
▁errege	-843
▁bizidun	-844
▁erresum	-845
▁gainera	-846
▁frantziako	-847
mat	-848
▁aus	-849
▁blo	-850
▁garr	-851
▁dituz	-852
▁gizon	-853
▁izena	-854
▁matem	-855
▁batasun	-856
agu	-857
dea	-858
ern	-859
rat	-860
▁la	-861
katu	-862
▁elk	-863
▁enp	-864
▁kol	-865
▁azal	-866
▁uste	-867
▁zinem	-868
▁arabera	-869
ep	-870
gu	-871
kal	-872
pon	-873
▁za	-874
iera	-875
koak	-876
▁000	-877
▁aeb	-878
▁bih	-879
▁kas	-880
▁bizi	-881
▁egon	-882
▁gaur	-883
▁batzuk	-884
▁egiten	-885
▁argitar	-886
▁garrantz	-887
ell	-888
itx	-889
ora	-890
udi	-891
▁oh	-892
engo	-893
▁ego	-894
konom	-895
▁geor	-896
▁irak	-897
▁teor	-898
▁bihur	-899
▁komun	-900
▁astron	-901
▁ekonom	-902
▁mendeb	-903
▁robert	-904
▁zuzend	-905
▁aurkitu	-906
▁oinarri	-907
▁aldaketa	-908
▁europako	-909
zio	-910
▁xv	-911
eran	-912
tuak	-913
▁gen	-914
▁jam	-915
▁pen	-916
itzen	-917
▁ager	-918
▁aita	-919
ich	-920
ite	-921
ost	-922
ure	-923
▁be	-924
▁men	-925
▁sex	-926
▁2010	-927
▁esko	-928
▁izend	-929
▁portu	-930
▁liburu	-931
▁astronom	-932
▁filosofo	-933
goa	-934
tsi	-935
▁10	-936
▁11	-937
▁no	-938
▁uz	-939
▁dan	-940
▁don	-941
▁datu	-942
▁erdi	-943
▁ikas	-944
▁iker	-945
▁meta	-946
▁zela	-947
▁aurre	-948
▁erreg	-949
▁iparr	-950
▁martx	-951
▁euskar	-952
▁irabazi	-953
▁nafarro	-954
▁=	-955
dez	-956
rak	-957
▁pl	-958
▁sin	-959
arria	-960
▁2006	-961
▁esan	-962
▁etak	-963
▁ipar	-964
▁joan	-965
▁zion	-966
▁arraz	-967
▁daude	-968
▁irland	-969
war	-970
▁et	-971
atua	-972
page	-973
▁arm	-974
▁jak	-975
arrik	-976
▁1979	-977
▁2011	-978
▁ezab	-979
▁nahi	-980
▁james	-981
▁siste	-982
▁portug	-983
▁aurkako	-984
▁wikipedi	-985
▁eztabaida	-986
▁lehenengo	-987
▁politikaria	-988
bo	-989
se	-990
ano	-991
lar	-992
lor	-993
nes	-994
▁ep	-995
artu	-996
enak	-997
untz	-998
▁184	-999
▁185	-1000
▁dav	-1001
▁2005	-1002
▁2012	-1003
etatik	-1004
▁azter	-1005
▁japon	-1006
▁zibil	-1007
tzailea	-1008
▁uharte	-1009
▁lurralde	-1010
ix	-1011
so	-1012
kai	-1013
ker	-1014
tun	-1015
rera	-1016
▁auk	-1017
▁bra	-1018
▁mai	-1019
▁pak	-1020
azion	-1021
gatik	-1022
▁ezin	-1023
▁gutx	-1024
▁paul	-1025
▁sail	-1026
atutako	-1027
▁martin	-1028
▁dituzte	-1029
▁politikari	-1030
▁_	-1031
iam	-1032
rin	-1033
▁ga	-1034
azko	-1035
▁ari	-1036
▁itz	-1037
▁kat	-1038
ograf	-1039
▁eliz	-1040
▁huts	-1041
▁sare	-1042
▁fisik	-1043
▁orain	-1044
▁bizkai	-1045
▁guztiak	-1046
▁erresuma	-1047
▁izendatu	-1048
▁zerrenda	-1049
▁espainiako	-1050
cc	-1051
ev	-1052
mo	-1053
▁'	-1054
▁0	-1055
▁bu	-1056
ilea	-1057
▁etx	-1058
▁hen	-1059
▁top	-1060
▁tra	-1061
ismoa	-1062
▁2009	-1063
▁ahal	-1064
▁will	-1065
▁gerra	-1066
▁berriz	-1067
▁handia	-1068
▁gehiago	-1069
▁herrialde	-1070
tt	-1071
gun	-1072
les	-1073
olo	-1074
pos	-1075
tze	-1076
akoa	-1077
duna	-1078
erdi	-1079
istr	-1080
kide	-1081
tean	-1082
▁dez	-1083
▁duz	-1084
▁heg	-1085
▁inper	-1086
atzaren	-1087
▁pakistan	-1088
▁ameriketako	-1089
egi	-1090
her	-1091
tro	-1092
▁25	-1093
form	-1094
oren	-1095
▁181	-1096
▁aip	-1097
▁hiru	-1098
▁hitz	-1099
▁juan	-1100
▁plan	-1101
▁batzu	-1102
▁berez	-1103
▁irudi	-1104
▁jakin	-1105
▁jarri	-1106
▁kanpo	-1107
▁orden	-1108
▁zutel	-1109
▁hautes	-1110
▁margol	-1111
atzailea	-1112
▁bihurtu	-1113
▁daiteke	-1114
▁euskara	-1115
▁hainbat	-1116
▁bigarren	-1117
der	-1118
ila	-1119
ore	-1120
ron	-1121
▁co	-1122
▁182	-1123
▁lau	-1124
▁nab	-1125
istro	-1126
tikul	-1127
riaren	-1128
▁britain	-1129
▁errepublika	-1130
ark	-1131
ent	-1132
iet	-1133
zke	-1134
▁au	-1135
▁ut	-1136
alat	-1137
bern	-1138
pena	-1139
▁dut	-1140
▁kos	-1141
▁pet	-1142
atuta	-1143
atzea	-1144
▁erli	-1145
▁kris	-1146
arteko	-1147
ialari	-1148
▁bidal	-1149
▁bloke	-1150
▁biolog	-1151
▁uniber	-1152
▁adibide	-1153
▁mendean	-1154
▁munduko	-1155
▁william	-1156
▁pertsona	-1157
▁maiatzaren	-1158
▁hauteskunde	-1159
▁erabiltzaile	-1160
aso	-1161
iel	-1162
ira	-1163
▁31	-1164
toko	-1165
tzia	-1166
ultz	-1167
▁dio	-1168
▁ele	-1169
▁utc	-1170
▁admin	-1171
▁ezagu	-1172
▁inter	-1173
▁medik	-1174
▁batera	-1175
▁artikul	-1176
▁ingalat	-1177
▁frantzia	-1178
▁uniberts	-1179
▁martxoaren	-1180
ys	-1181
ago	-1182
dan	-1183
ete	-1184
hai	-1185
its	-1186
ond	-1187
▁24	-1188
▁30	-1189
▁32	-1190
▁ha	-1191
▁ob	-1192
kari	-1193
▁183	-1194
▁ben	-1195
▁egi	-1196
▁lor	-1197
▁luz	-1198
▁sch	-1199
▁2001	-1200
▁etor	-1201
▁gabe	-1202
▁karl	-1203
▁rich	-1204
▁erlij	-1205
▁hauek	-1206
▁gobern	-1207
▁hutsik	-1208
▁zientz	-1209
▁zinema	-1210
▁»	-1211
ess	-1212
olf	-1213
tra	-1214
amen	-1215
tzal	-1216
▁154	-1217
▁asm	-1218
▁del	-1219
▁fin	-1220
uaren	-1221
▁1970	-1222
▁alex	-1223
▁arki	-1224
▁indi	-1225
arriak	-1226
iarrak	-1227
▁saria	-1228
▁ematen	-1229
▁horren	-1230
▁izango	-1231
▁alderdi	-1232
▁hartzen	-1233
▁batuetako	-1234
▁matematik	-1235
▁zutelarik	-1236
▁argitaratu	-1237
ku	-1238
all	-1239
bur	-1240
esa	-1241
ioz	-1242
rek	-1243
▁ex	-1244
▁ph	-1245
isto	-1246
osta	-1247
pern	-1248
▁atz	-1249
▁azp	-1250
▁gas	-1251
▁zio	-1252
inako	-1253
▁1948	-1254
▁aten	-1255
▁mail	-1256
▁uzta	-1257
andako	-1258
artean	-1259
▁baita	-1260
▁kolon	-1261
▁sartu	-1262
▁«	-1263
tic	-1264
tiz	-1265
▁33	-1266
▁ze	-1267
alak	-1268
▁alf	-1269
▁con	-1270
▁for	-1271
▁new	-1272
▁sam	-1273
▁ste	-1274
▁tes	-1275
entin	-1276
tekto	-1277
uratu	-1278
▁1920	-1279
▁batez	-1280
▁beraz	-1281
▁katal	-1282
▁kimik	-1283
▁maria	-1284
▁polon	-1285
▁dagoen	-1286
▁kimika	-1287
▁handiak	-1288
▁honetan	-1289
▁argentin	-1290
▁arkitekto	-1291
eder	-1292
reko	-1293
▁atx	-1294
▁car	-1295
▁hed	-1296
▁tur	-1297
▁1994	-1298
▁1998	-1299
▁2007	-1300
▁elek	-1301
▁land	-1302
▁leon	-1303
▁luis	-1304
▁nola	-1305
tuaren	-1306
▁dezak	-1307
▁ekain	-1308
▁gazte	-1309
▁jokal	-1310
▁lotur	-1311
▁berria	-1312
▁dituen	-1313
▁george	-1314
▁kontin	-1315
▁teoria	-1316
▁italiar	-1317
▁alemania	-1318
▁abeslaria	-1319
▁espainiar	-1320
▁frantziar	-1321
bi	-1322
ey	-1323
no	-1324
dar	-1325
eke	-1326
uko	-1327
▁22	-1328
▁23	-1329
▁do	-1330
▁eh	-1331
▁kl	-1332
▁bon	-1333
▁mor	-1334
▁nik	-1335
tzain	-1336
▁1919	-1337
▁1947	-1338
▁1976	-1339
▁2004	-1340
▁araz	-1341
▁eguz	-1342
▁ordu	-1343
▁aurka	-1344
▁david	-1345
▁franc	-1346
▁itzul	-1347
▁konts	-1348
▁lortu	-1349
▁pents	-1350
▁zuzen	-1351
▁inform	-1352
▁kopern	-1353
▁ministro	-1354
▁ekainaren	-1355
▁literatur	-1356
▁futbolaria	-1357
▁independentzia	-1358
ga	-1359
ass	-1360
ate	-1361
dik	-1362
ero	-1363
ido	-1364
iii	-1365
ver	-1366
eraz	-1367
▁bir	-1368
▁hai	-1369
▁hob	-1370
▁jes	-1371
▁ken	-1372
▁met	-1373
arles	-1374
azioa	-1375
▁1910	-1376
▁1950	-1377
▁tran	-1378
▁txan	-1379
▁gizak	-1380
▁honek	-1381
▁kontu	-1382
▁mendi	-1383
▁natur	-1384
▁nagusi	-1385
▁propos	-1386
▁erabili	-1387
▁zabaldu	-1388
▁administr	-1389
▁uztailaren	-1390
gi	-1391
ud	-1392
ade	-1393
dul	-1394
ine	-1395
▁26	-1396
▁27	-1397
▁34	-1398
▁ug	-1399
▁ul	-1400
eria	-1401
ilen	-1402
itza	-1403
rela	-1404
tegi	-1405
tzai	-1406
▁edu	-1407
▁jar	-1408
▁lat	-1409
▁log	-1410
▁xab	-1411
atuko	-1412
itako	-1413
▁1930	-1414
▁bada	-1415
▁fitx	-1416
▁mend	-1417
berdin	-1418
▁anton	-1419
▁buruz	-1420
▁ezaug	-1421
▁berean	-1422
▁bertan	-1423
▁ezarri	-1424
▁horiek	-1425
▁nazion	-1426
▁onartu	-1427
▁charles	-1428
▁nagusia	-1429
▁abeslari	-1430
▁urriaren	-1431
▁amerikako	-1432
▁irailaren	-1433
▁koperniko	-1434
▁presidentea	-1435
etx	-1436
kim	-1437
oge	-1438
old	-1439
▁35	-1440
berg	-1441
ward	-1442
▁153	-1443
▁auz	-1444
▁baz	-1445
▁gra	-1446
▁kop	-1447
▁kub	-1448
agail	-1449
▁1902	-1450
▁1968	-1451
▁1981	-1452
▁1986	-1453
▁1990	-1454
▁auto	-1455
▁carl	-1456
▁mari	-1457
▁mich	-1458
▁ofiz	-1459
▁txir	-1460
▁utzi	-1461
tzaren	-1462
▁errom	-1463
▁izaki	-1464
▁zehar	-1465
▁idatzi	-1466
▁iraila	-1467
▁xabier	-1468
▁alexand	-1469
▁errefer	-1470
▁sariduna	-1471
▁ekialdeko	-1472
▁nazioarteko	-1473
oi	-1474
▁!	-1475
ezu	-1476
ino	-1477
run	-1478
tuz	-1479
uke	-1480
▁ib	-1481
▁to	-1482
anda	-1483
atuz	-1484
itan	-1485
tilo	-1486
tral	-1487
▁156	-1488
▁bit	-1489
▁jul	-1490
▁mad	-1491
▁ser	-1492
▁sir	-1493
▁zai	-1494
burua	-1495
▁1912	-1496
▁badu	-1497
▁konk	-1498
▁ospe	-1499
▁zure	-1500
itarra	-1501
▁behin	-1502
▁bilak	-1503
▁hegaz	-1504
▁jator	-1505
▁nabar	-1506
▁zuhai	-1507
istotel	-1508
▁erakun	-1509
▁europa	-1510
▁lehend	-1511
▁aurrera	-1512
▁egiteko	-1513
▁erlijio	-1514
▁europar	-1515
▁protoko	-1516
▁fitxateg	-1517
▁aristotel	-1518
▁gipuzkoar	-1519
▁topologia	-1520
▁garrantzits	-1521
ho	-1522
ly	-1523
ang	-1524
ger	-1525
ple	-1526
pol	-1527
▁21	-1528
▁oz	-1529
aera	-1530
aton	-1531
itle	-1532
tian	-1533
▁151	-1534
▁180	-1535
▁dom	-1536
▁jon	-1537
▁sub	-1538
okrat	-1539
▁1917	-1540
▁1942	-1541
▁1960	-1542
▁1978	-1543
▁1995	-1544
▁aber	-1545
▁bako	-1546
▁dena	-1547
▁egip	-1548
▁ekin	-1549
▁esta	-1550
▁form	-1551
▁jaso	-1552
imendu	-1553
rindul	-1554
▁arren	-1555
▁chris	-1556
▁erail	-1557
▁gorde	-1558
▁ikusi	-1559
▁trans	-1560
▁atxilo	-1561
▁berdin	-1562
▁iritsi	-1563
▁lurrik	-1564
▁beharko	-1565
▁esperan	-1566
▁izeneko	-1567
▁loturak	-1568
▁daitezke	-1569
▁aztertzen	-1570
▁mendearen	-1571
▁protokolo	-1572
▁wikipedia	-1573
▁txirrindul	-1574
▁aristoteles	-1575
pa	-1576
ale	-1577
ind	-1578
ord	-1579
rib	-1580
ven	-1581
▁ia	-1582
▁se	-1583
baki	-1584
erik	-1585
iari	-1586
pean	-1587
▁179	-1588
▁bab	-1589
▁bad	-1590
▁bet	-1591
▁dis	-1592
▁mes	-1593
▁ord	-1594
▁ren	-1595
▁wal	-1596
arrek	-1597
ikoen	-1598
▁1929	-1599
▁1931	-1600
▁1932	-1601
▁1982	-1602
▁1991	-1603
▁2000	-1604
▁apir	-1605
▁arlo	-1606
▁jean	-1607
▁kide	-1608
▁nire	-1609
▁norv	-1610
▁ondo	-1611
ogeita	-1612
▁afrik	-1613
▁bidez	-1614
▁jende	-1615
▁johan	-1616
▁kontr	-1617
▁nahiz	-1618
▁organ	-1619
▁galile	-1620
▁zioten	-1621
▁berriak	-1622
▁lankide	-1623
▁pertson	-1624
▁sistema	-1625
▁aukeratu	-1626
▁gehienak	-1627
▁mugimendu	-1628
▁emakumezko	-1629
▁filosofoak	-1630
▁kontinente	-1631
▁nafarroako	-1632
pi	-1633
px	-1634
ry	-1635
bes	-1636
ner	-1637
ung	-1638
▁im	-1639
ipen	-1640
ismo	-1641
izio	-1642
tion	-1643
▁157	-1644
▁160	-1645
▁178	-1646
▁dem	-1647
▁der	-1648
▁piz	-1649
▁soz	-1650
▁wil	-1651
arako	-1652
ateke	-1653
▁1901	-1654
▁1916	-1655
▁1921	-1656
▁1926	-1657
▁1928	-1658
▁1940	-1659
▁1983	-1660
▁1993	-1661
▁asia	-1662
▁bras	-1663
▁ibai	-1664
▁jaio	-1665
▁modu	-1666
▁pasa	-1667
▁zaur	-1668
arrean	-1669
erador	-1670
▁andre	-1671
▁berts	-1672
▁haren	-1673
▁ozean	-1674
▁saioa	-1675
entziak	-1676
ografia	-1677
▁agindu	-1678
▁aldeko	-1679
▁eguzki	-1680
▁frants	-1681
▁adieraz	-1682
▁herrian	-1683
▁itsasoa	-1684
▁musikag	-1685
▁zauritu	-1686
▁aldarrik	-1687
▁handiena	-1688
▁bizkaitar	-1689
▁enperador	-1690
▁ingalaterr	-1691
▁zuzendaria	-1692
up	-1693
ve	-1694
aro	-1695
art	-1696
bal	-1697
ias	-1698
ork	-1699
▁ud	-1700
apur	-1701
goko	-1702
graf	-1703
lako	-1704
okor	-1705
riko	-1706
tore	-1707
▁159	-1708
▁mak	-1709
▁mig	-1710
▁mik	-1711
▁sem	-1712
ardia	-1713
istak	-1714
penak	-1715
▁1903	-1716
▁1906	-1717
▁1908	-1718
▁1911	-1719
▁1939	-1720
▁1943	-1721
▁1945	-1722
▁1952	-1723
▁1962	-1724
▁1969	-1725
▁1971	-1726
▁1975	-1727
▁1985	-1728
▁1988	-1729
▁2003	-1730
▁barr	-1731
▁etab	-1732
▁gara	-1733
▁klas	-1734
▁lege	-1735
▁merk	-1736
▁mota	-1737
▁zego	-1738
aritza	-1739
katzen	-1740
▁donos	-1741
▁harre	-1742
▁peter	-1743
▁aldatu	-1744
▁batuak	-1745
▁hasier	-1746
▁izatea	-1747
▁joseph	-1748
▁norveg	-1749
▁erregea	-1750
▁erregin	-1751
▁richard	-1752
▁adibidez	-1753
▁egindako	-1754
▁txantilo	-1755
▁esperanto	-1756
▁apirilaren	-1757
▁ordenagail	-1758
ya	-1759
des	-1760
dia	-1761
ere	-1762
iro	-1763
jek	-1764
kia	-1765
por	-1766
una	-1767
▁fa	-1768
ardo	-1769
goak	-1770
iala	-1771
kion	-1772
omas	-1773
stan	-1774
urra	-1775
▁100	-1776
▁igo	-1777
▁iii	-1778
▁mal	-1779
▁ten	-1780
▁zel	-1781
ketak	-1782
tarra	-1783
▁1925	-1784
▁1959	-1785
▁1964	-1786
▁1965	-1787
▁1967	-1788
▁1972	-1789
▁1984	-1790
▁1987	-1791
▁1992	-1792
▁azar	-1793
▁duzu	-1794
▁emai	-1795
▁erem	-1796
izazio	-1797
▁eskoz	-1798
▁indus	-1799
▁katol	-1800
▁ordez	-1801
▁parte	-1802
▁posta	-1803
▁egungo	-1804
▁enpres	-1805
▁hurren	-1806
▁konpos	-1807
▁manuel	-1808
▁orokor	-1809
▁buruzko	-1810
▁erromat	-1811
▁hogeita	-1812
▁katalun	-1813
▁hegazkin	-1814
▁horretan	-1815
▁ondorioz	-1816
▁aldaketak	-1817
▁azaroaren	-1818
▁gizonezko	-1819
▁margolari	-1820
▁kategoriak	-1821
▁zientzialari	-1822
▁hauteskundeak	-1823
▁erreferentziak	-1824
ec	-1825
me	-1826
va	-1827
aiz	-1828
ats	-1829
bin	-1830
ica	-1831
kor	-1832
orn	-1833
tau	-1834
uis	-1835
▁29	-1836
▁cl	-1837
bait	-1838
eren	-1839
izun	-1840
teak	-1841
zein	-1842
▁ang	-1843
▁ant	-1844
▁com	-1845
▁hip	-1846
▁ide	-1847
▁isl	-1848
▁kab	-1849
▁kep	-1850
▁mex	-1851
▁mol	-1852
▁sen	-1853
▁xix	-1854
▁zah	-1855
▁zat	-1856
etari	-1857
▁1958	-1858
▁1977	-1859
▁1999	-1860
▁denb	-1861
▁jaur	-1862
▁pilo	-1863
▁txin	-1864
▁eredu	-1865
▁iraul	-1866
▁suedi	-1867
ikoaren	-1868
▁austri	-1869
▁bidali	-1870
▁ezagun	-1871
▁itsaso	-1872
▁lotura	-1873
▁sozial	-1874
▁urtean	-1875
▁zitzai	-1876
▁edozein	-1877
▁erroman	-1878
▁francis	-1879
▁horrela	-1880
▁komunik	-1881
atzaileak	-1882
▁atentatu	-1883
▁atxilotu	-1884
▁harreman	-1885
▁nagusiak	-1886
▁alemaniar	-1887
▁filosofia	-1888
▁italiarra	-1889
▁orrialdea	-1890
▁hizkuntzak	-1891
▁mendebaldeko	-1892
bs	-1893
are	-1894
han	-1895
ioi	-1896
ito	-1897
mis	-1898
mit	-1899
mon	-1900
net	-1901
tag	-1902
und	-1903
▁iv	-1904
▁op	-1905
▁qu	-1906
▁vi	-1907
bitz	-1908
egin	-1909
irik	-1910
omet	-1911
zioa	-1912
▁150	-1913
▁bol	-1914
▁hal	-1915
▁ins	-1916
▁lab	-1917
▁por	-1918
▁zor	-1919
aritz	-1920
ernan	-1921
etara	-1922
ional	-1923
▁1918	-1924
▁1934	-1925
▁1944	-1926
▁1953	-1927
▁1954	-1928
▁1961	-1929
▁1997	-1930
▁bera	-1931
▁bilb	-1932
▁entz	-1933
▁litz	-1934
▁phil	-1935
▁proz	-1936
▁zena	-1937
▁balio	-1938
▁batua	-1939
▁frank	-1940
▁islam	-1941
▁metro	-1942
▁ordea	-1943
▁paris	-1944
▁poeta	-1945
▁taula	-1946
▁ustez	-1947
▁amaitu	-1948
▁berrik	-1949
▁hirian	-1950
▁kepler	-1951
▁manten	-1952
▁nabarm	-1953
▁ospets	-1954
▁amerika	-1955
▁ezabatu	-1956
▁gizarte	-1957
▁planeta	-1958
▁sortzen	-1959
▁zerbitz	-1960
▁batasuna	-1961
▁dituzten	-1962
▁inguruan	-1963
▁irlandar	-1964
▁nazional	-1965
▁portugal	-1966
▁musikaria	-1967
▁errepublik	-1968
eo	-1969
od	-1970
ru	-1971
aka	-1972
con	-1973
gab	-1974
jer	-1975
kan	-1976
pag	-1977
tak	-1978
tia	-1979
tis	-1980
ador	-1981
gile	-1982
orik	-1983
roge	-1984
umen	-1985
▁161	-1986
▁164	-1987
▁bro	-1988
▁def	-1989
▁eko	-1990
▁hem	-1991
▁kaz	-1992
▁lin	-1993
▁mut	-1994
▁seg	-1995
▁sob	-1996
▁tor	-1997
▁von	-1998
▁zur	-1999
abide	-2000
atuak	-2001
iagoa	-2002
isten	-2003
torea	-2004
untza	-2005
▁1909	-2006
▁1922	-2007
▁1946	-2008
▁1949	-2009
▁1951	-2010
▁1956	-2011
▁1966	-2012
▁2013	-2013
▁abuz	-2014
▁ados	-2015
▁arau	-2016
▁auzi	-2017
▁ilar	-2018
▁ohia	-2019
▁txik	-2020
▁zien	-2021
tatzen	-2022
▁borro	-2023
▁elkar	-2024
▁eraik	-2025
▁erraz	-2026
▁hamar	-2027
▁jesus	-2028
▁lanak	-2029
▁lapur	-2030
▁poliz	-2031
ierazko	-2032
▁abendu	-2033
▁fernan	-2034
▁sobiet	-2035
▁zegoen	-2036
▁austral	-2037
▁bakarra	-2038
▁berroge	-2039
▁besteak	-2040
▁bizitza	-2041
▁dituena	-2042
▁erakuts	-2043
▁europan	-2044
▁bereziki	-2045
▁bestalde	-2046
▁ingelesa	-2047
▁johannes	-2048
▁antzinako	-2049
▁euskaldun	-2050
▁iruditzen	-2051
▁litzateke	-2052
▁erdialdeko	-2053
▁euskaltzain	-2054
▁iparraldeko	-2055
oz	-2056
ael	-2057
azu	-2058
bak	-2059
bek	-2060
duk	-2061
ini	-2062
len	-2063
one	-2064
sen	-2065
▁28	-2066
▁ig	-2067
▁ih	-2068
▁um	-2069
▁xx	-2070
abet	-2071
atch	-2072
aude	-2073
duko	-2074
eten	-2075
oago	-2076
tela	-2077
tuko	-2078
uton	-2079
▁155	-2080
▁177	-2081
▁fel	-2082
▁gid	-2083
▁gol	-2084
▁itx	-2085
▁jim	-2086
▁max	-2087
▁sak	-2088
berri	-2089
iteke	-2090
▁1900	-2091
▁1915	-2092
▁1924	-2093
▁1927	-2094
▁1936	-2095
▁1937	-2096
▁1941	-2097
▁1974	-2098
▁1989	-2099
▁bald	-2100
▁gora	-2101
▁ibil	-2102
▁iran	-2103
▁jack	-2104
▁kasu	-2105
▁lond	-2106
▁pier	-2107
▁zait	-2108
▁zein	-2109
garren	-2110
tutako	-2111
▁eduki	-2112
▁hiria	-2113
▁honen	-2114
▁kendu	-2115
▁konek	-2116
▁louis	-2117
▁txina	-2118
▁zehaz	-2119
▁zuena	-2120
ugarren	-2121
▁brasil	-2122
▁ozeano	-2123
▁platon	-2124
▁prozes	-2125
▁antonio	-2126
▁hasiera	-2127
▁inperio	-2128
▁matemat	-2129
▁erakunde	-2130
▁izandako	-2131
▁jarraitu	-2132
▁bizidunen	-2133
▁ezaugarri	-2134
▁futbolari	-2135
▁berrogeita	-2136
▁frantziarra	-2137
▁matematikari	-2138
vo	-2139
wa	-2140
aba	-2141
blo	-2142
fon	-2143
ima	-2144
inu	-2145
ius	-2146
taz	-2147
▁ea	-2148
▁he	-2149
cott	-2150
dele	-2151
dina	-2152
ekul	-2153
erki	-2154
iano	-2155
imal	-2156
tera	-2157
tria	-2158
trip	-2159
tuta	-2160
urik	-2161
▁158	-2162
▁alb	-2163
▁bos	-2164
▁etn	-2165
▁fre	-2166
▁fri	-2167
▁hur	-2168
▁jac	-2169
▁jan	-2170
▁kor	-2171
▁let	-2172
▁pat	-2173
▁ter	-2174
▁vic	-2175
aldia	-2176
berto	-2177
ikoko	-2178
izatu	-2179
tikoa	-2180
▁1913	-2181
▁bati	-2182
▁egia	-2183
▁tele	-2184
▁udal	-2185
▁urre	-2186
▁zaio	-2187
▁arago	-2188
▁basea	-2189
▁bildu	-2190
▁dator	-2191
▁duena	-2192
▁edota	-2193
▁eraso	-2194
▁funtz	-2195
▁harri	-2196
▁iraun	-2197
▁latin	-2198
▁olerk	-2199
▁siber	-2200
▁direla	-2201
▁horrek	-2202
▁istrip	-2203
▁milioi	-2204
▁ostean	-2205
▁thomas	-2206
▁zenean	-2207
▁geroago	-2208
▁helbide	-2209
▁ekonomia	-2210
▁erabiliz	-2211
▁erakutsi	-2212
▁hizkuntz	-2213
▁jokalari	-2214
▁sexuaren	-2215
▁emakumeak	-2216
▁militarra	-2217
▁abenduaren	-2218
▁abuztuaren	-2219
▁wikipedian	-2220
▁aldarrikatu	-2221
▁gipuzkoarra	-2222
▁mendebaldean	-2223
ash	-2224
bia	-2225
ham	-2226
ikl	-2227
isa	-2228
par	-2229
tam	-2230
tif	-2231
win	-2232
▁up	-2233
adem	-2234
ditu	-2235
edez	-2236
egia	-2237
erra	-2238
iatu	-2239
ifes	-2240
itik	-2241
load	-2242
rean	-2243
urri	-2244
▁163	-2245
▁col	-2246
▁fam	-2247
▁gel	-2248
▁lek	-2249
▁mez	-2250
▁sof	-2251
▁tro	-2252
itzak	-2253
iziko	-2254
ologo	-2255
title	-2256
▁1899	-2257
▁1933	-2258
▁2002	-2259
▁anth	-2260
▁bost	-2261
▁eror	-2262
▁ezik	-2263
▁niko	-2264
▁tres	-2265
▁xvii	-2266
entzat	-2267
etaren	-2268
titzen	-2269
▁afgan	-2270
▁apaiz	-2271
▁baiez	-2272
▁barne	-2273
▁esker	-2274
▁eskub	-2275
▁egipto	-2276
▁egoera	-2277
▁mendea	-2278
▁miguel	-2279
▁pierre	-2280
▁produk	-2281
▁sistem	-2282
▁zibila	-2283
ismoaren	-2284
▁batzuek	-2285
▁herriko	-2286
▁ikusten	-2287
▁indiako	-2288
▁manifes	-2289
▁mendeko	-2290
▁mesedez	-2291
▁michael	-2292
▁ofizial	-2293
▁zenbait	-2294
▁elektron	-2295
▁fernando	-2296
▁fisikari	-2297
▁gaztelan	-2298
▁idazleak	-2299
▁inperioa	-2300
▁lehendak	-2301
▁desberdin	-2302
▁jarraipen	-2303
▁lurrikara	-2304
▁medikuntz	-2305
▁britainiar	-2306
▁errusiarra	-2307
▁informazio	-2308
▁margolaria	-2309
▁iparraldean	-2310
▁ordenagailu	-2311
ac	-2312
ff	-2313
hy	-2314
ni	-2315
pu	-2316
yn	-2317
▁q	-2318
abe	-2319
adi	-2320
cia	-2321
ens	-2322
ers	-2323
hel	-2324
iek	-2325
ipe	-2326
kul	-2327
lak	-2328
ley	-2329
nan	-2330
oia	-2331
ong	-2332
ony	-2333
osa	-2334
pik	-2335
tib	-2336
uss	-2337
var	-2338
▁36	-2339
▁ju	-2340
▁pr	-2341
▁tu	-2342
alan	-2343
atze	-2344
doki	-2345
rael	-2346
rike	-2347
tari	-2348
twar	-2349
uman	-2350
▁147	-2351
▁152	-2352
▁ard	-2353
▁aro	-2354
▁bre	-2355
▁buk	-2356
▁bul	-2357
▁dar	-2358
▁eri	-2359
▁jai	-2360
▁jen	-2361
▁mis	-2362
▁nek	-2363
▁pre	-2364
▁sol	-2365
▁tal	-2366
▁vii	-2367
error	-2368
mentu	-2369
terik	-2370
turik	-2371
tzean	-2372
uther	-2373
▁1876	-2374
▁1904	-2375
▁1914	-2376
▁1935	-2377
▁1955	-2378
▁atom	-2379
▁ehun	-2380
▁ekar	-2381
▁gauz	-2382
▁matx	-2383
▁publ	-2384
▁trad	-2385
▁uler	-2386
aldian	-2387
aturik	-2388
tarako	-2389
▁baitz	-2390
▁euren	-2391
▁ezkon	-2392
▁feder	-2393
▁galiz	-2394
▁georg	-2395
▁india	-2396
▁klima	-2397
▁lurra	-2398
▁osoan	-2399
▁akadem	-2400
▁daniel	-2401
▁gabeko	-2402
▁irakas	-2403
▁israel	-2404
▁mongol	-2405
▁biograf	-2406
▁galileo	-2407
▁guztiek	-2408
▁handien	-2409
▁hautatu	-2410
▁kontuan	-2411
▁kristau	-2412
▁lanbide	-2413
▁zuhaitz	-2414
▁aurkeztu	-2415
▁bakearen	-2416
▁biologia	-2417
▁dagokion	-2418
▁egondako	-2419
▁espainia	-2420
▁hasieran	-2421
▁hurrengo	-2422
▁oraindik	-2423
▁zitzaion	-2424
▁batzuetan	-2425
▁historian	-2426
▁astronomia	-2427
▁batasuneko	-2428
▁hegoaldean	-2429
▁alemaniarra	-2430
iv	-2431
ow	-2432
pl	-2433
sh	-2434
ty	-2435
▁&	-2436
beh	-2437
ene	-2438
ice	-2439
oen	-2440
ram	-2441
rer	-2442
une	-2443
yan	-2444
▁il	-2445
enez	-2446
izko	-2447
kien	-2448
rako	-2449
tein	-2450
tiko	-2451
tuna	-2452
▁149	-2453
▁cas	-2454
▁fer	-2455
▁fon	-2456
▁goi	-2457
▁haz	-2458
▁mod	-2459
▁sai	-2460
▁sek	-2461
▁ses	-2462
▁sim	-2463
▁tan	-2464
arena	-2465
raren	-2466
tatik	-2467
ticle	-2468
tziak	-2469
▁1905	-2470
▁1923	-2471
▁1957	-2472
▁1963	-2473
▁1973	-2474
▁aire	-2475
▁gehi	-2476
▁madr	-2477
arrera	-2478
itzeko	-2479
▁alkim	-2480
▁babes	-2481
▁debek	-2482
▁duela	-2483
▁eskul	-2484
▁ezker	-2485
▁henry	-2486
▁inaug	-2487
▁konex	-2488
▁mater	-2489
▁orria	-2490
▁dauden	-2491
▁edward	-2492
▁ekarri	-2493
▁esaten	-2494
▁esplor	-2495
▁etorri	-2496
▁franco	-2497
▁garatu	-2498
▁izanik	-2499
▁izaten	-2500
▁karlos	-2501
▁kasuan	-2502
▁lehena	-2503
▁sailka	-2504
▁bertako	-2505
▁buruzag	-2506
▁denbora	-2507
▁donosti	-2508
▁egitura	-2509
▁ekintza	-2510
▁erabaki	-2511
▁gizakia	-2512
▁kontrol	-2513
▁kontzen	-2514
▁zerrend	-2515
▁abertzal	-2516
▁bakarrik	-2517
▁euskaraz	-2518
▁ikertzen	-2519
▁izenburu	-2520
▁musikari	-2521
▁sobietar	-2522
▁urteetan	-2523
▁ezagutzen	-2524
▁frantziak	-2525
▁indarrean	-2526
▁portugald	-2527
▁afganistan	-2528
▁hirugarren	-2529
▁inauguratu	-2530
▁orrialdeak	-2531
▁sortzailea	-2532
▁espainiarra	-2533
▁kopernikoren	-2534
▁txirrindularia	-2535
af	-2536
be	-2537
ns	-2538
ot	-2539
xe	-2540
xo	-2541
yd	-2542
aik	-2543
car	-2544
che	-2545
een	-2546
ico	-2547
kio	-2548
lav	-2549
rog	-2550
van	-2551
▁hu	-2552
▁ku	-2553
▁pe	-2554
aber	-2555
deak	-2556
ikus	-2557
ophy	-2558
rika	-2559
thur	-2560
titu	-2561
uden	-2562
urua	-2563
▁132	-2564
▁175	-2565
▁ain	-2566
▁air	-2567
▁dak	-2568
▁diz	-2569
▁hez	-2570
▁hom	-2571
▁las	-2572
▁mas	-2573
▁mer	-2574
▁nic	-2575
▁pal	-2576
▁ped	-2577
▁pop	-2578
▁pri	-2579
▁sun	-2580
▁tok	-2581
▁xvi	-2582
aldea	-2583
iforn	-2584
iklop	-2585
ikoki	-2586
itate	-2587
keria	-2588
ustin	-2589
▁1898	-2590
▁1996	-2591
▁barn	-2592
▁dauk	-2593
▁esat	-2594
▁este	-2595
▁gisa	-2596
▁kong	-2597
▁lana	-2598
▁mark	-2599
▁parl	-2600
▁sexu	-2601
▁zati	-2602
amendu	-2603
itatea	-2604
telako	-2605
▁antol	-2606
▁bakun	-2607
▁danim	-2608
▁error	-2609
▁gabri	-2610
▁heldu	-2611
▁hipat	-2612
▁ideia	-2613
▁ilarg	-2614
▁multz	-2615
▁mutur	-2616
▁nekaz	-2617
▁objek	-2618
▁ugari	-2619
eratzen	-2620
▁albert	-2621
▁arthur	-2622
▁asiako	-2623
▁baldin	-2624
▁burutu	-2625
▁erakus	-2626
▁eskola	-2627
▁guztiz	-2628
▁hurbil	-2629
▁ikasle	-2630
▁itzuli	-2631
▁kultur	-2632
▁protes	-2633
▁askotan	-2634
▁berriro	-2635
▁bretain	-2636
▁emaitza	-2637
▁henrike	-2638
▁azaltzen	-2639
▁berrikus	-2640
▁blokeatu	-2641
▁dezakezu	-2642
▁frantses	-2643
▁istripua	-2644
▁parlamen	-2645
▁araberako	-2646
▁ekialdean	-2647
▁entziklop	-2648
▁handiagoa	-2649
▁komunista	-2650
▁alemaniako	-2651
▁hegoaldeko	-2652
▁jarraitzen	-2653
▁pakistango	-2654
▁musikagilea	-2655
▁britainiarra	-2656
70	-2657
ca	-2658
za	-2659
zu	-2660
aga	-2661
bid	-2662
del	-2663
gai	-2664
har	-2665
ick	-2666
ida	-2667
igh	-2668
ski	-2669
uin	-2670
usa	-2671
▁..	-2672
▁09	-2673
▁38	-2674
▁ok	-2675
▁ps	-2676
▁yo	-2677
adak	-2678
aila	-2679
aina	-2680
asun	-2681
ibus	-2682
ikar	-2683
isko	-2684
iten	-2685
izik	-2686
logo	-2687
onan	-2688
osto	-2689
ques	-2690
tziz	-2691
usta	-2692
well	-2693
▁...	-2694
▁170	-2695
▁500	-2696
▁ama	-2697
▁bah	-2698
▁cor	-2699
▁cur	-2700
▁din	-2701
▁dir	-2702
▁eug	-2703
▁fem	-2704
▁maz	-2705
▁mit	-2706
▁osp	-2707
▁rev	-2708
▁rod	-2709
▁vin	-2710
▁zaz	-2711
boluz	-2712
darra	-2713
dunak	-2714
iatik	-2715
ikatu	-2716
inger	-2717
tazio	-2718
▁1891	-2719
▁1897	-2720
▁aren	-2721
▁desk	-2722
▁exis	-2723
▁flor	-2724
▁indo	-2725
▁laur	-2726
▁prin	-2727
▁rock	-2728
aldiak	-2729
delete	-2730
etarik	-2731
ismoak	-2732
ophyta	-2733
▁berak	-2734
▁bilbo	-2735
▁bonba	-2736
▁botan	-2737
▁deitu	-2738
▁duzun	-2739
▁ernes	-2740
▁gaste	-2741
▁haien	-2742
▁hamab	-2743
▁joera	-2744
▁kable	-2745
▁kontz	-2746
▁nahas	-2747
▁napol	-2748
▁teles	-2749
▁testu	-2750
▁urrun	-2751
▁watch	-2752
▁xviii	-2753
arraren	-2754
▁arraza	-2755
▁asmatu	-2756
▁baizik	-2757
▁batuen	-2758
▁bizitz	-2759
▁epaile	-2760
▁erabat	-2761
▁genuke	-2762
▁hiztun	-2763
▁howard	-2764
▁italia	-2765
▁izaera	-2766
▁ordoki	-2767
▁pasahi	-2768
▁upload	-2769
▁anthony	-2770
▁batekin	-2771
▁ezaguna	-2772
▁goardia	-2773
▁greziar	-2774
▁konpain	-2775
▁materia	-2776
▁molekul	-2777
▁natural	-2778
▁santuak	-2779
▁softwar	-2780
▁sortzea	-2781
▁afrikako	-2782
▁artikulu	-2783
▁auzitegi	-2784
▁bilakatu	-2785
▁eleberri	-2786
▁erregina	-2787
▁erromako	-2788
▁errusiar	-2789
▁eskubide	-2790
▁ezberdin	-2791
▁francois	-2792
▁jarraitz	-2793
▁kaliforn	-2794
▁bitartean	-2795
▁espainian	-2796
▁garrantzi	-2797
▁jokalaria	-2798
▁kontzentr	-2799
▁dagokionez	-2800
▁euskarazko	-2801
▁matematika	-2802
▁enperadorea	-2803
▁horretarako	-2804
▁medikuntzako	-2805
ci	-2806
po	-2807
sk	-2808
vi	-2809
cio	-2810
egu	-2811
ies	-2812
imo	-2813
nam	-2814
pre	-2815
que	-2816
rea	-2817
rim	-2818
roa	-2819
rom	-2820
ugh	-2821
xem	-2822
▁49	-2823
▁50	-2824
▁ax	-2825
▁mc	-2826
▁me	-2827
▁ru	-2828
apel	-2829
diak	-2830
ikon	-2831
ilik	-2832
ille	-2833
ioan	-2834
lari	-2835
link	-2836
mann	-2837
odor	-2838
orra	-2839
rich	-2840
suna	-2841
tero	-2842
tzel	-2843
uena	-2844
▁173	-2845
▁300	-2846
▁ask	-2847
▁bla	-2848
▁cen	-2849
▁gon	-2850
▁ler	-2851
▁les	-2852
▁liz	-2853
▁nas	-2854
▁nat	-2855
▁nol	-2856
▁ohi	-2857
▁orb	-2858
▁rud	-2859
▁sul	-2860
▁tip	-2861
abete	-2862
alean	-2863
bloke	-2864
garri	-2865
landi	-2866
laria	-2867
pages	-2868
tzako	-2869
ulman	-2870
zkoak	-2871
▁1543	-2872
▁1809	-2873
▁1887	-2874
▁1888	-2875
▁1896	-2876
▁1907	-2877
▁1938	-2878
▁aldi	-2879
▁belg	-2880
▁bern	-2881
▁buka	-2882
▁dire	-2883
▁dugu	-2884
▁giza	-2885
▁hard	-2886
▁itur	-2887
▁math	-2888
▁omen	-2889
▁salv	-2890
▁wolf	-2891
essage	-2892
etaria	-2893
tarrak	-2894
▁adolf	-2895
▁alfon	-2896
▁alfre	-2897
▁balia	-2898
▁berre	-2899
▁domin	-2900
▁email	-2901
▁ezazu	-2902
▁galdu	-2903
▁gener	-2904
▁ikusp	-2905
▁jaieg	-2906
▁marie	-2907
▁paulo	-2908
▁santu	-2909
▁teleb	-2910
▁turki	-2911
▁zuber	-2912
iterran	-2913
ometria	-2914
tzearen	-2915
▁animal	-2916
▁atenas	-2917
▁aukera	-2918
▁aurkik	-2919
▁carlos	-2920
▁eraiki	-2921
▁eskain	-2922
▁eskatu	-2923
▁fisika	-2924
▁freder	-2925
▁grezia	-2926
▁guztia	-2927
▁hiriko	-2928
▁konpon	-2929
▁orduan	-2930
▁philip	-2931
▁txapel	-2932
▁victor	-2933
▁zehatz	-2934
▁zirela	-2935
▁amaiera	-2936
▁antzeko	-2937
▁barruan	-2938
▁bilboko	-2939
▁deitzen	-2940
▁gertatu	-2941
▁gutxien	-2942
▁idazten	-2943
▁izateko	-2944
▁jacques	-2945
▁nafarra	-2946
tasunaren	-2947
▁antzerki	-2948
▁banaketa	-2949
▁demokrat	-2950
▁eraginez	-2951
▁eztabaid	-2952
▁fisikako	-2953
▁hilabete	-2954
▁jarraian	-2955
▁katoliko	-2956
▁konkista	-2957
▁kostalde	-2958
▁laguntza	-2959
▁musulman	-2960
▁ofiziala	-2961
▁pizkunde	-2962
▁uharteak	-2963
▁baieztatu	-2964
▁erromatar	-2965
▁filosofoa	-2966
▁fitxategi	-2967
▁francisco	-2968
▁industria	-2969
▁pasahitza	-2970
▁zuzendari	-2971
▁existitzen	-2972
▁frantzisko	-2973
▁garrantzia	-2974
▁gaztelania	-2975
▁idatzitako	-2976
▁mediterran	-2977
▁biologiaren	-2978
▁zuzendariak	-2979
▁historialari	-2980
▁unibertsoaren	-2981
gh	-2982
xi	-2983
ym	-2984
alo	-2985
amb	-2986
doa	-2987
eau	-2988
ele	-2989
eon	-2990
for	-2991
giz	-2992
iga	-2993
mos	-2994
oni	-2995
rad	-2996
ras	-2997
ret	-2998
rey	-2999
toa	-3000
uzk	-3001
vin	-3002
▁41	-3003
▁by	-3004
▁my	-3005
▁oi	-3006
aban	-3007
adan	-3008
aino	-3009
aldo	-3010
araz	-3011
arch	-3012
asan	-3013
atib	-3014
edon	-3015
esia	-3016
tsua	-3017
ukle	-3018
ulta	-3019
word	-3020
ztik	-3021
▁ala	-3022
▁all	-3023
▁art	-3024
▁ass	-3025
▁bus	-3026
▁fun	-3027
▁isa	-3028
▁jaz	-3029
▁jel	-3030
▁mac	-3031
▁mos	-3032
▁pon	-3033
▁sab	-3034
▁sei	-3035
▁tom	-3036
▁van	-3037
▁var	-3038
▁zal	-3039
aleko	-3040
andik	-3041
ation	-3042
azlea	-3043
biltz	-3044
ccess	-3045
iolog	-3046
orako	-3047
taria	-3048
ution	-3049
▁1564	-3050
▁1867	-3051
▁1879	-3052
▁1884	-3053
▁1895	-3054
▁aitz	-3055
▁apul	-3056
▁argi	-3057
▁berm	-3058
▁emat	-3059
▁etxe	-3060
▁gran	-3061
▁hung	-3062
▁ihes	-3063
▁irun	-3064
▁karg	-3065
▁kons	-3066
▁luze	-3067
▁maur	-3068
▁mezu	-3069
▁osoa	-3070
▁saio	-3071
▁tren	-3072
▁trib	-3073
▁txek	-3074
▁user	-3075
▁zera	-3076
agatik	-3077
eraren	-3078
garria	-3079
ilaria	-3080
izioak	-3081
misioa	-3082
ologoa	-3083
▁ageri	-3084
▁aipag	-3085
▁angel	-3086
▁atlan	-3087
▁bakea	-3088
▁bilba	-3089
▁boter	-3090
▁bultz	-3091
▁eusko	-3092
▁hauen	-3093
▁hemen	-3094
▁hitza	-3095
▁indon	-3096
▁ingen	-3097
▁ingur	-3098
▁ituna	-3099
▁legea	-3100
▁leher	-3101
▁nukle	-3102
▁pedro	-3103
▁porro	-3104
▁scott	-3105
entzako	-3106
ialaria	-3107
iarekin	-3108
tamendu	-3109
▁agertu	-3110
▁aipatu	-3111
▁alegia	-3112
▁baduzu	-3113
▁batuek	-3114
▁batuko	-3115
▁eboluz	-3116
▁egingo	-3117
▁erantz	-3118
▁eskuin	-3119
▁formul	-3120
▁geratu	-3121
▁hamark	-3122
▁horien	-3123
▁irakur	-3124
▁izenez	-3125
▁kontra	-3126
▁lehenb	-3127
▁london	-3128
▁mendiz	-3129
▁merkat	-3130
▁modern	-3131
▁sinatu	-3132
▁testua	-3133
▁txinat	-3134
▁zenbak	-3135
▁beharre	-3136
▁desegin	-3137
▁direnak	-3138
▁eginiko	-3139
▁elkartu	-3140
▁eraikin	-3141
▁eskalan	-3142
▁gabriel	-3143
▁graduko	-3144
▁helburu	-3145
▁mazedon	-3146
▁militar	-3147
▁osatzen	-3148
▁polonia	-3149
▁richter	-3150
▁substan	-3151
▁txinako	-3152
▁zenbaki	-3153
▁zituela	-3154
▁desbloke	-3155
▁elementu	-3156
▁geroztik	-3157
▁greziako	-3158
▁iraultza	-3159
▁italiako	-3160
▁japoniar	-3161
▁behintzat	-3162
▁christian	-3163
▁frantsesa	-3164
▁guztietan	-3165
▁kazetaria	-3166
▁sailkapen	-3167
▁argentinar	-3168
▁bereizketa	-3169
▁gehienetan	-3170
▁historiako	-3171
▁irlandarra	-3172
▁ingelesezko	-3173
▁kataluniarra	-3174
▁literaturako	-3175
▁entziklopedia	-3176
▁ingalaterrako	-3177
20	-3178
50	-3179
jo	-3180
lu	-3181
my	-3182
sa	-3183
ws	-3184
air	-3185
ath	-3186
ban	-3187
ble	-3188
col	-3189
dur	-3190
duz	-3191
ema	-3192
fes	-3193
gar	-3194
hof	-3195
ign	-3196
ins	-3197
iok	-3198
isu	-3199
kop	-3200
lov	-3201
mer	-3202
mun	-3203
ole	-3204
pan	-3205
pin	-3206
ros	-3207
rut	-3208
sub	-3209
tec	-3210
tig	-3211
til	-3212
tim	-3213
tso	-3214
ugu	-3215
▁40	-3216
▁43	-3217
▁ix	-3218
▁kh	-3219
▁sp	-3220
▁wo	-3221
▁zo	-3222
abel	-3223
abil	-3224
amer	-3225
arag	-3226
arro	-3227
cher	-3228
diko	-3229
helm	-3230
ilia	-3231
inak	-3232
ints	-3233
irre	-3234
izag	-3235
orde	-3236
pide	-3237
tala	-3238
tibo	-3239
tien	-3240
tren	-3241
usto	-3242
wiki	-3243
zkoa	-3244
▁172	-3245
▁176	-3246
▁aho	-3247
▁ana	-3248
▁aug	-3249
▁beg	-3250
▁cop	-3251
▁dok	-3252
▁gog	-3253
▁gom	-3254
▁hig	-3255
▁hin	-3256
▁hun	-3257
▁hus	-3258
▁ink	-3259
▁ino	-3260
▁inp	-3261
▁kap	-3262
▁kri	-3263
▁lag	-3264
▁lak	-3265
▁lee	-3266
▁mag	-3267
▁mel	-3268
▁nov	-3269
▁pan	-3270
▁ron	-3271
▁sas	-3272
▁sik	-3273
▁sil	-3274
▁sta	-3275
▁utz	-3276
▁whi	-3277
▁wid	-3278
▁zir	-3279
akoan	-3280
amena	-3281
andia	-3282
antza	-3283
aratu	-3284
arrag	-3285
erson	-3286
ietan	-3287
izioa	-3288
kizun	-3289
razio	-3290
taren	-3291
▁1642	-3292
▁1869	-3293
▁1882	-3294
▁1886	-3295
▁1894	-3296
▁abok	-3297
▁area	-3298
▁badi	-3299
▁bizt	-3300
▁bron	-3301
▁edit	-3302
▁ejer	-3303
▁emil	-3304
▁erag	-3305
▁film	-3306
▁frog	-3307
▁gido	-3308
▁glen	-3309
▁gure	-3310
▁guru	-3311
▁haur	-3312
▁hobe	-3313
▁host	-3314
▁inba	-3315
▁luke	-3316
▁mill	-3317
▁muga	-3318
▁nitu	-3319
▁nuen	-3320
▁nuke	-3321
▁prus	-3322
▁send	-3323
▁viii	-3324
arrena	-3325
erantz	-3326
olaria	-3327
ologin	-3328
▁arazo	-3329
▁azpik	-3330
▁egite	-3331
▁ekoiz	-3332
▁espez	-3333
▁femin	-3334
▁hobes	-3335
▁ibili	-3336
▁ikasi	-3337
▁indar	-3338
▁ipuin	-3339
▁isaac	-3340
▁joxem	-3341
▁kausa	-3342
▁osatu	-3343
▁perio	-3344
▁popul	-3345
▁ramon	-3346
▁stein	-3347
▁zazpi	-3348
aturiko	-3349
erakoan	-3350
etarako	-3351
okrates	-3352
▁afrika	-3353
▁alfred	-3354
▁armada	-3355
▁armend	-3356
▁bahitu	-3357
▁banatu	-3358
▁bazter	-3359
▁behera	-3360
▁ernest	-3361
▁erreak	-3362
▁garcia	-3363
▁hedatu	-3364
▁herbeh	-3365
▁honako	-3366
▁iragan	-3367
▁konder	-3368
▁liteke	-3369
▁luther	-3370
▁mailan	-3371
▁maroko	-3372
▁saiatu	-3373
▁sariak	-3374
▁soilik	-3375
augarren	-3376
▁argizag	-3377
▁arrazoi	-3378
▁aurreko	-3379
▁bakoitz	-3380
▁batetik	-3381
▁batzuen	-3382
▁bitarte	-3383
▁egutegi	-3384
▁elektro	-3385
▁estatua	-3386
▁ezkondu	-3387
▁gasteiz	-3388
▁guztien	-3389
▁hardwar	-3390
▁hipatia	-3391
▁japonia	-3392
▁jatorri	-3393
▁kongres	-3394
▁landare	-3395
▁munduan	-3396
▁nikolas	-3397
▁penints	-3398
▁polizia	-3399
▁theodor	-3400
▁uhartea	-3401
▁zerikus	-3402
▁zientif	-3403
tzigarren	-3404
▁agertzen	-3405
▁arrazoia	-3406
▁batuaren	-3407
▁bilaketa	-3408
▁danimark	-3409
▁direlako	-3410
▁egunkari	-3411
▁emakumea	-3412
▁emandako	-3413
▁eskualde	-3414
▁espazion	-3415
▁estatuko	-3416
▁gutxiago	-3417
▁ikerketa	-3418
▁inguruko	-3419
▁jatorria	-3420
▁kaleratu	-3421
▁lehendab	-3422
▁lurrikar	-3423
▁napoleon	-3424
▁olerkari	-3425
▁salvador	-3426
▁sortzeko	-3427
▁argentina	-3428
▁astronomo	-3429
▁bereizten	-3430
▁bizidunak	-3431
▁emakumeen	-3432
▁erakusten	-3433
▁gaztelako	-3434
▁gizartean	-3435
▁legebiltz	-3436
▁ofizialki	-3437
▁telebista	-3438
▁txantiloi	-3439
▁austriarra	-3440
▁euskalduna	-3441
▁euskararen	-3442
▁filosofoen	-3443
▁leheneratu	-3444
▁lurraldeak	-3445
▁musikagile	-3446
▁zerbitzari	-3447
▁ingalaterra	-3448
▁lehendakari	-3449
▁hizkuntzaren	-3450
▁esploratzaile	-3451
by	-3452
dw	-3453
ef	-3454
ue	-3455
ato	-3456
cas	-3457
cci	-3458
com	-3459
eil	-3460
eku	-3461
eto	-3462
exu	-3463
fir	-3464
inp	-3465
lab	-3466
lex	-3467
mar	-3468
mut	-3469
ney	-3470
ome	-3471
org	-3472
orl	-3473
pil	-3474
ral	-3475
rol	-3476
ted	-3477
ult	-3478
xen	-3479
yle	-3480
zuz	-3481
▁42	-3482
▁90	-3483
▁ai	-3484
▁ca	-3485
▁rh	-3486
▁si	-3487
▁tr	-3488
▁ty	-3489
▁uk	-3490
ater	-3491
azia	-3492
bada	-3493
beko	-3494
burg	-3495
elly	-3496
erri	-3497
ilei	-3498
itor	-3499
izki	-3500
ling	-3501
ning	-3502
olea	-3503
olph	-3504
peko	-3505
phen	-3506
riak	-3507
rick	-3508
roko	-3509
untu	-3510
▁148	-3511
▁alj	-3512
▁azk	-3513
▁bib	-3514
▁can	-3515
▁dek	-3516
▁eaj	-3517
▁euk	-3518
▁gil	-3519
▁hit	-3520
▁hol	-3521
▁iba	-3522
▁jor	-3523
▁kil	-3524
▁laz	-3525
▁moz	-3526
▁neg	-3527
▁non	-3528
▁pir	-3529
▁pos	-3530
▁rob	-3531
▁sum	-3532
▁tel	-3533
▁tib	-3534
▁tik	-3535
▁ver	-3536
▁web	-3537
▁xak	-3538
▁xii	-3539
▁zab	-3540
▁zuk	-3541
alako	-3542
anahi	-3543
arazi	-3544
burgo	-3545
etxea	-3546
ezpik	-3547
iarik	-3548
ikari	-3549
kidea	-3550
tagon	-3551
▁1830	-3552
▁1859	-3553
▁1890	-3554
▁1892	-3555
▁abar	-3556
▁alan	-3557
▁anon	-3558
▁aska	-3559
▁beas	-3560
▁buen	-3561
▁egok	-3562
▁eras	-3563
▁eten	-3564
▁ezez	-3565
▁gald	-3566
▁hama	-3567
▁hari	-3568
▁hein	-3569
▁ikur	-3570
▁izar	-3571
▁kosm	-3572
▁kron	-3573
▁list	-3574
▁mala	-3575
▁neut	-3576
▁norm	-3577
▁onen	-3578
▁ongi	-3579
▁show	-3580
▁viet	-3581
gandik	-3582
gunean	-3583
ington	-3584
mosfer	-3585
tikoak	-3586
▁aldak	-3587
▁arrun	-3588
▁bidai	-3589
▁burua	-3590
▁dauka	-3591
▁davis	-3592
▁defin	-3593
▁denez	-3594
▁depar	-3595
▁ejerz	-3596
▁eremu	-3597
▁erori	-3598
▁erren	-3599
▁euroa	-3600
▁felix	-3601
▁forma	-3602
▁gauza	-3603
▁henri	-3604
▁horri	-3605
▁inoiz	-3606
▁irrat	-3607
▁joana	-3608
▁kalte	-3609
▁kidea	-3610
▁landu	-3611
▁lokal	-3612
▁maila	-3613
▁metal	-3614
▁mugak	-3615
▁opera	-3616
▁oscar	-3617
▁parti	-3618
▁perez	-3619
▁saiak	-3620
▁santa	-3621
▁sarea	-3622
▁urteo	-3623
▁urtez	-3624
▁width	-3625
▁wikil	-3626
besteko	-3627
garriak	-3628
ieratik	-3629
iologia	-3630
tasunak	-3631
tatzeko	-3632
▁baitan	-3633
▁bilatu	-3634
▁bilbon	-3635
▁biokim	-3636
▁birzuz	-3637
▁bukatu	-3638
▁claude	-3639
▁datuak	-3640
▁deritz	-3641
▁ditugu	-3642
▁egitea	-3643
▁entren	-3644
▁hartan	-3645
▁mezuak	-3646
▁ondoko	-3647
▁orbita	-3648
▁orrian	-3649
▁osatua	-3650
▁pluton	-3651
▁printz	-3652
▁probin	-3653
▁sample	-3654
▁santua	-3655
▁sikret	-3656
▁tresna	-3657
▁zabala	-3658
▁zeuden	-3659
▁zubero	-3660
▁arazoak	-3661
▁azkenik	-3662
▁bereizk	-3663
▁ekialde	-3664
▁errusia	-3665
▁ezagutu	-3666
▁galilei	-3667
▁garaiko	-3668
▁gitarra	-3669
▁gizonak	-3670
▁guardia	-3671
▁hauetan	-3672
▁iritziz	-3673
▁kanpoko	-3674
▁konplex	-3675
▁mailako	-3676
▁message	-3677
▁oraingo	-3678
▁sorrera	-3679
▁taldeak	-3680
▁wilhelm	-3681
▁aebetako	-3682
▁amerikan	-3683
▁atmosfer	-3684
▁aurretik	-3685
▁azkenean	-3686
▁baliteke	-3687
▁baterako	-3688
▁batuetan	-3689
▁elizaren	-3690
▁eskuratu	-3691
▁inbaditu	-3692
▁internet	-3693
▁jaieguna	-3694
▁kimikoak	-3695
▁kontrako	-3696
▁madrilen	-3697
▁material	-3698
▁politika	-3699
▁sariaren	-3700
▁sokrates	-3701
▁zuzenean	-3702
▁baliabide	-3703
▁beharbada	-3704
▁britainia	-3705
▁donostian	-3706
▁ekarpenak	-3707
▁eskoziako	-3708
▁fisikaria	-3709
▁geografia	-3710
▁gobernuak	-3711
▁gutxienez	-3712
▁handienak	-3713
▁herrietan	-3714
▁irlandako	-3715
▁kontsulta	-3716
▁protestan	-3717
▁adierazten	-3718
▁eguzkiaren	-3719
▁eraikitzen	-3720
▁esperantoa	-3721
▁fitxategia	-3722
▁kataluniar	-3723
▁kategorian	-3724
▁medikuntza	-3725
▁pizkundeko	-3726
▁armendaritz	-3727
▁asmatzailea	-3728
▁azpikategor	-3729
▁desblokeatu	-3730
▁ezaugarriak	-3731
▁komunikazio	-3732
▁lehenbiziko	-3733
▁zibilizazio	-3734
▁departamendu	-3735
▁wikipediaren	-3736
▁aristotelesen	-3737
▁independizatu	-3738
▁literaturaren	-3739
▁txirrindulari	-3740
▁garrantzitsuen	-3741
dy	-3742
fo	-3743
hn	-3744
ij	-3745
yo	-3746
▁“	-3747
▁”	-3748
ame	-3749
aud	-3750
bul	-3751
cal	-3752
cel	-3753
ckd	-3754
dak	-3755
ead	-3756
eka	-3757
eno	-3758
est	-3759
fis	-3760
fri	-3761
get	-3762
iew	-3763
ink	-3764
iop	-3765
iza	-3766
kes	-3767
kup	-3768
let	-3769
ned	-3770
odo	-3771
tsu	-3772
txe	-3773
vel	-3774
wis	-3775
zal	-3776
▁39	-3777
▁61	-3778
▁eu	-3779
▁od	-3780
▁wa	-3781
ages	-3782
ailu	-3783
aitz	-3784
ania	-3785
cent	-3786
egan	-3787
firm	-3788
gang	-3789
ifer	-3790
ikan	-3791
illa	-3792
imen	-3793
ioen	-3794
itur	-3795
mena	-3796
pass	-3797
port	-3798
quer	-3799
roak	-3800
toph	-3801
trop	-3802
tzaz	-3803
ylor	-3804
ysop	-3805
▁145	-3806
▁168	-3807
▁171	-3808
▁400	-3809
▁alk	-3810
▁als	-3811
▁ata	-3812
▁bok	-3813
▁cam	-3814
▁cap	-3815
▁dal	-3816
▁dia	-3817
▁dol	-3818
▁inb	-3819
▁jav	-3820
▁kai	-3821
▁kro	-3822
▁law	-3823
▁lop	-3824
▁nan	-3825
▁nig	-3826
▁nin	-3827
▁nos	-3828
▁pin	-3829
▁pio	-3830
▁sat	-3831
▁sel	-3832
▁som	-3833
▁son	-3834
▁tam	-3835
▁vir	-3836
agile	-3837
anges	-3838
ardun	-3839
arioa	-3840
arraz	-3841
aztea	-3842
beste	-3843
elako	-3844
entri	-3845
ikako	-3846
osexu	-3847
oslav	-3848
rakas	-3849
retik	-3850
tituz	-3851
uguai	-3852
urako	-3853
zpide	-3854
▁1572	-3855
▁1810	-3856
▁1815	-3857
▁1822	-3858
▁1844	-3859
▁1865	-3860
▁1870	-3861
▁1873	-3862
▁1878	-3863
▁adri	-3864
▁anal	-3865
▁arro	-3866
▁astr	-3867
▁aurr	-3868
▁band	-3869
▁bata	-3870
▁bete	-3871
▁beti	-3872
▁bibl	-3873
▁bill	-3874
▁eric	-3875
▁ezar	-3876
▁ezku	-3877
▁gerr	-3878
▁haus	-3879
▁hona	-3880
▁hond	-3881
▁honi	-3882
▁hots	-3883
▁hotz	-3884
▁iris	-3885
▁kutx	-3886
▁liga	-3887
▁litu	-3888
▁mode	-3889
▁okup	-3890
▁orbi	-3891
▁plaz	-3892
▁shar	-3893
▁sute	-3894
▁tiro	-3895
▁titu	-3896
▁uhol	-3897
▁york	-3898
▁zaiz	-3899
▁zubi	-3900
alista	-3901
azioak	-3902
entzea	-3903
etakoa	-3904
gabeko	-3905
ioaren	-3906
kuntza	-3907
matika	-3908
uccess	-3909
utonom	-3910
▁alaba	-3911
▁alvar	-3912
▁apule	-3913
▁atera	-3914
▁block	-3915
▁boris	-3916
▁dinas	-3917
▁doneg	-3918
▁eliza	-3919
▁epaik	-3920
▁eratu	-3921
▁fried	-3922
▁funts	-3923
▁glenn	-3924
▁gusta	-3925
▁hamaz	-3926
▁inkis	-3927
▁inpor	-3928
▁jasan	-3929
▁karol	-3930
▁krako	-3931
▁lehor	-3932
▁letra	-3933
▁mantx	-3934
▁nabig	-3935
▁revol	-3936
▁roger	-3937
▁suitz	-3938
▁super	-3939
▁token	-3940
▁txiki	-3941
▁zentz	-3942
▁zuela	-3943
eganatu	-3944
istaren	-3945
nologin	-3946
▁apaiza	-3947
▁atzera	-3948
▁beltza	-3949
▁bereko	-3950
▁berrez	-3951
▁bilbao	-3952
▁britan	-3953
▁bulego	-3954
▁center	-3955
▁ditzak	-3956
▁errore	-3957
▁franko	-3958
▁german	-3959
▁gidoig	-3960
▁hasten	-3961
▁helioz	-3962
▁hernan	-3963
▁hitler	-3964
▁honela	-3965
▁inprim	-3966
▁jotzen	-3967
▁kimiko	-3968
▁kubako	-3969
▁lanean	-3970
▁mediku	-3971
▁mexiko	-3972
▁michel	-3973
▁moduan	-3974
▁newton	-3975
▁search	-3976
▁sindik	-3977
▁subjek	-3978
▁taylor	-3979
▁termin	-3980
eratzeko	-3981
password	-3982
▁aitzind	-3983
▁alberto	-3984
▁arrakas	-3985
▁automat	-3986
▁autonom	-3987
▁barneko	-3988
▁bartzel	-3989
▁beasain	-3990
▁berdina	-3991
▁bereizi	-3992
▁elkarte	-3993
▁emaztea	-3994
▁errorea	-3995
▁frogatu	-3996
▁geograf	-3997
▁gobernu	-3998
▁interne	-3999
▁joxemai	-4000
▁kongoko	-4001
▁kontzep	-4002
▁kopurua	-4003
▁londres	-4004
▁maurice	-4005
▁nituzke	-4006
▁prozesu	-4007
▁stephen	-4008
▁taldeko	-4009
▁tartean	-4010
▁uruguai	-4011
▁vietnam	-4012
▁zalantz	-4013
▁zehaztu	-4014
▁aldatzen	-4015
▁benetako	-4016
▁bertsioa	-4017
▁besterik	-4018
▁birzuzen	-4019
▁bitartez	-4020
▁bizkaian	-4021
▁elkargoa	-4022
▁estatuak	-4023
▁euskalki	-4024
▁hedabide	-4025
▁helburua	-4026
▁hiriburu	-4027
▁irizpide	-4028
▁israelgo	-4029
▁jotzaile	-4030
▁kimikari	-4031
▁klasikoa	-4032
▁lehenago	-4033
▁liburuan	-4034
▁metropol	-4035
▁poliziak	-4036
▁produktu	-4037
▁sarearen	-4038
▁urteotan	-4039
▁wolfgang	-4040
▁alexander	-4041
▁alexandri	-4042
▁bakoitzak	-4043
▁ekonomian	-4044
▁erabilera	-4045
▁erakundea	-4046
▁esaterako	-4047
▁espainiak	-4048
▁gainerako	-4049
▁geometria	-4050
▁inperioko	-4051
▁irabazlea	-4052
▁izenburua	-4053
▁japoniako	-4054
▁jatorriko	-4055
▁konstituz	-4056
▁musikaren	-4057
▁muturreko	-4058
▁oinarriak	-4059
▁ondorengo	-4060
▁ordezkatu	-4061
▁osatutako	-4062
▁poloniako	-4063
▁saridunak	-4064
▁artikuluak	-4065
▁bereganatu	-4066
▁erregistro	-4067
▁eskultorea	-4068
▁gipuzkoako	-4069
▁harremanak	-4070
▁hildakotik	-4071
▁kostaldean	-4072
▁nabarmendu	-4073
▁protokoloa	-4074
▁revolution	-4075
▁sailkatzen	-4076
▁sozialista	-4077
▁batasunaren	-4078
▁bertsolaria	-4079
▁euskaldunen	-4080
▁ezinbesteko	-4081
▁frantziaren	-4082
▁historiaren	-4083
▁konektatzen	-4084
▁lanbidearen	-4085
▁nafarroakoa	-4086
▁protokoloak	-4087
▁substantzia	-4088
▁wikipediako	-4089
▁berdintasuna	-4090
▁demokratikoa	-4091
▁elektronikoa	-4092
▁merkataritza	-4093
▁orrialdearen	-4094
▁errepublikako	-4095
▁historialaria	-4096
▁lehendabiziko	-4097
▁matematikaria	-4098
▁ingalaterrakoa	-4099
25	-4100
fs	-4101
ft	-4102
he	-4103
hu	-4104
ny	-4105
pt	-4106
ss	-4107
ux	-4108
zo	-4109
▁}	-4110
ama	-4111
chi	-4112
cho	-4113
cht	-4114
dek	-4115
did	-4116
don	-4117
eri	-4118
eth	-4119
gen	-4120
hen	-4121
ipo	-4122
ium	-4123
lik	-4124
mir	-4125
mov	-4126
nak	-4127
nar	-4128
nek	-4129
non	-4130
oki	-4131
pak	-4132
pec	-4133
pek	-4134
riz	-4135
rob	-4136
san	-4137
sia	-4138
sov	-4139
str	-4140
tab	-4141
thy	-4142
top	-4143
ttp	-4144
txo	-4145
uch	-4146
urt	-4147
val	-4148
via	-4149
wan	-4150
zon	-4151
▁54	-4152
▁57	-4153
▁58	-4154
▁70	-4155
▁fo	-4156
▁gi	-4157
▁gl	-4158
▁jr	-4159
▁li	-4160
▁ly	-4161
▁rc	-4162
abea	-4163
arka	-4164
atza	-4165
dadu	-4166
ezin	-4167
gari	-4168
guez	-4169
hard	-4170
hitz	-4171
ican	-4172
jabe	-4173
list	-4174
ment	-4175
onia	-4176
orld	-4177
rena	-4178
tats	-4179
tena	-4180
this	-4181
tina	-4182
tzan	-4183
ulle	-4184
utik	-4185
▁146	-4186
▁162	-4187
▁166	-4188
▁174	-4189
▁ale	-4190
▁arn	-4191
▁arr	-4192
▁bik	-4193
▁bud	-4194
▁cel	-4195
▁dat	-4196
▁dik	-4197
▁dor	-4198
▁edi	-4199
▁eku	-4200
▁eng	-4201
▁erl	-4202
▁fab	-4203
▁fen	-4204
▁fos	-4205
▁gun	-4206
▁haw	-4207
▁hum	-4208
▁inf	-4209
▁jer	-4210
▁jup	-4211
▁jur	-4212
▁kax	-4213
▁lar	-4214
▁lil	-4215
▁mov	-4216
▁nep	-4217
▁net	-4218
▁oro	-4219
▁pil	-4220
▁pra	-4221
▁ram	-4222
▁res	-4223
▁sid	-4224
▁siz	-4225
▁sur	-4226
▁sus	-4227
▁tab	-4228
▁tax	-4229
▁tol	-4230
▁tun	-4231
▁ura	-4232
▁val	-4233
▁zar	-4234
▁zez	-4235
arrez	-4236
artes	-4237
baloi	-4238
errak	-4239
gilea	-4240
ieraz	-4241
istek	-4242
jolea	-4243
lovak	-4244
manol	-4245
menak	-4246
oratu	-4247
ordea	-4248
ostia	-4249
retua	-4250
tegia	-4251
tetan	-4252
▁1473	-4253
▁1492	-4254
▁1736	-4255
▁1849	-4256
▁1852	-4257
▁1863	-4258
▁1866	-4259
▁1871	-4260
▁anat	-4261
▁anne	-4262
▁atal	-4263
▁barb	-4264
▁bisi	-4265
▁cris	-4266
▁elis	-4267
▁ener	-4268
▁gune	-4269
▁http	-4270
▁izug	-4271
▁judu	-4272
▁king	-4273
▁kolp	-4274
▁kors	-4275
▁kuba	-4276
▁larr	-4277
▁lein	-4278
▁leiz	-4279
▁long	-4280
▁ludw	-4281
▁niel	-4282
▁osag	-4283
▁prog	-4284
▁rene	-4285
▁sean	-4286
▁smit	-4287
▁txil	-4288
▁umor	-4289
▁wash	-4290
▁wiki	-4291
▁your	-4292
▁zeel	-4293
alaria	-4294
aldera	-4295
antzia	-4296
arreko	-4297
fisika	-4298
iarrek	-4299
ikaren	-4300
iliako	-4301
iograf	-4302
istatu	-4303
kariak	-4304
landia	-4305
riguez	-4306
tzalea	-4307
▁align	-4308
▁argia	-4309
▁armen	-4310
▁artiz	-4311
▁asian	-4312
▁baiti	-4313
▁banan	-4314
▁beder	-4315
▁begir	-4316
▁black	-4317
▁borbo	-4318
▁brian	-4319
▁ditut	-4320
▁dizip	-4321
▁egiaz	-4322
▁estan	-4323
▁garra	-4324
▁geldi	-4325
▁gertu	-4326
▁hilik	-4327
▁hindu	-4328
▁hosto	-4329
▁ibaia	-4330
▁igaro	-4331
▁izana	-4332
▁izate	-4333
▁jimmy	-4334
▁julio	-4335
▁kanad	-4336
▁kelly	-4337
▁legez	-4338
▁lopez	-4339
▁luzea	-4340
▁marco	-4341
▁mario	-4342
▁misio	-4343
▁noble	-4344
▁olinp	-4345
▁pales	-4346
▁saski	-4347
▁sexua	-4348
▁soinu	-4349
▁title	-4350
▁titul	-4351
▁txile	-4352
▁urrut	-4353
▁world	-4354
▁zamen	-4355
▁zelul	-4356
▁zigor	-4357
aldetik	-4358
amendua	-4359
article	-4360
burgoko	-4361
etariko	-4362
igarria	-4363
▁abiatu	-4364
▁antzin	-4365
▁arauak	-4366
▁azaldu	-4367
▁basean	-4368
▁burdin	-4369
▁carter	-4370
▁denbor	-4371
▁dezake	-4372
▁dutela	-4373
▁egotea	-4374
▁eguner	-4375
▁eugene	-4376
▁felipe	-4377
▁filipe	-4378
▁france	-4379
▁golkoa	-4380
▁harold	-4381
▁hegoaf	-4382
▁imanol	-4383
▁jardun	-4384
▁kolonb	-4385
▁kristo	-4386
▁landar	-4387
▁laster	-4388
▁logika	-4389
▁lurmut	-4390
▁marraz	-4391
▁milaka	-4392
▁modelo	-4393
▁multzo	-4394
▁oharra	-4395
▁ordena	-4396
▁orduko	-4397
▁profes	-4398
▁proiek	-4399
▁protec	-4400
▁samuel	-4401
▁sareko	-4402
▁tortur	-4403
▁tradiz	-4404
▁txarte	-4405
▁virgin	-4406
▁walter	-4407
▁zenbat	-4408
pagetext	-4409
▁aberats	-4410
▁apezpik	-4411
▁bestela	-4412
▁biologo	-4413
▁dagoela	-4414
▁domingo	-4415
▁donegal	-4416
▁dutenak	-4417
▁ejerzit	-4418
▁enpresa	-4419
▁erruman	-4420
▁finkatu	-4421
▁fisikoa	-4422
▁funtzio	-4423
▁garaian	-4424
▁halaber	-4425
▁handiko	-4426
▁hartako	-4427
▁hartuta	-4428
▁hungari	-4429
▁indones	-4430
▁itsason	-4431
▁izatera	-4432
▁lagundu	-4433
▁liburua	-4434
▁lurreko	-4435
▁marklar	-4436
▁metabol	-4437
▁neutral	-4438
▁patrick	-4439
▁sartzen	-4440
▁soldadu	-4441
▁teoriak	-4442
▁zaharra	-4443
▁zibilak	-4444
ologiaren	-4445
▁administ	-4446
▁ahalbide	-4447
▁arabiako	-4448
▁banatzen	-4449
▁bederatz	-4450
▁bezalako	-4451
▁bilbotar	-4452
▁botanika	-4453
▁datorren	-4454
▁debekatu	-4455
▁dezakegu	-4456
▁donostia	-4457
▁elektroi	-4458
▁elisabet	-4459
▁epaiketa	-4460
▁erregeak	-4461
▁eskuetan	-4462
▁ezezagun	-4463
▁helbidea	-4464
▁industri	-4465
▁iraunkor	-4466
▁katalana	-4467
▁kontinen	-4468
▁lapurtar	-4469
▁liburuak	-4470
▁lortzeko	-4471
▁nafarroa	-4472
▁nolanahi	-4473
▁pasahitz	-4474
▁politiko	-4475
▁printzip	-4476
▁saiakera	-4477
▁undelete	-4478
▁williams	-4479
▁zamenhof	-4480
▁zergatik	-4481
▁aldizkari	-4482
▁alemanian	-4483
▁alexandro	-4484
▁atentatua	-4485
▁aurkitzen	-4486
▁beharreko	-4487
▁biografia	-4488
▁bosgarren	-4489
▁bretainia	-4490
▁emakumeek	-4491
▁errusiako	-4492
▁frantzian	-4493
▁gehienbat	-4494
▁hiriburua	-4495
▁horietako	-4496
▁kimikaren	-4497
▁laugarren	-4498
▁leizarrag	-4499
▁nabarmena	-4500
▁rodriguez	-4501
▁sortutako	-4502
▁telesaila	-4503
▁astronomoa	-4504
▁biztanleen	-4505
▁euskalkien	-4506
▁gizakiaren	-4507
▁hizkuntzal	-4508
▁hobespenak	-4509
▁konkistatu	-4510
▁portugalgo	-4511
▁saskibaloi	-4512
▁txapelketa	-4513
▁washington	-4514
▁astronomoak	-4515
▁erregistroa	-4516
▁informazioa	-4517
▁izateagatik	-4518
▁nazionaleko	-4519
▁oinarritzen	-4520
▁proposamena	-4521
▁unibertsita	-4522
▁argentinarra	-4523
▁kaliforniako	-4524
▁konstituzioa	-4525
▁manifestazio	-4526
▁mediterraneo	-4527
▁parlamentuak	-4528
▁garrantzitsua	-4529
▁hauteskundeetan	-4530
35	-4531
fi	-4532
je	-4533
tn	-4534
wn	-4535
yl	-4536
▁°	-4537
▁·	-4538
add	-4539
aia	-4540
atx	-4541
aus	-4542
bor	-4543
can	-4544
cek	-4545
cki	-4546
eba	-4547
elt	-4548
eus	-4549
ges	-4550
gon	-4551
igu	-4552
ike	-4553
ios	-4554
jec	-4555
kiz	-4556
kua	-4557
led	-4558
leg	-4559
lem	-4560
mak	-4561
nst	-4562
oan	-4563
ois	-4564
opl	-4565
pas	-4566
piz	-4567
rec	-4568
sey	-4569
tem	-4570
toc	-4571
tol	-4572
unc	-4573
uri	-4574
uso	-4575
uti	-4576
vid	-4577
yri	-4578
▁44	-4579
▁52	-4580
▁60	-4581
▁95	-4582
▁aj	-4583
▁bh	-4584
▁br	-4585
▁hy	-4586
▁ni	-4587
▁qb	-4588
▁xi	-4589
abeh	-4590
ablo	-4591
ager	-4592
arry	-4593
atea	-4594
aume	-4595
aztu	-4596
ches	-4597
cker	-4598
ckip	-4599
deen	-4600
dian	-4601
ebas	-4602
egiz	-4603
enio	-4604
erre	-4605
etxe	-4606
iara	-4607
iboa	-4608
idan	-4609
iere	-4610
ikak	-4611
ikor	-4612
inio	-4613
isia	-4614
ituz	-4615
iver	-4616
kaia	-4617
kins	-4618
kita	-4619
lina	-4620
line	-4621
okoa	-4622
olas	-4623
onom	-4624
oper	-4625
oven	-4626
peta	-4627
plom	-4628
quez	-4629
rama	-4630
read	-4631
reki	-4632
span	-4633
tere	-4634
tuen	-4635
uita	-4636
uren	-4637
urop	-4638
uten	-4639
▁144	-4640
▁322	-4641
▁800	-4642
▁bog	-4643
▁boz	-4644
▁cal	-4645
▁cli	-4646
▁edm	-4647
▁fak	-4648
▁far	-4649
▁fra	-4650
▁gau	-4651
▁gib	-4652
▁glo	-4653
▁gri	-4654
▁hab	-4655
▁hub	-4656
▁kin	-4657
▁lis	-4658
▁mah	-4659
▁may	-4660
▁mic	-4661
▁okz	-4662
▁ona	-4663
▁ond	-4664
▁ort	-4665
▁pis	-4666
▁pun	-4667
▁ros	-4668
▁rub	-4669
▁sri	-4670
▁tri	-4671
▁vas	-4672
▁ven	-4673
▁vik	-4674
▁vil	-4675
▁wit	-4676
▁xan	-4677
▁xen	-4678
▁xiv	-4679
▁zap	-4680
▁zik	-4681
▁zil	-4682
▁ziz	-4683
▁zub	-4684
abeth	-4685
ardin	-4686
arien	-4687
arraf	-4688
asser	-4689
bidea	-4690
ction	-4691
duria	-4692
erner	-4693
gizon	-4694
gunea	-4695
ialak	-4696
imarr	-4697
itxel	-4698
itzea	-4699
karia	-4700
organ	-4701
phrey	-4702
portu	-4703
rapil	-4704
rence	-4705
rosof	-4706
tikak	-4707
toren	-4708
trong	-4709
tzera	-4710
tzira	-4711
uglas	-4712
zalez	-4713
zania	-4714
▁1322	-4715
▁1633	-4716
▁1778	-4717
▁1799	-4718
▁1804	-4719
▁1854	-4720
▁1858	-4721
▁1868	-4722
▁1874	-4723
▁1883	-4724
▁1889	-4725
▁abes	-4726
▁abra	-4727
▁adar	-4728
▁alea	-4729
▁alor	-4730
▁anto	-4731
▁arke	-4732
▁bake	-4733
▁begi	-4734
▁bela	-4735
▁biak	-4736
▁blas	-4737
▁buck	-4738
▁carr	-4739
▁desc	-4740
▁dick	-4741
▁elik	-4742
▁eros	-4743
▁ferr	-4744
▁fron	-4745
▁hans	-4746
▁itxi	-4747
▁ivan	-4748
▁jain	-4749
▁joko	-4750
▁koad	-4751
▁kore	-4752
▁kude	-4753
▁ling	-4754
▁main	-4755
▁mass	-4756
▁morf	-4757
▁mush	-4758
▁naiz	-4759
▁noiz	-4760
▁oper	-4761
▁pale	-4762
▁para	-4763
▁pass	-4764
▁piet	-4765
▁pita	-4766
▁rand	-4767
▁sain	-4768
▁sand	-4769
▁seme	-4770
▁sent	-4771
▁sesb	-4772
▁toki	-4773
▁unlo	-4774
▁ural	-4775
▁urri	-4776
▁xake	-4777
▁xiii	-4778
▁zite	-4779
agilea	-4780
alaren	-4781
amerik	-4782
aragua	-4783
diaren	-4784
elarik	-4785
enberg	-4786
erazko	-4787
esysop	-4788
iarren	-4789
iatzen	-4790
ikarra	-4791
imedia	-4792
laratu	-4793
pecial	-4794
tanbul	-4795
tanler	-4796
tanley	-4797
tarren	-4798
tiboen	-4799
tienne	-4800
trumen	-4801
turiko	-4802
▁abiar	-4803
▁aires	-4804
▁akats	-4805
▁alber	-4806
▁albre	-4807
▁aljeb	-4808
▁aljer	-4809
▁argud	-4810
▁aroan	-4811
▁askok	-4812
▁astur	-4813
▁baitu	-4814
▁banak	-4815
▁barak	-4816
▁barry	-4817
▁basam	-4818
▁berai	-4819
▁beren	-4820
▁birus	-4821
▁bizia	-4822
▁chira	-4823
▁demok	-4824
▁dikta	-4825
▁egoki	-4826
▁erald	-4827
▁ernst	-4828
▁errug	-4829
▁esate	-4830
▁eskol	-4831
▁espor	-4832
▁ezgai	-4833
▁gaixo	-4834
▁garbi	-4835
▁genet	-4836
▁golko	-4837
▁greko	-4838
▁guill	-4839
▁gutun	-4840
▁gutxi	-4841
▁hamas	-4842
▁hango	-4843
▁index	-4844
▁inork	-4845
▁ipini	-4846
▁ireki	-4847
▁irten	-4848
▁jardu	-4849
▁kamer	-4850
▁karak	-4851
▁koldo	-4852
▁koroa	-4853
▁labor	-4854
▁labur	-4855
▁lakua	-4856
▁lewis	-4857
▁luxen	-4858
▁maisu	-4859
▁marse	-4860
▁mikel	-4861
▁neill	-4862
▁neopl	-4863
▁oihan	-4864
▁orkes	-4865
▁osaba	-4866
▁pablo	-4867
▁roman	-4868
▁sakon	-4869
▁simon	-4870
▁sites	-4871
▁smith	-4872
▁tribu	-4873
▁tycho	-4874
▁urter	-4875
▁venez	-4876
▁zaila	-4877
▁zeram	-4878
alderik	-4879
eratuta	-4880
ikoetan	-4881
itasuna	-4882
stantin	-4883
tinente	-4884
warning	-4885
▁ahaztu	-4886
▁akitan	-4887
▁aldean	-4888
▁antrop	-4889
▁askatu	-4890
▁babesa	-4891
▁beheko	-4892
▁berlin	-4893
▁berpiz	-4894
▁bogart	-4895
▁borrok	-4896
▁buenos	-4897
▁delete	-4898
▁diplom	-4899
▁dirudi	-4900
▁disein	-4901
▁egitur	-4902
▁egokia	-4903
▁egunez	-4904
▁emilio	-4905
▁eraman	-4906
▁eremua	-4907
▁esklab	-4908
▁gerran	-4909
▁gizaki	-4910
▁gomend	-4911
▁hautsi	-4912
▁helbid	-4913
▁hobetu	-4914
▁ibarre	-4915
▁iranen	-4916
▁iritzi	-4917
▁iturri	-4918
▁izenak	-4919
▁javier	-4920
▁joanes	-4921
▁johann	-4922
▁kalkul	-4923
▁kantau	-4924
▁katean	-4925
▁kontua	-4926
▁lituan	-4927
▁lotzen	-4928
▁ludwig	-4929
▁lurrak	-4930
▁madril	-4931
▁makina	-4932
▁mitxel	-4933
▁morgan	-4934
▁mugitu	-4935
▁neurri	-4936
▁norbai	-4937
▁norman	-4938
▁ordain	-4939
▁period	-4940
▁petrol	-4941
▁poesia	-4942
▁ronald	-4943
▁rudolf	-4944
▁sexuen	-4945
▁steven	-4946
▁terror	-4947
▁urtero	-4948
▁whitel	-4949
▁zentro	-4950
▁zutela	-4951
aldiaren	-4952
ikoetxea	-4953
tarraren	-4954
thispage	-4955
▁agustin	-4956
▁aitasan	-4957
▁aldekoa	-4958
▁alfabet	-4959
▁alfonso	-4960
▁armadak	-4961
▁askoren	-4962
▁austria	-4963
▁aztertu	-4964
▁baitira	-4965
▁baitzen	-4966
▁bandera	-4967
▁barnean	-4968
▁biltzen	-4969
▁bizkaia	-4970
▁borroka	-4971
▁categor	-4972
▁colspan	-4973
▁dinasti	-4974
▁ditugun	-4975
▁douglas	-4976
▁egunean	-4977
▁elektri	-4978
▁emateko	-4979
▁espazio	-4980
▁etienne	-4981
▁etorkin	-4982
▁eugenio	-4983
▁euskadi	-4984
▁gaineko	-4985
▁gehiena	-4986
▁herrira	-4987
▁honekin	-4988
▁interes	-4989
▁irakeko	-4990
▁iraultz	-4991
▁irudiak	-4992
▁izenean	-4993
▁jartzen	-4994
▁jauregi	-4995
▁kentzen	-4996
▁kolonia	-4997
▁kontser	-4998
▁korapil	-4999
▁lortzen	-5000
▁mendiak	-5001
▁meskita	-5002
▁musikak	-5003
▁objektu	-5004
▁okupatu	-5005
▁okzitan	-5006
▁ospetsu	-5007
▁pitagor	-5008
▁program	-5009
▁roberto	-5010
▁sarrera	-5011
▁sektore	-5012
▁stanley	-5013
▁titulua	-5014
▁txanpon	-5015
▁txekiar	-5016
▁txikiak	-5017
▁urtetik	-5018
▁ustezko	-5019
▁zentral	-5020
▁aintzira	-5021
▁american	-5022
▁amerikar	-5023
▁anderson	-5024
▁azalduko	-5025
▁azkeneko	-5026
▁batuarra	-5027
▁beretzat	-5028
▁bukaeran	-5029
▁buruzagi	-5030
▁dimisioa	-5031
▁eragiten	-5032
▁erantzun	-5033
▁erlijios	-5034
▁errusiak	-5035
▁eskoziar	-5036
▁euskarri	-5037
▁frederic	-5038
▁funtzion	-5039
▁gipuzkoa	-5040
▁gobernua	-5041
▁gonzalez	-5042
▁honetara	-5043
▁horietan	-5044
▁idatziak	-5045
▁idazkari	-5046
▁ikusteko	-5047
▁inportan	-5048
▁irakasle	-5049
▁irakurri	-5050
▁istanbul	-5051
▁jasotzen	-5052
▁kimikako	-5053
▁kontseil	-5054
▁leonardo	-5055
▁liburuki	-5056
▁mantxako	-5057
▁nagusitu	-5058
▁nekazari	-5059
▁ondorioa	-5060
▁orokorra	-5061
▁planeten	-5062
▁platonen	-5063
▁sailkatu	-5064
▁software	-5065
▁suediako	-5066
▁tanzania	-5067
▁transmis	-5068
▁urtearen	-5069
▁zuhaitza	-5070
aritzapean	-5071
▁biztanler	-5072
▁christoph	-5073
▁deklaratu	-5074
▁descartes	-5075
▁donostiar	-5076
▁eguneroko	-5077
▁elizabeth	-5078
▁erabateko	-5079
▁erromantz	-5080
▁eskultore	-5081
▁ezgaituta	-5082
▁gaitasuna	-5083
▁gramatika	-5084
▁guztiaren	-5085
▁handiaren	-5086
▁herbehere	-5087
▁ikasketak	-5088
▁ikuspuntu	-5089
▁ingeniari	-5090
▁instrumen	-5091
▁jeltzalea	-5092
▁konderria	-5093
▁konexioak	-5094
▁laguntzaz	-5095
▁makesysop	-5096
▁mendeetan	-5097
▁mexikarra	-5098
▁musharraf	-5099
▁nafarroan	-5100
▁nazionala	-5101
▁neoplaton	-5102
▁nikaragua	-5103
▁ospetsuak	-5104
▁pertsonen	-5105
▁plazaratu	-5106
▁suediarra	-5107
▁taldearen	-5108
▁wikimedia	-5109
▁zerrendan	-5110
▁abertzalea	-5111
▁agindupean	-5112
▁berrezarri	-5113
▁biztanleak	-5114
▁ekonomiako	-5115
▁erabiltzea	-5116
▁erromantiz	-5117
▁eskaintzen	-5118
▁eskubideak	-5119
▁europarren	-5120
▁galiziarra	-5121
▁gidoigilea	-5122
▁hamarkadan	-5123
▁iparraldea	-5124
▁jakinduria	-5125
▁kopernikok	-5126
▁lurrikarak	-5127
▁metafisika	-5128
▁mugimendua	-5129
▁oinarrizko	-5130
▁penintsula	-5131
▁urtarrilen	-5132
▁aipagarriak	-5133
▁aitzindaria	-5134
▁aurkikuntza	-5135
▁aurkitutako	-5136
▁baliogabeko	-5137
▁berrikuspen	-5138
▁ezabatutako	-5139
▁gizonezkoen	-5140
▁inkisizioak	-5141
▁irakurtzeko	-5142
▁norvegiarra	-5143
▁profesional	-5144
▁txantiloiak	-5145
▁zalantzarik	-5146
▁antzeztutako	-5147
▁argitaratzen	-5148
▁berrikuspena	-5149
▁erakundearen	-5150
▁hedabideetan	-5151
▁independente	-5152
▁jarraitzaile	-5153
▁presidenteak	-5154
▁bereizketarik	-5155
▁gaztelaniazko	-5156
▁kristautasuna	-5157
▁entrenatzailea	-5158
▁konposatzailea	-5159
▁kontinentearen	-5160
▁revolutionibus	-5161
▁garrantzitsuena	-5162
12	-5163
49	-5164
60	-5165
90	-5166
br	-5167
bu	-5168
cy	-5169
dt	-5170
ew	-5171
fa	-5172
fl	-5173
gg	-5174
uv	-5175
▁@	-5176
ane	-5177
auk	-5178
bar	-5179
bel	-5180
bsp	-5181
cer	-5182
dal	-5183
die	-5184
dis	-5185
eda	-5186
elo	-5187
far	-5188
ght	-5189
gue	-5190
hib	-5191
hir	-5192
hle	-5193
ibn	-5194
iev	-5195
ime	-5196
ise	-5197
ize	-5198
jab	-5199
lip	-5200
moa	-5201
nie	-5202
nis	-5203
oll	-5204
ono	-5205
ote	-5206
otz	-5207
put	-5208
rei	-5209
ser	-5210
sky	-5211
tas	-5212
tsa	-5213
tsk	-5214
tti	-5215
tto	-5216
ull	-5217
unt	-5218
use	-5219
uth	-5220
way	-5221
wit	-5222
zel	-5223
zen	-5224
▁08	-5225
▁47	-5226
▁75	-5227
▁81	-5228
▁82	-5229
▁93	-5230
▁av	-5231
▁fl	-5232
▁ke	-5233
▁kn	-5234
▁oc	-5235
▁pu	-5236
▁sc	-5237
▁sz	-5238
▁ts	-5239
▁wh	-5240
afat	-5241
agel	-5242
aman	-5243
ange	-5244
arde	-5245
arek	-5246
asen	-5247
atet	-5248
audi	-5249
back	-5250
bard	-5251
crat	-5252
deka	-5253
doak	-5254
dund	-5255
ebre	-5256
edin	-5257
edit	-5258
eiro	-5259
ekos	-5260
esar	-5261
eter	-5262
evin	-5263
ford	-5264
from	-5265
gens	-5266
hain	-5267
hers	-5268
icus	-5269
iler	-5270
iria	-5271
ists	-5272
ital	-5273
itia	-5274
kera	-5275
kiak	-5276
lean	-5277
lett	-5278
lide	-5279
nery	-5280
note	-5281
obia	-5282
oiak	-5283
omen	-5284
osev	-5285
piar	-5286
pton	-5287
resk	-5288
roen	-5289
tara	-5290
tern	-5291
ther	-5292
tika	-5293
tita	-5294
tium	-5295
toia	-5296
tsai	-5297
tyle	-5298
uler	-5299
ults	-5300
vois	-5301
▁120	-5302
▁125	-5303
▁129	-5304
▁335	-5305
▁347	-5306
▁384	-5307
▁abc	-5308
▁ali	-5309
▁are	-5310
▁bau	-5311
▁bax	-5312
▁bei	-5313
▁bin	-5314
▁bob	-5315
▁boh	-5316
▁cat	-5317
▁eli	-5318
▁end	-5319
▁fol	-5320
▁gin	-5321
▁gur	-5322
▁hek	-5323
▁hid	-5324
▁hos	-5325
▁ima	-5326
▁joa	-5327
▁joe	-5328
▁kis	-5329
▁kre	-5330
▁kur	-5331
▁lel	-5332
▁lex	-5333
▁lid	-5334
▁lip	-5335
▁mir	-5336
▁mul	-5337
▁nes	-5338
▁oak	-5339
▁ong	-5340
▁org	-5341
▁pag	-5342
▁pam	-5343
▁paz	-5344
▁php	-5345
▁pla	-5346
▁rio	-5347
▁rom	-5348
▁rus	-5349
▁sea	-5350
▁sev	-5351
▁sha	-5352
▁syd	-5353
▁tim	-5354
▁tos	-5355
▁tre	-5356
▁uko	-5357
▁une	-5358
▁war	-5359
▁win	-5360
▁zem	-5361
abled	-5362
ailua	-5363
akoak	-5364
aldun	-5365
aleak	-5366
andar	-5367
anoko	-5368
araun	-5369
atsua	-5370
audio	-5371
berts	-5372
eklan	-5373
elite	-5374
email	-5375
ement	-5376
erazi	-5377
europ	-5378
gorri	-5379
iaria	-5380
ibniz	-5381
ikoan	-5382
ilton	-5383
ipena	-5384
itore	-5385
kaera	-5386
korra	-5387
lines	-5388
nifer	-5389
olako	-5390
ondoa	-5391
query	-5392
retan	-5393
sonek	-5394
stein	-5395
strak	-5396
tapen	-5397
tarea	-5398
tenak	-5399
terio	-5400
tikan	-5401
tista	-5402
torio	-5403
tzatu	-5404
uteko	-5405
ventz	-5406
▁1328	-5407
▁1512	-5408
▁1531	-5409
▁1533	-5410
▁1536	-5411
▁1540	-5412
▁1571	-5413
▁1601	-5414
▁1610	-5415
▁1782	-5416
▁1788	-5417
▁1790	-5418
▁1820	-5419
▁1828	-5420
▁1841	-5421
▁1845	-5422
▁1848	-5423
▁1875	-5424
▁1877	-5425
▁1893	-5426
▁abia	-5427
▁adam	-5428
▁afri	-5429
▁alda	-5430
▁aniz	-5431
▁antx	-5432
▁apur	-5433
▁aral	-5434
▁aran	-5435
▁ariz	-5436
▁arms	-5437
▁aroa	-5438
▁arre	-5439
▁artx	-5440
▁axel	-5441
▁azpe	-5442
▁back	-5443
▁bang	-5444
▁beat	-5445
▁bien	-5446
▁biko	-5447
▁blan	-5448
▁born	-5449
▁bota	-5450
▁bren	-5451
▁brid	-5452
▁bush	-5453
▁clar	-5454
▁clin	-5455
▁data	-5456
▁dipu	-5457
▁edon	-5458
▁esto	-5459
▁ezer	-5460
▁eziz	-5461
▁fire	-5462
▁fund	-5463
▁gand	-5464
▁gern	-5465
▁gipu	-5466
▁hall	-5467
▁hark	-5468
▁hazi	-5469
▁iden	-5470
▁inon	-5471
▁isol	-5472
▁jazo	-5473
▁kata	-5474
▁kauk	-5475
▁link	-5476
▁lyon	-5477
▁maiz	-5478
▁mike	-5479
▁mila	-5480
▁mont	-5481
▁nago	-5482
▁nano	-5483
▁nbsp	-5484
▁nego	-5485
▁nork	-5486
▁nova	-5487
▁obra	-5488
▁onar	-5489
▁otto	-5490
▁pers	-5491
▁peru	-5492
▁pour	-5493
▁stal	-5494
▁stor	-5495
▁thom	-5496
▁tira	-5497
▁tron	-5498
▁unai	-5499
▁vill	-5500
▁xanp	-5501
▁ziur	-5502
aberri	-5503
abidea	-5504
ainoko	-5505
akizun	-5506
arrari	-5507
atzean	-5508
azioan	-5509
bergen	-5510
denatu	-5511
dinand	-5512
entzio	-5513
etasun	-5514
gintza	-5515
ikotik	-5516
inaren	-5517
ipatet	-5518
ismoen	-5519
razioa	-5520
sburgo	-5521
taerak	-5522
tarazi	-5523
tiboak	-5524
ticles	-5525
toreak	-5526
torika	-5527
▁allan	-5528
▁alpin	-5529
▁anglo	-5530
▁anitz	-5531
▁antar	-5532
▁antso	-5533
▁apple	-5534
▁arbol	-5535
▁argaz	-5536
▁ariel	-5537
▁aroko	-5538
▁arris	-5539
▁askea	-5540
▁askoz	-5541
▁assar	-5542
▁augus	-5543
▁autob	-5544
▁auzia	-5545
▁azido	-5546
▁badak	-5547
▁beltz	-5548
▁bidea	-5549
▁biltz	-5550
▁bokal	-5551
▁bonap	-5552
▁bortx	-5553
▁dakit	-5554
▁dantz	-5555
▁datoz	-5556
▁dauzk	-5557
▁defen	-5558
▁diego	-5559
▁difer	-5560
▁dinam	-5561
▁egile	-5562
▁eklip	-5563
▁erbes	-5564
▁estag	-5565
▁estal	-5566
▁eston	-5567
▁etiop	-5568
▁etsai	-5569
▁etxeb	-5570
▁euler	-5571
▁ezkio	-5572
▁filip	-5573
▁fonda	-5574
▁galde	-5575
▁gales	-5576
▁garia	-5577
▁gataz	-5578
▁geruz	-5579
▁goren	-5580
▁gorpu	-5581
▁gorri	-5582
▁greba	-5583
▁harry	-5584
▁hirur	-5585
▁inaki	-5586
▁itzal	-5587
▁izadi	-5588
▁izand	-5589
▁jones	-5590
▁jorge	-5591
▁josef	-5592
▁kargu	-5593
▁kenya	-5594
▁kevin	-5595
▁komik	-5596
▁kopia	-5597
▁korea	-5598
▁kubat	-5599
▁lanen	-5600
▁lantz	-5601
▁leinu	-5602
▁lepor	-5603
▁lucas	-5604
▁marti	-5605
▁media	-5606
▁mezua	-5607
▁niels	-5608
▁ohiko	-5609
▁oldid	-5610
▁patxi	-5611
▁piano	-5612
▁piztu	-5613
▁psiko	-5614
▁sailk	-5615
▁sebas	-5616
▁serge	-5617
▁style	-5618
▁sunts	-5619
▁tales	-5620
▁talka	-5621
▁tenis	-5622
▁tiroz	-5623
▁tomas	-5624
▁txetx	-5625
▁urrea	-5626
▁using	-5627
▁uzten	-5628
▁vatik	-5629
▁zahar	-5630
▁zioen	-5631
▁zipre	-5632
akoaren	-5633
arrekin	-5634
arretan	-5635
dekafon	-5636
etasuna	-5637
kilaria	-5638
mentuak	-5639
mentzen	-5640
ontzeko	-5641
tarekin	-5642
▁agirre	-5643
▁ahozko	-5644
▁aldera	-5645
▁andoni	-5646
▁andrea	-5647
▁araban	-5648
▁arabia	-5649
▁arafat	-5650
▁arantz	-5651
▁arazoa	-5652
▁ardura	-5653
▁arloan	-5654
▁aurrer	-5655
▁badago	-5656
▁batuan	-5657
▁benito	-5658
▁bilera	-5659
▁coeles	-5660
▁copyri	-5661
▁delako	-5662
▁distan	-5663
▁dituzu	-5664
▁edmund	-5665
▁edukia	-5666
▁egilea	-5667
▁egoten	-5668
▁esanda	-5669
▁etabar	-5670
▁etxean	-5671
▁eurite	-5672
▁foster	-5673
▁garaia	-5674
▁gaurko	-5675
▁genero	-5676
▁gizona	-5677
▁global	-5678
▁gustav	-5679
▁handik	-5680
▁higano	-5681
▁ibarra	-5682
▁ideiak	-5683
▁igoera	-5684
▁indotx	-5685
▁irango	-5686
▁isabel	-5687
▁islama	-5688
▁jainko	-5689
▁jendea	-5690
▁julian	-5691
▁kontak	-5692
▁krista	-5693
▁kutxak	-5694
▁malays	-5695
▁mendel	-5696
▁mendik	-5697
▁metodo	-5698
▁neptun	-5699
▁ondoan	-5700
▁orriak	-5701
▁osasun	-5702
▁philos	-5703
▁porrot	-5704
▁publio	-5705
▁recent	-5706
▁robles	-5707
▁sharon	-5708
▁simone	-5709
▁sinple	-5710
▁sorgin	-5711
▁sorrer	-5712
▁sustra	-5713
▁suther	-5714
▁tourra	-5715
▁tropik	-5716
▁uganda	-5717
▁varsov	-5718
▁viktor	-5719
▁werner	-5720
▁wilson	-5721
▁yasser	-5722
▁zehark	-5723
▁zortzi	-5724
aldietan	-5725
aziorako	-5726
ialariak	-5727
iografia	-5728
pigarren	-5729
utxistan	-5730
▁abokatu	-5731
▁abraham	-5732
▁abstrak	-5733
▁agindua	-5734
▁aljebra	-5735
▁alsazia	-5736
▁alvarez	-5737
▁argipen	-5738
▁aritzen	-5739
▁badaude	-5740
▁baionan	-5741
▁barrena	-5742
▁batzeko	-5743
▁beraren	-5744
▁berezko	-5745
▁bernard	-5746
▁berresk	-5747
▁berriko	-5748
▁bertsio	-5749
▁bilduma	-5750
▁bizantz	-5751
▁bizirik	-5752
▁blokeoa	-5753
▁boterea	-5754
▁bukaera	-5755
▁burdina	-5756
▁claudio	-5757
▁clinton	-5758
▁desager	-5759
▁dezagun	-5760
▁dituzun	-5761
▁dokumen	-5762
▁editatu	-5763
▁edukiak	-5764
▁egoitza	-5765
▁eguneko	-5766
▁erraldo	-5767
▁ertzain	-5768
▁estazio	-5769
▁etakide	-5770
▁euklide	-5771
▁familia	-5772
▁garapen	-5773
▁general	-5774
▁gorabeh	-5775
▁gregory	-5776
▁gutxies	-5777
▁hamahir	-5778
▁hartzea	-5779
▁indarra	-5780
▁irunean	-5781
▁iruneko	-5782
▁italian	-5783
▁johnson	-5784
▁jupiter	-5785
▁kamerun	-5786
▁kaspiar	-5787
▁kilomet	-5788
▁koloniz	-5789
▁langile	-5790
▁lantzen	-5791
▁laurent	-5792
▁leibniz	-5793
▁logikoa	-5794
▁mariano	-5795
▁maxwell	-5796
▁metalak	-5797
▁militan	-5798
▁nazioen	-5799
▁nicolas	-5800
▁nigeria	-5801
▁nintzen	-5802
▁ondasun	-5803
▁ondorio	-5804
▁osoaren	-5805
▁perifer	-5806
▁sartzea	-5807
▁siberia	-5808
▁sortuko	-5809
▁taxonom	-5810
▁teknika	-5811
▁telefon	-5812
▁theklan	-5813
▁urrezko	-5814
▁vicente	-5815
▁yorkeko	-5816
▁zerbait	-5817
alderantz	-5818
tzerakoan	-5819
▁adierazi	-5820
▁agertuko	-5821
▁ahalegin	-5822
▁aireratu	-5823
▁aktoreak	-5824
▁albrecht	-5825
▁aldatzea	-5826
▁alfontso	-5827
▁aragoiko	-5828
▁articles	-5829
▁askotari	-5830
▁azpimarr	-5831
▁baitzitu	-5832
▁bakoitza	-5833
▁baliozko	-5834
▁banatuta	-5835
▁behaketa	-5836
▁berdinak	-5837
▁bereziak	-5838
▁bernardo	-5839
▁bestetik	-5840
▁bilatzen	-5841
▁bizitzan	-5842
▁brasilen	-5843
▁burujabe	-5844
▁category	-5845
▁diplomat	-5846
▁egiptoko	-5847
▁elkartea	-5848
▁emaitzak	-5849
▁enpresab	-5850
▁epaileak	-5851
▁erredund	-5852
▁erregeen	-5853
▁erregena	-5854
▁erromara	-5855
▁etakidea	-5856
▁euskarak	-5857
▁ezkutatu	-5858
▁finlandi	-5859
▁franklin	-5860
▁galileok	-5861
▁gerraren	-5862
▁hamilton	-5863
▁heinrich	-5864
▁hektarea	-5865
▁herritar	-5866
▁honetako	-5867
▁humphrey	-5868
▁idazleen	-5869
▁islamiar	-5870
▁itsasora	-5871
▁izenaren	-5872
▁izenekoa	-5873
▁jakintza	-5874
▁jartzeko	-5875
▁jasotako	-5876
▁jennifer	-5877
▁kazetari	-5878
▁lawrence	-5879
▁lotutako	-5880
▁lurraren	-5881
▁mantendu	-5882
▁mendetik	-5883
▁metawiki	-5884
▁microsof	-5885
▁norvegia	-5886
▁ospetsua	-5887
▁pilaketa	-5888
▁portuges	-5889
▁proventz	-5890
▁prozesua	-5891
▁satelite	-5892
▁uholdeak	-5893
▁zeelanda	-5894
▁zenbakia	-5895
▁zitzaien	-5896
▁aireportu	-5897
▁akademian	-5898
▁aldatzeko	-5899
▁alpinista	-5900
▁animalium	-5901
▁aragoikoa	-5902
▁armstrong	-5903
▁aurreratu	-5904
▁austriako	-5905
▁azterketa	-5906
▁basamortu	-5907
▁batasunak	-5908
▁bilakaera	-5909
▁bilaketak	-5910
▁biokimika	-5911
▁bizidunek	-5912
▁buruzagia	-5913
▁daitekeen	-5914
▁dodekafon	-5915
▁eboluzioa	-5916
▁egiaztatu	-5917
▁egunkaria	-5918
▁erreakzio	-5919
▁erreginak	-5920
▁erregistr	-5921
▁etorkizun	-5922
▁ferdinand	-5923
▁frederick	-5924
▁friedrich	-5925
▁funtsezko	-5926
▁gasteizen	-5927
▁germaniar	-5928
▁gernikako	-5929
▁gertatzen	-5930
▁gorriaren	-5931
▁greziarra	-5932
▁indoeurop	-5933
▁irakaslea	-5934
▁itzulpena	-5935
▁izandakoa	-5936
▁izatearen	-5937
▁kanadarra	-5938
▁karaktere	-5939
▁konektatu	-5940
▁lankideak	-5941
▁latinezko	-5942
▁mantentze	-5943
▁mendizale	-5944
▁ministroa	-5945
▁mitologia	-5946
▁munduaren	-5947
▁naturaren	-5948
▁olerkaria	-5949
▁peripatet	-5950
▁pilotaria	-5951
▁politikoa	-5952
▁portugesa	-5953
▁proposatu	-5954
▁seigarren	-5955
▁siberiako	-5956
▁sistemako	-5957
▁webgunean	-5958
▁zerikusia	-5959
▁ahalbidetu	-5960
▁aitasantua	-5961
▁argizagien	-5962
▁arkitektoa	-5963
▁asmatzaile	-5964
▁australiar	-5965
▁bidaltzeko	-5966
▁coelestium	-5967
▁ejerzitoak	-5968
▁euskaltzal	-5969
▁guztietako	-5970
▁ilargiaren	-5971
▁ingeniaria	-5972
▁inguruetan	-5973
▁istanbulen	-5974
▁izenarekin	-5975
▁jatorrizko	-5976
▁kalifornia	-5977
▁kategorien	-5978
▁materiaren	-5979
▁mendizabal	-5980
▁nekazaritz	-5981
▁norvegiako	-5982
▁ortografia	-5983
▁periodikoa	-5984
▁pilotariak	-5985
▁politikoak	-5986
▁produkzioa	-5987
▁sutherland	-5988
▁transmisio	-5989
▁wikipediak	-5990
▁zutelakoan	-5991
▁alemaniaren	-5992
▁australiako	-5993
▁bazterkeria	-5994
▁brasildarra	-5995
▁danimarkako	-5996
▁ekonomiaren	-5997
▁euskaldunaa	-5998
▁eztabaidatu	-5999
▁formularioa	-6000
▁frantziakoa	-6001
▁gainontzeko	-6002
▁gizonezkoak	-6003
▁guztietatik	-6004
▁heliozentri	-6005
▁herrialdeak	-6006
▁independent	-6007
▁inperioaren	-6008
▁kantautorea	-6009
▁konpositore	-6010
▁liburukitan	-6011
▁literaturan	-6012
▁manifestatu	-6013
▁mazedoniako	-6014
▁mediterrane	-6015
▁ondorengoak	-6016
▁portugaldar	-6017
▁proposatzen	-6018
▁salvadorren	-6019
▁transmisioa	-6020
▁zerikusirik	-6021
▁zerrendatik	-6022
▁zientifikoa	-6023
▁zinemagilea	-6024
▁antzerkigile	-6025
▁australiarra	-6026
▁egunkariaren	-6027
▁enperadoreak	-6028
▁errepublikak	-6029
▁espaziontzia	-6030
▁harremanetan	-6031
▁independentz	-6032
▁komunistaren	-6033
▁kontinenteko	-6034
▁administrazio	-6035
▁aristotelesek	-6036
▁gidaritzapean	-6037
▁hizkuntzalari	-6038
▁matematikaren	-6039
▁adierazgarriak	-6040
▁erredundantzia	-6041
▁portugaldarrak	-6042
▁berdintasunaren	-6043
▁estatubatuarrak	-6044
31	-6045
38	-6046
47	-6047
79	-6048
cl	-6049
dn	-6050
gs	-6051
hl	-6052
ji	-6053
ju	-6054
kh	-6055
lk	-6056
mf	-6057
mu	-6058
ng	-6059
we	-6060
zy	-6061
μα	-6062
▁]	-6063
arn	-6064
ask	-6065
bko	-6066
bre	-6067
bro	-6068
btn	-6069
dua	-6070
ede	-6071
ega	-6072
egg	-6073
ett	-6074
etz	-6075
fil	-6076
fus	-6077
gro	-6078
gus	-6079
hol	-6080
iei	-6081
igo	-6082
ity	-6083
izu	-6084
jam	-6085
jan	-6086
kov	-6087
lah	-6088
lek	-6089
lia	-6090
mad	-6091
mal	-6092
mor	-6093
nel	-6094
off	-6095
oma	-6096
opo	-6097
ori	-6098
oro	-6099
phy	-6100
pro	-6101
rod	-6102
sek	-6103
ska	-6104
tei	-6105
tom	-6106
uba	-6107
ude	-6108
uro	-6109
ved	-6110
vey	-6111
vio	-6112
wen	-6113
wik	-6114
yas	-6115
zai	-6116
▁51	-6117
▁55	-6118
▁56	-6119
▁66	-6120
▁98	-6121
▁cu	-6122
▁cy	-6123
▁eb	-6124
▁gh	-6125
▁mm	-6126
▁mu	-6127
▁st	-6128
▁uc	-6129
▁we	-6130
▁xd	-6131
aian	-6132
aire	-6133
ante	-6134
atem	-6135
atra	-6136
ault	-6137
auta	-6138
beck	-6139
chan	-6140
chel	-6141
ckdb	-6142
dell	-6143
desh	-6144
dows	-6145
duen	-6146
dura	-6147
ekoa	-6148
ence	-6149
enek	-6150
eppe	-6151
esco	-6152
esek	-6153
etaz	-6154
exek	-6155
ezur	-6156
fera	-6157
fiel	-6158
gune	-6159
icia	-6160
idea	-6161
idel	-6162
iens	-6163
ient	-6164
ilak	-6165
ilan	-6166
iman	-6167
imoa	-6168
inaz	-6169
inek	-6170
inen	-6171
istu	-6172
itre	-6173
ivia	-6174
iwan	-6175
ject	-6176
kako	-6177
kala	-6178
kuts	-6179
lach	-6180
lana	-6181
letx	-6182
mess	-6183
nedy	-6184
ness	-6185
obat	-6186
odro	-6187
ogra	-6188
olde	-6189
omin	-6190
ondo	-6191
only	-6192
onso	-6193
orum	-6194
peak	-6195
rito	-6196
ritu	-6197
roan	-6198
sent	-6199
sson	-6200
teek	-6201
teka	-6202
tock	-6203
tter	-6204
tuan	-6205
urch	-6206
urio	-6207
urre	-6208
uruz	-6209
vard	-6210
view	-6211
wart	-6212
ztun	-6213
▁103	-6214
▁106	-6215
▁110	-6216
▁111	-6217
▁128	-6218
▁136	-6219
▁142	-6220
▁165	-6221
▁320	-6222
▁323	-6223
▁325	-6224
▁336	-6225
▁370	-6226
▁380	-6227
▁470	-6228
▁700	-6229
▁abd	-6230
▁acc	-6231
▁ann	-6232
▁anv	-6233
▁arb	-6234
▁arc	-6235
▁ars	-6236
▁asp	-6237
▁ate	-6238
▁bot	-6239
▁bru	-6240
▁buf	-6241
▁bug	-6242
▁bun	-6243
▁but	-6244
▁cec	-6245
▁chu	-6246
▁cle	-6247
▁cos	-6248
▁cra	-6249
▁ean	-6250
▁eeb	-6251
▁eth	-6252
▁eub	-6253
▁ezk	-6254
▁fax	-6255
▁fib	-6256
▁fru	-6257
▁gam	-6258
▁gio	-6259
▁guy	-6260
▁hay	-6261
▁hep	-6262
▁ign	-6263
▁jus	-6264
▁kad	-6265
▁ker	-6266
▁lam	-6267
▁lax	-6268
▁lem	-6269
▁len	-6270
▁leo	-6271
▁lev	-6272
▁lim	-6273
▁lir	-6274
▁lit	-6275
▁los	-6276
▁luk	-6277
▁lut	-6278
▁lyn	-6279
▁maf	-6280
▁mea	-6281
▁meh	-6282
▁mem	-6283
▁mur	-6284
▁mys	-6285
▁nel	-6286
▁nen	-6287
▁ner	-6288
▁nur	-6289
▁pau	-6290
▁pel	-6291
▁pit	-6292
▁pix	-6293
▁raf	-6294
▁red	-6295
▁rep	-6296
▁sad	-6297
▁sag	-6298
▁sig	-6299
▁sop	-6300
▁tho	-6301
▁tin	-6302
▁ton	-6303
▁ves	-6304
▁vol	-6305
▁wag	-6306
▁wat	-6307
▁wmf	-6308
▁yan	-6309
▁zam	-6310
adura	-6311
aikag	-6312
aragu	-6313
arrei	-6314
arrib	-6315
ategi	-6316
ateko	-6317
atika	-6318
azuko	-6319
berna	-6320
ckdbs	-6321
count	-6322
daros	-6323
direc	-6324
doren	-6325
durra	-6326
ekoak	-6327
ekzio	-6328
emann	-6329
eosta	-6330
erari	-6331
espen	-6332
eteor	-6333
forma	-6334
found	-6335
fried	-6336
gabez	-6337
hamed	-6338
heren	-6339
ideak	-6340
idoak	-6341
ierra	-6342
ileak	-6343
illip	-6344
itura	-6345
itzer	-6346
ketan	-6347
keten	-6348
kitik	-6349
lasiz	-6350
lerik	-6351
leton	-6352
links	-6353
logen	-6354
lokan	-6355
loven	-6356
mendi	-6357
moved	-6358
nacio	-6359
oskoa	-6360
renan	-6361
riaga	-6362
tagai	-6363
tekin	-6364
tiboa	-6365
tifik	-6366
tonek	-6367
tsuak	-6368
tsuen	-6369
tzaiz	-6370
tzeak	-6371
urray	-6372
watch	-6373
zioak	-6374
▁1517	-6375
▁1546	-6376
▁1596	-6377
▁1598	-6378
▁1604	-6379
▁1609	-6380
▁1616	-6381
▁1630	-6382
▁1707	-6383
▁1727	-6384
▁1759	-6385
▁1766	-6386
▁1775	-6387
▁1783	-6388
▁1784	-6389
▁1791	-6390
▁1811	-6391
▁1813	-6392
▁1814	-6393
▁1821	-6394
▁1824	-6395
▁1827	-6396
▁1833	-6397
▁1835	-6398
▁1838	-6399
▁1842	-6400
▁1847	-6401
▁1853	-6402
▁1856	-6403
▁1864	-6404
▁1872	-6405
▁1880	-6406
▁1881	-6407
▁1885	-6408
▁2020	-6409
▁afro	-6410
▁ahos	-6411
▁akus	-6412
▁alab	-6413
▁altu	-6414
▁altx	-6415
▁anax	-6416
▁arch	-6417
▁aris	-6418
▁arma	-6419
▁arra	-6420
▁aske	-6421
▁asmo	-6422
▁azer	-6423
▁bara	-6424
▁baso	-6425
▁bila	-6426
▁bira	-6427
▁bour	-6428
▁cham	-6429
▁chan	-6430
▁dean	-6431
▁diot	-6432
▁diru	-6433
▁ehiz	-6434
▁enba	-6435
▁enri	-6436
▁eran	-6437
▁erra	-6438
▁estr	-6439
▁fitz	-6440
▁folk	-6441
▁ford	-6442
▁fred	-6443
▁fris	-6444
▁gael	-6445
▁garb	-6446
▁gius	-6447
▁glas	-6448
▁goiz	-6449
▁good	-6450
▁gorp	-6451
▁gott	-6452
▁hart	-6453
▁hend	-6454
▁hide	-6455
▁hila	-6456
▁holo	-6457
▁hugh	-6458
▁hunt	-6459
▁ibon	-6460
▁igor	-6461
▁inka	-6462
▁iruz	-6463
▁jabe	-6464
▁jada	-6465
▁jane	-6466
▁josu	-6467
▁juda	-6468
▁kale	-6469
▁kari	-6470
▁khal	-6471
▁kode	-6472
▁koka	-6473
▁latz	-6474
▁left	-6475
▁levi	-6476
▁line	-6477
▁mais	-6478
▁moon	-6479
▁mouv	-6480
▁nash	-6481
▁neil	-6482
▁neok	-6483
▁neuk	-6484
▁odol	-6485
▁olof	-6486
▁otom	-6487
▁pala	-6488
▁pare	-6489
▁peck	-6490
▁perf	-6491
▁pira	-6492
▁pisu	-6493
▁plur	-6494
▁prak	-6495
▁rhet	-6496
▁ryan	-6497
▁sant	-6498
▁sarr	-6499
▁serb	-6500
▁shan	-6501
▁soin	-6502
▁song	-6503
▁spen	-6504
▁stan	-6505
▁stig	-6506
▁stra	-6507
▁suiz	-6508
▁text	-6509
▁timo	-6510
▁txos	-6511
▁ukra	-6512
▁vern	-6513
▁vers	-6514
▁view	-6515
▁vita	-6516
▁well	-6517
▁zenb	-6518
▁zeuk	-6519
▁zuaz	-6520
▁zuri	-6521
agarri	-6522
amendi	-6523
ardegi	-6524
arraga	-6525
atione	-6526
behera	-6527
eratik	-6528
eretan	-6529
erriko	-6530
garita	-6531
gerald	-6532
gizona	-6533
herine	-6534
ionala	-6535
istory	-6536
istral	-6537
itasun	-6538
kundea	-6539
ladesh	-6540
ofobia	-6541
ografo	-6542
ograph	-6543
ordeko	-6544
roskop	-6545
tegian	-6546
tiarra	-6547
tismoa	-6548
tolome	-6549
toriko	-6550
ulagun	-6551
▁airea	-6552
▁amade	-6553
▁araba	-6554
▁armad	-6555
▁artea	-6556
▁astoa	-6557
▁astro	-6558
▁aztar	-6559
▁batik	-6560
▁bazen	-6561
▁beeth	-6562
▁beher	-6563
▁beras	-6564
▁boyle	-6565
▁brahe	-6566
▁broad	-6567
▁brown	-6568
▁carol	-6569
▁cesar	-6570
▁clark	-6571
▁colum	-6572
▁curie	-6573
▁dario	-6574
▁death	-6575
▁denak	-6576
▁diote	-6577
▁dirua	-6578
▁dolar	-6579
▁dudan	-6580
▁dugun	-6581
▁edgar	-6582
▁elias	-6583
▁ellen	-6584
▁emile	-6585
▁erago	-6586
▁erwin	-6587
▁eskur	-6588
▁estad	-6589
▁estra	-6590
▁etako	-6591
▁etnia	-6592
▁etxep	-6593
▁exeku	-6594
▁eztan	-6595
▁fidel	-6596
▁gaiak	-6597
▁gailu	-6598
▁gogor	-6599
▁gomez	-6600
▁greek	-6601
▁hamal	-6602
▁harra	-6603
▁helen	-6604
▁heter	-6605
▁hilez	-6606
▁himal	-6607
▁hustu	-6608
▁image	-6609
▁inbas	-6610
▁irits	-6611
▁jacob	-6612
▁jener	-6613
▁jules	-6614
▁julia	-6615
▁kosta	-6616
▁lance	-6617
▁larra	-6618
▁larri	-6619
▁lekua	-6620
▁lerro	-6621
▁liber	-6622
▁lotua	-6623
▁mahai	-6624
▁mande	-6625
▁marko	-6626
▁mosku	-6627
▁movep	-6628
▁neder	-6629
▁north	-6630
▁notoc	-6631
▁panam	-6632
▁perun	-6633
▁petri	-6634
▁polif	-6635
▁rever	-6636
▁sahar	-6637
▁saint	-6638
▁salbu	-6639
▁saral	-6640
▁sarko	-6641
▁sarra	-6642
▁sarri	-6643
▁satur	-6644
▁saudi	-6645
▁semea	-6646
▁sinan	-6647
▁sines	-6648
▁soluz	-6649
▁sonda	-6650
▁sozio	-6651
▁tarte	-6652
▁testa	-6653
▁thail	-6654
▁txill	-6655
▁ultra	-6656
▁unblo	-6657
▁ustel	-6658
▁verdi	-6659
▁vital	-6660
▁white	-6661
▁young	-6662
▁zaion	-6663
▁zaren	-6664
▁zendu	-6665
▁zentr	-6666
▁ziklo	-6667
▁zuntz	-6668
abanako	-6669
agarria	-6670
arekiko	-6671
bardatu	-6672
engatik	-6673
eratzea	-6674
erketan	-6675
istikoa	-6676
izazioa	-6677
izismoa	-6678
ketetan	-6679
kuntzan	-6680
landera	-6681
logpage	-6682
matches	-6683
ollback	-6684
osevelt	-6685
penetan	-6686
results	-6687
titutua	-6688
ugoslav	-6689
▁alonso	-6690
▁altzai	-6691
▁andres	-6692
▁antill	-6693
▁arabar	-6694
▁arnold	-6695
▁artola	-6696
▁aurriz	-6697
▁azpian	-6698
▁badira	-6699
▁badugu	-6700
▁balkan	-6701
▁bareko	-6702
▁belaun	-6703
▁bezain	-6704
▁bidean	-6705
▁blaise	-6706
▁borboi	-6707
▁boulle	-6708
▁buruaz	-6709
▁chirac	-6710
▁cooper	-6711
▁copern	-6712
▁denean	-6713
▁deskri	-6714
▁disamb	-6715
▁dohain	-6716
▁donald	-6717
▁duzula	-6718
▁edvard	-6719
▁eebbko	-6720
▁eginda	-6721
▁elitre	-6722
▁elizak	-6723
▁erraza	-6724
▁esparr	-6725
▁esperi	-6726
▁espetx	-6727
▁esplik	-6728
▁estilo	-6729
▁export	-6730
▁franca	-6731
▁fronte	-6732
▁gaizki	-6733
▁garzon	-6734
▁gaztel	-6735
▁gehitu	-6736
▁gerrat	-6737
▁gipuzk	-6738
▁gorria	-6739
▁guatem	-6740
▁haitin	-6741
▁hamabi	-6742
▁hiriak	-6743
▁hitzak	-6744
▁horrez	-6745
▁hortaz	-6746
▁ibaiak	-6747
▁ikertu	-6748
▁ilargi	-6749
▁indian	-6750
▁indiar	-6751
▁intern	-6752
▁iraung	-6753
▁irrati	-6754
▁itzazu	-6755
▁izanda	-6756
▁joerak	-6757
▁johnny	-6758
▁jokatu	-6759
▁joseba	-6760
▁kanada	-6761
▁kanala	-6762
▁kargua	-6763
▁kaxmir	-6764
▁kideek	-6765
▁kokatu	-6766
▁konbin	-6767
▁krakov	-6768
▁latino	-6769
▁lavois	-6770
▁legeak	-6771
▁leherg	-6772
▁leinua	-6773
▁lokala	-6774
▁mallor	-6775
▁menper	-6776
▁meteor	-6777
▁mikrob	-6778
▁miller	-6779
▁mitter	-6780
▁monark	-6781
▁morris	-6782
▁mozart	-6783
▁muller	-6784
▁murray	-6785
▁mutiko	-6786
▁natura	-6787
▁neguko	-6788
▁nelson	-6789
▁nicola	-6790
▁nosuch	-6791
▁ohitur	-6792
▁olerki	-6793
▁oliver	-6794
▁omenez	-6795
▁ontzia	-6796
▁orbium	-6797
▁ordura	-6798
▁ospatu	-6799
▁pascal	-6800
▁pietro	-6801
▁poliki	-6802
▁prusia	-6803
▁punjab	-6804
▁sareak	-6805
▁semeno	-6806
▁sidere	-6807
▁sortze	-6808
▁sutean	-6809
▁sydney	-6810
▁taiwan	-6811
▁topatu	-6812
▁turkia	-6813
▁txekos	-6814
▁txikia	-6815
▁ulertu	-6816
▁utzita	-6817
▁uztail	-6818
▁wagner	-6819
▁zaldun	-6820
▁zelula	-6821
▁ziteke	-6822
▁zoritx	-6823
aldeetan	-6824
alitatea	-6825
atzearen	-6826
azioaren	-6827
darticle	-6828
disabled	-6829
enarekin	-6830
engandik	-6831
eostasia	-6832
erainoko	-6833
izioaren	-6834
tistikak	-6835
▁aginduz	-6836
▁ahalbid	-6837
▁alberdi	-6838
▁alemana	-6839
▁andreas	-6840
▁anonimo	-6841
▁antoine	-6842
▁apuleio	-6843
▁arabiar	-6844
▁argital	-6845
▁argudio	-6846
▁artista	-6847
▁atzerri	-6848
▁azpikon	-6849
▁balizko	-6850
▁barbara	-6851
▁bardeen	-6852
▁barkatu	-6853
▁beharra	-6854
▁berdeak	-6855
▁berezia	-6856
▁berrian	-6857
▁berrien	-6858
▁bestera	-6859
▁betiere	-6860
▁bisibil	-6861
▁blockip	-6862
▁confirm	-6863
▁connery	-6864
▁darabil	-6865
▁deskrib	-6866
▁dituela	-6867
▁egitean	-6868
▁egitera	-6869
▁eklipse	-6870
▁ekoizle	-6871
▁elkarri	-6872
▁energia	-6873
▁eragile	-6874
▁eragina	-6875
▁eraztun	-6876
▁eremuak	-6877
▁errebel	-6878
▁esloven	-6879
▁etiopia	-6880
▁euskera	-6881
▁florida	-6882
▁gehiegi	-6883
▁gerriko	-6884
▁grezian	-6885
▁gudaros	-6886
▁gurutze	-6887
▁gutxitu	-6888
▁hamaika	-6889
▁hamazaz	-6890
▁hamazor	-6891
▁herbert	-6892
▁hermann	-6893
▁hilketa	-6894
▁ignacio	-6895
▁indoren	-6896
▁iragana	-6897
▁iristen	-6898
▁irlanda	-6899
▁islandi	-6900
▁jesuita	-6901
▁jimenez	-6902
▁kapital	-6903
▁karrera	-6904
▁kaukaso	-6905
▁kennedy	-6906
▁kentzea	-6907
▁kolokan	-6908
▁konexio	-6909
▁kontzil	-6910
▁lanetan	-6911
▁latinez	-6912
▁marquez	-6913
▁martxan	-6914
▁mexikon	-6915
▁mintzai	-6916
▁mistral	-6917
▁mohamed	-6918
▁motaren	-6919
▁nahikoa	-6920
▁nasaren	-6921
▁negozio	-6922
▁ohitura	-6923
▁parisen	-6924
▁pirinio	-6925
▁pizarro	-6926
▁pribatu	-6927
▁rudolph	-6928
▁stewart	-6929
▁taberna	-6930
▁teorema	-6931
▁timothy	-6932
▁txetxen	-6933
▁txileko	-6934
▁walcott	-6935
▁windows	-6936
▁zelarik	-6937
▁zituena	-6938
▁zitzaiz	-6939
▁zubieta	-6940
ferentzia	-6941
osexualak	-6942
▁abiarazi	-6943
▁abokatua	-6944
▁agintari	-6945
▁airlines	-6946
▁aktiboen	-6947
▁aljerian	-6948
▁amaieran	-6949
▁aparteko	-6950
▁apezpiku	-6951
▁apuleiok	-6952
▁arabiera	-6953
▁arrantza	-6954
▁aurkikun	-6955
▁austriar	-6956
▁beldurra	-6957
▁brasilgo	-6958
▁burutzen	-6959
▁daukaten	-6960
▁diktador	-6961
▁diputatu	-6962
▁direnean	-6963
▁elkarren	-6964
▁enpresak	-6965
▁erlijioa	-6966
▁erreform	-6967
▁espezien	-6968
▁estandar	-6969
▁ezagutza	-6970
▁federico	-6971
▁formatua	-6972
▁galiziar	-6973
▁gehiengo	-6974
▁giuseppe	-6975
▁gizakiak	-6976
▁hamaikag	-6977
▁hardware	-6978
▁harrison	-6979
▁hartzeko	-6980
▁hastapen	-6981
▁hautagai	-6982
▁hegaldia	-6983
▁herbeher	-6984
▁horrekin	-6985
▁ibilbide	-6986
▁idazleek	-6987
▁idazteko	-6988
▁ikuspegi	-6989
▁indartsu	-6990
▁italiera	-6991
▁itsasoak	-6992
▁japonian	-6993
▁jaroslav	-6994
▁jarraiki	-6995
▁jauregia	-6996
▁karlista	-6997
▁karoling	-6998
▁kartagon	-6999
▁kirolari	-7000
▁koadroan	-7001
▁kongresu	-7002
▁konplexu	-7003
▁langabez	-7004
▁lorrenan	-7005
▁lurmutur	-7006
▁madrilgo	-7007
▁nagusiki	-7008
▁national	-7009
▁naturala	-7010
▁nikaragu	-7011
▁ordurako	-7012
▁orriaren	-7013
▁osaturik	-7014
▁osatzeko	-7015
▁palestin	-7016
▁pentsatu	-7017
▁philosop	-7018
▁pilotari	-7019
▁proiektu	-7020
▁recentch	-7021
▁salaketa	-7022
▁samoskoa	-7023
▁sistemak	-7024
▁suntsitu	-7025
▁teleskop	-7026
▁theodore	-7027
▁ulertzen	-7028
▁umorista	-7029
▁virginia	-7030
▁wikilari	-7031
▁zehazten	-7032
atzeagatik	-7033
▁adostasun	-7034
▁akademiak	-7035
▁alderdiak	-7036
▁alemaniak	-7037
▁artikulua	-7038
▁aurreikus	-7039
▁autonomia	-7040
▁baldintza	-7041
▁batzordea	-7042
▁beethoven	-7043
▁berriaren	-7044
▁bigarrena	-7045
▁danimarka	-7046
▁diferentz	-7047
▁diziplina	-7048
▁eguzkitik	-7049
▁erlijioak	-7050
▁erlijioso	-7051
▁erreginen	-7052
▁eskaintza	-7053
▁esportatu	-7054
▁estaturik	-7055
▁ezagunena	-7056
▁ezkerreko	-7057
▁familiako	-7058
▁feminista	-7059
▁finlandia	-7060
▁gertakari	-7061
▁gordetako	-7062
▁gottfried	-7063
▁hegaldiak	-7064
▁hegoafrik	-7065
▁hernandez	-7066
▁hitlerrek	-7067
▁hondarrib	-7068
▁ibarretxe	-7069
▁indonesia	-7070
▁ingelesez	-7071
▁ingurumen	-7072
▁inperioak	-7073
▁istripuan	-7074
▁itsasarte	-7075
▁jarraituz	-7076
▁jotzailea	-7077
▁kondenatu	-7078
▁konkretua	-7079
▁leinukoak	-7080
▁litekeena	-7081
▁lurraldea	-7082
▁lurreratu	-7083
▁margarita	-7084
▁martitzen	-7085
▁metrotako	-7086
▁mikroskop	-7087
▁misiolari	-7088
▁mouvement	-7089
▁nazioaren	-7090
▁neoklasiz	-7091
▁norbaitek	-7092
▁normalean	-7093
▁organikoa	-7094
▁otomandar	-7095
▁penintsul	-7096
▁pentsaera	-7097
▁politikak	-7098
▁prozesuak	-7099
▁roosevelt	-7100
▁salatzeko	-7101
▁sorturiko	-7102
▁sortzaile	-7103
▁steinbeck	-7104
▁zenbakiak	-7105
▁zuzenbide	-7106
▁zuzentzen	-7107
ckdbsuccess	-7108
nologintext	-7109
▁afroamerik	-7110
▁alkimisten	-7111
▁antartikan	-7112
▁arabiarrak	-7113
▁artikuluan	-7114
▁artikuluen	-7115
▁atlantikoa	-7116
▁aurrerapen	-7117
▁bakoitzean	-7118
▁bakoitzeko	-7119
▁bangladesh	-7120
▁batasunean	-7121
▁biografiak	-7122
▁bonbardatu	-7123
▁debekatzen	-7124
▁definitzen	-7125
▁distantzia	-7126
▁ekonomikoa	-7127
▁enperadore	-7128
▁enpresaren	-7129
▁eragindako	-7130
▁erregearen	-7131
▁erretorika	-7132
▁estatuaren	-7133
▁etnografia	-7134
▁europarrak	-7135
▁ezabatzeko	-7136
▁ezberdinak	-7137
▁fisiologia	-7138
▁fitzgerald	-7139
▁gainbehera	-7140
▁gehigarria	-7141
▁gorabehera	-7142
▁gordetzeko	-7143
▁helbiderik	-7144
▁herrietako	-7145
▁hipatiaren	-7146
▁horregatik	-7147
▁horretatik	-7148
▁idazlearen	-7149
▁informatik	-7150
▁inportante	-7151
▁institutua	-7152
▁itsasgizon	-7153
▁itsasontzi	-7154
▁jakinarazi	-7155
▁jarraitzea	-7156
▁katolikoek	-7157
▁konstantin	-7158
▁kontakizun	-7159
▁lehenagoko	-7160
▁lehenengoz	-7161
▁leporatuta	-7162
▁liburuaren	-7163
▁lurraldean	-7164
▁musulmanak	-7165
▁ordezkatuz	-7166
▁orokorrean	-7167
▁orrialdeen	-7168
▁pakistanek	-7169
▁pentsatzen	-7170
▁pertsonala	-7171
▁proposamen	-7172
▁sistemaren	-7173
▁sortzearen	-7174
▁terrorista	-7175
▁thailandia	-7176
▁txinatarra	-7177
▁unibertsal	-7178
▁unibertsoa	-7179
▁arantzazuko	-7180
▁argentinako	-7181
▁argitaratua	-7182
▁armstrongek	-7183
▁bakoitzaren	-7184
▁baliabideak	-7185
▁balutxistan	-7186
▁bereizketak	-7187
▁berpizkunde	-7188
▁christopher	-7189
▁desberdinak	-7190
▁eguneratuta	-7191
▁ekintzailea	-7192
▁erabiltzeko	-7193
▁ertzaintzak	-7194
▁euskaldunon	-7195
▁euskaltzale	-7196
▁gizartearen	-7197
▁hamargarren	-7198
▁hautatutako	-7199
▁herrialdean	-7200
▁homeostasia	-7201
▁horrenbeste	-7202
▁informatika	-7203
▁iraultzaile	-7204
▁konpainiako	-7205
▁lankidearen	-7206
▁leizarragak	-7207
▁modernoaren	-7208
▁ofizialtzat	-7209
▁oinarrituta	-7210
▁orrialderik	-7211
▁partekatzen	-7212
▁probintziak	-7213
▁tradizional	-7214
▁txekoslovak	-7215
▁txillardegi	-7216
▁uharteetako	-7217
▁zientziaren	-7218
▁zinemaldian	-7219
▁zoritxarrez	-7220
▁afganistango	-7221
▁argitaratuko	-7222
▁automatikoki	-7223
▁baitzituzten	-7224
▁berreskuratu	-7225
▁emakumezkoen	-7226
▁espainiarrak	-7227
▁estatistikak	-7228
▁frantziskoko	-7229
▁iparraldetik	-7230
▁iraultzailea	-7231
▁kategorietan	-7232
▁katolizismoa	-7233
▁komunikazioa	-7234
▁konpainiaren	-7235
▁kontrolatzen	-7236
▁metropolitar	-7237
▁nabarmentzen	-7238
▁printzipioak	-7239
▁sindikalista	-7240
▁zortzigarren	-7241
▁administratib	-7242
▁aldarrikatzen	-7243
▁arkitektoaren	-7244
▁azpikategoria	-7245
▁erabiltzailea	-7246
▁espaziontziak	-7247
▁hamaikagarren	-7248
▁herrialdearen	-7249
▁kategorizazio	-7250
▁kontinenterik	-7251
▁mugimenduaren	-7252
▁oinarritutako	-7253
▁ordenagailuak	-7254
▁ahalbideratzen	-7255
▁azpikontinente	-7256
▁esploratzailea	-7257
▁euskaltzaindia	-7258
▁garrantzitsuak	-7259
▁hamahirugarren	-7260
▁jarraitzaileek	-7261
▁konkistatzaile	-7262
▁bederatzigarren	-7263
▁euskaltzaindiak	-7264
▁konkistatzailea	-7265
▁protestantismoa	-7266
30	-7267
42	-7268
65	-7269
ao	-7270
bl	-7271
cp	-7272
cr	-7273
fc	-7274
gn	-7275
ja	-7276
kl	-7277
mi	-7278
st	-7279
uf	-7280
ui	-7281
wi	-7282
wo	-7283
ye	-7284
yi	-7285
yk	-7286
ze	-7287
zi	-7288
ια	-7289
ads	-7290
amo	-7291
ani	-7292
ant	-7293
ars	-7294
asa	-7295
ata	-7296
bit	-7297
bla	-7298
bri	-7299
km	-7300
cca	-7301
ces	-7302
dap	-7303
ddi	-7304
dem	-7305
dit	-7306
dot	-7307
dox	-7308
edr	-7309
eks	-7310
emy	-7311
esc	-7312
fan	-7313
fel	-7314
fuz	-7315
gal	-7316
gur	-7317
hia	-7318
hov	-7319
iaz	-7320
ict	-7321
icz	-7322
ieu	-7323
ifa	-7324
ili	-7325
ish	-7326
iya	-7327
izi	-7328
izk	-7329
izo	-7330
jas	-7331
jik	-7332
key	-7333
lad	-7334
law	-7335
lie	-7336
lof	-7337
lon	-7338
lot	-7339
low	-7340
lus	-7341
nas	-7342
neo	-7343
nib	-7344
nor	-7345
oba	-7346
ont	-7347
ope	-7348
osh	-7349
our	-7350
out	-7351
pah	-7352
pat	-7353
pir	-7354
rov	-7355
seg	-7356
sol	-7357
sto	-7358
tao	-7359
tev	-7360
tha	-7361
tio	-7362
try	-7363
tus	-7364
uda	-7365
uez	-7366
ulo	-7367
uma	-7368
umi	-7369
urn	-7370
usi	-7371
uze	-7372
vet	-7373
wer	-7374
wes	-7375
wig	-7376
yes	-7377
▁37	-7378
▁48	-7379
▁65	-7380
▁67	-7381
▁69	-7382
▁76	-7383
▁80	-7384
▁83	-7385
▁89	-7386
▁bl	-7387
▁ey	-7388
▁fe	-7389
▁fu	-7390
▁io	-7391
▁je	-7392
▁kr	-7393
▁ll	-7394
▁ny	-7395
▁oe	-7396
▁sl	-7397
▁vo	-7398
adal	-7399
not	-7400
agan	-7401
agon	-7402
airi	-7403
akan	-7404
alea	-7405
alen	-7406
aliz	-7407
aloi	-7408
alpa	-7409
amet	-7410
anak	-7411
andu	-7412
anes	-7413
ango	-7414
anor	-7415
aran	-7416
ario	-7417
arop	-7418
asia	-7419
atti	-7420
bano	-7421
bera	-7422
blin	-7423
boan	-7424
burn	-7425
card	-7426
chen	-7427
cken	-7428
dari	-7429
deko	-7430
desc	-7431
dido	-7432
doen	-7433
edic	-7434
egon	-7435
eira	-7436
ekoz	-7437
ekua	-7438
emia	-7439
emov	-7440
enik	-7441
ermo	-7442
eron	-7443
erta	-7444
esku	-7445
etsi	-7446
ever	-7447
evis	-7448
eymo	-7449
gaia	-7450
gara	-7451
gnar	-7452
gout	-7453
haus	-7454
here	-7455
hler	-7456
iana	-7457
iban	-7458
ibel	-7459
ible	-7460
idas	-7461
idia	-7462
idor	-7463
iers	-7464
iger	-7465
ilek	-7466
illo	-7467
inel	-7468
ioke	-7469
iola	-7470
ions	-7471
ious	-7472
irez	-7473
itxu	-7474
kade	-7475
kner	-7476
lash	-7477
laus	-7478
leta	-7479
litz	-7480
mail	-7481
mako	-7482
mani	-7483
mond	-7484
name	-7485
neko	-7486
nett	-7487
nier	-7488
noul	-7489
oges	-7490
olaz	-7491
omag	-7492
opol	-7493
ores	-7494
oria	-7495
oshi	-7496
over	-7497
pera	-7498
pier	-7499
det	-7500
jal	-7501
▁qa	-7502
indi	-7503
itas	-7504
logg	-7505
neth	-7506
pson	-7507
quet	-7508
quin	-7509
rafo	-7510
rake	-7511
rats	-7512
rdal	-7513
ress	-7514
rina	-7515
ross	-7516
ruti	-7517
sari	-7518
sman	-7519
sour	-7520
tago	-7521
tale	-7522
talk	-7523
tani	-7524
tash	-7525
tgen	-7526
thus	-7527
tica	-7528
tide	-7529
tist	-7530
titz	-7531
toak	-7532
topo	-7533
tori	-7534
txun	-7535
tzio	-7536
uard	-7537
ugha	-7538
ular	-7539
unak	-7540
unda	-7541
unea	-7542
uraz	-7543
uria	-7544
usek	-7545
usen	-7546
user	-7547
uzka	-7548
vall	-7549
varo	-7550
vend	-7551
vidi	-7552
voir	-7553
witz	-7554
ytis	-7555
▁112	-7556
▁133	-7557
▁138	-7558
▁167	-7559
▁244	-7560
▁310	-7561
▁313	-7562
▁316	-7563
▁321	-7564
▁330	-7565
▁332	-7566
▁337	-7567
▁341	-7568
▁343	-7569
▁344	-7570
▁345	-7571
▁350	-7572
▁354	-7573
▁355	-7574
▁359	-7575
▁360	-7576
▁362	-7577
▁415	-7578
▁430	-7579
▁490	-7580
▁600	-7581
▁611	-7582
▁900	-7583
▁905	-7584
▁abu	-7585
▁ace	-7586
▁ait	-7587
▁ame	-7588
▁anc	-7589
▁ano	-7590
▁arz	-7591
▁bag	-7592
▁bek	-7593
▁blu	-7594
▁bry	-7595
▁cab	-7596
▁cad	-7597
▁cer	-7598
▁cre	-7599
11	-7600
si	-7601
wor	-7602
atxo	-7603
azle	-7604
fram	-7605
help	-7606
ight	-7607
loyd	-7608
▁364	-7609
▁cun	-7610
▁doa	-7611
▁dra	-7612
▁eae	-7613
▁eis	-7614
▁erm	-7615
▁ero	-7616
▁ete	-7617
▁ezb	-7618
▁fac	-7619
▁fid	-7620
▁fik	-7621
▁fus	-7622
▁gez	-7623
▁gia	-7624
▁gir	-7625
▁god	-7626
▁his	-7627
▁ibn	-7628
▁idi	-7629
▁ile	-7630
▁ily	-7631
▁img	-7632
▁inc	-7633
▁jab	-7634
▁jas	-7635
▁jun	-7636
▁kam	-7637
▁kem	-7638
▁kid	-7639
▁kio	-7640
▁kum	-7641
▁lad	-7642
▁lap	-7643
▁lez	-7644
▁lon	-7645
▁lub	-7646
▁mam	-7647
▁mcc	-7648
▁mom	-7649
▁mux	-7650
▁naz	-7651
▁nom	-7652
▁nun	-7653
▁och	-7654
▁oih	-7655
▁old	-7656
▁ote	-7657
▁pac	-7658
▁pap	-7659
▁pic	-7660
▁pie	-7661
▁pik	-7662
▁plo	-7663
▁poe	-7664
▁pur	-7665
▁ran	-7666
▁rho	-7667
▁roy	-7668
▁she	-7669
▁smo	-7670
▁soy	-7671
▁str	-7672
▁stu	-7673
▁sua	-7674
▁tig	-7675
▁tob	-7676
▁ume	-7677
▁vie	-7678
▁vig	-7679
▁wel	-7680
▁who	-7681
▁wis	-7682
▁yor	-7683
▁zek	-7684
▁zul	-7685
adore	-7686
agoak	-7687
akada	-7688
alais	-7689
aleku	-7690
allad	-7691
andan	-7692
andro	-7693
apena	-7694
argun	-7695
aroan	-7696
artza	-7697
athai	-7698
atiba	-7699
hail	-7700
ators	-7701
atuen	-7702
atzan	-7703
atzat	-7704
aziar	-7705
bador	-7706
bilen	-7707
celli	-7708
check	-7709
confl	-7710
dania	-7711
desia	-7712
effer	-7713
ekula	-7714
elari	-7715
endin	-7716
enean	-7717
eneko	-7718
enico	-7719
erlof	-7720
eroak	-7721
erran	-7722
errez	-7723
eteko	-7724
etter	-7725
evich	-7726
ezlea	-7727
ezone	-7728
ffalo	-7729
fford	-7730
field	-7731
iagor	-7732
iburu	-7733
iekin	-7734
ietor	-7735
igner	-7736
iketa	-7737
ikoaz	-7738
ikoek	-7739
ilian	-7740
illes	-7741
illon	-7742
inoko	-7743
ioten	-7744
iriko	-7745
itara	-7746
komun	-7747
larik	-7748
leiev	-7749
loade	-7750
logoa	-7751
mango	-7752
odrow	-7753
ofras	-7754
olari	-7755
onako	-7756
opean	-7757
ordin	-7758
orenz	-7759
ostak	-7760
pieta	-7761
pucci	-7762
range	-7763
rantz	-7764
ready	-7765
ribor	-7766
shall	-7767
sonen	-7768
tario	-7769
tasar	-7770
tavio	-7771
teari	-7772
teneg	-7773
teren	-7774
teria	-7775
tetik	-7776
trand	-7777
tribs	-7778
trude	-7779
tsura	-7780
tzeaz	-7781
tzela	-7782
tzien	-7783
uetan	-7784
umann	-7785
urain	-7786
urrak	-7787
urriz	-7788
usand	-7789
valid	-7790
vanni	-7791
ville	-7792
wikip	-7793
witch	-7794
ymbor	-7795
ymond	-7796
▁1349	-7797
▁1400	-7798
▁1468	-7799
▁1491	-7800
▁1500	-7801
▁1502	-7802
▁1503	-7803
▁1507	-7804
▁1513	-7805
▁1515	-7806
▁1516	-7807
▁1519	-7808
▁1525	-7809
▁1535	-7810
▁1539	-7811
▁1541	-7812
▁1542	-7813
▁1547	-7814
▁1554	-7815
▁1556	-7816
▁1566	-7817
▁1568	-7818
▁1570	-7819
▁1585	-7820
▁1594	-7821
▁1597	-7822
▁1600	-7823
▁1603	-7824
▁1615	-7825
▁1620	-7826
▁1634	-7827
▁1643	-7828
▁1650	-7829
▁1690	-7830
▁1700	-7831
▁1789	-7832
▁1796	-7833
▁1812	-7834
▁1817	-7835
▁1818	-7836
▁1819	-7837
▁1823	-7838
▁1825	-7839
▁1832	-7840
▁1834	-7841
▁1837	-7842
▁1843	-7843
▁1857	-7844
▁1860	-7845
▁1861	-7846
▁1862	-7847
▁abad	-7848
▁alpe	-7849
▁alph	-7850
▁alta	-7851
▁alum	-7852
▁alva	-7853
▁amaz	-7854
▁amin	-7855
▁anna	-7856
▁argo	-7857
▁arri	-7858
▁aski	-7859
▁aste	-7860
▁azku	-7861
▁bach	-7862
▁bapt	-7863
▁bark	-7864
▁beau	-7865
▁beir	-7866
▁bena	-7867
▁berg	-7868
▁bhut	-7869
▁biri	-7870
▁birj	-7871
▁bohr	-7872
▁boli	-7873
▁bosn	-7874
▁boto	-7875
▁boxe	-7876
▁bran	-7877
▁brun	-7878
▁cage	-7879
▁card	-7880
▁carm	-7881
▁cass	-7882
▁cela	-7883
▁char	-7884
▁cole	-7885
▁cosm	-7886
▁cron	-7887
▁dana	-7888
▁deus	-7889
▁diam	-7890
▁diff	-7891
▁duke	-7892
▁earl	-7893
▁eder	-7894
▁elor	-7895
▁emer	-7896
▁emis	-7897
▁epai	-7898
▁epik	-7899
▁erri	-7900
▁etik	-7901
▁etim	-7902
▁euri	-7903
▁evar	-7904
▁faul	-7905
▁fddi	-7906
▁file	-7907
▁flog	-7908
▁fren	-7909
▁from	-7910
▁gaia	-7911
▁gail	-7912
▁gala	-7913
▁gard	-7914
▁gari	-7915
▁gate	-7916
▁getx	-7917
▁geur	-7918
▁ghan	-7919
▁gida	-7920
▁gluz	-7921
▁gogo	-7922
▁gold	-7923
▁gond	-7924
▁gotz	-7925
▁guan	-7926
▁guti	-7927
▁hank	-7928
▁head	-7929
▁heis	-7930
▁homo	-7931
▁hura	-7932
▁iber	-7933
▁inoz	-7934
▁irla	-7935
▁iron	-7936
▁irte	-7937
▁isur	-7938
▁jaun	-7939
▁jazz	-7940
▁jend	-7941
▁josh	-7942
▁karb	-7943
▁karm	-7944
▁kaus	-7945
▁kofi	-7946
▁koro	-7947
▁krut	-7948
▁lang	-7949
▁libr	-7950
▁lind	-7951
▁lotu	-7952
▁love	-7953
▁maia	-7954
▁mand	-7955
▁mann	-7956
▁mars	-7957
▁mary	-7958
▁matt	-7959
▁mcco	-7960
▁mina	-7961
▁more	-7962
▁mott	-7963
▁neur	-7964
▁nick	-7965
▁niri	-7966
▁nord	-7967
▁nunc	-7968
▁odys	-7969
▁orek	-7970
▁orto	-7971
▁ovid	-7972
▁paco	-7973
▁pair	-7974
▁paus	-7975
▁phys	-7976
▁piar	-7977
▁polo	-7978
▁prop	-7979
▁quin	-7980
▁read	-7981
▁rhin	-7982
▁ring	-7983
▁rosa	-7984
▁ross	-7985
▁roth	-7986
▁russ	-7987
▁saul	-7988
▁schu	-7989
▁segi	-7990
▁sein	-7991
▁sher	-7992
▁shir	-7993
▁sing	-7994
▁star	-7995
▁talk	-7996
▁taxi	-7997
▁thor	-7998
▁tind	-7999
▁toni	-8000
▁tony	-8001
▁turk	-8002
▁ugal	-8003
▁unun	-8004
▁usti	-8005
▁valo	-8006
▁wang	-8007
▁ward	-8008
▁weil	-8009
▁west	-8010
▁wies	-8011
▁wins	-8012
▁zaie	-8013
▁zail	-8014
▁zain	-8015
▁zine	-8016
▁zire	-8017
agailu	-8018
aketen	-8019
amolde	-8020
antzak	-8021
araziz	-8022
asante	-8023
ations	-8024
atoria	-8025
atzail	-8026
atzera	-8027
azabal	-8028
azioko	-8029
bilela	-8030
cherek	-8031
dariak	-8032
dikoan	-8033
doratu	-8034
egintz	-8035
emoved	-8036
entris	-8037
eraino	-8038
erango	-8039
ertatu	-8040
etarra	-8041
eymour	-8042
ezkoak	-8043
ground	-8044
hletic	-8045
hualpa	-8046
iakide	-8047
ialdia	-8048
ichiro	-8049
ietako	-8050
ikarai	-8051
inetan	-8052
inguez	-8053
ingway	-8054
inique	-8055
istako	-8056
itikoa	-8057
iturik	-8058
izkrib	-8059
kausto	-8060
kinson	-8061
landar	-8062
legend	-8063
noulli	-8064
okieak	-8065
ometri	-8066
onikoa	-8067
ostomo	-8068
randek	-8069
rekoak	-8070
reneko	-8071
sfield	-8072
taldia	-8073
teratu	-8074
torioa	-8075
troren	-8076
tzetik	-8077
tzetsi	-8078
ubritu	-8079
upload	-8080
upport	-8081
vantes	-8082
▁abian	-8083
▁about	-8084
▁adina	-8085
▁aitor	-8086
▁alban	-8087
▁annan	-8088
▁aplik	-8089
▁arana	-8090
▁arang	-8091
▁ardaz	-8092
▁aritu	-8093
▁artoa	-8094
▁asiak	-8095
▁asier	-8096
▁asmoa	-8097
▁astek	-8098
▁atomo	-8099
▁atseg	-8100
▁atziz	-8101
▁azore	-8102
▁babil	-8103
▁bakar	-8104
▁baker	-8105
▁bakez	-8106
▁banku	-8107
▁baron	-8108
▁berau	-8109
▁berme	-8110
▁berna	-8111
▁bikin	-8112
▁bitan	-8113
▁brook	-8114
▁bruce	-8115
▁bueno	-8116
▁carlo	-8117
▁chand	-8118
▁clive	-8119
▁comte	-8120
▁costa	-8121
▁craig	-8122
▁dakar	-8123
▁denik	-8124
▁dents	-8125
▁derek	-8126
▁detek	-8127
▁dihar	-8128
▁diogu	-8129
▁disko	-8130
▁dizki	-8131
▁drake	-8132
▁eajko	-8133
▁edwin	-8134
▁egina	-8135
▁epaia	-8136
▁erdar	-8137
▁erosi	-8138
▁errez	-8139
▁eskal	-8140
▁espan	-8141
▁etika	-8142
▁eubea	-8143
▁fermi	-8144
▁ferre	-8145
▁flash	-8146
▁flora	-8147
▁fortu	-8148
▁franz	-8149
▁fritz	-8150
▁gaitu	-8151
▁gaitz	-8152
▁gastu	-8153
▁gauss	-8154
▁gelto	-8155
▁geure	-8156
▁gilen	-8157
▁giorg	-8158
▁gordi	-8159
▁grant	-8160
▁green	-8161
▁groen	-8162
▁haiti	-8163
▁haize	-8164
▁hamid	-8165
▁hawai	-8166
▁hebre	-8167
▁herio	-8168
▁hersh	-8169
▁hertz	-8170
▁hilda	-8171
▁holly	-8172
▁human	-8173
▁hutsa	-8174
▁ihesl	-8175
▁immun	-8176
▁inbis	-8177
▁infin	-8178
▁iratz	-8179
▁irwin	-8180
▁istil	-8181
▁itali	-8182
▁izotz	-8183
▁janet	-8184
▁jaten	-8185
▁jaume	-8186
▁jodie	-8187
▁josep	-8188
▁kasua	-8189
▁katea	-8190
▁kentz	-8191
▁kodea	-8192
▁konpu	-8193
▁krebs	-8194
▁lanek	-8195
▁lanka	-8196
▁leigh	-8197
▁lekuz	-8198
▁lesak	-8199
▁lloyd	-8200
▁login	-8201
▁loira	-8202
▁maite	-8203
▁makal	-8204
▁malta	-8205
▁maris	-8206
▁marka	-8207
▁marte	-8208
▁mateo	-8209
▁maxim	-8210
▁meatz	-8211
▁medio	-8212
▁migel	-8213
▁milio	-8214
▁minor	-8215
▁mintz	-8216
▁moore	-8217
▁motak	-8218
▁motel	-8219
▁mundo	-8220
▁noski	-8221
▁obama	-8222
▁obrak	-8223
▁osoko	-8224
▁other	-8225
▁ovidi	-8226
▁palme	-8227
▁paper	-8228
▁pearl	-8229
▁pisua	-8230
▁power	-8231
▁prefs	-8232
▁preso	-8233
▁proba	-8234
▁prosa	-8235
▁proto	-8236
▁puden	-8237
▁puntu	-8238
▁queen	-8239
▁reich	-8240
▁rekin	-8241
▁rodan	-8242
▁ruben	-8243
▁segur	-8244
▁sekul	-8245
▁sendo	-8246
▁silog	-8247
▁silva	-8248
▁sinta	-8249
▁sizil	-8250
▁somal	-8251
▁south	-8252
▁spiri	-8253
▁stock	-8254
▁sunda	-8255
▁tibet	-8256
▁tokia	-8257
▁trail	-8258
▁truke	-8259
▁turko	-8260
▁tuter	-8261
▁ukatu	-8262
▁urdan	-8263
▁urria	-8264
▁vinci	-8265
▁vitor	-8266
▁wales	-8267
▁walsh	-8268
▁zedin	-8269
▁zunda	-8270
▁zuria	-8271
agelist	-8272
aketari	-8273
amerika	-8274
andarra	-8275
anerrak	-8276
atorioa	-8277
atuagoa	-8278
berdina	-8279
bilibus	-8280
comment	-8281
confirm	-8282
dinaren	-8283
ditzeko	-8284
enetako	-8285
enstein	-8286
entzian	-8287
history	-8288
ikondoa	-8289
ismoari	-8290
ismorik	-8291
italetx	-8292
itarrak	-8293
itasmoa	-8294
itateak	-8295
itzaile	-8296
izialak	-8297
kadetan	-8298
katzeko	-8299
keraren	-8300
message	-8301
oldioak	-8302
ologiak	-8303
penaren	-8304
posizio	-8305
redirec	-8306
section	-8307
taldeko	-8308
terioak	-8309
tituzio	-8310
tzakeen	-8311
tziaren	-8312
udiatuz	-8313
ularren	-8314
ultzean	-8315
urchill	-8316
urrenik	-8317
vendish	-8318
▁aberas	-8319
▁adarra	-8320
▁aditza	-8321
▁aginte	-8322
▁agiria	-8323
▁ahalik	-8324
▁ajuria	-8325
▁alaska	-8326
▁alerta	-8327
▁alicia	-8328
▁alkate	-8329
▁alpeak	-8330
▁anatol	-8331
▁anatom	-8332
▁andrew	-8333
▁antero	-8334
▁arbaso	-8335
▁arbola	-8336
▁arcnet	-8337
▁areago	-8338
▁artiko	-8339
▁atleta	-8340
▁azpeit	-8341
▁azteka	-8342
▁barack	-8343
▁baroia	-8344
▁bateko	-8345
▁batere	-8346
▁batzar	-8347
▁bazara	-8348
▁bazuen	-8349
▁begira	-8350
▁behean	-8351
▁benjam	-8352
▁bering	-8353
▁bestea	-8354
▁betiko	-8355
▁biolin	-8356
▁birman	-8357
▁blokeo	-8358
▁borneo	-8359
▁botere	-8360
▁brugha	-8361
▁burgun	-8362
▁calais	-8363
▁camilo	-8364
▁carbal	-8365
▁castro	-8366
▁chaney	-8367
▁compan	-8368
▁comput	-8369
▁curtis	-8370
▁darwin	-8371
▁defend	-8372
▁dennis	-8373
▁denzel	-8374
▁dorrea	-8375
▁dublin	-8376
▁duvall	-8377
▁ederra	-8378
▁eduard	-8379
▁eginez	-8380
▁egongo	-8381
▁ekaitz	-8382
▁ekital	-8383
▁eleber	-8384
▁elikag	-8385
▁elizan	-8386
▁ematea	-8387
▁enpleg	-8388
▁enrico	-8389
▁erabak	-8390
▁eragoz	-8391
▁eramat	-8392
▁erasoa	-8393
▁erator	-8394
▁eratuz	-8395
▁erkide	-8396
▁erroma	-8397
▁errota	-8398
▁esaldi	-8399
▁esatea	-8400
▁esfera	-8401
▁eskand	-8402
▁espero	-8403
▁euroko	-8404
▁fausto	-8405
▁filmak	-8406
▁frisch	-8407
▁galois	-8408
▁gandhi	-8409
▁ganges	-8410
▁garaik	-8411
▁garela	-8412
▁gaulle	-8413
▁gauzak	-8414
▁gaztea	-8415
▁gilles	-8416
▁graham	-8417
▁guyana	-8418
▁halako	-8419
▁hamarr	-8420
▁handiz	-8421
▁harira	-8422
▁harmon	-8423
▁harrap	-8424
▁harrik	-8425
▁hasiko	-8426
▁hasita	-8427
▁hastea	-8428
▁hazten	-8429
▁hemere	-8430
▁herodo	-8431
▁hillar	-8432
▁hiperk	-8433
▁hitzar	-8434
▁hobeto	-8435
▁horixe	-8436
▁hortik	-8437
▁ibaiek	-8438
▁inazio	-8439
▁inongo	-8440
▁inspek	-8441
▁instal	-8442
▁iraken	-8443
▁irkuts	-8444
▁izenpe	-8445
▁jaureg	-8446
▁jaurti	-8447
▁jendez	-8448
▁jerome	-8449
▁joaten	-8450
▁jospin	-8451
▁julius	-8452
▁kablea	-8453
▁kaidak	-8454
▁kalbin	-8455
▁kardin	-8456
▁karzai	-8457
▁katedr	-8458
▁kideak	-8459
▁kideen	-8460
▁kolpea	-8461
▁konpar	-8462
▁konrad	-8463
▁kosmet	-8464
▁kritik	-8465
▁lander	-8466
▁legedi	-8467
▁lekuan	-8468
▁libano	-8469
▁logout	-8470
▁loinaz	-8471
▁lorenz	-8472
▁lotzea	-8473
▁lukeen	-8474
▁lutero	-8475
▁malawi	-8476
▁mannek	-8477
▁marcel	-8478
▁mehatx	-8479
▁moduko	-8480
▁monako	-8481
▁montes	-8482
▁murriz	-8483
▁myrdal	-8484
▁nahian	-8485
▁nahiko	-8486
▁nahita	-8487
▁napier	-8488
▁neruda	-8489
▁netwar	-8490
▁organo	-8491
▁orobat	-8492
▁osagai	-8493
▁paragu	-8494
▁pasatu	-8495
▁pirata	-8496
▁pitias	-8497
▁poston	-8498
▁presio	-8499
▁rachel	-8500
▁ragnar	-8501
▁reagan	-8502
▁republ	-8503
▁romain	-8504
▁ruairi	-8505
▁sakatu	-8506
▁sarean	-8507
▁sareen	-8508
▁schell	-8509
▁schrod	-8510
▁schuma	-8511
▁schwar	-8512
▁serbia	-8513
▁sierra	-8514
▁sintes	-8515
▁sortua	-8516
▁suitza	-8517
▁sultan	-8518
▁switch	-8519
▁tamain	-8520
▁teresa	-8521
▁tokian	-8522
▁tokiko	-8523
▁trigon	-8524
▁trotsk	-8525
▁truman	-8526
▁txomin	-8527
▁uholde	-8528
▁umezur	-8529
▁urbano	-8530
▁varela	-8531
▁warren	-8532
▁watson	-8533
▁willem	-8534
▁zeintz	-8535
▁zembla	-8536
▁zeukan	-8537
▁zinego	-8538
▁zuzena	-8539
andantea	-8540
antzaren	-8541
arentzat	-8542
arrerako	-8543
arrienak	-8544
atzekoak	-8545
conflict	-8546
entziako	-8547
erantziz	-8548
istoaren	-8549
izazioak	-8550
izazioan	-8551
jikistan	-8552
messages	-8553
ographic	-8554
osgarren	-8555
tasunari	-8556
tasunean	-8557
teagatik	-8558
ymborska	-8559
▁abarren	-8560
▁adarrak	-8561
▁afrikar	-8562
▁agerpen	-8563
▁ahalmen	-8564
▁aintzat	-8565
▁akatsak	-8566
▁alargun	-8567
▁aldaera	-8568
▁aldetik	-8569
▁aljeria	-8570
▁alkatea	-8571
▁alkimia	-8572
▁amaraun	-8573
▁ancient	-8574
▁andrews	-8575
▁armenia	-8576
▁arriaga	-8577
▁atalean	-8578
▁augusto	-8579
▁aurrean	-8580
▁azalpen	-8581
▁babestu	-8582
▁badakit	-8583
▁baimena	-8584
▁baititu	-8585
▁baitute	-8586
▁bakunak	-8587
▁baliatu	-8588
▁beatles	-8589
▁belgika	-8590
▁berandu	-8591
▁bermatu	-8592
▁bidezko	-8593
▁blocked	-8594
▁bordele	-8595
▁braille	-8596
▁bridget	-8597
▁bulgari	-8598
▁deritzo	-8599
▁direnez	-8600
▁ditzake	-8601
▁duenari	-8602
▁edizioa	-8603
▁edonork	-8604
▁edouard	-8605
▁eduardo	-8606
▁edwards	-8607
▁egipton	-8608
▁eguzkia	-8609
▁ekarpen	-8610
▁ekuador	-8611
▁ekuazio	-8612
▁elizako	-8613
▁elizegi	-8614
▁eraikia	-8615
▁erasoak	-8616
▁eremuan	-8617
▁ernesto	-8618
▁erreinu	-8619
▁errepik	-8620
▁eskaera	-8621
▁eskutik	-8622
▁eslovak	-8623
▁esteban	-8624
▁estepak	-8625
▁estrein	-8626
▁europak	-8627
▁ezizena	-8628
▁eztanda	-8629
▁faktore	-8630
▁famatua	-8631
▁faustin	-8632
▁federal	-8633
▁fenomen	-8634
▁formula	-8635
▁fundatu	-8636
▁futbola	-8637
▁gainean	-8638
▁garaitu	-8639
▁gazteek	-8640
▁georgia	-8641
▁gerrari	-8642
▁gerrill	-8643
▁geruzan	-8644
▁gidaria	-8645
▁gorputz	-8646
▁gorriak	-8647
▁greziak	-8648
▁haitiko	-8649
▁hauexek	-8650
▁herriak	-8651
▁herrien	-8652
▁himalai	-8653
▁history	-8654
▁hizkera	-8655
▁hiztegi	-8656
▁idatzia	-8657
▁ikaslea	-8658
▁ikasten	-8659
▁inorgan	-8660
▁iritzia	-8661
▁istorio	-8662
▁itsaser	-8663
▁itxarop	-8664
▁izarrak	-8665
▁izarren	-8666
▁jaiotza	-8667
▁janeiro	-8668
▁jarrera	-8669
▁jarrita	-8670
▁jartzea	-8671
▁joaquin	-8672
▁joateko	-8673
▁joniako	-8674
▁kalteak	-8675
▁kanadan	-8676
▁kartago	-8677
▁kartzel	-8678
▁kenneth	-8679
▁kimikak	-8680
▁kimikoa	-8681
▁klasiko	-8682
▁kontatu	-8683
▁kontsum	-8684
▁koordin	-8685
▁koreako	-8686
▁krutwig	-8687
▁lanaren	-8688
▁lantegi	-8689
▁legegiz	-8690
▁lehenak	-8691
▁lehengo	-8692
▁liburuz	-8693
▁lisboan	-8694
▁lorrena	-8695
▁lortuko	-8696
▁lortzea	-8697
▁lotzeko	-8698
▁lukeela	-8699
▁lurrera	-8700
▁maathai	-8701
▁mandela	-8702
▁marinel	-8703
▁marteko	-8704
▁martiri	-8705
▁martxoa	-8706
▁mendits	-8707
▁metamor	-8708
▁metroko	-8709
▁michele	-8710
▁mikhail	-8711
▁moskuko	-8712
▁nazioak	-8713
▁nobleak	-8714
▁noemail	-8715
▁nuncius	-8716
▁octavio	-8717
▁onenari	-8718
▁optikoa	-8719
▁orkestr	-8720
▁osatuta	-8721
▁paleont	-8722
▁pantani	-8723
▁parisko	-8724
▁parteka	-8725
▁partida	-8726
▁phillip	-8727
▁piarres	-8728
▁pilotal	-8729
▁preview	-8730
▁protect	-8731
▁protein	-8732
▁ramirez	-8733
▁raymond	-8734
▁renault	-8735
▁roberts	-8736
▁rontgen	-8737
▁russell	-8738
▁salikoa	-8739
▁saltzen	-8740
▁sesbeko	-8741
▁seymour	-8742
▁special	-8743
▁suitzar	-8744
▁suizida	-8745
▁sumatra	-8746
▁tamaina	-8747
▁teofras	-8748
▁thomson	-8749
▁tratatu	-8750
▁turkiak	-8751
▁txartel	-8752
▁txikien	-8753
▁umberto	-8754
▁urtekoa	-8755
▁wallach	-8756
▁wangari	-8757
▁winston	-8758
▁woodrow	-8759
▁xanpain	-8760
▁zaizkio	-8761
▁zatirik	-8762
▁zegoela	-8763
▁zenetik	-8764
▁zentroa	-8765
▁zigorra	-8766
▁zizkion	-8767
▁zuenari	-8768
▁zuenean	-8769
▁zurezko	-8770
▁zutenak	-8771
atzaileen	-8772
atzearren	-8773
etarikoak	-8774
iguations	-8775
itatearen	-8776
pietateak	-8777
tagonista	-8778
tenegroko	-8779
wikipedia	-8780
▁agerpena	-8781
▁aipatzea	-8782
▁aipatzen	-8783
▁aitzitik	-8784
▁akitania	-8785
▁aktoresa	-8786
▁amerindi	-8787
▁analisia	-8788
▁animalia	-8789
▁antolatu	-8790
▁arduratu	-8791
▁argitara	-8792
▁aristide	-8793
▁arriskua	-8794
▁athletic	-8795
▁baimenak	-8796
▁baitzuen	-8797
▁bakarrak	-8798
▁balendin	-8799
▁baltasar	-8800
▁baptiste	-8801
▁bataiatu	-8802
▁beauvoir	-8803
▁bereizte	-8804
▁berekoak	-8805
▁berlingo	-8806
▁bertrand	-8807
▁bideratu	-8808
▁biziaren	-8809
▁blokeoen	-8810
▁borrokak	-8811
▁braheren	-8812
▁broadcas	-8813
▁columbia	-8814
▁cookieak	-8815
▁cristina	-8816
▁daniarra	-8817
▁datorkio	-8818
▁daudenak	-8819
▁defentsa	-8820
▁deialdia	-8821
▁demograf	-8822
▁deritzon	-8823
▁dituenak	-8824
▁diziplin	-8825
▁domenico	-8826
▁egokiena	-8827
▁ekartzen	-8828
▁eraginda	-8829
▁erortzen	-8830
▁errazago	-8831
▁erregeek	-8832
▁esandako	-8833
▁espezial	-8834
▁estatist	-8835
▁estatuen	-8836
▁estetika	-8837
▁etxepare	-8838
▁euskaran	-8839
▁evariste	-8840
▁faulkner	-8841
▁federiko	-8842
▁filologo	-8843
▁funtzioa	-8844
▁gabriela	-8845
▁galestar	-8846
▁garapena	-8847
▁gehiagok	-8848
▁gehiagor	-8849
▁gehienek	-8850
▁gehienen	-8851
▁gehienez	-8852
▁geometri	-8853
▁gertaera	-8854
▁gertrude	-8855
▁giovanni	-8856
▁gogoratu	-8857
▁grekotik	-8858
▁hamabost	-8859
▁hamarkad	-8860
▁handiago	-8861
▁handirik	-8862
▁harturik	-8863
▁hasitako	-8864
▁hedadura	-8865
▁hedatzen	-8866
▁hitzaldi	-8867
▁hitzetik	-8868
▁hiztunen	-8869
▁hungaria	-8870
▁ibaiaren	-8871
▁ibarrean	-8872
▁idatzita	-8873
▁igotzeko	-8874
▁ikasteko	-8875
▁ikerlari	-8876
▁ilargian	-8877
▁interpre	-8878
▁iritziak	-8879
▁israelek	-8880
▁isurtzen	-8881
▁izateari	-8882
▁japoniak	-8883
▁kanpaina	-8884
▁karibeko	-8885
▁karlomag	-8886
▁kartzela	-8887
▁kasuetan	-8888
▁katalina	-8889
▁kimikoen	-8890
▁komikiak	-8891
▁konexioa	-8892
▁krakovia	-8893
▁lagrange	-8894
▁landaren	-8895
▁lazarrag	-8896
▁lelopean	-8897
▁leonhard	-8898
▁libanoko	-8899
▁lokaleko	-8900
▁londonek	-8901
▁mainfram	-8902
▁marrazki	-8903
▁marshall	-8904
▁martinez	-8905
▁martinus	-8906
▁modukoak	-8907
▁molekula	-8908
▁monarkia	-8909
▁mongolak	-8910
▁mongolia	-8911
▁morrison	-8912
▁nafarren	-8913
▁nagusien	-8914
▁nahasten	-8915
▁naturako	-8916
▁ohituraz	-8917
▁olinpiar	-8918
▁ongietor	-8919
▁ordokiak	-8920
▁ordokian	-8921
▁panamako	-8922
▁password	-8923
▁planetak	-8924
▁poloniar	-8925
▁prescott	-8926
▁prusiako	-8927
▁randolph	-8928
▁readonly	-8929
▁retoriko	-8930
▁rhodesia	-8931
▁richards	-8932
▁rollback	-8933
▁santiago	-8934
▁saralegi	-8935
▁selekzio	-8936
▁siberiar	-8937
▁sidereus	-8938
▁sistemat	-8939
▁sortzean	-8940
▁stiglitz	-8941
▁teologoa	-8942
▁thousand	-8943
▁tibeteko	-8944
▁tradizio	-8945
▁transmit	-8946
▁txartela	-8947
▁txikiago	-8948
▁txikiena	-8949
▁txinatar	-8950
▁udalerri	-8951
▁ugalketa	-8952
▁ugariena	-8953
▁uharteko	-8954
▁urrunegi	-8955
▁urtarril	-8956
▁urteroko	-8957
▁venezuel	-8958
▁victoria	-8959
▁viktoria	-8960
▁xakelari	-8961
▁zabaleta	-8962
▁zaharren	-8963
▁zentsura	-8964
▁zinemako	-8965
▁zirenean	-8966
▁zirribor	-8967
▁zoologia	-8968
▁zuberoar	-8969
garritasun	-8970
ogeigarren	-8971
▁abertzale	-8972
▁astekaria	-8973
▁astrologo	-8974
▁atahualpa	-8975
▁atenaseko	-8976
▁atenasera	-8977
▁atomoaren	-8978
▁atzerriko	-8979
▁aurreneko	-8980
▁azalpenak	-8981
▁azaltzeko	-8982
▁baitzuten	-8983
▁barakaldo	-8984
▁batasunan	-8985
▁batgarren	-8986
▁batzuekin	-8987
▁bederatzi	-8988
▁beharrean	-8989
▁bermatuko	-8990
▁bermatzen	-8991
▁bernoulli	-8992
▁bestelako	-8993
▁bilbaoren	-8994
▁bitarteko	-8995
▁bonaparte	-8996
▁borrokatu	-8997
▁castroren	-8998
▁cavendish	-8999
▁cervantes	-9000
▁churchill	-9001
▁copyright	-9002
▁dagoeneko	-9003
▁desagertu	-9004
▁ditzakegu	-9005
▁dominguez	-9006
▁dominikar	-9007
▁dominique	-9008
▁donegalgo	-9009
▁egitasmoa	-9010
▁egokiagoa	-9011
▁egunetako	-9012
▁ehiztaria	-9013
▁elkarteak	-9014
▁entzuteko	-9015
▁erraldoia	-9016
▁errealeko	-9017
▁erreforma	-9018
▁erregimen	-9019
▁errenditu	-9020
▁errespeta	-9021
▁erresuman	-9022
▁errusiera	-9023
▁eskualdea	-9024
▁eskubaloi	-9025
▁espainola	-9026
▁estoikoak	-9027
▁europatik	-9028
▁ezabaketa	-9029
▁ezabatuko	-9030
▁fernandez	-9031
▁fisikaren	-9032
▁francesco	-9033
▁gaitzetsi	-9034
▁gasteizko	-9035
▁genetikoa	-9036
▁gipuzkera	-9037
▁gipuzkoan	-9038
▁gizatalde	-9039
▁gobernuko	-9040
▁grezieraz	-9041
▁guillaume	-9042
▁guillermo	-9043
▁gutierrez	-9044
▁gutxiengo	-9045
▁harremana	-9046
▁hartutako	-9047
▁hasierako	-9048
▁hazkundea	-9049
▁hemingway	-9050
▁hilabetez	-9051
▁hondoratu	-9052
▁horrelako	-9053
▁idazlerik	-9054
▁identifik	-9055
▁ikerketak	-9056
▁ikerketan	-9057
▁indotxina	-9058
▁iraganeko	-9059
▁irudiaren	-9060
▁izugarria	-9061
▁jeneralak	-9062
▁jesulagun	-9063
▁kanporatu	-9064
▁katagorri	-9065
▁keplerren	-9066
▁kilometro	-9067
▁kimikaria	-9068
▁kolonbian	-9069
▁kongresua	-9070
▁konpainia	-9071
▁konposatu	-9072
▁kontsonan	-9073
▁kristauen	-9074
▁kristobal	-9075
▁kubatarra	-9076
▁laguntzen	-9077
▁laterango	-9078
▁lavoisier	-9079
▁legegintz	-9080
▁lehiakide	-9081
▁lizentzia	-9082
▁londresko	-9083
▁mantenduz	-9084
▁marseilla	-9085
▁mazedonia	-9086
▁mendikate	-9087
▁michelang	-9088
▁militante	-9089
▁mintzaira	-9090
▁mitxelena	-9091
▁molekulak	-9092
▁molekular	-9093
▁mugitzeko	-9094
▁normandia	-9095
▁norvegiar	-9096
▁objektuak	-9097
▁oinarritu	-9098
▁oinordeko	-9099
▁ordezkari	-9100
▁organismo	-9101
▁orokorrak	-9102
▁ospakizun	-9103
▁ospatzeko	-9104
▁ovidioren	-9105
▁partekatu	-9106
▁petrolioa	-9107
▁presokrat	-9108
▁produkzio	-9109
▁protected	-9110
▁psikologo	-9111
▁sebastian	-9112
▁sendagile	-9113
▁siziliako	-9114
▁softwarea	-9115
▁sustraiak	-9116
▁taldeetan	-9117
▁tenislari	-9118
▁teoriaren	-9119
▁tradizioa	-9120
▁txapeldun	-9121
▁udaltzain	-9122
▁ulertzeko	-9123
▁ultraesku	-9124
▁unibertso	-9125
▁zabaltzen	-9126
▁zaharrena	-9127
▁zartarazi	-9128
▁zaurituta	-9129
▁zenbaketa	-9130
▁ziurrenik	-9131
▁zuberoako	-9132
▁zubikarai	-9133
▁abeslariak	-9134
▁aipatutako	-9135
▁alexandria	-9136
▁alkimiaren	-9137
▁analitikoa	-9138
▁aragoikoak	-9139
▁argitaletx	-9140
▁argudiatuz	-9141
▁arkeologoa	-9142
▁arrazional	-9143
▁askotariko	-9144
▁atentatuan	-9145
▁atmosferan	-9146
▁background	-9147
▁baitzioten	-9148
▁baldintzak	-9149
▁bartzelona	-9150
▁begiratuta	-9151
▁beharrezko	-9152
▁bihurtzeko	-9153
▁bilbotarra	-9154
▁birjinaren	-9155
▁bizantziar	-9156
▁blokeatuta	-9157
▁bretainian	-9158
▁copernicus	-9159
▁daitekeela	-9160
▁danimarkak	-9161
▁desberdina	-9162
▁deskubritu	-9163
▁dituztenak	-9164
▁donostiako	-9165
▁ekintzaile	-9166
▁eleberriak	-9167
▁elektrikoa	-9168
▁elementuak	-9169
▁elkarrekin	-9170
▁enpresaria	-9171
▁erakundeak	-9172
▁erakundean	-9173
▁erkidegoko	-9174
▁erlijiosoa	-9175
▁erregenahi	-9176
▁eskatutako	-9177
▁eskualdeko	-9178
▁eskuizkrib	-9179
▁esperantoz	-9180
▁etimologia	-9181
▁etxebarria	-9182
▁filosofoek	-9183
▁frantziari	-9184
▁geografiko	-9185
▁gidaturiko	-9186
▁gizabanako	-9187
▁goikoetxea	-9188
▁gordinaren	-9189
▁goroldioak	-9190
▁groenlandi	-9191
▁hegoafrika	-9192
▁hegoaldera	-9193
▁heisenberg	-9194
▁herritarra	-9195
▁hinduismoa	-9196
▁historiaur	-9197
▁holokausto	-9198
▁hondamendi	-9199
▁horietatik	-9200
▁ingurukoak	-9201
▁inozentzio	-9202
▁internetek	-9203
▁itsasoaren	-9204
▁itzultzean	-9205
▁japoniarra	-9206
▁jupiterren	-9207
▁kaleratzen	-9208
▁konponbide	-9209
▁konposizio	-9210
▁kontzeptua	-9211
▁kulturaren	-9212
▁laguntzeko	-9213
▁landaredia	-9214
▁lurmuturra	-9215
▁lurraldeek	-9216
▁lurrikaran	-9217
▁luxenburgo	-9218
▁malaysiako	-9219
▁mendeetako	-9220
▁mendeleiev	-9221
▁mendigunea	-9222
▁misiolaria	-9223
▁morfologia	-9224
▁musulmanen	-9225
▁nabarmentz	-9226
▁nazionalak	-9227
▁neptunoren	-9228
▁normandian	-9229
▁olinpikoak	-9230
▁orbitatzen	-9231
▁organikoak	-9232
▁pakistanen	-9233
▁pentsatuko	-9234
▁periferiko	-9235
▁pertsonaia	-9236
▁politikoen	-9237
▁poloniarra	-9238
▁porrotaren	-9239
▁portugalek	-9240
▁sailkapena	-9241
▁sailkatzea	-9242
▁salbuespen	-9243
▁saltzailea	-9244
▁sobietarra	-9245
▁sokratesen	-9246
▁szymborska	-9247
▁tabakoaren	-9248
▁testamentu	-9249
▁ustelkeria	-9250
▁veneziarra	-9251
▁vietnameko	-9252
▁villasante	-9253
▁zabaltzeko	-9254
▁zamenhofek	-9255
▁zerrendako	-9256
▁aldaketarik	-9257
▁alderantziz	-9258
▁aldizkarian	-9259
▁astronomiae	-9260
▁astronomian	-9261
▁atlantikoak	-9262
▁aukeratzeko	-9263
▁baieztatzen	-9264
▁bartzelonan	-9265
▁beharrezkoa	-9266
▁berezitasun	-9267
▁berrikuntza	-9268
▁bilakatzeko	-9269
▁bizidunaren	-9270
▁biztanleria	-9271
▁bretainiera	-9272
▁britaniarra	-9273
▁defendatzen	-9274
▁dinastiaren	-9275
▁donostiarra	-9276
▁emakumearen	-9277
▁emakumezkoa	-9278
▁enplegatzen	-9279
▁erabakitzen	-9280
▁eragindakoa	-9281
▁erreferendu	-9282
▁erregealdia	-9283
▁erresumaren	-9284
▁erromatarra	-9285
▁esperantoak	-9286
▁fitxategiak	-9287
▁gobernadore	-9288
▁gudarosteak	-9289
▁herrialdeek	-9290
▁herritarrak	-9291
▁ingelesetik	-9292
▁inspektorea	-9293
▁interneteko	-9294
▁irabaziekin	-9295
▁iraultzaren	-9296
▁komandantea	-9297
▁konstituzio	-9298
▁kontinentea	-9299
▁kopernikori	-9300
▁mendebalean	-9301
▁mendebaleko	-9302
▁microsoftek	-9303
▁molekularra	-9304
▁mugimenduak	-9305
▁nagusietako	-9306
▁naturalista	-9307
▁oinarritzat	-9308
▁pentsalaria	-9309
▁pentsamolde	-9310
▁publikoetan	-9311
▁schrodinger	-9312
▁sitesupport	-9313
▁sorginkeria	-9314
▁sozialisten	-9315
▁wikipediari	-9316
▁zazpigarren	-9317
▁zeharkatzen	-9318
▁zerbitzaria	-9319
▁zitzaizkion	-9320
▁argazkilaria	-9321
▁artikuluaren	-9322
▁atmosferikoa	-9323
▁aurkikuntzak	-9324
▁beasaindarra	-9325
▁bibliografia	-9326
▁donostiarrak	-9327
▁emakumezkoak	-9328
▁enpresaburua	-9329
▁erabilgarria	-9330
▁erromantzeak	-9331
▁erromatarrek	-9332
▁etorkizunean	-9333
▁euskaltzaina	-9334
▁ezinbestekoa	-9335
▁flogistoaren	-9336
▁frantsesetik	-9337
▁gitarrajolea	-9338
▁hamabigarren	-9339
▁hamarkadetan	-9340
▁heliozentris	-9341
▁hiperkategor	-9342
▁hobespenetan	-9343
▁ingalaterran	-9344
▁kategoriarik	-9345
▁komunikabide	-9346
▁kontinentala	-9347
▁lehenbizikoz	-9348
▁lurraldearen	-9349
▁luxenburgoko	-9350
▁metropolitan	-9351
▁mitterrandek	-9352
▁montenegroko	-9353
▁nabarmentzea	-9354
▁nabigatzaile	-9355
▁nagusitasuna	-9356
▁nazionalista	-9357
▁pentsamendua	-9358
▁philosophers	-9359
▁portugesezko	-9360
▁propietateak	-9361
▁protagonista	-9362
▁zerrendatzen	-9363
▁aipagarrienak	-9364
▁argitaratzeko	-9365
▁birzuzenketak	-9366
▁desberdinetan	-9367
▁diferentziala	-9368
▁diplomatikoak	-9369
▁diseinatzaile	-9370
▁eleberrigilea	-9371
▁fitxategiaren	-9372
▁hamabosgarren	-9373
▁hamalaugarren	-9374
▁instrumentuak	-9375
▁komunikazioan	-9376
▁konplexutasun	-9377
▁leizarragaren	-9378
▁medikuntzaren	-9379
▁onenetarikoak	-9380
▁recentchanges	-9381
▁trigonometria	-9382
▁txantiloiaren	-9383
▁urrutikoetxea	-9384
▁zientzialaria	-9385
▁zuzendariaren	-9386
▁afroamerikarra	-9387
▁azpikategoriak	-9388
▁biztanleriaren	-9389
▁enperadorearen	-9390
▁erabiltzaileak	-9391
▁erabiltzaileen	-9392
▁erregealdiaren	-9393
▁heliozentrikoa	-9394
▁hizkuntzetatik	-9395
▁informazioaren	-9396
▁inportanteenak	-9397
▁legebiltzarrak	-9398
▁nafarroakoaren	-9399
▁neoplatonismoa	-9400
▁unibertsitatea	-9401
▁zenbaterainoko	-9402
▁administratiboa	-9403
▁disambiguations	-9404
▁estatubatuarrek	-9405
▁hemeretzigarren	-9406
▁independentista	-9407
▁txekoslovakiako	-9408
▁unibertsitatean	-9409
ky	-9410
vn	-9411
200	-9412
cep	-9413
chu	-9414
cre	-9415
dad	-9416
dat	-9417
dow	-9418
ech	-9419
edo	-9420
eer	-9421
eib	-9422
ext	-9423
hoa	-9424
iez	-9425
igi	-9426
kel	-9427
lay	-9428
mig	-9429
pac	-9430
poa	-9431
qlk	-9432
rid	-9433
sea	-9434
tet	-9435
tov	-9436
toz	-9437
txu	-9438
ums	-9439
zhi	-9440
zle	-9441
▁00	-9442
▁53	-9443
▁84	-9444
▁bg	-9445
▁cr	-9446
▁ox	-9447
▁ve	-9448
▁μα	-9449
2006	-9450
abad	-9451
ados	-9452
agor	-9453
agua	-9454
alip	-9455
apen	-9456
ariz	-9457
atok	-9458
bahn	-9459
berr	-9460
blea	-9461
borg	-9462
ccio	-9463
cion	-9464
cios	-9465
cums	-9466
dala	-9467
dana	-9468
ebio	-9469
eing	-9470
elek	-9471
ends	-9472
enze	-9473
este	-9474
etta	-9475
fied	-9476
foro	-9477
gett	-9478
glie	-9479
gore	-9480
haiz	-9481
hiak	-9482
hide	-9483
iani	-9484
igan	-9485
igen	-9486
imer	-9487
imon	-9488
inka	-9489
inks	-9490
into	-9491
intx	-9492
iops	-9493
itua	-9494
jole	-9495
khwa	-9496
klez	-9497
kova	-9498
ladi	-9499
pf	-9500
azp	-9501
dam	-9502
doz	-9503
ild	-9504
isb	-9505
rup	-9506
sel	-9507
aide	-9508
akes	-9509
ansk	-9510
arob	-9511
atro	-9512
cako	-9513
colm	-9514
desa	-9515
imov	-9516
inda	-9517
isek	-9518
izon	-9519
leaf	-9520
lerk	-9521
mans	-9522
mara	-9523
meka	-9524
miel	-9525
move	-9526
oach	-9527
okra	-9528
ollo	-9529
onek	-9530
padd	-9531
paul	-9532
pert	-9533
phan	-9534
piry	-9535
pren	-9536
rall	-9537
rimm	-9538
rong	-9539
serv	-9540
slet	-9541
ssem	-9542
ster	-9543
ston	-9544
thly	-9545
tive	-9546
tone	-9547
tsin	-9548
tzap	-9549
udal	-9550
uela	-9551
ukre	-9552
ulfo	-9553
unde	-9554
ushi	-9555
utio	-9556
venz	-9557
vitz	-9558
vlov	-9559
wood	-9560
xita	-9561
yard	-9562
zalo	-9563
zito	-9564
▁050	-9565
▁119	-9566
▁140	-9567
▁277	-9568
▁307	-9569
▁326	-9570
▁334	-9571
▁340	-9572
▁357	-9573
▁390	-9574
▁399	-9575
▁427	-9576
▁498	-9577
▁517	-9578
▁520	-9579
▁546	-9580
▁604	-9581
▁610	-9582
▁650	-9583
▁810	-9584
▁aku	-9585
▁anj	-9586
▁ark	-9587
▁ash	-9588
▁bec	-9589
▁bom	-9590
▁che	-9591
▁cob	-9592
▁elb	-9593
▁els	-9594
▁elv	-9595
▁esz	-9596
▁euf	-9597
▁gig	-9598
▁heb	-9599
ali	-9600
cus	-9601
iot	-9602
mek	-9603
mio	-9604
orr	-9605
zek	-9606
▁og	-9607
▁wy	-9608
arck	-9609
azen	-9610
czek	-9611
dean	-9612
duan	-9613
hena	-9614
ogel	-9615
olak	-9616
rien	-9617
vill	-9618
▁348	-9619
▁460	-9620
▁baf	-9621
▁bix	-9622
▁gro	-9623
▁hes	-9624
▁hex	-9625
▁hey	-9626
▁hop	-9627
▁huy	-9628
▁ipb	-9629
▁irv	-9630
▁iso	-9631
▁izp	-9632
▁jop	-9633
▁jox	-9634
▁joy	-9635
▁kip	-9636
▁kix	-9637
▁kus	-9638
▁lcr	-9639
▁loc	-9640
▁lug	-9641
▁nai	-9642
▁nak	-9643
▁nav	-9644
▁nir	-9645
▁one	-9646
▁oss	-9647
▁pax	-9648
▁pig	-9649
▁pom	-9650
▁ral	-9651
▁rat	-9652
▁ray	-9653
▁rol	-9654
▁rra	-9655
▁ruh	-9656
▁sap	-9657
▁sed	-9658
▁sic	-9659
▁soc	-9660
▁spl	-9661
▁sti	-9662
▁suk	-9663
▁sut	-9664
▁tcp	-9665
▁tub	-9666
▁vaz	-9667
▁way	-9668
▁woj	-9669
▁xel	-9670
▁xia	-9671
▁zes	-9672
▁zoe	-9673
ablan	-9674
aburo	-9675
adiko	-9676
aerak	-9677
aikov	-9678
aille	-9679
ainak	-9680
alaia	-9681
alari	-9682
aldar	-9683
aldon	-9684
allan	-9685
amoko	-9686
anean	-9687
anitz	-9688
annis	-9689
anted	-9690
ardan	-9691
aroak	-9692
arrel	-9693
aseak	-9694
ateac	-9695
aziak	-9696
aziek	-9697
babil	-9698
berta	-9699
ha	-9700
xk	-9701
ος	-9702
bas	-9703
dra	-9704
gil	-9705
hun	-9706
jon	-9707
loa	-9708
mus	-9709
ves	-9710
▁99	-9711
▁ay	-9712
▁gn	-9713
▁lt	-9714
▁va	-9715
ague	-9716
alon	-9717
azea	-9718
bord	-9719
gako	-9720
inoa	-9721
king	-9722
opin	-9723
osio	-9724
tute	-9725
vili	-9726
▁828	-9727
▁apl	-9728
▁ela	-9729
▁gnu	-9730
▁hag	-9731
▁hew	-9732
▁khy	-9733
▁vel	-9734
▁viv	-9735
cconi	-9736
ckbtn	-9737
color	-9738
cooki	-9739
corde	-9740
creek	-9741
daino	-9742
dapes	-9743
diako	-9744
ehala	-9745
eiman	-9746
ename	-9747
ences	-9748
endee	-9749
endel	-9750
entur	-9751
erkia	-9752
etalk	-9753
fazea	-9754
fonia	-9755
grama	-9756
herbr	-9757
hibit	-9758
hleen	-9759
hotsk	-9760
hstan	-9761
iakoa	-9762
ialki	-9763
iavel	-9764
icain	-9765
ieman	-9766
iffel	-9767
ilari	-9768
inpah	-9769
inska	-9770
irita	-9771
isian	-9772
ister	-9773
itano	-9774
ituta	-9775
itzan	-9776
ivery	-9777
karra	-9778
katua	-9779
keini	-9780
kider	-9781
kizia	-9782
kotik	-9783
lanak	-9784
lando	-9785
lesko	-9786
lingu	-9787
lists	-9788
mages	-9789
mante	-9790
naeus	-9791
nelio	-9792
odoro	-9793
okian	-9794
orena	-9795
oshio	-9796
ozena	-9797
patia	-9798
perat	-9799
ax	-9800
▁α	-9801
iac	-9802
ibo	-9803
kar	-9804
rum	-9805
▁79	-9806
agar	-9807
axun	-9808
erur	-9809
hara	-9810
ibar	-9811
ikaz	-9812
isio	-9813
itak	-9814
lace	-9815
olle	-9816
tler	-9817
▁251	-9818
▁353	-9819
▁358	-9820
▁aul	-9821
▁dri	-9822
▁dul	-9823
▁ess	-9824
▁gat	-9825
▁ion	-9826
▁kit	-9827
▁sax	-9828
▁sci	-9829
duain	-9830
orica	-9831
prefs	-9832
quieu	-9833
rasek	-9834
rects	-9835
taina	-9836
talki	-9837
tarik	-9838
tarko	-9839
tenay	-9840
trass	-9841
tsiak	-9842
tzena	-9843
tzian	-9844
udson	-9845
uirre	-9846
uktur	-9847
ulgen	-9848
uneak	-9849
uriko	-9850
ustua	-9851
valas	-9852
veyor	-9853
xenab	-9854
ytica	-9855
zeneg	-9856
▁1049	-9857
▁1119	-9858
▁1284	-9859
▁1293	-9860
▁1320	-9861
▁1367	-9862
▁1387	-9863
▁1412	-9864
▁1423	-9865
▁1425	-9866
▁1441	-9867
▁1450	-9868
▁1452	-9869
▁1472	-9870
▁1475	-9871
▁1483	-9872
▁1484	-9873
▁1509	-9874
▁1514	-9875
▁1520	-9876
▁1532	-9877
▁1549	-9878
▁1582	-9879
▁1595	-9880
▁1605	-9881
▁1623	-9882
▁1627	-9883
▁1682	-9884
▁1713	-9885
▁1728	-9886
▁1740	-9887
▁1752	-9888
▁1770	-9889
▁1855	-9890
▁2038	-9891
▁abai	-9892
▁abor	-9893
▁adde	-9894
▁ahol	-9895
▁aiel	-9896
▁alas	-9897
▁amel	-9898
▁amez	-9899
24	-9900
sb	-9901
zt	-9902
οτ	-9903
cie	-9904
tok	-9905
ust	-9906
auer	-9907
deus	-9908
ietz	-9909
itze	-9910
loju	-9911
rado	-9912
teen	-9913
turo	-9914
tzun	-9915
ukun	-9916
▁dam	-9917
▁dug	-9918
▁eso	-9919
▁hou	-9920
▁hut	-9921
▁lig	-9922
▁lou	-9923
▁tem	-9924
arran	-9925
atore	-9926
carra	-9927
egiak	-9928
iboak	-9929
lorik	-9930
rogen	-9931
▁1496	-9932
▁1779	-9933
▁amik	-9934
▁anai	-9935
▁ando	-9936
▁anno	-9937
▁arak	-9938
▁atez	-9939
▁aton	-9940
▁axio	-9941
▁azur	-9942
▁bank	-9943
▁baxu	-9944
▁behe	-9945
▁behi	-9946
▁beso	-9947
▁beta	-9948
▁biar	-9949
▁biek	-9950
▁bios	-9951
▁book	-9952
▁chap	-9953
▁chic	-9954
▁ciar	-9955
▁cind	-9956
▁city	-9957
▁cons	-9958
▁cres	-9959
▁dail	-9960
▁dama	-9961
▁dead	-9962
▁desm	-9963
▁diak	-9964
▁dial	-9965
▁disk	-9966
▁drey	-9967
▁eajk	-9968
▁efes	-9969
▁elur	-9970
▁emir	-9971
▁eres	-9972
▁eris	-9973
▁esle	-9974
▁esti	-9975
▁exij	-9976
▁faro	-9977
▁finn	-9978
▁flan	-9979
▁flem	-9980
▁four	-9981
▁fraz	-9982
▁fres	-9983
▁gals	-9984
▁gang	-9985
▁gela	-9986
▁gide	-9987
▁gink	-9988
▁giul	-9989
▁gren	-9990
▁hara	-9991
▁hayd	-9992
▁help	-9993
▁hier	-9994
▁hubs	-9995
▁hume	-9996
▁ibar	-9997
▁idor	-9998
▁igel	-9999
34	-10000
91	-10001
▁ф	-10002
cin	-10003
dog	-10004
esh	-10005
nen	-10006
tko	-10007
uat	-10008
xeg	-10009
▁bb	-10010
aine	-10011
erna	-10012
iand	-10013
ides	-10014
orio	-10015
uzia	-10016
▁aff	-10017
▁bay	-10018
▁dog	-10019
▁dre	-10020
▁hof	-10021
▁ida	-10022
▁neb	-10023
▁png	-10024
▁try	-10025
athan	-10026
bieko	-10027
ilako	-10028
onian	-10029
untze	-10030
▁1234	-10031
▁1445	-10032
▁1691	-10033
▁abel	-10034
▁dion	-10035
▁gino	-10036
▁guzt	-10037
▁hong	-10038
▁horn	-10039
▁ilaz	-10040
▁ilya	-10041
▁imaj	-10042
▁imap	-10043
▁imgh	-10044
▁isdn	-10045
▁izag	-10046
▁jaia	-10047
▁jaus	-10048
▁jeff	-10049
▁joel	-10050
▁kahn	-10051
▁kate	-10052
▁kend	-10053
▁kenz	-10054
▁kiss	-10055
▁knut	-10056
▁konb	-10057
▁korn	-10058
▁krom	-10059
▁krug	-10060
▁kuip	-10061
▁kurd	-10062
▁kurt	-10063
▁lain	-10064
▁lamb	-10065
▁last	-10066
▁leop	-10067
▁lieb	-10068
▁load	-10069
▁luge	-10070
▁made	-10071
▁mayo	-10072
▁mena	-10073
▁moda	-10074
▁motu	-10075
▁netw	-10076
▁noel	-10077
▁onat	-10078
▁onur	-10079
▁oslo	-10080
▁pakh	-10081
▁pako	-10082
▁pegg	-10083
▁perl	-10084
▁perv	-10085
▁peta	-10086
▁pete	-10087
▁plac	-10088
▁purc	-10089
▁redg	-10090
▁scar	-10091
▁shaw	-10092
▁shin	-10093
▁sieg	-10094
▁sorr	-10095
▁stub	-10096
▁teod	-10097
▁tian	-10098
▁toro	-10099
ps	-10100
yt	-10101
ait	-10102
aku	-10103
ast	-10104
erd	-10105
ezi	-10106
yko	-10107
▁bj	-10108
▁mw	-10109
alin	-10110
andr	-10111
anta	-10112
ilok	-10113
iner	-10114
lain	-10115
oran	-10116
phos	-10117
sohn	-10118
tsek	-10119
▁410	-10120
▁kob	-10121
▁vit	-10122
▁zip	-10123
aindi	-10124
eller	-10125
ssohn	-10126
▁1485	-10127
▁1529	-10128
▁1534	-10129
▁arta	-10130
▁asto	-10131
▁east	-10132
▁hoyt	-10133
▁leke	-10134
▁owen	-10135
▁pren	-10136
▁sara	-10137
▁thel	-10138
▁treb	-10139
▁tris	-10140
▁trop	-10141
▁truk	-10142
▁tryg	-10143
▁tsui	-10144
▁tsun	-10145
▁uran	-10146
▁urla	-10147
▁varg	-10148
▁vega	-10149
▁vien	-10150
▁whip	-10151
▁with	-10152
▁wole	-10153
▁zamb	-10154
▁zulo	-10155
▁zulu	-10156
agaren	-10157
akespe	-10158
anblea	-10159
aniego	-10160
anskik	-10161
araino	-10162
arrian	-10163
arrika	-10164
arroti	-10165
arsolo	-10166
askara	-10167
assare	-10168
ategia	-10169
ategik	-10170
atoian	-10171
atoshi	-10172
aziera	-10173
aziren	-10174
baijan	-10175
bargoa	-10176
berror	-10177
cumseh	-10178
darren	-10179
didoko	-10180
dietan	-10181
dwatch	-10182
edunak	-10183
egiako	-10184
egizko	-10185
endura	-10186
eppert	-10187
erimen	-10188
eslink	-10189
exists	-10190
eymani	-10191
fonoan	-10192
fquery	-10193
friede	-10194
gatzen	-10195
hammad	-10196
harrak	-10197
holmen	-10198
iander	-10199
ase	-10200
fos	-10201
hak	-10202
iae	-10203
ors	-10204
urr	-10205
vor	-10206
andt	-10207
badi	-10208
deta	-10209
eral	-10210
eras	-10211
idio	-10212
ings	-10213
ioko	-10214
orea	-10215
ting	-10216
▁207	-10217
▁311	-10218
▁bia	-10219
▁bip	-10220
▁cau	-10221
▁tar	-10222
▁zit	-10223
alter	-10224
aroko	-10225
fosis	-10226
irako	-10227
pzioa	-10228
▁1619	-10229
▁1667	-10230
▁ardi	-10231
▁darm	-10232
▁haiz	-10233
▁isil	-10234
▁koiz	-10235
▁kote	-10236
▁leuz	-10237
▁petr	-10238
▁serv	-10239
▁shor	-10240
▁urez	-10241
ataria	-10242
atorio	-10243
etitle	-10244
iarako	-10245
ibanek	-10246
ibleak	-10247
idanik	-10248
idetza	-10249
igarri	-10250
imenes	-10251
inokoa	-10252
iomiel	-10253
iorako	-10254
ismoko	-10255
itaren	-10256
itarte	-10257
itiboa	-10258
izketa	-10259
kanaka	-10260
loaded	-10261
nasoko	-10262
onacci	-10263
onberg	-10264
ongzhi	-10265
ordano	-10266
orgski	-10267
orlegi	-10268
ornell	-10269
protec	-10270
querel	-10271
quetil	-10272
razion	-10273
rearen	-10274
rekiko	-10275
reratu	-10276
retako	-10277
robetx	-10278
search	-10279
source	-10280
submit	-10281
tatzea	-10282
tearen	-10283
tegiko	-10284
tempas	-10285
terbur	-10286
ternak	-10287
terola	-10288
tianus	-10289
tigatu	-10290
timatu	-10291
titzek	-10292
topoak	-10293
tozikl	-10294
tsuena	-10295
turges	-10296
tzatik	-10297
ulazio	-10298
urrecc	-10299
gos	-10300
gow	-10301
met	-10302
ztu	-10303
▁07	-10304
▁pc	-10305
▁sn	-10306
▁tw	-10307
algo	-10308
edik	-10309
fren	-10310
icen	-10311
iken	-10312
inus	-10313
olek	-10314
tsch	-10315
ulog	-10316
▁315	-10317
▁aiz	-10318
▁deb	-10319
▁dun	-10320
▁nit	-10321
▁pay	-10322
▁ras	-10323
▁til	-10324
atari	-10325
laren	-10326
metho	-10327
mobil	-10328
tuari	-10329
▁1581	-10330
▁abis	-10331
▁altz	-10332
▁bold	-10333
▁diez	-10334
▁gary	-10335
▁pter	-10336
▁reut	-10337
▁udan	-10338
edikto	-10339
enakis	-10340
gabeak	-10341
method	-10342
tation	-10343
ulogne	-10344
urreko	-10345
uzkina	-10346
xtlink	-10347
▁aditz	-10348
▁aeben	-10349
▁ageda	-10350
▁agian	-10351
▁ahots	-10352
▁akord	-10353
▁alain	-10354
▁aldia	-10355
▁alice	-10356
▁amets	-10357
▁anaia	-10358
▁anchi	-10359
▁andie	-10360
▁antza	-10361
▁argin	-10362
▁arras	-10363
▁asken	-10364
▁askle	-10365
▁asmoz	-10366
▁astig	-10367
▁atala	-10368
▁axola	-10369
▁azkar	-10370
▁azkue	-10371
▁aznar	-10372
▁backb	-10373
▁badia	-10374
▁barna	-10375
▁bearn	-10376
▁begiz	-10377
▁belle	-10378
▁benav	-10379
▁berea	-10380
▁betty	-10381
▁bildo	-10382
▁bille	-10383
▁billy	-10384
▁bital	-10385
▁bitor	-10386
▁bizil	-10387
▁bjorn	-10388
▁blanc	-10389
▁bocca	-10390
▁borgn	-10391
▁bragg	-10392
▁bruno	-10393
▁camus	-10394
▁cecia	-10395
▁cecil	-10396
▁celso	-10397
▁chain	-10398
▁cohen	-10399
doc	-10400
kus	-10401
rau	-10402
abak	-10403
abor	-10404
ikop	-10405
odio	-10406
onoa	-10407
pata	-10408
▁bow	-10409
▁ech	-10410
▁esc	-10411
▁ric	-10412
▁set	-10413
▁ust	-10414
abeta	-10415
atiko	-10416
ezten	-10417
orman	-10418
▁1715	-10419
▁aman	-10420
▁brad	-10421
▁chen	-10422
▁foru	-10423
▁grab	-10424
▁joxe	-10425
▁oiar	-10426
▁qaed	-10427
▁zola	-10428
aintza	-10429
arioak	-10430
arpena	-10431
guedoc	-10432
icotin	-10433
izabal	-10434
ogunea	-10435
▁anime	-10436
▁bloch	-10437
▁china	-10438
▁dalai	-10439
▁dalla	-10440
▁danny	-10441
▁daria	-10442
▁deere	-10443
▁denek	-10444
▁dezan	-10445
▁diane	-10446
▁dirac	-10447
▁doinu	-10448
▁doktr	-10449
▁dolly	-10450
▁doubl	-10451
▁duzue	-10452
▁ebadi	-10453
▁edita	-10454
▁eliot	-10455
▁emily	-10456
▁enbax	-10457
▁enbor	-10458
▁enemy	-10459
▁enter	-10460
▁erako	-10461
▁errad	-10462
▁erref	-10463
▁errol	-10464
▁eskua	-10465
▁eskum	-10466
▁eslav	-10467
▁euken	-10468
▁euska	-10469
▁femen	-10470
▁feniz	-10471
▁files	-10472
▁fonet	-10473
▁gaien	-10474
▁galap	-10475
▁garag	-10476
▁garen	-10477
▁garin	-10478
▁genev	-10479
▁goian	-10480
▁goier	-10481
▁goiko	-10482
▁grafo	-10483
▁grimm	-10484
▁gross	-10485
▁habia	-10486
▁hauts	-10487
▁haydn	-10488
▁hench	-10489
▁hobek	-10490
▁honez	-10491
▁house	-10492
▁hubel	-10493
▁iatro	-10494
▁integ	-10495
▁irlak	-10496
▁jabea	-10497
▁jolea	-10498
▁jurgi	-10499
ατ	-10500
jko	-10501
mot	-10502
oul	-10503
pia	-10504
uki	-10505
xov	-10506
▁dj	-10507
▁gy	-10508
fail	-10509
flag	-10510
teri	-10511
▁317	-10512
▁328	-10513
▁aut	-10514
▁bed	-10515
▁etz	-10516
▁mek	-10517
▁pim	-10518
ector	-10519
ernet	-10520
isail	-10521
tukoa	-10522
tzail	-10523
uzeko	-10524
zabal	-10525
▁1510	-10526
▁1557	-10527
▁aime	-10528
▁ares	-10529
▁digu	-10530
▁dmit	-10531
▁goog	-10532
▁herm	-10533
▁hero	-10534
▁igan	-10535
▁itsu	-10536
▁orde	-10537
▁rein	-10538
▁zero	-10539
batxov	-10540
imaren	-10541
olanda	-10542
terium	-10543
▁autog	-10544
▁clara	-10545
▁etxez	-10546
▁galia	-10547
▁kantz	-10548
▁karra	-10549
▁kazak	-10550
▁keesh	-10551
▁koman	-10552
▁kopur	-10553
▁kotxe	-10554
▁kubak	-10555
▁lepoa	-10556
▁lindh	-10557
▁lingu	-10558
▁linus	-10559
▁lioke	-10560
▁liszt	-10561
▁llosa	-10562
▁local	-10563
▁lubiz	-10564
▁lucia	-10565
▁luxem	-10566
▁luzio	-10567
▁macdo	-10568
▁mapak	-10569
▁marki	-10570
▁mason	-10571
▁mayer	-10572
▁mccoy	-10573
▁medic	-10574
▁midas	-10575
▁milur	-10576
▁minot	-10577
▁modua	-10578
▁montz	-10579
▁moser	-10580
▁moztu	-10581
▁munch	-10582
▁mundi	-10583
▁nagib	-10584
▁nancy	-10585
▁nasda	-10586
▁nason	-10587
▁nator	-10588
▁nazia	-10589
▁nenni	-10590
▁neska	-10591
▁newar	-10592
▁niger	-10593
▁nodar	-10594
▁nolab	-10595
▁novak	-10596
▁ochoa	-10597
▁ohian	-10598
▁oreka	-10599
amu	-10600
aut	-10601
ben	-10602
dom	-10603
fra	-10604
obo	-10605
chet	-10606
chor	-10607
elov	-10608
etak	-10609
hiba	-10610
tano	-10611
tiak	-10612
tsam	-10613
▁965	-10614
▁amn	-10615
▁duk	-10616
▁gob	-10617
▁sph	-10618
▁tir	-10619
▁vos	-10620
▁was	-10621
ardoa	-10622
daria	-10623
inoak	-10624
login	-10625
tsita	-10626
▁alem	-10627
▁bale	-10628
▁gere	-10629
▁houn	-10630
▁plas	-10631
▁thar	-10632
▁urdu	-10633
atikoa	-10634
ezinak	-10635
kimika	-10636
ordeak	-10637
penean	-10638
▁baria	-10639
▁ginea	-10640
▁hidro	-10641
▁molly	-10642
▁orteg	-10643
▁osama	-10644
▁osoak	-10645
▁pages	-10646
▁paleo	-10647
▁pamir	-10648
▁pavia	-10649
▁peggy	-10650
▁pello	-10651
▁piotr	-10652
▁pirin	-10653
▁pista	-10654
▁pixka	-10655
▁plaza	-10656
▁ppren	-10657
▁praga	-10658
▁ralph	-10659
▁ramis	-10660
▁ramos	-10661
▁range	-10662
▁raoul	-10663
▁reyes	-10664
▁rulfo	-10665
▁russo	-10666
▁santi	-10667
▁sefar	-10668
▁sharp	-10669
▁short	-10670
▁sinte	-10671
▁soria	-10672
▁soroa	-10673
▁stadt	-10674
▁steve	-10675
▁storm	-10676
▁sudan	-10677
▁suiza	-10678
▁sumer	-10679
▁supos	-10680
▁susta	-10681
▁sysop	-10682
▁table	-10683
▁taiga	-10684
▁telly	-10685
▁termo	-10686
▁torre	-10687
▁torun	-10688
▁tropa	-10689
▁tupol	-10690
▁twain	-10691
▁txiro	-10692
▁uhart	-10693
▁ulloa	-10694
▁urtar	-10695
▁valer	-10696
▁vasco	-10697
▁velas	-10698
▁verne	-10699
gth	-10700
oth	-10701
▁06	-10702
▁63	-10703
▁yu	-10704
ogei	-10705
teaz	-10706
thal	-10707
till	-10708
▁361	-10709
▁lum	-10710
▁sao	-10711
▁tad	-10712
iller	-10713
imoen	-10714
inson	-10715
istia	-10716
kendo	-10717
treet	-10718
zburg	-10719
▁1530	-10720
▁1768	-10721
▁abys	-10722
▁bali	-10723
▁burt	-10724
▁coun	-10725
▁dist	-10726
▁gram	-10727
▁graz	-10728
▁loio	-10729
▁unus	-10730
▁wurt	-10731
▁yuka	-10732
einatu	-10733
istari	-10734
yanmar	-10735
▁baraz	-10736
▁barre	-10737
▁eluan	-10738
▁engle	-10739
▁eslab	-10740
▁oparo	-10741
▁pardo	-10742
▁poema	-10743
▁surin	-10744
▁tanpa	-10745
▁titan	-10746
▁trade	-10747
▁unean	-10748
▁verts	-10749
▁vieta	-10750
▁viete	-10751
▁vladi	-10752
▁wisla	-10753
▁woolf	-10754
▁wrong	-10755
▁zarra	-10756
▁zatik	-10757
▁zeina	-10758
▁zeinu	-10759
▁zenik	-10760
▁zenon	-10761
▁zezen	-10762
▁zizki	-10763
▁zorro	-10764
▁zurto	-10765
▁zutab	-10766
agunari	-10767
alderon	-10768
alladio	-10769
andiaga	-10770
arantza	-10771
arazita	-10772
arazten	-10773
aritash	-10774
aritzan	-10775
atuaren	-10776
atzenro	-10777
azpikoa	-10778
badorea	-10779
berlain	-10780
blement	-10781
chester	-10782
cookies	-10783
eaucrat	-10784
egizkoa	-10785
eksandr	-10786
elektri	-10787
eranzko	-10788
erraren	-10789
erstats	-10790
erurgia	-10791
etakoak	-10792
etarren	-10793
etterle	-10794
goberta	-10795
herbrum	-10796
ieraren	-10797
ifikatu	-10798
ikoenak	-10799
tae	-10800
txa	-10801
eini	-10802
file	-10803
zate	-10804
▁338	-10805
▁die	-10806
adden	-10807
eland	-10808
lands	-10809
maten	-10810
orrek	-10811
▁1590	-10812
▁1621	-10813
▁1756	-10814
▁1850	-10815
▁desf	-10816
▁eden	-10817
▁lord	-10818
▁mach	-10819
▁merc	-10820
▁mold	-10821
▁nilo	-10822
▁reev	-10823
▁sanz	-10824
▁ugaz	-10825
eratua	-10826
landri	-10827
▁burun	-10828
▁deseg	-10829
▁desor	-10830
▁horia	-10831
▁kalon	-10832
▁nurse	-10833
▁paten	-10834
▁poten	-10835
▁segre	-10836
imalaia	-10837
instein	-10838
iopsida	-10839
istread	-10840
ituriko	-10841
izatzen	-10842
izontal	-10843
karirik	-10844
ketarik	-10845
listsub	-10846
monauta	-10847
muniste	-10848
ografoa	-10849
ologiko	-10850
osexual	-10851
parneko	-10852
razioan	-10853
rikosov	-10854
rinaren	-10855
rogenoa	-10856
sletter	-10857
subject	-10858
success	-10859
tagailu	-10860
talista	-10861
tamaria	-10862
tasunik	-10863
temberg	-10864
tempasa	-10865
terevis	-10866
teverdi	-10867
tsuagoa	-10868
tunkhwa	-10869
xenabar	-10870
ytisolo	-10871
▁abanta	-10872
▁access	-10873
▁adolfo	-10874
▁adolph	-10875
▁adrian	-10876
▁ainger	-10877
▁ainuak	-10878
▁aitzak	-10879
▁alphon	-10880
▁altern	-10881
▁altuer	-10882
▁alvaro	-10883
▁alzate	-10884
▁amadeo	-10885
▁antxon	-10886
▁anvren	-10887
▁aparte	-10888
▁apollo	-10889
▁apurka	-10890
▁aresti	-10891
▁argitu	-10892
▁arieta	-10893
▁arkime	-10894
▁arloak	-10895
▁arraun	-10896
▁arregi	-10897
▁arroyo	-10898
▁arroza	-10899
goo	-10900
see	-10901
duta	-10902
enko	-10903
hrer	-10904
loga	-10905
mont	-10906
quil	-10907
sche	-10908
sion	-10909
zion	-10910
▁305	-10911
▁eph	-10912
▁kno	-10913
▁koh	-10914
▁luc	-10915
▁rem	-10916
▁uea	-10917
dinam	-10918
entua	-10919
eslie	-10920
ikera	-10921
nibal	-10922
riako	-10923
teina	-10924
txeak	-10925
▁1000	-10926
▁afer	-10927
▁coel	-10928
▁hess	-10929
▁traf	-10930
eratuz	-10931
goohan	-10932
ionatu	-10933
istacc	-10934
nessee	-10935
taleko	-10936
target	-10937
▁aquil	-10938
▁dadin	-10939
▁diola	-10940
▁elion	-10941
▁facto	-10942
▁iraki	-10943
▁milet	-10944
▁union	-10945
▁unite	-10946
arrezko	-10947
ozentri	-10948
version	-10949
▁accuse	-10950
▁aralar	-10951
▁arruti	-10952
▁arteta	-10953
▁arturo	-10954
▁artzap	-10955
▁asimov	-10956
▁asinus	-10957
▁asmoak	-10958
▁aspald	-10959
▁aureus	-10960
▁auster	-10961
▁azkena	-10962
▁azpiko	-10963
▁azuela	-10964
▁azukre	-10965
▁badian	-10966
▁bafana	-10967
▁baitzi	-10968
▁balioa	-10969
▁ballad	-10970
▁banyan	-10971
▁baruch	-10972
▁basoak	-10973
▁becker	-10974
▁behatu	-10975
▁beiraz	-10976
▁bellow	-10977
▁bergar	-10978
▁berlan	-10979
▁beslan	-10980
▁betean	-10981
▁bhutto	-10982
▁bideak	-10983
▁bietan	-10984
▁bikain	-10985
▁birbid	-10986
▁boeing	-10987
▁bolada	-10988
▁boleib	-10989
▁borges	-10990
▁botoia	-10991
▁broken	-10992
▁brooks	-10993
▁bufalo	-10994
▁burgos	-10995
▁burton	-10996
▁busean	-10997
▁bushek	-10998
▁caruso	-10999
yar	-11000
▁71	-11001
▁72	-11002
▁85	-11003
▁ei	-11004
aday	-11005
dupe	-11006
intz	-11007
lais	-11008
lank	-11009
liel	-11010
▁333	-11011
▁fes	-11012
▁hod	-11013
ateak	-11014
bapen	-11015
betea	-11016
errer	-11017
image	-11018
imica	-11019
ketek	-11020
tiled	-11021
▁1555	-11022
▁1561	-11023
▁1826	-11024
▁bail	-11025
▁edik	-11026
▁jerr	-11027
▁mada	-11028
▁nori	-11029
▁trav	-11030
ikoari	-11031
ilitar	-11032
kaniko	-11033
uneako	-11034
▁agath	-11035
▁atxik	-11036
▁borda	-11037
▁bravo	-11038
▁gable	-11039
▁gabon	-11040
▁guten	-11041
▁jerry	-11042
▁kanoi	-11043
▁monta	-11044
▁mugan	-11045
▁parke	-11046
atearen	-11047
erreros	-11048
logtext	-11049
▁aiello	-11050
▁celtic	-11051
▁centre	-11052
▁chemia	-11053
▁chopin	-11054
▁ciaran	-11055
▁coelho	-11056
▁conrad	-11057
▁curren	-11058
▁dalton	-11059
▁dardan	-11060
▁dauzka	-11061
▁deaths	-11062
▁deklin	-11063
▁diakri	-11064
▁dillon	-11065
▁dipton	-11066
▁disney	-11067
▁dmitri	-11068
▁doktor	-11069
▁domina	-11070
▁driver	-11071
▁dudala	-11072
▁dugula	-11073
▁edizio	-11074
▁egiter	-11075
▁egunak	-11076
▁ehunak	-11077
▁eiffel	-11078
▁elorri	-11079
▁eluana	-11080
▁enbata	-11081
▁entita	-11082
▁erlieb	-11083
▁erloju	-11084
▁ermuko	-11085
▁errein	-11086
▁ethica	-11087
▁etniko	-11088
▁etzana	-11089
▁eufrat	-11090
▁fabian	-11091
▁fabrik	-11092
▁fellin	-11093
▁fermat	-11094
▁feudal	-11095
▁filipo	-11096
▁finala	-11097
▁fitxan	-11098
▁forest	-11099
ife	-11100
nac	-11101
ova	-11102
urs	-11103
ance	-11104
anon	-11105
coln	-11106
einu	-11107
etti	-11108
ieen	-11109
oles	-11110
vans	-11111
▁124	-11112
▁apa	-11113
▁dna	-11114
▁rab	-11115
▁rit	-11116
▁riv	-11117
▁sav	-11118
remin	-11119
▁1755	-11120
▁edna	-11121
▁elie	-11122
▁gaix	-11123
▁guda	-11124
▁jura	-11125
▁life	-11126
▁meda	-11127
▁raba	-11128
▁save	-11129
▁shel	-11130
▁tasa	-11131
▁turt	-11132
isteak	-11133
tziala	-11134
▁ander	-11135
▁apost	-11136
▁bideo	-11137
▁energ	-11138
▁evans	-11139
▁jadan	-11140
▁jokin	-11141
▁konta	-11142
▁pauli	-11143
▁temin	-11144
▁trata	-11145
▁zatia	-11146
anitzek	-11147
arteren	-11148
aturatu	-11149
istango	-11150
kundeak	-11151
razioak	-11152
▁bagdad	-11153
▁dutena	-11154
▁elurte	-11155
▁foruak	-11156
▁freddy	-11157
▁fulgen	-11158
▁gabeak	-11159
▁garate	-11160
▁garbia	-11161
▁gauden	-11162
▁gaueko	-11163
▁genoma	-11164
▁gerard	-11165
▁gerren	-11166
▁getxon	-11167
▁geurea	-11168
▁gidari	-11169
▁ginkgo	-11170
▁giputz	-11171
▁gordon	-11172
▁gorpua	-11173
▁gotzon	-11174
▁guadal	-11175
▁gunter	-11176
▁gustaf	-11177
▁haltza	-11178
▁hamase	-11179
▁hamsun	-11180
▁hariri	-11181
▁hawaii	-11182
▁hector	-11183
▁hegoko	-11184
▁helena	-11185
▁henrik	-11186
▁herena	-11187
▁hideki	-11188
▁hirira	-11189
▁hoover	-11190
▁hostek	-11191
▁hudson	-11192
▁hunoak	-11193
▁hutton	-11194
▁iannis	-11195
▁idazki	-11196
▁idorra	-11197
▁ikaste	-11198
▁indira	-11199
ημα	-11200
irek	-11201
itus	-11202
kali	-11203
know	-11204
laro	-11205
lein	-11206
▁824	-11207
▁coe	-11208
▁hoo	-11209
▁orr	-11210
▁pus	-11211
iteak	-11212
keran	-11213
known	-11214
▁1508	-11215
▁1794	-11216
▁aziz	-11217
▁cell	-11218
▁chao	-11219
▁hous	-11220
▁kitx	-11221
▁magu	-11222
▁nich	-11223
▁sind	-11224
▁ahula	-11225
▁alkal	-11226
▁belar	-11227
▁bengo	-11228
▁hober	-11229
▁jokoa	-11230
▁penen	-11231
▁plata	-11232
▁rafik	-11233
▁salaz	-11234
alagoak	-11235
gutasun	-11236
itearen	-11237
▁antton	-11238
▁aurrez	-11239
▁baseak	-11240
▁batuei	-11241
▁coetze	-11242
▁galdua	-11243
▁gatazk	-11244
▁gibson	-11245
▁inolaz	-11246
▁inuita	-11247
▁irabaz	-11248
▁irauli	-11249
▁iruzur	-11250
▁irving	-11251
▁italic	-11252
▁izanez	-11253
▁izenaz	-11254
▁jabeak	-11255
▁jamaik	-11256
▁jaraun	-11257
▁joanez	-11258
▁jokoak	-11259
▁joniar	-11260
▁jostun	-11261
▁juduek	-11262
▁julene	-11263
▁justin	-11264
▁justiz	-11265
▁kabila	-11266
▁kantab	-11267
▁kantua	-11268
▁kapeto	-11269
▁kaspar	-11270
▁kasuak	-11271
▁kasura	-11272
▁kertes	-11273
▁khyber	-11274
▁kimiya	-11275
▁klenze	-11276
▁kohete	-11277
▁kooper	-11278
▁kopiak	-11279
▁koroak	-11280
▁korron	-11281
▁koteas	-11282
▁kotoia	-11283
▁kuiper	-11284
▁lanpos	-11285
▁larkin	-11286
▁larrua	-11287
▁latzak	-11288
▁laxari	-11289
▁lekeit	-11290
▁lekuko	-11291
▁leland	-11292
▁lemmon	-11293
▁leonid	-11294
▁leslie	-11295
▁libiar	-11296
▁limako	-11297
▁lingua	-11298
▁lockdb	-11299
box	-11300
rua	-11301
sec	-11302
ason	-11303
time	-11304
▁116	-11305
▁287	-11306
▁580	-11307
▁dao	-11308
▁xur	-11309
titxu	-11310
▁1575	-11311
▁1640	-11312
▁1706	-11313
▁1846	-11314
▁1851	-11315
▁abol	-11316
▁dave	-11317
▁dizu	-11318
▁eriz	-11319
▁etta	-11320
▁ipin	-11321
▁plat	-11322
▁post	-11323
▁rita	-11324
lariak	-11325
tsiora	-11326
ureoak	-11327
▁batze	-11328
▁bobby	-11329
▁kanbo	-11330
▁menor	-11331
▁menpe	-11332
▁saras	-11333
▁uztar	-11334
▁xxiii	-11335
▁zaizu	-11336
atzeari	-11337
dukzioa	-11338
eetatik	-11339
▁abesti	-11340
▁apiril	-11341
▁armatu	-11342
▁datuen	-11343
▁dermot	-11344
▁elkano	-11345
▁epikoa	-11346
▁erdian	-11347
▁esango	-11348
▁etaren	-11349
▁fikzio	-11350
▁gerrak	-11351
▁ikaske	-11352
▁karrik	-11353
▁locker	-11354
▁lodiko	-11355
▁loginp	-11356
▁logins	-11357
▁luzera	-11358
▁mahfuz	-11359
▁margin	-11360
▁martxa	-11361
▁maskul	-11362
▁massif	-11363
▁menchu	-11364
▁mendez	-11365
▁merton	-11366
▁metala	-11367
▁millay	-11368
▁misioa	-11369
▁moneta	-11370
▁monica	-11371
▁monzon	-11372
▁murphy	-11373
▁musiko	-11374
▁muskiz	-11375
▁mussol	-11376
▁mysqlk	-11377
▁nahuat	-11378
▁nansen	-11379
▁nantes	-11380
▁nasdaq	-11381
▁nathan	-11382
▁nature	-11383
▁naziek	-11384
▁nikola	-11385
▁nituen	-11386
▁norber	-11387
▁nowiki	-11388
▁obidio	-11389
▁oihana	-11390
▁okendo	-11391
▁olivia	-11392
▁omango	-11393
▁onatin	-11394
▁ordesa	-11395
▁orphan	-11396
▁ortega	-11397
▁osloko	-11398
▁osorik	-11399
rax	-11400
less	-11401
trom	-11402
▁327	-11403
▁ear	-11404
▁ibm	-11405
abank	-11406
▁1592	-11407
▁1689	-11408
▁buon	-11409
▁cook	-11410
▁itun	-11411
▁modi	-11412
▁ricc	-11413
▁topo	-11414
▁traj	-11415
ismora	-11416
landgo	-11417
▁deuna	-11418
▁juana	-11419
▁moven	-11420
▁sabin	-11421
▁saila	-11422
▁vitae	-11423
▁zubia	-11424
axuneko	-11425
istedit	-11426
▁aritza	-11427
▁baitze	-11428
▁border	-11429
▁etxeak	-11430
▁etxeko	-11431
▁ezingo	-11432
▁oregon	-11433
▁osatuz	-11434
▁ovidio	-11435
▁pacino	-11436
▁paraje	-11437
▁parmen	-11438
▁pausua	-11439
▁pedago	-11440
▁perfek	-11441
▁pervez	-11442
▁petrov	-11443
▁plague	-11444
▁planck	-11445
▁plante	-11446
▁pontus	-11447
▁potwar	-11448
▁presti	-11449
▁primit	-11450
▁qbpage	-11451
▁ramona	-11452
▁rassem	-11453
▁ratisb	-11454
▁redgra	-11455
▁revnot	-11456
▁rocard	-11457
▁romero	-11458
▁salatu	-11459
▁sardin	-11460
▁sarras	-11461
▁satira	-11462
▁saturn	-11463
▁segiko	-11464
▁segitu	-11465
▁seguru	-11466
▁sergei	-11467
▁severo	-11468
▁shinya	-11469
▁shirin	-11470
▁sinbol	-11471
▁socrat	-11472
▁sodupe	-11473
▁sortuz	-11474
▁spence	-11475
▁spirit	-11476
▁stonek	-11477
▁subtro	-11478
▁suedia	-11479
▁suezko	-11480
▁tables	-11481
▁tadeus	-11482
▁tagore	-11483
▁taldea	-11484
▁tasman	-11485
▁tazito	-11486
▁tenore	-11487
▁teolog	-11488
▁teuton	-11489
▁tigris	-11490
▁trants	-11491
▁trenek	-11492
▁tribua	-11493
▁tropek	-11494
▁trygve	-11495
▁tundra	-11496
▁tungus	-11497
▁txarra	-11498
▁txistu	-11499
num	-11500
niel	-11501
xeko	-11502
▁303	-11503
▁306	-11504
▁308	-11505
▁309	-11506
▁314	-11507
▁318	-11508
▁319	-11509
▁324	-11510
▁329	-11511
▁aer	-11512
▁cox	-11513
▁day	-11514
▁get	-11515
▁und	-11516
irain	-11517
izial	-11518
▁1478	-11519
▁1558	-11520
▁1829	-11521
▁1831	-11522
▁1836	-11523
▁1839	-11524
▁beng	-11525
▁chia	-11526
▁coul	-11527
▁dele	-11528
▁diop	-11529
▁pays	-11530
▁scha	-11531
▁aerof	-11532
▁anark	-11533
▁benat	-11534
▁finko	-11535
▁ostra	-11536
▁sutea	-11537
▁alexei	-11538
▁balira	-11539
▁desire	-11540
▁elemen	-11541
▁harago	-11542
▁indiak	-11543
▁korean	-11544
▁modura	-11545
▁nabari	-11546
▁newell	-11547
▁tabern	-11548
▁txokoa	-11549
▁txukun	-11550
▁ukrain	-11551
▁undele	-11552
▁united	-11553
▁urakan	-11554
▁urdina	-11555
▁urpeko	-11556
▁urrats	-11557
▁urriak	-11558
▁urteen	-11559
▁uztera	-11560
▁vargas	-11561
▁vasari	-11562
▁vendee	-11563
▁vernon	-11564
▁vitaly	-11565
▁vosges	-11566
▁wanted	-11567
▁weiers	-11568
▁wieman	-11569
▁wiesel	-11570
▁wigner	-11571
▁wikian	-11572
▁willis	-11573
▁wohler	-11574
▁yorken	-11575
▁yukawa	-11576
▁zambia	-11577
▁zeinek	-11578
▁zenbai	-11579
▁zentzu	-11580
▁zeruko	-11581
▁zeruti	-11582
▁zieten	-11583
▁zirkul	-11584
▁zubiak	-11585
▁zuenez	-11586
▁zuhaiz	-11587
aikovski	-11588
aillesko	-11589
ametroak	-11590
bakorrek	-11591
bordador	-11592
edimages	-11593
edirects	-11594
embergen	-11595
enstreet	-11596
esaldian	-11597
eymaniye	-11598
ferences	-11599
gio	-11600
▁wl	-11601
escu	-11602
retu	-11603
ukov	-11604
uver	-11605
▁230	-11606
▁331	-11607
▁339	-11608
▁ple	-11609
▁yal	-11610
adeko	-11611
indar	-11612
ioari	-11613
itome	-11614
logia	-11615
uruen	-11616
zusta	-11617
▁1569	-11618
▁arno	-11619
▁azpi	-11620
▁birm	-11621
▁ehak	-11622
▁ever	-11623
▁fama	-11624
▁hoff	-11625
▁jesu	-11626
▁klon	-11627
▁manu	-11628
▁neke	-11629
▁rees	-11630
▁stop	-11631
▁wald	-11632
▁wall	-11633
arregi	-11634
egilea	-11635
manuel	-11636
▁abdik	-11637
▁agate	-11638
▁cindy	-11639
▁haiei	-11640
▁heald	-11641
▁hobli	-11642
▁kenia	-11643
▁landa	-11644
▁leder	-11645
▁ordua	-11646
▁orduz	-11647
▁rowan	-11648
▁atzean	-11649
▁bezero	-11650
▁bidaia	-11651
▁fisiko	-11652
▁gerora	-11653
▁hostak	-11654
▁landau	-11655
▁lortua	-11656
▁newman	-11657
▁rcnote	-11658
▁sergio	-11659
▁supern	-11660
▁utziko	-11661
gintzako	-11662
helppage	-11663
hibition	-11664
hotskeko	-11665
iomielit	-11666
ionaleko	-11667
istraria	-11668
itatiboa	-11669
itzailea	-11670
kleziano	-11671
logentry	-11672
loggedin	-11673
menistan	-11674
ologiako	-11675
ologiari	-11676
osexuala	-11677
pitaleko	-11678
reminder	-11679
ribution	-11680
stoimage	-11681
tanamoko	-11682
tiledone	-11683
tzaileak	-11684
zenegger	-11685
▁abaitua	-11686
▁abentur	-11687
▁abestia	-11688
▁accmail	-11689
▁adituen	-11690
▁aguirre	-11691
▁ahozkoa	-11692
▁aipamen	-11693
▁aitortu	-11694
▁akerlof	-11695
▁alaskan	-11696
▁alfredo	-11697
▁allende	-11698
▁already	-11699
▁ac	-11700
hour	-11701
inds	-11702
poli	-11703
▁262	-11704
▁270	-11705
▁349	-11706
▁351	-11707
▁352	-11708
▁356	-11709
vania	-11710
▁1793	-11711
▁1795	-11712
▁1806	-11713
▁1808	-11714
▁aupa	-11715
▁dale	-11716
▁fail	-11717
▁goya	-11718
▁grun	-11719
▁kopa	-11720
▁leku	-11721
▁tour	-11722
▁walt	-11723
ilence	-11724
▁artif	-11725
▁batis	-11726
▁blair	-11727
▁disol	-11728
▁ehiza	-11729
▁ehung	-11730
▁julen	-11731
▁larre	-11732
▁latex	-11733
▁museo	-11734
▁ordiz	-11735
▁ordon	-11736
▁otegi	-11737
erakoak	-11738
indarra	-11739
▁christ	-11740
▁duhour	-11741
▁esaera	-11742
▁kopuru	-11743
▁logiko	-11744
▁madaur	-11745
▁marino	-11746
▁mendia	-11747
▁server	-11748
▁txilen	-11749
aziopean	-11750
▁alderik	-11751
▁alvares	-11752
▁amadeus	-11753
▁amerigo	-11754
▁andoain	-11755
▁andorra	-11756
▁angeles	-11757
▁angelos	-11758
▁annapur	-11759
▁anthrax	-11760
▁antzera	-11761
▁apostol	-11762
▁arangiz	-11763
▁arazoen	-11764
▁arbolak	-11765
▁argazki	-11766
▁arizaga	-11767
▁armatua	-11768
▁arnaldo	-11769
▁aroaren	-11770
▁arozena	-11771
▁arrazak	-11772
▁arrieta	-11773
▁arrunta	-11774
▁asiaren	-11775
▁askapen	-11776
▁atxilok	-11777
▁aukerak	-11778
▁autobus	-11779
▁azalera	-11780
▁azkarra	-11781
▁badiola	-11782
▁badituz	-11783
▁balthus	-11784
▁baltsam	-11785
▁banantz	-11786
▁bankari	-11787
▁barroko	-11788
▁barruko	-11789
▁barruti	-11790
▁baschet	-11791
▁basetik	-11792
▁batista	-11793
▁batutik	-11794
▁bauxita	-11795
▁baziren	-11796
▁bazkide	-11797
▁behartu	-11798
▁beherea	-11799
rano	-11800
▁312	-11801
▁342	-11802
▁346	-11803
▁ava	-11804
▁faw	-11805
▁slo	-11806
▁udf	-11807
tions	-11808
ubmit	-11809
▁1574	-11810
▁1599	-11811
▁1606	-11812
▁1786	-11813
▁dias	-11814
▁sakr	-11815
▁tenz	-11816
▁vinc	-11817
▁work	-11818
aindia	-11819
ismoan	-11820
logoak	-11821
olfini	-11822
▁cadiz	-11823
▁ixten	-11824
▁nahia	-11825
▁polar	-11826
▁robin	-11827
▁semen	-11828
ologoak	-11829
options	-11830
▁adrien	-11831
▁emaitz	-11832
▁harrez	-11833
▁ikurra	-11834
▁jeanne	-11835
▁jendek	-11836
▁klasiz	-11837
▁lurdes	-11838
▁pavlov	-11839
▁zelako	-11840
▁zertan	-11841
▁afrikan	-11842
▁beltzak	-11843
▁belushi	-11844
▁bennett	-11845
▁beraien	-11846
▁berbera	-11847
▁bertoko	-11848
▁besteek	-11849
▁bgcolor	-11850
▁bidaliz	-11851
▁bienven	-11852
▁birmold	-11853
▁birusak	-11854
▁bistako	-11855
▁bizirau	-11856
▁bokalak	-11857
▁boladak	-11858
▁bolivia	-11859
▁boorman	-11860
▁bostena	-11861
▁boullee	-11862
▁bournon	-11863
▁bozkatu	-11864
▁brenner	-11865
▁broglie	-11866
▁brontze	-11867
▁budapes	-11868
▁buffalo	-11869
▁bulegoa	-11870
▁burokra	-11871
▁carmelo	-11872
▁carolus	-11873
▁ceciaga	-11874
▁central	-11875
▁champag	-11876
▁changes	-11877
▁chapman	-11878
▁christo	-11879
▁coetzee	-11880
▁company	-11881
▁compton	-11882
▁conifer	-11883
▁constan	-11884
▁context	-11885
▁cornell	-11886
▁daniera	-11887
▁dataren	-11888
▁datozen	-11889
▁daudela	-11890
▁dberror	-11891
▁delakoa	-11892
▁denetan	-11893
▁denetik	-11894
▁derioko	-11895
▁deritze	-11896
▁dickens	-11897
▁dirauen	-11898
▁direnek	-11899
▁78	-11900
doil	-11901
ebec	-11902
gabe	-11903
▁que	-11904
▁tru	-11905
aguna	-11906
gabek	-11907
misoa	-11908
▁1644	-11909
▁club	-11910
▁down	-11911
▁khan	-11912
▁ming	-11913
▁tito	-11914
izunen	-11915
korrak	-11916
ranath	-11917
▁eeren	-11918
▁epela	-11919
▁haitz	-11920
▁linda	-11921
▁linea	-11922
▁molde	-11923
▁monod	-11924
▁nocon	-11925
▁uzbek	-11926
alismoa	-11927
▁arautu	-11928
▁balitz	-11929
▁barton	-11930
▁butler	-11931
▁erdiak	-11932
▁eredua	-11933
▁harria	-11934
▁harris	-11935
▁laneko	-11936
▁letrak	-11937
▁maileg	-11938
▁pilotu	-11939
▁plotin	-11940
▁prozed	-11941
▁quebec	-11942
▁zeltak	-11943
▁zuriko	-11944
▁berriki	-11945
▁direnen	-11946
▁ditudan	-11947
▁domeinu	-11948
▁doubler	-11949
▁duenean	-11950
▁editing	-11951
▁egileor	-11952
▁egokitu	-11953
▁egonkor	-11954
▁egoteko	-11955
▁elduain	-11956
▁emisioa	-11957
▁englaro	-11958
▁entzako	-11959
▁erantsi	-11960
▁erasoei	-11961
▁ereduak	-11962
▁erietxe	-11963
▁erkizia	-11964
▁erlazio	-11965
▁errazak	-11966
▁erreper	-11967
▁erreser	-11968
▁errugbi	-11969
▁ertaina	-11970
▁ertzean	-11971
▁esanahi	-11972
▁esangur	-11973
▁eskeini	-11974
▁eskolan	-11975
▁eskolas	-11976
▁esparru	-11977
▁estitxu	-11978
▁estonia	-11979
▁etnikoa	-11980
▁etorria	-11981
▁etxarri	-11982
▁etxerik	-11983
▁eurasia	-11984
▁eusebio	-11985
▁extlink	-11986
▁ezikusi	-11987
▁ezorgan	-11988
▁ferrand	-11989
▁fibiger	-11990
▁fischer	-11991
▁flandri	-11992
▁fleming	-11993
▁folklor	-11994
▁fortuyn	-11995
▁francia	-11996
▁friends	-11997
▁gaelera	-11998
▁gaitzes	-11999
voy	-12000
lake	-12001
mers	-12002
tsib	-12003
xley	-12004
▁363	-12005
▁pse	-12006
▁qbs	-12007
▁ump	-12008
abetu	-12009
phyta	-12010
telao	-12011
tibus	-12012
▁1479	-12013
▁1524	-12014
▁1550	-12015
▁1583	-12016
▁1586	-12017
▁1587	-12018
▁1611	-12019
▁1773	-12020
▁avar	-12021
▁cash	-12022
▁clav	-12023
▁erup	-12024
▁imre	-12025
▁jaki	-12026
▁okul	-12027
▁saba	-12028
action	-12029
worthy	-12030
▁daram	-12031
▁gaude	-12032
▁itxia	-12033
▁navar	-12034
▁right	-12035
▁sakan	-12036
▁tobin	-12037
▁zaude	-12038
checked	-12039
logenes	-12040
▁berber	-12041
▁enrike	-12042
▁gaspar	-12043
▁gauzen	-12044
▁huxley	-12045
▁javako	-12046
▁letraz	-12047
▁azalduz	-12048
▁baldwin	-12049
▁datorki	-12050
▁diamond	-12051
▁dreyfus	-12052
▁egiptok	-12053
▁erasoan	-12054
▁galaraz	-12055
▁galdaka	-12056
▁galdera	-12057
▁galiako	-12058
▁garaiak	-12059
▁garaile	-12060
▁garbine	-12061
▁gardner	-12062
▁garibai	-12063
▁garnier	-12064
▁gartzia	-12065
▁gatazka	-12066
▁gateway	-12067
▁gelatxo	-12068
▁gelditu	-12069
▁generoa	-12070
▁georges	-12071
▁gerhard	-12072
▁ghanako	-12073
▁giorgio	-12074
▁giputza	-12075
▁gizonen	-12076
▁glasgow	-12077
▁gogorra	-12078
▁goiburu	-12079
▁goierri	-12080
▁golkoko	-12081
▁gontzal	-12082
▁gonzalo	-12083
▁gordeta	-12084
▁gorenak	-12085
▁gorrira	-12086
▁granger	-12087
▁grekoek	-12088
▁gutunak	-12089
▁gutxira	-12090
▁guztira	-12091
▁haendel	-12092
▁haizete	-12093
▁halikar	-12094
▁halldor	-12095
▁handiek	-12096
▁handitu	-12097
▁hasteko	-12098
▁hauetaz	-12099
ils	-12100
sta	-12101
augh	-12102
doxo	-12103
enot	-12104
▁225	-12105
▁kyd	-12106
etoen	-12107
tazar	-12108
▁1504	-12109
▁1521	-12110
▁1635	-12111
▁1750	-12112
▁erie	-12113
▁estu	-12114
▁hugo	-12115
▁ilun	-12116
▁miss	-12117
▁moya	-12118
▁yang	-12119
▁aizko	-12120
▁burns	-12121
▁guyan	-12122
▁lasai	-12123
▁primo	-12124
▁sendi	-12125
▁sesio	-12126
▁solid	-12127
▁tenpl	-12128
▁zelai	-12129
retatik	-12130
▁arrunt	-12131
▁autore	-12132
▁bankua	-12133
▁bultza	-12134
▁ehunka	-12135
▁halaxe	-12136
▁hezkun	-12137
▁jensen	-12138
▁matxin	-12139
▁olmeka	-12140
▁sesbek	-12141
tzearren	-12142
▁agintea	-12143
▁article	-12144
▁atomiko	-12145
▁daukagu	-12146
▁daukate	-12147
▁debekua	-12148
▁esklabo	-12149
▁gauzatu	-12150
▁haurrei	-12151
▁haurren	-12152
▁hawking	-12153
▁hegaldi	-12154
▁hegazti	-12155
▁helikop	-12156
▁hepburn	-12157
▁hermias	-12158
▁hershey	-12159
▁hewlett	-12160
▁higanot	-12161
▁hilaren	-12162
▁hillary	-12163
▁hiririk	-12164
▁hiritik	-12165
▁honetaz	-12166
▁hopkins	-12167
▁horvitz	-12168
▁hurbila	-12169
▁huygens	-12170
▁hypatia	-12171
▁iberiar	-12172
▁ignazio	-12173
▁ikertuz	-12174
▁ikusiko	-12175
▁ikusita	-12176
▁ilargia	-12177
▁inbasio	-12178
▁inolako	-12179
▁inuitak	-12180
▁invalid	-12181
▁iriondo	-12182
▁irratia	-12183
▁iruditu	-12184
▁isolatu	-12185
▁iturria	-12186
▁itxuraz	-12187
▁itzulia	-12188
▁izadian	-12189
▁izateaz	-12190
▁izenbur	-12191
▁jadanik	-12192
▁jausten	-12193
▁jelinek	-12194
▁jeltsin	-12195
▁jendeak	-12196
▁jesusen	-12197
▁kalkulu	-12198
▁kalonje	-12199
▁970	-12200
poten	-12201
tilla	-12202
▁1670	-12203
▁cori	-12204
▁face	-12205
▁hick	-12206
▁kobr	-12207
▁luca	-12208
▁abdel	-12209
▁heren	-12210
▁revis	-12211
▁utziz	-12212
▁apulei	-12213
▁cortes	-12214
▁kandel	-12215
▁lauren	-12216
▁urruna	-12217
▁gondola	-12218
▁karbono	-12219
▁karmele	-12220
▁kastler	-12221
▁kasurik	-12222
▁kausitu	-12223
▁kendall	-12224
▁kenduko	-12225
▁kenduta	-12226
▁kertesz	-12227
▁khalifa	-12228
▁kimikaz	-12229
▁kipling	-12230
▁kiskali	-12231
▁klikatu	-12232
▁koizumi	-12233
▁kolabor	-12234
▁kolpeak	-12235
▁konstan	-12236
▁kontsul	-12237
▁kopiatu	-12238
▁korsika	-12239
▁koshiba	-12240
▁krisial	-12241
▁kubatar	-12242
▁kubatik	-12243
▁kydland	-12244
▁laburra	-12245
▁lankako	-12246
▁lapurdi	-12247
▁lapurtu	-12248
▁larriak	-12249
▁laurden	-12250
▁laxness	-12251
▁leggett	-12252
▁legutio	-12253
▁lehenik	-12254
▁leonard	-12255
▁lertxun	-12256
▁liddell	-12257
▁liderra	-12258
▁limoges	-12259
▁lincoln	-12260
▁lokalak	-12261
▁luziano	-12262
▁madaura	-12263
▁maisuak	-12264
▁maitale	-12265
▁makinak	-12266
▁malcolm	-12267
▁marmara	-12268
▁marokon	-12269
▁meategi	-12270
▁medawar	-12271
▁mehatxu	-12272
▁memoria	-12273
▁mendeaz	-12274
▁mendian	-12275
▁menpeko	-12276
▁menpera	-12277
▁metrall	-12278
▁mongolo	-12279
▁monopol	-12280
▁monthly	-12281
▁movepag	-12282
▁mugikor	-12283
▁multzoa	-12284
▁musikan	-12285
▁myanmar	-12286
▁nahiago	-12287
▁naipaul	-12288
▁network	-12289
▁nicanor	-12290
▁nielsen	-12291
▁nobelen	-12292
▁nobleen	-12293
▁norvegi	-12294
▁nuklear	-12295
▁oakland	-12296
▁obraren	-12297
▁odyssey	-12298
▁ohikoak	-12299
▁oihanak	-12300
▁okerrak	-12301
▁olerkia	-12302
▁onartuz	-12303
▁orbitan	-12304
▁ordenan	-12305
▁ordonez	-12306
▁ordutik	-12307
▁organon	-12308
▁orlando	-12309
▁orriald	-12310
▁ortodox	-12311
▁osatuak	-12312
▁osorako	-12313
▁ospeari	-12314
▁ozeania	-12315
▁pacelli	-12316
▁parekoa	-12317
▁partidu	-12318
▁pasaian	-12319
▁pauling	-12320
▁physike	-12321
▁pikabea	-12322
▁placido	-12323
▁plotino	-12324
▁polifon	-12325
▁popular	-12326
▁ptolome	-12327
▁purcell	-12328
▁quimica	-12329
▁removed	-12330
▁ricardo	-12331
▁rolland	-12332
▁rudyard	-12333
▁saharan	-12334
▁sailean	-12335
▁sakaban	-12336
▁sakonak	-12337
▁sapiens	-12338
▁saridun	-12339
▁sarkozy	-12340
▁sartuko	-12341
▁saturno	-12342
▁savalas	-12343
▁scarlet	-12344
▁seaborg	-12345
▁service	-12346
▁shannon	-12347
▁sherman	-12348
▁showing	-12349
▁silence	-12350
▁sintaxi	-12351
▁sirleaf	-12352
▁soluzio	-12353
▁sorburu	-12354
▁sortuta	-12355
▁soyinka	-12356
▁spencer	-12357
▁staling	-12358
▁stevens	-12359
▁strauss	-12360
▁sturges	-12361
▁suedian	-12362
▁suediar	-12363
▁suitzan	-12364
▁sulston	-12365
▁taldean	-12366
▁taldeen	-12367
▁talkpag	-12368
▁tekniko	-12369
▁tenniel	-12370
▁termino	-12371
▁theiler	-12372
▁ticotin	-12373
▁tresnak	-12374
▁tresnek	-12375
▁tresnen	-12376
▁trotsky	-12377
▁tunisia	-12378
▁tupolev	-12379
▁turkoak	-12380
▁turtles	-12381
▁tuteran	-12382
▁txikiko	-12383
▁txinera	-12384
▁ugaztun	-12385
▁unblock	-12386
▁unknown	-12387
▁urduera	-12388
▁urrutia	-12389
▁valoist	-12390
▁vazquez	-12391
▁velasco	-12392
▁ventura	-12393
▁vernier	-12394
▁vincent	-12395
▁wellman	-12396
▁wfquery	-12397
▁whipple	-12398
▁wilczek	-12399
▁wislawa	-12400
▁xelebre	-12401
▁xenakis	-12402
▁yolanda	-12403
▁zabalak	-12404
▁zabalik	-12405
▁zehatza	-12406
▁zehazki	-12407
▁zerabil	-12408
▁zezaten	-12409
▁zigortu	-12410
▁zilarra	-12411
▁ziotela	-12412
▁zirenak	-12413
▁zitezke	-12414
▁zuelako	-12415
abakarrek	-12416
abelarrak	-12417
aragarria	-12418
atzaileek	-12419
atzenrode	-12420
bertsioak	-12421
ckconfirm	-12422
gertaerak	-12423
ianderrek	-12424
ikoarekin	-12425
istentzia	-12426
istlegend	-12427
kortasuna	-12428
orketaren	-12429
pagetitle	-12430
redirects	-12431
urreccion	-12432
▁adibidea	-12433
▁aditzera	-12434
▁aginpide	-12435
▁agintean	-12436
▁ahalmena	-12437
▁akademia	-12438
▁akinokoa	-12439
▁akordioa	-12440
▁aldaerak	-12441
▁aldatuko	-12442
▁alembert	-12443
▁alfabeta	-12444
▁alpeetan	-12445
▁alphonse	-12446
▁aluminio	-12447
▁amatoria	-12448
▁amnistia	-12449
▁anatolia	-12450
▁anatomia	-12451
▁anaxagor	-12452
▁anchieta	-12453
▁anoetako	-12454
▁anonimoa	-12455
▁anquetil	-12456
▁antzekoa	-12457
▁aplikatu	-12458
▁apologia	-12459
▁aprobetx	-12460
▁aquilina	-12461
▁arabarra	-12462
▁arazoren	-12463
▁arazorik	-12464
▁argizagi	-12465
▁arloetan	-12466
▁armatuak	-12467
▁arruntak	-12468
▁artxiboa	-12469
▁asanblea	-12470
▁askatzea	-12471
▁askotako	-12472
▁asturias	-12473
▁atzerako	-12474
▁atzizkia	-12475
▁augustin	-12476
▁aurkakoa	-12477
▁aurrekoa	-12478
▁austriak	-12479
▁autonomi	-12480
▁azpeitia	-12481
▁azpisail	-12482
▁aztarnak	-12483
▁aztertuz	-12484
▁babesten	-12485
▁badquery	-12486
▁badtitle	-12487
▁basearen	-12488
▁batzorde	-12489
▁bautista	-12490
▁beltzeko	-12491
▁benjamin	-12492
▁beorlegi	-12493
▁berehala	-12494
▁bereziar	-12495
▁berlinen	-12496
▁berretsi	-12497
▁berririk	-12498
▁bertatik	-12499
▁betetzen	-12500
▁bezeroak	-12501
▁bhaskara	-12502
▁bidaiari	-12503
▁bidaliko	-12504
▁bikoteak	-12505
▁bilatzea	-12506
▁birologo	-12507
▁bisitatu	-12508
▁bizkaiko	-12509
▁blokeoak	-12510
▁borgnine	-12511
▁borrokal	-12512
▁borrokan	-12513
▁bortxatu	-12514
▁boulogne	-12515
▁brontzea	-12516
▁budismoa	-12517
▁bukardoa	-12518
▁bulegoan	-12519
▁bultzatu	-12520
▁calderon	-12521
▁carballo	-12522
▁carrillo	-12523
▁casablan	-12524
▁castelao	-12525
▁chiracek	-12526
▁chongzhi	-12527
▁clifford	-12528
▁computer	-12529
▁concorde	-12530
▁contribs	-12531
▁copyrigh	-12532
▁cortazar	-12533
▁createac	-12534
▁dauzkazu	-12535
▁davisson	-12536
▁delakoan	-12537
▁delivery	-12538
▁demokraz	-12539
▁denboran	-12540
▁deuseztu	-12541
▁dezakete	-12542
▁diabetea	-12543
▁diagrama	-12544
▁diotenak	-12545
▁duenaren	-12546
▁dugunean	-12547
▁dutelako	-12548
▁egoitzan	-12549
▁egunetan	-12550
▁egutegia	-12551
▁einstein	-12552
▁ejerzito	-12553
▁ekialdea	-12554
▁ekimenak	-12555
▁ekoizlea	-12556
▁elfriede	-12557
▁elkarriz	-12558
▁elkartuz	-12559
▁enbargoa	-12560
▁enbaxada	-12561
▁eraikina	-12562
▁eratorri	-12563
▁erlazioa	-12564
▁erlazion	-12565
▁erotikoa	-12566
▁errazten	-12567
▁errealak	-12568
▁errepide	-12569
▁esanetan	-12570
▁eskatzen	-12571
▁eslaviar	-12572
▁esparrua	-12573
▁estadioa	-12574
▁estagira	-12575
▁etarekin	-12576
▁etniaren	-12577
▁etortzen	-12578
▁europara	-12579
▁euskeraz	-12580
▁ezagunak	-12581
▁ezartzea	-12582
▁ezartzen	-12583
▁ezkontza	-12584
▁ferreira	-12585
▁fisikoak	-12586
▁fontenay	-12587
▁formalak	-12588
▁formulak	-12589
▁francais	-12590
▁frankoak	-12591
▁frankoek	-12592
▁frankoen	-12593
▁friedman	-12594
▁funtsean	-12595
▁gainetik	-12596
▁galartza	-12597
▁galderak	-12598
▁galileik	-12599
▁gandiaga	-12600
▁gangster	-12601
▁garaiari	-12602
▁garaiena	-12603
▁garaiera	-12604
▁garaipen	-12605
▁garaitik	-12606
▁garatuko	-12607
▁garatzen	-12608
▁garrasia	-12609
▁gehitzen	-12610
▁geldirik	-12611
▁generoak	-12612
▁genetika	-12613
▁geologia	-12614
▁geratzen	-12615
▁giacconi	-12616
▁ginzburg	-12617
▁giordano	-12618
▁gizakien	-12619
▁gizartea	-12620
▁goeppert	-12621
▁gogorrak	-12622
▁gorakada	-12623
▁gorenera	-12624
▁gudariak	-12625
▁gutxituz	-12626
▁hamaseko	-12627
▁handikoa	-12628
▁handitik	-12629
▁haraindi	-12630
▁haranean	-12631
▁hartwell	-12632
▁hauetako	-12633
▁hautatua	-12634
▁headline	-12635
▁helenist	-12636
▁himalaia	-12637
▁hiriaren	-12638
▁hirietan	-12639
▁hitzaren	-12640
▁hitzetan	-12641
▁hiztegia	-12642
▁horrexeg	-12643
▁hurbildu	-12644
▁hurbilen	-12645
▁hustonek	-12646
▁idazkera	-12647
▁idazketa	-12648
▁idazkiak	-12649
▁idazlana	-12650
▁iheslari	-12651
▁ikasleak	-12652
▁ikergaia	-12653
▁ikusirik	-12654
▁ilargiak	-12655
▁ilargiko	-12656
▁indarrak	-12657
▁indiaren	-12658
▁indurain	-12659
▁infinitu	-12660
▁ingurune	-12661
▁irakurle	-12662
▁iruneako	-12663
▁iruzkina	-12664
▁islandia	-12665
▁istorioa	-12666
▁itsasoan	-12667
▁itsasoaz	-12668
▁iturrioz	-12669
▁itzulika	-12670
▁izagirre	-12671
▁izenetan	-12672
▁izenpetu	-12673
▁izugarri	-12674
▁jarduera	-12675
▁jaunaren	-12676
▁jokatzen	-12677
▁jonathan	-12678
▁jospinek	-12679
▁jugoslav	-12680
▁justizia	-12681
▁kahneman	-12682
▁kalkulua	-12683
▁kanpotik	-12684
▁kantaria	-12685
▁kathleen	-12686
▁kaxkarra	-12687
▁ketterle	-12688
▁kokapena	-12689
▁kokatzen	-12690
▁kolonbia	-12691
▁konpondu	-12692
▁kontzent	-12693
▁kornelio	-12694
▁koroaren	-12695
▁kroaziar	-12696
▁kronista	-12697
▁kronolog	-12698
▁laburrak	-12699
▁lanetako	-12700
▁lankider	-12701
▁linnaeus	-12702
▁lipidoak	-12703
▁lirateke	-12704
▁londonen	-12705
▁longhena	-12706
▁lurretik	-12707
▁lurrinak	-12708
▁luzatzen	-12709
▁magallan	-12710
▁makiavel	-12711
▁malaysia	-12712
▁mantenua	-12713
▁marcello	-12714
▁matxista	-12715
▁mcgoohan	-12716
▁medikuak	-12717
▁mendekoa	-12718
▁mendiler	-12719
▁merkurio	-12720
▁metodoak	-12721
▁mexikoko	-12722
▁millikan	-12723
▁mintzatu	-12724
▁modernoa	-12725
▁monistak	-12726
▁morfolog	-12727
▁motozikl	-12728
▁movepage	-12729
▁mugitzen	-12730
▁muhammad	-12731
▁multzoak	-12732
▁nagusian	-12733
▁nahasiak	-12734
▁nahitaez	-12735
▁nanotzat	-12736
▁newtonen	-12737
▁nicolaus	-12738
▁nikomako	-12739
▁notarget	-12740
▁oinarria	-12741
▁olazabal	-12742
▁onartzen	-12743
▁onenaren	-12744
▁oposizio	-12745
▁oratorio	-12746
▁ordenatu	-12747
▁orduaren	-12748
▁oreretan	-12749
▁organiko	-12750
▁orkestra	-12751
▁osagaiak	-12752
▁ospatzen	-12753
▁palacios	-12754
▁palladio	-12755
▁paraguai	-12756
▁partikul	-12757
▁persiako	-12758
▁philippe	-12759
▁pizarrok	-12760
▁politzer	-12761
▁polonian	-12762
▁praktiko	-12763
▁prestatu	-12764
▁probabil	-12765
▁propioan	-12766
▁proteina	-12767
▁protesta	-12768
▁protocol	-12769
▁redgrave	-12770
▁reupload	-12771
▁rheticus	-12772
▁riccardo	-12773
▁saiatzen	-12774
▁saioekin	-12775
▁salinger	-12776
▁santuari	-12777
▁sareetan	-12778
▁sarraski	-12779
▁sarritan	-12780
▁schubert	-12781
▁sekretua	-12782
▁sekulako	-12783
▁semearen	-12784
▁shakespe	-12785
▁siegbahn	-12786
▁sinesmen	-12787
▁sintesia	-12788
▁siziliar	-12789
▁sofistak	-12790
▁soluzioa	-12791
▁stalinen	-12792
▁stormare	-12793
▁suleiman	-12794
▁superkon	-12795
▁surveyor	-12796
▁tamainaz	-12797
▁tecumseh	-12798
▁teodosio	-12799
▁teologia	-12800
▁teorikoa	-12801
▁terminal	-12802
▁terreros	-12803
▁thompson	-12804
▁timezone	-12805
▁torinoko	-12806
▁torturak	-12807
▁torturen	-12808
▁tronpeta	-12809
▁tronutik	-12810
▁tropikal	-12811
▁turkiera	-12812
▁txertatu	-12813
▁txinatik	-12814
▁uhartera	-12815
▁ulertzea	-12816
▁unlockdb	-12817
▁unprotec	-12818
▁urdaneta	-12819
▁urruneko	-12820
▁urtetako	-12821
▁ustaritz	-12822
▁varsovia	-12823
▁vatikano	-12824
▁verdiren	-12825
▁vespucci	-12826
▁vladimir	-12827
▁xanpaina	-12828
▁yugoslav	-12829
▁zabalduz	-12830
▁zabaleko	-12831
▁zabalena	-12832
▁zaharrak	-12833
▁zapirain	-12834
▁zatiezin	-12835
▁zatiketa	-12836
▁zaurituz	-12837
▁zehatzak	-12838
▁zeintzuk	-12839
▁zekarren	-12840
▁zesarrek	-12841
▁ziarsolo	-12842
▁zinikoak	-12843
▁zirelako	-12844
▁zituenak	-12845
▁zutenean	-12846
aritzarako	-12847
atzerakoan	-12848
ketengatik	-12849
mypassword	-12850
ographicum	-12851
tedarticle	-12852
▁abeltzain	-12853
▁aberatsak	-12854
▁abrikosov	-12855
▁afrikatik	-12856
▁agertzeko	-12857
▁ahaltsuen	-12858
▁ahoskatua	-12859
▁akademiko	-12860
▁akitanian	-12861
▁aldaketen	-12862
▁aldarrika	-12863
▁aleksandr	-12864
▁alkimista	-12865
▁alorretan	-12866
▁altzairua	-12867
▁americans	-12868
▁amikuzeko	-12869
▁analytica	-12870
▁anarkista	-12871
▁aniztasun	-12872
▁anonimoen	-12873
▁antzezlea	-12874
▁antzokian	-12875
▁arazoaren	-12876
▁arkimedes	-12877
▁armadaren	-12878
▁armarrian	-12879
▁arnoldson	-12880
▁arrakasta	-12881
▁arrazista	-12882
▁arrazoiak	-12883
▁artizarra	-12884
▁askatasun	-12885
▁astigarra	-12886
▁ateratzen	-12887
▁atlantiko	-12888
▁atomistak	-12889
▁atzitzeko	-12890
▁aurkezten	-12891
▁aurrezten	-12892
▁aurrizkia	-12893
▁automobil	-12894
▁autonomoa	-12895
▁avararrak	-12896
▁axularren	-12897
▁azaleratu	-12898
▁azoreetan	-12899
▁babesteko	-12900
▁babestuta	-12901
▁bakunetik	-12902
▁balentzia	-12903
▁banaketak	-12904
▁banaturik	-12905
▁barkamena	-12906
▁bartolome	-12907
▁batasunik	-12908
▁batentzat	-12909
▁baxenabar	-12910
▁bearnoren	-12911
▁becquerel	-12912
▁beharrari	-12913
▁belgikako	-12914
▁beltzaren	-12915
▁benedikto	-12916
▁berarekin	-12917
▁berdinean	-12918
▁bereiztea	-12919
▁berpiztuz	-12920
▁bertsioen	-12921
▁bertsiora	-12922
▁betidanik	-12923
▁bibliaren	-12924
▁bidaltzen	-12925
▁bidegabek	-12926
▁bihurtzen	-12927
▁bikingoak	-12928
▁biologiak	-12929
▁biologiko	-12930
▁biologoek	-12931
▁bitoriano	-12932
▁bizitzako	-12933
▁bolkaniko	-12934
▁bortitzek	-12935
▁boxeolari	-12936
▁britaniar	-12937
▁broadcast	-12938
▁bryophyta	-12939
▁burgundia	-12940
▁burutzeko	-12941
▁catherine	-12942
▁dauzkaten	-12943
▁demokrito	-12944
▁dickinson	-12945
▁diharduen	-12946
▁direlarik	-12947
▁diseinatu	-12948
▁dituztela	-12949
▁dokumentu	-12950
▁dubliners	-12951
▁edozeinek	-12952
▁egiazkoak	-12953
▁eginkizun	-12954
▁egitearen	-12955
▁egiturari	-12956
▁egutegian	-12957
▁ekialdera	-12958
▁ekonomiko	-12959
▁elkartzen	-12960
▁emailsent	-12961
▁erabiliaz	-12962
▁erabilpen	-12963
▁eragiketa	-12964
▁eramateko	-12965
▁erbestean	-12966
▁erradioak	-12967
▁errazteko	-12968
▁errebelde	-12969
▁erreboluz	-12970
▁erregetza	-12971
▁erromantx	-12972
▁erromaren	-12973
▁eskandina	-12974
▁eskatzeko	-12975
▁eskertuko	-12976
▁eskolaren	-12977
▁eskoziera	-12978
▁eskubidea	-12979
▁esperimen	-12980
▁estadioan	-12981
▁estaldura	-12982
▁estatutua	-12983
▁estetikoa	-12984
▁estruktur	-12985
▁etakideak	-12986
▁etorkinek	-12987
▁etorkinen	-12988
▁etxeberri	-12989
▁eurogunea	-12990
▁europakoa	-12991
▁europarra	-12992
▁euskadiko	-12993
▁euskalari	-12994
▁exekutatu	-12995
▁ezabatzen	-12996
▁ezagutuko	-12997
▁ezartzeko	-12998
▁ezezaguna	-12999
▁ezkontzen	-13000
▁fibonacci	-13001
▁firecreek	-13002
▁formulatu	-13003
▁frankista	-13004
▁fulgencio	-13005
▁futboleko	-13006
▁galiziako	-13007
▁galiziera	-13008
▁garaikoak	-13009
▁garaipena	-13010
▁gaurdaino	-13011
▁gaztigatu	-13012
▁gehiagoko	-13013
▁gehigarri	-13014
▁geltokien	-13015
▁generoari	-13016
▁geozentri	-13017
▁gerrikoko	-13018
▁gidoigile	-13019
▁gizarteen	-13020
▁gluzidoak	-13021
▁gorbatxov	-13022
▁gordetzen	-13023
▁goytisolo	-13024
▁greziakoa	-13025
▁guatemala	-13026
▁gurutzatu	-13027
▁guztiekin	-13028
▁habsburgo	-13029
▁hainbeste	-13030
▁hamarkada	-13031
▁hamazazpi	-13032
▁harrapatu	-13033
▁hauetatik	-13034
▁hedagailu	-13035
▁hedatzeko	-13036
▁hegaztien	-13037
▁helbideak	-13038
▁helbidera	-13039
▁herriaren	-13040
▁hitzarmen	-13041
▁homofobia	-13042
▁honetatik	-13043
▁hungariar	-13044
▁hurrengoa	-13045
▁ibaizabal	-13046
▁ibilitako	-13047
▁ikuskizun	-13048
▁ilargiari	-13049
▁imagelist	-13050
▁ingelesek	-13051
▁iraganean	-13052
▁irakasten	-13053
▁irakazlea	-13054
▁iratzeder	-13055
▁irtenbide	-13056
▁islamista	-13057
▁itsasotik	-13058
▁iturburua	-13059
▁izadiaren	-13060
▁izendatua	-13061
▁jarauntsi	-13062
▁jarduerak	-13063
▁jarraitua	-13064
▁jarritako	-13065
▁jauregian	-13066
▁judaismoa	-13067
▁junichiro	-13068
▁kamerunek	-13069
▁kanalaren	-13070
▁kargatzen	-13071
▁kargurako	-13072
▁katherine	-13073
▁katolikoa	-13074
▁kenzaburo	-13075
▁kimikoari	-13076
▁klasikoak	-13077
▁klasikoko	-13078
▁koloniala	-13079
▁konektore	-13080
▁konkistak	-13081
▁konplexua	-13082
▁kontzeptu	-13083
▁kopururik	-13084
▁korsikera	-13085
▁krakovian	-13086
▁kronikari	-13087
▁kudeaketa	-13088
▁kutxabank	-13089
▁laborateg	-13090
▁laborista	-13091
▁laburpena	-13092
▁lanbideen	-13093
▁langileen	-13094
▁languedoc	-13095
▁lankideek	-13096
▁lankideen	-13097
▁lapurdiko	-13098
▁lapurtera	-13099
▁latinetik	-13100
▁lauterbur	-13101
▁lazarraga	-13102
▁legegizon	-13103
▁legeztatu	-13104
▁lehenbizi	-13105
▁lilatoian	-13106
▁lituaniar	-13107
▁logikaren	-13108
▁loinazkoa	-13109
▁londresen	-13110
▁loredunak	-13111
▁lortutako	-13112
▁loturaren	-13113
▁loturarik	-13114
▁luxemburg	-13115
▁macdowell	-13116
▁madrildar	-13117
▁mansfield	-13118
▁manterola	-13119
▁markatzen	-13120
▁masatoshi	-13121
▁mendietan	-13122
▁menperatu	-13123
▁merkatari	-13124
▁milurteko	-13125
▁mugatzeko	-13126
▁musorgski	-13127
▁musulmana	-13128
▁mysterium	-13129
▁nafarroko	-13130
▁nagusitan	-13131
▁naturalak	-13132
▁naturalik	-13133
▁nazioarte	-13134
▁nenbilela	-13135
▁nikolasek	-13136
▁nocookies	-13137
▁oinarrian	-13138
▁ondasunak	-13139
▁ondasunen	-13140
▁ordainduz	-13141
▁ordenaren	-13142
▁orekatzen	-13143
▁orografia	-13144
▁osagarria	-13145
▁pagemoved	-13146
▁palestina	-13147
▁pasternak	-13148
▁patentatu	-13149
▁peckinpah	-13150
▁perdidoko	-13151
▁pertsonal	-13152
▁pertsonei	-13153
▁pirinioak	-13154
▁pitagoras	-13155
▁pixkanaka	-13156
▁pizkundea	-13157
▁piztutako	-13158
▁platoniko	-13159
▁polanskik	-13160
▁polifonia	-13161
▁poliziako	-13162
▁pontianus	-13163
▁portaerak	-13164
▁proteinak	-13165
▁proventza	-13166
▁prozesuan	-13167
▁publikoen	-13168
▁publikoko	-13169
▁pudentill	-13170
▁rhetorica	-13171
▁rigoberta	-13172
▁rodanoren	-13173
▁saiakerak	-13174
▁samaniego	-13175
▁santuaren	-13176
▁sarietako	-13177
▁sarraskia	-13178
▁schonberg	-13179
▁sefardiak	-13180
▁seinaleak	-13181
▁sektoreak	-13182
▁sexuarena	-13183
▁showalter	-13184
▁singleton	-13185
▁sitestats	-13186
▁sortzeari	-13187
▁subtropik	-13188
▁suedieraz	-13189
▁talibanek	-13190
▁teknikoak	-13191
▁teknikoki	-13192
▁tennessee	-13193
▁teofrasto	-13194
▁terminoak	-13195
▁tinbergen	-13196
▁tokitatik	-13197
▁txostenak	-13198
▁unblockip	-13199
▁uploadlog	-13200
▁urterekin	-13201
▁uruguaiko	-13202
▁userstats	-13203
▁varsovian	-13204
▁vietnamgo	-13205
▁watchlist	-13206
▁wilkinson	-13207
▁xenofobia	-13208
▁xurgatzen	-13209
▁zabalduen	-13210
▁zeharkatu	-13211
▁zehatzena	-13212
▁zelularen	-13213
▁zentzurik	-13214
▁zerbitzua	-13215
▁zerrendak	-13216
▁zibilaren	-13217
▁ziotelako	-13218
▁zituenean	-13219
▁zitzakeen	-13220
▁zizkieten	-13221
▁zuhaitzak	-13222
▁zuhaitzek	-13223
aritashvili	-13224
bordadoreak	-13225
dinamikaren	-13226
ilitarizatu	-13227
pagewarning	-13228
tiledoneoak	-13229
▁abstraktua	-13230
▁addedwatch	-13231
▁adierazpen	-13232
▁agintaldia	-13233
▁agintepean	-13234
▁ahaleginak	-13235
▁ahoskatzen	-13236
▁aireratzen	-13237
▁aitzindari	-13238
▁aizkolaria	-13239
▁alberdania	-13240
▁aleatorioa	-13241
▁alemanetik	-13242
▁alemaniari	-13243
▁alkimistak	-13244
▁altxamendu	-13245
▁amaitutzat	-13246
▁amerikarra	-13247
▁aniztasuna	-13248
▁anthophyta	-13249
▁antilletan	-13250
▁antolaketa	-13251
▁ardazkidea	-13252
▁arkeologia	-13253
▁armeniarra	-13254
▁artikulura	-13255
▁artizarrak	-13256
▁askatasuna	-13257
▁askenaziak	-13258
▁asmatutako	-13259
▁asturiarra	-13260
▁atentatuen	-13261
▁ateratzeko	-13262
▁aukeratuak	-13263
▁aurkibidea	-13264
▁aurkikuntz	-13265
▁aurkitzeko	-13266
▁australian	-13267
▁azaleraren	-13268
▁azerbaijan	-13269
▁aztertzeko	-13270
▁bakterioak	-13271
▁baldassare	-13272
▁balkanetan	-13273
▁banakuntza	-13274
▁barakaldon	-13275
▁bariazioak	-13276
▁basamortua	-13277
▁batasunako	-13278
▁bateratzea	-13279
▁batuarekin	-13280
▁beltzuneak	-13281
▁beranduago	-13282
▁bereizteko	-13283
▁bermatzeko	-13284
▁bestaldeko	-13285
▁bidalitako	-13286
▁bidaxuneko	-13287
▁biokimikoa	-13288
▁bizitzaren	-13289
▁bortxaketa	-13290
▁botanikari	-13291
▁boterearen	-13292
▁bultzatuko	-13293
▁bultzatzen	-13294
▁buonarroti	-13295
▁buruzagiak	-13296
▁chandrasek	-13297
▁communiste	-13298
▁constantin	-13299
▁crisostomo	-13300
▁cronenberg	-13301
▁daitekeena	-13302
▁daitezkeen	-13303
▁danimarkar	-13304
▁dantzaleku	-13305
▁darabilten	-13306
▁definitzea	-13307
▁demografia	-13308
▁denboraren	-13309
▁dirudienez	-13310
▁egituraren	-13311
▁egonaldiak	-13312
▁egunkarian	-13313
▁egunkariko	-13314
▁eisenstein	-13315
▁ekitaldian	-13316
▁ekonomista	-13317
▁elementuen	-13318
▁elikagaiak	-13319
▁elizanburu	-13320
▁emerlandgo	-13321
▁enparantza	-13322
▁epailearen	-13323
▁epikureoak	-13324
▁erabilpena	-13325
▁eragozteko	-13326
▁eraikinean	-13327
▁erakundeko	-13328
▁erdialdean	-13329
▁erdigunean	-13330
▁erlijioari	-13331
▁erreakzion	-13332
▁errekuntza	-13333
▁errepikatu	-13334
▁erresumako	-13335
▁erromaniko	-13336
▁errugabetu	-13337
▁errumaniak	-13338
▁eskanerrak	-13339
▁eskualdeak	-13340
▁eskualdean	-13341
▁eskuinaren	-13342
▁eskumikatu	-13343
▁eskuratuta	-13344
▁estagirita	-13345
▁estandarra	-13346
▁estrategia	-13347
▁etengabeko	-13348
▁euklidesen	-13349
▁euretariko	-13350
▁europarrek	-13351
▁euskarriak	-13352
▁exhibition	-13353
▁ezabaketen	-13354
▁ezagutzeko	-13355
▁ezaugarria	-13356
▁ezberdinez	-13357
▁eztabaidak	-13358
▁eztabaidan	-13359
▁feministak	-13360
▁fenomenoak	-13361
▁fidagarria	-13362
▁fisikariak	-13363
▁franciscus	-13364
▁frantsesek	-13365
▁galileoren	-13366
▁galsworthy	-13367
▁gandolfini	-13368
▁gasherbrum	-13369
▁gasteiztar	-13370
▁gaztelakoa	-13371
▁gehiegizko	-13372
▁gehiengoak	-13373
▁georgiarra	-13374
▁gizonezkoa	-13375
▁gobernador	-13376
▁greziarrak	-13377
▁greziarren	-13378
▁gutxiagoko	-13379
▁guztiengan	-13380
▁hankartean	-13381
▁hasieratik	-13382
▁hastapenen	-13383
▁hazparneko	-13384
▁hegazkinak	-13385
▁helbidetik	-13386
▁himalaiako	-13387
▁hitzaldiak	-13388
▁hitzaldian	-13389
▁hizkuntzan	-13390
▁holandarra	-13391
▁honetakoak	-13392
▁horizontal	-13393
▁hotzaldian	-13394
▁hurrengoak	-13395
▁idatziriko	-13396
▁ikerkuntza	-13397
▁ikertzaile	-13398
▁industrian	-13399
▁inguratzen	-13400
▁interfazea	-13401
▁interneten	-13402
▁irratiaren	-13403
▁isiltasuna	-13404
▁islamisten	-13405
▁istiluetan	-13406
▁italiarrak	-13407
▁itxaropena	-13408
▁izugarriak	-13409
▁jarraipena	-13410
▁jokalariak	-13411
▁karlomagno	-13412
▁karolinska	-13413
▁kategoriei	-13414
▁katolikoak	-13415
▁kazakhstan	-13416
▁kimikariak	-13417
▁kirolariak	-13418
▁klasikotik	-13419
▁kolonbiako	-13420
▁kolonietan	-13421
▁komunisten	-13422
▁komunitate	-13423
▁konpainiak	-13424
▁konplexuak	-13425
▁kontrolatu	-13426
▁kontzilioa	-13427
▁kopernizio	-13428
▁kosmografo	-13429
▁kosmonauta	-13430
▁kudeatzeko	-13431
▁larramendi	-13432
▁legazpikoa	-13433
▁lehergailu	-13434
▁leherketak	-13435
▁liburuetan	-13436
▁liburutegi	-13437
▁literarioa	-13438
▁malgutasun	-13439
▁manchester	-13440
▁mandataria	-13441
▁manifestal	-13442
▁mantentzea	-13443
▁mantentzen	-13444
▁materialak	-13445
▁maximilian	-13446
▁mendebalde	-13447
▁merkantzia	-13448
▁migrazioak	-13449
▁mikrobioak	-13450
▁militantea	-13451
▁ministroak	-13452
▁ministroen	-13453
▁mitxelenak	-13454
▁mongoliako	-13455
▁monteverdi	-13456
▁muturraren	-13457
▁nabarmenak	-13458
▁newarticle	-13459
▁newsletter	-13460
▁nitrogenoa	-13461
▁nukleikoen	-13462
▁oaklandera	-13463
▁objekturik	-13464
▁okhotskeko	-13465
▁okzitaniar	-13466
▁operazioan	-13467
▁ordenatuak	-13468
▁ordenatuta	-13469
▁orrialdeko	-13470
▁ospetsuena	-13471
▁ospitaleko	-13472
▁pentsalari	-13473
▁persiarrak	-13474
▁pertsonari	-13475
▁pigmentuak	-13476
▁planetaren	-13477
▁portugalen	-13478
▁printzipio	-13479
▁probintzia	-13480
▁proposatuz	-13481
▁proposizio	-13482
▁proventzan	-13483
▁pterophyta	-13484
▁richardson	-13485
▁rudolphine	-13486
▁rustempasa	-13487
▁santamaria	-13488
▁sarreretan	-13489
▁sartaldeko	-13490
▁sendatzeko	-13491
▁siderurgia	-13492
▁sistematik	-13493
▁softwarean	-13494
▁soinujolea	-13495
▁soldadutza	-13496
▁sorreraren	-13497
▁soziolingu	-13498
▁soziologoa	-13499
▁suitzarrak	-13500
▁sustatzeko	-13501
▁teleskopio	-13502
▁topologiak	-13503
▁torturaren	-13504
▁trantsizio	-13505
▁tratatzeko	-13506
▁tropikalak	-13507
▁txaikovski	-13508
▁txiletarra	-13509
▁udaltzaina	-13510
▁uhartediak	-13511
▁umezurtzak	-13512
▁urteurrena	-13513
▁uzbekistan	-13514
▁vatikanoko	-13515
▁watzenrode	-13516
▁wikilariak	-13517
▁xanpainako	-13518
▁zabalerari	-13519
▁zeramatzan	-13520
▁zerbitzuak	-13521
▁ziklogenes	-13522
▁zinegotzia	-13523
▁zinemagile	-13524
▁zituelarik	-13525
▁zituztenak	-13526
▁abertzaleko	-13527
▁aintzatetsi	-13528
▁aipatzekoak	-13529
▁aldaketaren	-13530
▁alderdiaren	-13531
▁aldizkariak	-13532
▁alfabetikoa	-13533
▁aljebraikoa	-13534
▁allmessages	-13535
▁alternatiba	-13536
▁anglofonoan	-13537
▁antropologo	-13538
▁antzinaroan	-13539
▁arduradunak	-13540
▁arrakastats	-13541
▁artzapezpik	-13542
▁aurrerabide	-13543
▁autobiograf	-13544
▁azpimarratu	-13545
▁babestutako	-13546
▁balantzaren	-13547
▁baliagarria	-13548
▁basamortuan	-13549
▁batzuetatik	-13550
▁beharretara	-13551
▁biokimikari	-13552
▁biologikoak	-13553
▁biologikoen	-13554
▁bizidunetan	-13555
▁bizkaitarra	-13556
▁blokeatzeko	-13557
▁chamberlain	-13558
▁daukagunari	-13559
▁dberrortext	-13560
▁dentsitatea	-13561
▁deskribapen	-13562
▁deskripzioa	-13563
▁diokleziano	-13564
▁egiptoarrek	-13565
▁egiteagatik	-13566
▁egiterakoan	-13567
▁ekonomikoak	-13568
▁elektroniko	-13569
▁elkartutako	-13570
▁enpresaburu	-13571
▁entzikloped	-13572
▁erabilitako	-13573
▁erabiltzean	-13574
▁eraldatzeko	-13575
▁erbesteratu	-13576
▁erlijiosoak	-13577
▁erregeordea	-13578
▁errusiarrek	-13579
▁eskaintzeko	-13580
▁eskoletatik	-13581
▁espainiatik	-13582
▁espetxeratu	-13583
▁esplikazioa	-13584
▁estatistika	-13585
▁estrasburgo	-13586
▁estreinekoz	-13587
▁ezagutzaren	-13588
▁federazioko	-13589
▁feminismoak	-13590
▁filipinetan	-13591
▁filosoforik	-13592
▁frantziatik	-13593
▁gainditzeko	-13594
▁garraiatzen	-13595
▁gehiegizkoa	-13596
▁generatione	-13597
▁gertakariak	-13598
▁gizonezkoek	-13599
▁gobernuaren	-13600
▁greenstreet	-13601
▁grezierazko	-13602
▁gutxiengoen	-13603
▁handienetan	-13604
▁herbehereak	-13605
▁herbehereek	-13606
▁heriotzaren	-13607
▁herodotoren	-13608
▁herrialdeen	-13609
▁herrialdeko	-13610
▁herritarren	-13611
▁hezitzailea	-13612
▁hirugarrena	-13613
▁hirurogeita	-13614
▁historiarik	-13615
▁historikoki	-13616
▁idazkaritza	-13617
▁idazleengan	-13618
▁ikerketetan	-13619
▁immunologia	-13620
▁inbisibleak	-13621
▁indonesiako	-13622
▁indotxinako	-13623
▁inprimagail	-13624
▁instalatzen	-13625
▁internazion	-13626
▁iraungipena	-13627
▁itsasarteak	-13628
▁itsasgizona	-13629
▁itsasontzia	-13630
▁japoniarrak	-13631
▁jasotzailea	-13632
▁kapitalista	-13633
▁karolingiar	-13634
▁karrikaratu	-13635
▁kolonizatze	-13636
▁konponbidea	-13637
▁konposagile	-13638
▁kontrolpean	-13639
▁kontseilari	-13640
▁kontzeptuak	-13641
▁kontzilioan	-13642
▁kosmetikoak	-13643
▁lagungarria	-13644
▁laguntzaile	-13645
▁lehergailua	-13646
▁litzatekeen	-13647
▁lockerbieko	-13648
▁mainframeak	-13649
▁mallorcarra	-13650
▁massmessage	-13651
▁matematikoa	-13652
▁matxismorik	-13653
▁mendelssohn	-13654
▁mendikateek	-13655
▁merkaturatu	-13656
▁ministraria	-13657
▁mitologiako	-13658
▁montesquieu	-13659
▁movenologin	-13660
▁mugimenduei	-13661
▁musharrafek	-13662
▁nabigatzail	-13663
▁naturalaren	-13664
▁nederlandar	-13665
▁nekazaritza	-13666
▁nikaraguako	-13667
▁okzitaniera	-13668
▁ongietorria	-13669
▁organismoen	-13670
▁orokorretan	-13671
▁osianderrek	-13672
▁pakhtunkhwa	-13673
▁pakistandar	-13674
▁palestinako	-13675
▁parametroak	-13676
▁penintsulan	-13677
▁pentsamendu	-13678
▁periodikoan	-13679
▁pertsonalak	-13680
▁pertsonaren	-13681
▁pertsonatik	-13682
▁pilotalekua	-13683
▁pitagorasen	-13684
▁poliomielit	-13685
▁popularreko	-13686
▁postontziak	-13687
▁powersearch	-13688
▁programazio	-13689
▁proposatuko	-13690
▁republicain	-13691
▁revnotfound	-13692
▁sozialismoa	-13693
▁stockholmen	-13694
▁suleymaniye	-13695
▁tadjikistan	-13696
▁teknologiko	-13697
▁tenislariak	-13698
▁teutonikoen	-13699
▁txantiloien	-13700
▁txetxeniako	-13701
▁txinatarrak	-13702
▁txinatarrek	-13703
▁txistularia	-13704
▁ulertzearen	-13705
▁urtarrileko	-13706
▁watchmethod	-13707
▁weierstrass	-13708
▁zehaztutako	-13709
▁zerrendaren	-13710
▁zuberotarra	-13711
▁zuhaitzetan	-13712
▁zuzenduriko	-13713
▁zuzendutako	-13714
▁adierazgarri	-13715
▁ahalbidetzen	-13716
▁akusaziopean	-13717
▁aldarrikatuz	-13718
▁alexandriara	-13719
▁antropologoa	-13720
▁aragoieraren	-13721
▁arazoetarako	-13722
▁arrakastarik	-13723
▁artifizialak	-13724
▁aurkitzailea	-13725
▁aurrerabidea	-13726
▁automatismoa	-13727
▁beharrezkoak	-13728
▁berrezarriko	-13729
▁birzuzenketa	-13730
▁blokeatutako	-13731
▁bonaparteren	-13732
▁deklinabidea	-13733
▁deskribapena	-13734
▁deskribatzen	-13735
▁distribution	-13736
▁eboluzioaren	-13737
▁ekialderantz	-13738
▁ekonomialari	-13739
▁eleberriaren	-13740
▁emakumezkoek	-13741
▁errealitatea	-13742
▁erregenahiak	-13743
▁errepublikan	-13744
▁erromanikoen	-13745
▁erromatarrak	-13746
▁erromatarren	-13747
▁eskualdeetan	-13748
▁eskuizkribua	-13749
▁espainiakoak	-13750
▁esperantista	-13751
▁esperantozko	-13752
▁euskalkiaren	-13753
▁ezabatzearen	-13754
▁ezberdinetan	-13755
▁filosofikoak	-13756
▁florentziako	-13757
▁frantsesezko	-13758
▁frantziarrak	-13759
▁galizierazko	-13760
▁gasteiztarra	-13761
▁geografikoki	-13762
▁geometrikoak	-13763
▁gipuzkoarrak	-13764
▁groenlandian	-13765
▁guantanamoko	-13766
▁hamarraldian	-13767
▁hardwarearen	-13768
▁herrialderik	-13769
▁herrialdetan	-13770
▁hilabeteetan	-13771
▁hizkuntzetan	-13772
▁homosexualak	-13773
▁hondarribian	-13774
▁horrenbestez	-13775
▁ikuspuntutik	-13776
▁ingalaterrak	-13777
▁ingelesezkoa	-13778
▁inprimatzeko	-13779
▁italiarraren	-13780
▁itzultzailea	-13781
▁izenburuaren	-13782
▁izenburuetan	-13783
▁japonieratik	-13784
▁katolikoaren	-13785
▁komunikatzen	-13786
▁konektatzeko	-13787
▁kongresukide	-13788
▁konputagailu	-13789
▁kontinentean	-13790
▁kontinenteka	-13791
▁korapilatsua	-13792
▁lazarragaren	-13793
▁lehendakaria	-13794
▁leheneratuko	-13795
▁litzatekeela	-13796
▁loginsuccess	-13797
▁luthertarrak	-13798
▁matematikoak	-13799
▁metabolikoak	-13800
▁metamorfosis	-13801
▁meteorologia	-13802
▁michelangelo	-13803
▁mongoliarrak	-13804
▁mongoliarrek	-13805
▁nederlandera	-13806
▁neutraltasun	-13807
▁nikaraguarra	-13808
▁nosuchaction	-13809
▁ordenagailua	-13810
▁perfdisabled	-13811
▁periferikoak	-13812
▁peripatetiko	-13813
▁politikariak	-13814
▁proiektuaren	-13815
▁removedwatch	-13816
▁resurreccion	-13817
▁schumacherek	-13818
▁sorrerarekin	-13819
▁sortzearekin	-13820
▁specialpages	-13821
▁subjektuaren	-13822
▁substantzien	-13823
▁sultanaldian	-13824
▁taxonomiaren	-13825
▁topologiaren	-13826
▁tradizionala	-13827
▁turkmenistan	-13828
▁unibertsalki	-13829
▁unusedimages	-13830
▁venezuelarra	-13831
▁versaillesko	-13832
▁washingtonen	-13833
▁whitelistacc	-13834
▁wikilariaren	-13835
▁wikipedietan	-13836
▁yourpassword	-13837
▁yugoslaviako	-13838
▁zabalkundeak	-13839
▁zelulanitzek	-13840
▁zerbitzariak	-13841
▁zerbitzariko	-13842
▁zientifikoak	-13843
▁zientzietako	-13844
▁zirriborroak	-13845
ckdbsuccesssub	-13846
▁aldizkariaren	-13847
▁antolatzailea	-13848
▁artikuluetako	-13849
▁astronomiaren	-13850
▁aurreikuspena	-13851
▁azpimarratzen	-13852
▁batasunarekin	-13853
▁bereizketaren	-13854
▁birzuzenketen	-13855
▁confirmdelete	-13856
▁coniferophyta	-13857
▁createaccount	-13858
▁demokratikoko	-13859
▁dodekafonikoa	-13860
▁elektronikoak	-13861
▁emakumetasuna	-13862
▁entrenatzaile	-13863
▁erreferenduma	-13864
▁erreferentzia	-13865
▁erromesaldian	-13866
▁esperantozale	-13867
▁esperientziak	-13868
▁euskalkietako	-13869
▁eztabaidatsua	-13870
▁funtzionatzen	-13871
▁gaztelaniaren	-13872
▁halikarnasoko	-13873
▁hamaseigarren	-13874
▁handienetakoa	-13875
▁hautatutakoak	-13876
▁historiaurrea	-13877
▁hizkuntzetako	-13878
▁indonesiarrak	-13879
▁ingurumenetik	-13880
▁instrumentala	-13881
▁interpretazio	-13882
▁iraultzarekin	-13883
▁jarraitzailea	-13884
▁konparagarria	-13885
▁landareetatik	-13886
▁latinoamerika	-13887
▁legebiltzarra	-13888
▁lurmuturretik	-13889
▁marrazkilaria	-13890
▁mediterranear	-13891
▁mendebaldetik	-13892
▁mendialdeetan	-13893
▁mikrobiologia	-13894
▁nabigatzailea	-13895
▁nazionalizatu	-13896
▁nekazaritzako	-13897
▁neoklasizismo	-13898
▁neoklasizista	-13899
▁orrialdeetara	-13900
▁portugaldarra	-13901
▁protestanteak	-13902
▁rassemblement	-13903
▁searchresults	-13904
▁sendabelarrak	-13905
▁sozialistaren	-13906
▁transmititzen	-13907
▁undeleterevis	-13908
▁unibertsitate	-13909
▁whitelistedit	-13910
▁whitelistread	-13911
ckdbsuccesstext	-13912
▁abertzaletasun	-13913
▁administrators	-13914
▁argitaratutako	-13915
▁artikuluarekin	-13916
▁atentatuarekin	-13917
▁blockipsuccess	-13918
▁cosmographicum	-13919
▁dodekafonismoa	-13920
▁ekonomialariak	-13921
▁elkarrengandik	-13922
▁errepublikaren	-13923
▁euskerazaintza	-13924
▁frantziakoaren	-13925
▁hauteskundetan	-13926
▁herrialdeetako	-13927
▁heterosexualak	-13928
▁historialariak	-13929
▁hizkuntzalaria	-13930
▁indoeuroparrak	-13931
▁ingalaterraren	-13932
▁kategoriarekin	-13933
▁kontrolatutako	-13934
▁kontserbadorea	-13935
▁kumaritashvili	-13936
▁legegintzarako	-13937
▁lehendakaritza	-13938
▁matematikariak	-13939
▁nekazaritzaren	-13940
▁ospakizunetako	-13941
▁parlamentuaren	-13942
▁portugaldarrek	-13943
▁presidentearen	-13944
▁presokratikoak	-13945
▁proposamenaren	-13946
▁schwarzenegger	-13947
▁showingresults	-13948
▁transferentzia	-13949
▁ultraeskuindar	-13950
▁zelulabakarrek	-13951
▁zerbitzariaren	-13952
▁zerrendatutako	-13953
▁zientifikoaren	-13954
▁zientzialariek	-13955
▁bisibilizazioak	-13956
▁brokenredirects	-13957
▁desmilitarizatu	-13958
▁doubleredirects	-13959
▁erabiltzaileari	-13960
▁frantziakoarena	-13961
▁funtzionamendua	-13962
▁hamazazpigarren	-13963
▁heliozentrismoa	-13964
▁hirurogeigarren	-13965
▁identifikatzeko	-13966
▁iheslarientzako	-13967
▁komunikaziorako	-13968
▁kontserbakorrek	-13969
▁nabarmentzekoak	-13970
▁nekazaritzarako	-13971
▁ordenagailuekin	-13972
▁sitesupportpage	-13973
▁superkontinente	-13974
▁unibertsitateko	-13975
sbc	-13976
μος	-13977
οτα	-13978
τοτ	-13979
elps	-13980
frag	-13981
haal	-13982
stad	-13983
umps	-13984
xhak	-13985
xkak	-13986
ομος	-13987
οταν	-13988
▁078	-13989
▁bbk	-13990
▁ltd	-13991
▁mpf	-13992
▁pcf	-13993
▁pcm	-13994
▁rpf	-13995
▁vav	-13996
arobe	-13997
assky	-13998
azzle	-13999
bisio	-14000
cagua	-14001
caine	-14002
caust	-14003
cevoy	-14004
cibar	-14005
cinco	-14006
cloga	-14007
danao	-14008
dated	-14009
dozak	-14010
echea	-14011
elove	-14012
elsea	-14013
enkol	-14014
esibo	-14015
estey	-14016
gilua	-14017
hauer	-14018
hrerb	-14019
itibo	-14020
karbi	-14021
kelak	-14022
obait	-14023
orrus	-14024
pherd	-14025
salin	-14026
selmo	-14027
stadt	-14028
tehun	-14029
teztu	-14030
tsiba	-14031
vnext	-14032
vorak	-14033
ylves	-14034
ymont	-14035
zanon	-14036
▁1162	-14037
▁1167	-14038
▁1194	-14039
▁1196	-14040
▁1248	-14041
▁1403	-14042
▁auld	-14043
▁bbkk	-14044
▁bbva	-14045
▁biaf	-14046
▁bomb	-14047
▁drew	-14048
▁dulb	-14049
▁earh	-14050
▁earp	-14051
▁fawc	-14052
▁gobi	-14053
▁gyat	-14054
▁hodg	-14055
▁houy	-14056
▁know	-14057
▁knox	-14058
▁kush	-14059
▁lcrk	-14060
▁next	-14061
▁nils	-14062
▁oxid	-14063
▁ruhr	-14064
▁scep	-14065
▁sutt	-14066
▁unds	-14067
▁wlsa	-14068
▁wojt	-14069
▁zaku	-14070
▁zipr	-14071
aimers	-14072
alabad	-14073
alipak	-14074
aluzia	-14075
arrell	-14076
benitz	-14077
betzun	-14078
chings	-14079
ciaedo	-14080
clogae	-14081
damgoa	-14082
dified	-14083
doiloa	-14084
eevich	-14085
enkolb	-14086
entano	-14087
ernaer	-14088
etooth	-14089
eussec	-14090
expiry	-14091
fadden	-14092
failed	-14093
ichyko	-14094
igenei	-14095
ildren	-14096
indsor	-14097
inirek	-14098
intxak	-14099
▁erot	-14100
▁gods	-14101
▁hisp	-14102
▁kume	-14103
▁lezo	-14104
▁nuno	-14105
▁purp	-14106
▁vige	-14107
▁zulf	-14108
iorena	-14109
itzhak	-14110
jetoen	-14111
kusatu	-14112
oachek	-14113
odatok	-14114
ofonoa	-14115
olotov	-14116
opmans	-14117
pegiak	-14118
reason	-14119
rovenz	-14120
sbauer	-14121
tacion	-14122
umpsit	-14123
xkaren	-14124
ylight	-14125
▁10491	-14126
▁10495	-14127
▁addam	-14128
▁affle	-14129
▁aiken	-14130
▁altai	-14131
▁anjel	-14132
▁arkau	-14133
▁ashet	-14134
▁atano	-14135
▁bayro	-14136
▁bipil	-14137
▁bixin	-14138
▁bomis	-14139
▁booth	-14140
▁cells	-14141
▁cheik	-14142
▁clavi	-14143
▁clerk	-14144
▁cunqu	-14145
▁damas	-14146
▁doors	-14147
▁dream	-14148
▁dukea	-14149
▁echeg	-14150
▁echev	-14151
▁efren	-14152
▁eitea	-14153
▁emerg	-14154
▁eniac	-14155
▁erdoz	-14156
▁etete	-14157
▁faroe	-14158
▁festa	-14159
▁fogel	-14160
▁fromb	-14161
▁fusil	-14162
▁galax	-14163
▁gates	-14164
▁gatun	-14165
▁getty	-14166
▁giron	-14167
▁glais	-14168
▁gyorg	-14169
▁hanks	-14170
▁hescu	-14171
▁hesse	-14172
▁hetak	-14173
▁hexag	-14174
▁heyse	-14175
▁hinds	-14176
▁hoffa	-14177
▁hogei	-14178
▁ilust	-14179
▁immig	-14180
▁isamu	-14181
▁jabir	-14182
▁kiowa	-14183
▁kitto	-14184
▁kofra	-14185
▁krado	-14186
▁kusch	-14187
▁lapag	-14188
▁lezon	-14189
▁lihoa	-14190
▁loadh	-14191
▁lockn	-14192
▁loiol	-14193
▁mcdow	-14194
▁mekan	-14195
▁modig	-14196
▁nakam	-14197
▁nebri	-14198
▁nietz	-14199
hjal	-14200
dusek	-14201
gazle	-14202
hjalm	-14203
hores	-14204
liani	-14205
susek	-14206
▁1129	-14207
▁1332	-14208
▁1333	-14209
aduraz	-14210
azleek	-14211
jdusek	-14212
kousen	-14213
oppera	-14214
sarion	-14215
▁aceve	-14216
▁anouk	-14217
▁bagen	-14218
▁blues	-14219
▁bryce	-14220
▁cross	-14221
▁kadet	-14222
▁night	-14223
▁nomad	-14224
▁nunez	-14225
▁oihal	-14226
▁pacif	-14227
▁paxtu	-14228
▁petac	-14229
▁picea	-14230
▁piece	-14231
▁prats	-14232
▁prevn	-14233
▁qaeda	-14234
▁qbset	-14235
▁quinn	-14236
▁rabah	-14237
▁reeve	-14238
▁ribas	-14239
▁rinto	-14240
▁ritch	-14241
▁rossd	-14242
▁schaw	-14243
▁scors	-14244
▁slobo	-14245
▁slovo	-14246
▁smoke	-14247
▁smoot	-14248
▁snell	-14249
▁soyuz	-14250
▁split	-14251
▁stark	-14252
▁stihl	-14253
▁stone	-14254
▁suker	-14255
▁tigre	-14256
▁tildy	-14257
▁truff	-14258
▁tsung	-14259
▁undab	-14260
▁vahan	-14261
▁vigee	-14262
▁wayne	-14263
▁xiaop	-14264
▁yalow	-14265
abriako	-14266
adstone	-14267
agarate	-14268
agarcia	-14269
aliptoa	-14270
alladar	-14271
andless	-14272
apenari	-14273
arobide	-14274
atoryko	-14275
atuenen	-14276
autarko	-14277
berlake	-14278
breason	-14279
bsubmit	-14280
canalgo	-14281
cepcion	-14282
derthal	-14283
dismora	-14284
dophyta	-14285
duinoak	-14286
eerisek	-14287
egaldar	-14288
einiren	-14289
eizketa	-14290
ellitus	-14291
enhauer	-14292
entsiba	-14293
erditik	-14294
etprefs	-14295
frearen	-14296
hizunen	-14297
hrerbun	-14298
iasteri	-14299
cheni	-14300
garay	-14301
pidia	-14302
shere	-14303
hausen	-14304
idorek	-14305
itiers	-14306
itxuaz	-14307
opolis	-14308
tagaia	-14309
tooges	-14310
umidia	-14311
▁bixio	-14312
▁claus	-14313
▁klaus	-14314
▁vidia	-14315
▁zegon	-14316
ardiola	-14317
arlatti	-14318
balekua	-14319
ibelius	-14320
ilvania	-14321
imandro	-14322
ismarck	-14323
istakoa	-14324
isterna	-14325
itetoak	-14326
izeneko	-14327
izialek	-14328
koiekin	-14329
komunik	-14330
lenhaal	-14331
nedenko	-14332
ontzien	-14333
ooppera	-14334
orratua	-14335
padding	-14336
pahoria	-14337
peratri	-14338
perrien	-14339
pertzio	-14340
phoseon	-14341
pulazio	-14342
sarides	-14343
sources	-14344
tagnier	-14345
tatione	-14346
tenance	-14347
tenandt	-14348
tentsib	-14349
terapia	-14350
tetsiak	-14351
tremove	-14352
trength	-14353
tutibus	-14354
txobait	-14355
tzialki	-14356
uburuen	-14357
ukovich	-14358
ustukoa	-14359
usubmit	-14360
uverain	-14361
varotti	-14362
venzano	-14363
villeko	-14364
▁addams	-14365
▁affair	-14366
▁agathe	-14367
▁aholku	-14368
▁ainhoa	-14369
▁aizarn	-14370
▁aizkor	-14371
▁allais	-14372
▁amazon	-14373
▁amelia	-14374
▁amezti	-14375
▁amodio	-14376
▁amores	-14377
▁anular	-14378
▁argote	-14379
▁ashton	-14380
▁atsege	-14381
▁aumann	-14382
▁axioma	-14383
▁azidor	-14384
▁azkuek	-14385
▁bachek	-14386
▁baldom	-14387
▁barkla	-14388
▁bartok	-14389
▁bayern	-14390
▁bedaur	-14391
▁bermeo	-14392
▁biarri	-14393
▁bizkar	-14394
▁boolek	-14395
▁bordat	-14396
▁bordax	-14397
▁bordet	-14398
▁bosnia	-14399
ctio	-14400
▁371	-14401
▁480	-14402
▁658	-14403
▁675	-14404
▁764	-14405
▁804	-14406
▁806	-14407
▁807	-14408
▁899	-14409
▁eyv	-14410
▁fuj	-14411
▁slp	-14412
▁voy	-14413
aluze	-14414
tatio	-14415
▁blum	-14416
▁eyak	-14417
▁ioar	-14418
▁jeje	-14419
▁kruz	-14420
▁nyse	-14421
▁svet	-14422
ductio	-14423
ijalea	-14424
ofanes	-14425
tiokoa	-14426
[...]
