<unk>	0
<s>	0
</s>	0
[PAD]	0
[CLS]	0
[SEP]	0
[MASK]	0
en	-0
▁e	-1
an	-2
ar	-3
ko	-4
▁b	-5
▁.	-6
▁z	-7
ta	-8
▁d	-9
er	-10
▁,	-11
▁"	-12
ak	-13
at	-14
it	-15
in	-16
▁h	-17
ur	-18
ik	-19
al	-20
or	-21
ir	-22
ia	-23
iz	-24
▁eta	-25
▁g	-26
il	-27
▁1	-28
▁/	-29
▁=	-30
on	-31
▁a	-32
te	-33
tz	-34
id	-35
re	-36
▁p	-37
le	-38
▁s	-39
▁m	-40
▁2	-41
▁da	-42
ud	-43
arr	-44
ek	-45
▁-	-46
iren	-47
▁l	-48
go	-49
▁ziren	-50
aren	-51
▁t	-52
▁do	-53
▁w	-54
itu	-55
▁er	-56
iki	-57
▁>	-58
▁<	-59
▁f	-60
un	-61
▁c	-62
tan	-63
▁wiki	-64
▁doc	-65
atu	-66
is	-67
ten	-68
ro	-69
ab	-70
io	-71
us	-72
▁bat	-73
▁ze	-74
err	-75
▁zen	-76
tu	-77
▁n	-78
az	-79
▁ur	-80
ako	-81
as	-82
de	-83
itz	-84
▁ko	-85
▁k	-86
▁20	-87
tx	-88
▁:	-89
▁zu	-90
am	-91
▁(	-92
▁)	-93
▁j	-94
▁ar	-95
ib	-96
es	-97
▁es	-98
ian	-99
▁o	-100
iko	-101
▁or	-102
uden	-103
ain	-104
ts	-105
ed	-106
eko	-107
▁biz	-108
el	-109
▁iz	-110
▁zeuden	-111
eta	-112
▁al	-113
ez	-114
▁etx	-115
era	-116
▁id	-117
res	-118
iak	-119
▁3	-120
ag	-121
▁200	-122
ps	-123
▁zitu	-124
tt	-125
du	-126
▁in	-127
me	-128
▁eu	-129
edia	-130
▁org	-131
urid	-132
▁?	-133
tik	-134
▁wikip	-135
▁tit	-136
▁wikipedia	-137
▁htt	-138
▁https	-139
▁url	-140
ail	-141
▁title	-142
▁curid	-143
▁eg	-144
▁ber	-145
ean	-146
▁en	-147
atz	-148
au	-149
▁du	-150
ol	-151
▁4	-152
▁6	-153
▁5	-154
▁19	-155
▁biztan	-156
▁izan	-157
▁enp	-158
▁enpres	-159
zten	-160
▁ud	-161
ien	-162
▁zuen	-163
ad	-164
atuta	-165
os	-166
▁udal	-167
ea	-168
▁le	-169
▁per	-170
ig	-171
▁udalerr	-172
▁an	-173
▁dago	-174
etan	-175
▁ez	-176
ita	-177
▁ditu	-178
itza	-179
▁8	-180
tson	-181
▁pertson	-182
amil	-183
ul	-184
▁kon	-185
▁hor	-186
im	-187
tean	-188
▁famil	-189
▁den	-190
▁lan	-191
ibo	-192
tzen	-193
alde	-194
▁biztanle	-195
ari	-196
ku	-197
eh	-198
▁em	-199
iako	-200
▁os	-201
etatik	-202
akt	-203
▁se	-204
▁zuten	-205
▁zituzten	-206
uz	-207
and	-208
▁7	-209
ena	-210
tr	-211
▁az	-212
▁bes	-213
▁dir	-214
▁etxek	-215
do	-216
▁ere	-217
ero	-218
▁bak	-219
aktibo	-220
▁de	-221
atur	-222
ip	-223
▁bere	-224
▁beste	-225
et	-226
▁zituen	-227
▁enpresak	-228
▁ad	-229
▁on	-230
eg	-231
men	-232
▁hau	-233
la	-234
atzen	-235
▁ir	-236
ok	-237
▁pro	-238
uru	-239
ra	-240
ch	-241
▁2009	-242
eb	-243
azio	-244
▁hir	-245
ekin	-246
▁pertsona	-247
▁2007	-248
ai	-249
▁herr	-250
aturik	-251
arre	-252
antz	-253
tal	-254
▁erre	-255
▁hon	-256
▁v	-257
▁bain	-258
▁giz	-259
▁sail	-260
untz	-261
iaren	-262
atutako	-263
▁dira	-264
ut	-265
▁sailk	-266
ina	-267
aku	-268
▁ib	-269
▁201	-270
▁barr	-271
▁ik	-272
ap	-273
tro	-274
▁leh	-275
om	-276
ela	-277
▁emaku	-278
etako	-279
teko	-280
tatu	-281
▁nag	-282
entz	-283
▁har	-284
▁aur	-285
▁9	-286
dor	-287
▁nagus	-288
▁par	-289
uk	-290
▁egit	-291
ter	-292
▁emakume	-293
▁egin	-294
eak	-295
ala	-296
op	-297
ion	-298
arren	-299
▁etxeb	-300
arra	-301
▁as	-302
▁erro	-303
▁18	-304
▁etxebiz	-305
end	-306
▁fr	-307
ub	-308
▁etxebizitza	-309
▁artean	-310
▁seme	-311
▁gizon	-312
ua	-313
ic	-314
ara	-315
▁edo	-316
▁alab	-317
▁bi	-318
kal	-319
ilo	-320
▁zego	-321
▁zer	-322
▁;	-323
▁udalerrian	-324
▁eur	-325
▁ag	-326
▁inaktibo	-327
▁mar	-328
▁12	-329
▁zegoen	-330
▁ondor	-331
▁arr	-332
▁esku	-333
mer	-334
▁familiak	-335
▁enpresa	-336
▁erab	-337
aldean	-338
ld	-339
▁r	-340
ug	-341
ma	-342
ler	-343
ti	-344
▁ibil	-345
▁tx	-346
▁lehen	-347
▁bizi	-348
▁10	-349
ial	-350
▁arab	-351
▁ab	-352
▁bil	-353
▁ba	-354
▁ap	-355
ailu	-356
▁errold	-357
oa	-358
▁ald	-359
▁gen	-360
▁ger	-361
▁geh	-362
▁beh	-363
uko	-364
ida	-365
▁zerb	-366
ing	-367
itzu	-368
ki	-369
▁kok	-370
▁era	-371
tako	-372
aritza	-373
ortu	-374
▁17	-375
og	-376
iago	-377
gailu	-378
ide	-379
▁16	-380
▁hand	-381
▁estatu	-382
▁ban	-383
▁zerbitzu	-384
ah	-385
iar	-386
tze	-387
arrik	-388
▁ibilgailu	-389
ioa	-390
▁11	-391
▁batz	-392
oan	-393
ier	-394
ura	-395
▁erabil	-396
▁el	-397
uan	-398
atua	-399
arta	-400
▁ondoren	-401
sun	-402
▁15	-403
▁13	-404
ob	-405
urr	-406
em	-407
▁esp	-408
▁baino	-409
metro	-410
▁genero	-411
▁biztanler	-412
▁men	-413
alia	-414
erako	-415
tor	-416
▁kilo	-417
▁horien	-418
tzeko	-419
▁mo	-420
▁anim	-421
lako	-422
endu	-423
▁bakarrik	-424
ubl	-425
oko	-426
▁ing	-427
ude	-428
▁te	-429
arreko	-430
▁kilometro	-431
ka	-432
artamen	-433
talde	-434
▁aktibo	-435
ald	-436
aso	-437
idae	-438
▁biztanleak	-439
▁dituzten	-440
untza	-441
▁animalia	-442
▁un	-443
arik	-444
▁ikas	-445
▁eus	-446
▁erroldatutako	-447
abe	-448
▁etxetan	-449
ate	-450
▁pl	-451
▁14	-452
▁barruko	-453
▁fis	-454
aur	-455
▁generoko	-456
▁familian	-457
itate	-458
▁it	-459
▁udalerri	-460
aria	-461
to	-462
▁mende	-463
da	-464
00	-465
▁berr	-466
▁koad	-467
▁urtean	-468
▁koadro	-469
▁frantz	-470
▁bakarreko	-471
ost	-472
intz	-473
derr	-474
▁ch	-475
▁arg	-476
▁big	-477
▁alabak	-478
arekin	-479
▁konp	-480
▁ind	-481
▁u	-482
▁has	-483
▁eraik	-484
▁x	-485
▁i	-486
▁bestelako	-487
▁fiskal	-488
▁nor	-489
▁ager	-490
▁lag	-491
▁baina	-492
idea	-493
▁kan	-494
▁bigarren	-495
▁tr	-496
ateg	-497
kar	-498
▁urte	-499
atik	-500
▁konderr	-501
▁herri	-502
bor	-503
▁talde	-504
duan	-505
▁erak	-506
tar	-507
▁azal	-508
▁egun	-509
▁udalerria	-510
▁gar	-511
▁horre	-512
tasun	-513
ikoa	-514
▁eskualdean	-515
isa	-516
▁gehiago	-517
▁lau	-518
▁sal	-519
▁nek	-520
▁br	-521
▁hiru	-522
▁publ	-523
urg	-524
▁azp	-525
entzia	-526
▁nekaz	-527
ram	-528
▁no	-529
▁san	-530
lo	-531
▁honek	-532
arri	-533
itar	-534
▁gain	-535
▁us	-536
raf	-537
ata	-538
▁ek	-539
▁esk	-540
th	-541
▁publiko	-542
▁komer	-543
▁komertz	-544
▁nagusia	-545
▁at	-546
air	-547
▁egiten	-548
▁hori	-549
▁bo	-550
▁erres	-551
ber	-552
teak	-553
min	-554
▁he	-555
▁dute	-556
▁denbor	-557
▁ne	-558
har	-559
ac	-560
ton	-561
aza	-562
▁guz	-563
aka	-564
zio	-565
▁esko	-566
▁gisa	-567
ie	-568
▁ro	-569
▁banatuta	-570
▁nekazaritza	-571
ba	-572
aldeko	-573
▁frantziako	-574
ezk	-575
▁egiteko	-576
ne	-577
tir	-578
itzen	-579
▁lo	-580
▁la	-581
▁gor	-582
▁prop	-583
▁hain	-584
▁hu	-585
xu	-586
▁dep	-587
▁pol	-588
iburu	-589
ern	-590
▁euren	-591
ikoan	-592
itzeko	-593
aten	-594
rik	-595
▁nah	-596
▁gab	-597
inc	-598
if	-599
ada	-600
▁erabiltzen	-601
▁bar	-602
▁ibilgailuen	-603
mo	-604
▁nagusi	-605
▁izen	-606
▁lang	-607
▁hil	-608
keta	-609
▁batzuk	-610
▁park	-611
▁ip	-612
▁dauden	-613
eran	-614
di	-615
▁199	-616
usten	-617
▁konpon	-618
▁mug	-619
orm	-620
▁inguru	-621
▁arabera	-622
▁departamen	-623
▁zuz	-624
tuak	-625
txe	-626
atzeko	-627
▁22	-628
iag	-629
inaren	-630
▁aurk	-631
man	-632
tuen	-633
▁pir	-634
▁gu	-635
▁bost	-636
▁urteko	-637
▁ondorengo	-638
▁sortu	-639
qu	-640
tin	-641
▁med	-642
▁bako	-643
bat	-644
▁ele	-645
les	-646
▁err	-647
▁27	-648
ustr	-649
istr	-650
▁28	-651
din	-652
▁gabeko	-653
▁th	-654
ista	-655
▁24	-656
▁jabe	-657
ge	-658
▁go	-659
▁biko	-660
▁mon	-661
ika	-662
izk	-663
▁lanean	-664
▁bez	-665
▁y	-666
▁so	-667
▁biztanleria	-668
▁jate	-669
ore	-670
▁gur	-671
rama	-672
ken	-673
ategi	-674
orr	-675
▁eraikuntza	-676
▁euskal	-677
▁sarr	-678
▁behar	-679
▁des	-680
▁huts	-681
ban	-682
▁sexu	-683
▁ah	-684
▁198	-685
▁fil	-686
▁erakusten	-687
um	-688
▁jar	-689
▁herriak	-690
▁2013	-691
▁departamenduan	-692
▁kal	-693
per	-694
▁barrut	-695
▁arrain	-696
▁kokatuta	-697
kup	-698
▁jo	-699
36	-700
▁plaza	-701
▁21	-702
arrak	-703
lan	-704
ilek	-705
▁hartu	-706
ultz	-707
kin	-708
▁sar	-709
▁dagoena	-710
50	-711
▁ageri	-712
▁okup	-713
▁2000	-714
▁graf	-715
▁mus	-716
▁familiaren	-717
▁diag	-718
▁erretir	-719
▁azpian	-720
ile	-721
azte	-722
tur	-723
▁dis	-724
▁gela	-725
ph	-726
38	-727
37	-728
▁bid	-729
▁oh	-730
▁araberako	-731
▁pertsonak	-732
iana	-733
gi	-734
▁emakumeak	-735
▁bilaka	-736
▁alok	-737
itan	-738
▁bizilek	-739
▁piram	-740
▁ezag	-741
▁alabarik	-742
▁duen	-743
▁admin	-744
▁alokair	-745
▁administr	-746
▁ikasten	-747
▁bilakaera	-748
koa	-749
▁ig	-750
▁32	-751
▁adina	-752
ei	-753
▁aktiboak	-754
▁arte	-755
abez	-756
▁propioa	-757
▁denboran	-758
34	-759
▁alde	-760
39	-761
32	-762
▁bizilekua	-763
▁sailkatzen	-764
incl	-765
▁batean	-766
▁diagrama	-767
ich	-768
▁sain	-769
▁gertuen	-770
▁su	-771
▁bikoteak	-772
31	-773
▁biztanleriak	-774
▁piramidea	-775
▁grafikoan	-776
▁adinaren	-777
▁asko	-778
include	-779
▁noinclude	-780
▁jabearen	-781
▁parking	-782
▁langabez	-783
▁nagusietatik	-784
▁inaktiboak	-785
▁aurre	-786
▁inaktiboetatik	-787
▁bakarrekoak	-788
▁ham	-789
ill	-790
▁erretiraturik	-791
▁sailkaturik	-792
▁alokairuan	-793
▁197	-794
▁okupaturik	-795
▁hasi	-796
▁hainbat	-797
identzia	-798
▁diru	-799
60	-800
▁doan	-801
▁hutsik	-802
▁hego	-803
ren	-804
▁langabezian	-805
30	-806
una	-807
▁aktiboetatik	-808
▁ta	-809
▁bur	-810
▁baten	-811
▁fran	-812
▁pertsonek	-813
▁erresidentzia	-814
▁arrainen	-815
▁eman	-816
58	-817
▁mun	-818
52	-819
▁eskola	-820
▁am	-821
itek	-822
zte	-823
▁oso	-824
inen	-825
▁unitate	-826
its	-827
▁usti	-828
▁gizonak	-829
▁kar	-830
▁31	-831
aile	-832
land	-833
57	-834
67	-835
51	-836
▁dagoen	-837
▁ma	-838
ioetatik	-839
ys	-840
▁is	-841
▁sarrera	-842
las	-843
59	-844
▁2010	-845
▁0	-846
62	-847
▁komertzioetatik	-848
▁batu	-849
▁azken	-850
54	-851
tza	-852
▁bal	-853
▁sor	-854
▁ustiategi	-855
▁gal	-856
oak	-857
▁mend	-858
61	-859
▁hezk	-860
ilaren	-861
▁konderrian	-862
▁'	-863
▁gara	-864
64	-865
▁fin	-866
▁espain	-867
▁euro	-868
▁lagata	-869
68	-870
▁saint	-871
▁koadroko	-872
▁kom	-873
duk	-874
▁bakoitzeko	-875
▁guraso	-876
goa	-877
inak	-878
entzako	-879
etik	-880
▁hig	-881
banako	-882
▁norbanako	-883
▁amer	-884
▁fab	-885
▁ego	-886
▁izena	-887
▁diren	-888
69	-889
▁bezala	-890
▁na	-891
▁gerr	-892
▁osaturik	-893
▁bu	-894
▁29	-895
▁jatetxe	-896
co	-897
▁erag	-898
tua	-899
▁ikus	-900
iez	-901
tzi	-902
▁etxeak	-903
kon	-904
▁kokatua	-905
▁pr	-906
▁hauek	-907
▁mediana	-908
▁fiskalaren	-909
▁his	-910
▁gr	-911
▁industr	-912
tes	-913
▁ha	-914
▁bel	-915
ira	-916
pen	-917
▁errep	-918
▁fabrik	-919
▁mat	-920
▁gero	-921
▁kr	-922
▁man	-923
imendu	-924
▁30	-925
▁62	-926
ast	-927
azioko	-928
ine	-929
ula	-930
▁prob	-931
▁mil	-932
▁denda	-933
▁estatuan	-934
▁antz	-935
▁koadrotan	-936
▁40	-937
▁gazte	-938
ieraz	-939
tea	-940
iv	-941
▁gutx	-942
oaren	-943
ark	-944
bol	-945
▁buru	-946
ariak	-947
▁amerik	-948
▁po	-949
ce	-950
▁multz	-951
▁»	-952
▁its	-953
▁«	-954
eman	-955
▁be	-956
engo	-957
▁garr	-958
▁ja	-959
untzako	-960
▁re	-961
ital	-962
uak	-963
▁bor	-964
▁fabrikazioko	-965
▁oin	-966
▁bertan	-967
na	-968
40	-969
▁60	-970
deg	-971
▁lurr	-972
48	-973
▁saltze	-974
▁konpontze	-975
42	-976
▁daude	-977
ikoak	-978
▁azaleran	-979
uen	-980
▁69	-981
▁duten	-982
itik	-983
▁idatz	-984
▁jardu	-985
41	-986
ist	-987
▁hel	-988
▁gaur	-989
▁produk	-990
▁guzt	-991
▁aip	-992
49	-993
iber	-994
pe	-995
▁hezkuntzako	-996
47	-997
olog	-998
zko	-999
▁higiez	-1000
iste	-1001
▁higiezinen	-1002
▁publikoetatik	-1003
▁apartamen	-1004
tok	-1005
▁barrutian	-1006
▁aleman	-1007
▁min	-1008
▁apartamentuak	-1009
den	-1010
▁batera	-1011
▁hala	-1012
▁hiri	-1013
▁87	-1014
▁esta	-1015
ezko	-1016
se	-1017
▁km	-1018
▁pres	-1019
▁probintz	-1020
ino	-1021
▁the	-1022
12	-1023
▁mendeb	-1024
▁lortu	-1025
azi	-1026
unde	-1027
dak	-1028
ille	-1029
▁urt	-1030
▁inf	-1031
▁mundu	-1032
▁arteko	-1033
▁50	-1034
▁aut	-1035
▁bakarra	-1036
▁hek	-1037
iteke	-1038
▁sin	-1039
▁jarduera	-1040
▁bitar	-1041
▁mail	-1042
atibo	-1043
▁hektar	-1044
▁gehien	-1045
▁49	-1046
abal	-1047
▁margo	-1048
▁hektarea	-1049
▁bas	-1050
▁me	-1051
▁luz	-1052
ck	-1053
▁jok	-1054
▁52	-1055
▁sailkatuta	-1056
od	-1057
amendu	-1058
ola	-1059
▁25	-1060
izko	-1061
yl	-1062
▁ostal	-1063
ago	-1064
▁liburu	-1065
▁42	-1066
▁komun	-1067
▁batez	-1068
ional	-1069
▁met	-1070
▁del	-1071
18	-1072
▁gob	-1073
▁ostalaritza	-1074
▁produktu	-1075
▁administrazio	-1076
▁tres	-1077
dako	-1078
▁apain	-1079
▁jan	-1080
17	-1081
ix	-1082
tzea	-1083
▁garrantz	-1084
▁48	-1085
▁ok	-1086
ard	-1087
▁kol	-1088
▁ac	-1089
ii	-1090
▁industrial	-1091
19	-1092
▁sa	-1093
▁jarra	-1094
▁lur	-1095
▁zehar	-1096
▁erem	-1097
▁handia	-1098
▁idaz	-1099
▁zion	-1100
ioz	-1101
35	-1102
▁38	-1103
▁zela	-1104
ismo	-1105
▁26	-1106
ens	-1107
▁histor	-1108
▁itz	-1109
▁fut	-1110
▁est	-1111
▁itsas	-1112
▁joan	-1113
▁bule	-1114
▁izend	-1115
▁leku	-1116
▁co	-1117
▁garra	-1118
▁37	-1119
bait	-1120
▁ital	-1121
▁heg	-1122
▁klas	-1123
10	-1124
▁batzu	-1125
▁her	-1126
▁buruz	-1127
▁baita	-1128
etar	-1129
▁sailkatutako	-1130
▁bih	-1131
▁dela	-1132
tura	-1133
ora	-1134
▁00	-1135
▁pos	-1136
▁multzoan	-1137
ano	-1138
▁pen	-1139
▁honako	-1140
▁egon	-1141
▁aurr	-1142
▁futbol	-1143
▁mer	-1144
▁esan	-1145
▁ka	-1146
▁of	-1147
▁kanp	-1148
▁elkar	-1149
▁ho	-1150
▁hizk	-1151
lez	-1152
ire	-1153
▁garraio	-1154
katu	-1155
▁alder	-1156
▁23	-1157
▁industrialen	-1158
▁europ	-1159
▁ge	-1160
aketa	-1161
▁eki	-1162
▁naf	-1163
▁car	-1164
▁39	-1165
▁daiteke	-1166
▁ak	-1167
kor	-1168
itzak	-1169
72	-1170
▁orde	-1171
▁hiriburu	-1172
▁parte	-1173
▁72	-1174
▁ipar	-1175
ri	-1176
▁gre	-1177
ana	-1178
▁gobern	-1179
▁lor	-1180
▁arm	-1181
▁form	-1182
▁and	-1183
▁192	-1184
lin	-1185
aki	-1186
▁dituzte	-1187
▁zabal	-1188
▁elek	-1189
▁don	-1190
bide	-1191
ke	-1192
▁igel	-1193
▁urr	-1194
tasuna	-1195
56	-1196
▁sen	-1197
▁dio	-1198
▁auz	-1199
▁iparr	-1200
ale	-1201
arte	-1202
▁bai	-1203
▁izat	-1204
▁pas	-1205
▁ug	-1206
antzia	-1207
dar	-1208
▁ant	-1209
▁ameriketako	-1210
ikoaren	-1211
▁errege	-1212
82	-1213
▁margol	-1214
▁igelts	-1215
▁apaindeg	-1216
▁erreg	-1217
▁jaso	-1218
iberts	-1219
▁aurkitu	-1220
atorr	-1221
▁sh	-1222
urginak	-1223
ans	-1224
bo	-1225
berdin	-1226
▁komertzial	-1227
▁inguruko	-1228
▁dendak	-1229
oph	-1230
▁uhar	-1231
▁igeltsero	-1232
▁ga	-1233
▁berez	-1234
pa	-1235
▁zuzen	-1236
▁zenbait	-1237
▁oinarr	-1238
▁errepubl	-1239
▁honen	-1240
arrek	-1241
▁36	-1242
▁sol	-1243
▁siste	-1244
▁ondorioz	-1245
▁ii	-1246
▁uniberts	-1247
▁inform	-1248
▁publikoko	-1249
70	-1250
▁ob	-1251
▁zien	-1252
▁ama	-1253
▁lu	-1254
▁garai	-1255
▁et	-1256
▁urtarr	-1257
▁ahal	-1258
89	-1259
tzia	-1260
80	-1261
▁%	-1262
yn	-1263
azioa	-1264
▁new	-1265
▁ten	-1266
▁metro	-1267
une	-1268
▁azalera	-1269
oren	-1270
▁zir	-1271
est	-1272
▁estab	-1273
▁ezagu	-1274
▁000	-1275
▁batek	-1276
▁establez	-1277
▁establezimendu	-1278
ats	-1279
akas	-1280
aul	-1281
▁irab	-1282
▁for	-1283
▁eragin	-1284
ga	-1285
▁59	-1286
gu	-1287
▁dena	-1288
▁aurrera	-1289
▁bihur	-1290
▁aldiz	-1291
▁eliz	-1292
▁agin	-1293
▁kas	-1294
79	-1295
apen	-1296
ville	-1297
▁hegaz	-1298
opter	-1299
▁baz	-1300
▁ed	-1301
ot	-1302
uaren	-1303
ioak	-1304
▁41	-1305
▁lab	-1306
▁nafarr	-1307
▁nab	-1308
▁espainiako	-1309
▁to	-1310
▁muga	-1311
itako	-1312
▁erdi	-1313
▁nahi	-1314
ers	-1315
▁izango	-1316
▁sur	-1317
▁itzul	-1318
▁guzti	-1319
ov	-1320
ona	-1321
▁janari	-1322
▁jos	-1323
urgina	-1324
▁gel	-1325
buru	-1326
atuz	-1327
tatzen	-1328
▁izeneko	-1329
▁hamark	-1330
▁tresn	-1331
tzat	-1332
gatik	-1333
▁2014	-1334
▁berriz	-1335
▁batuetako	-1336
▁120	-1337
▁hartzen	-1338
▁hitz	-1339
txeak	-1340
apel	-1341
garr	-1342
ec	-1343
▁adieraz	-1344
▁af	-1345
amen	-1346
iro	-1347
▁jatorr	-1348
65	-1349
▁kor	-1350
ikazio	-1351
44	-1352
▁inter	-1353
all	-1354
▁bera	-1355
▁haren	-1356
bil	-1357
▁txiki	-1358
▁ile	-1359
tero	-1360
▁zat	-1361
ell	-1362
▁erd	-1363
▁tek	-1364
eria	-1365
▁uz	-1366
▁qu	-1367
▁zuzend	-1368
▁lehenengo	-1369
che	-1370
▁urtarrilaren	-1371
irik	-1372
tak	-1373
ein	-1374
▁il	-1375
▁eko	-1376
▁leg	-1377
▁honetan	-1378
▁hasier	-1379
▁35	-1380
orn	-1381
▁okz	-1382
▁ematen	-1383
▁garrantzits	-1384
▁okzitan	-1385
atuak	-1386
imen	-1387
atzea	-1388
iket	-1389
▁osp	-1390
inako	-1391
ailaren	-1392
▁polit	-1393
▁hurr	-1394
▁argitar	-1395
▁naz	-1396
▁horren	-1397
st	-1398
45	-1399
▁harr	-1400
iek	-1401
▁konpontzeko	-1402
33	-1403
dur	-1404
gia	-1405
▁adib	-1406
▁bidez	-1407
▁bada	-1408
iss	-1409
▁horretan	-1410
▁bab	-1411
87	-1412
lek	-1413
ikoko	-1414
oz	-1415
▁gerra	-1416
mat	-1417
▁67	-1418
▁gai	-1419
▁rh	-1420
▁argiket	-1421
▁lantok	-1422
izio	-1423
▁euskar	-1424
itasun	-1425
▁ekon	-1426
tel	-1427
itezk	-1428
ice	-1429
orre	-1430
▁ekonom	-1431
▁tresnetako	-1432
asun	-1433
▁tekn	-1434
etara	-1435
ork	-1436
▁kat	-1437
dun	-1438
▁kul	-1439
ikako	-1440
ido	-1441
itezke	-1442
ond	-1443
ake	-1444
▁51	-1445
▁bulegoa	-1446
46	-1447
ygi	-1448
▁herrialde	-1449
ang	-1450
▁bitartean	-1451
▁haur	-1452
▁dituen	-1453
lu	-1454
▁nahiz	-1455
▁70	-1456
ha	-1457
mentu	-1458
iena	-1459
▁iker	-1460
▁konderria	-1461
▁les	-1462
▁narr	-1463
▁lagun	-1464
▁bad	-1465
▁irud	-1466
ent	-1467
ont	-1468
li	-1469
▁konts	-1470
ila	-1471
▁finantzia	-1472
▁txapel	-1473
▁bet	-1474
▁57	-1475
▁eraiki	-1476
▁mad	-1477
opterygi	-1478
▁finantziazio	-1479
▁zah	-1480
▁actin	-1481
20	-1482
▁zio	-1483
▁kontr	-1484
▁klasean	-1485
▁jaur	-1486
▁mas	-1487
opterygii	-1488
ct	-1489
▁gau	-1490
▁han	-1491
▁actinopterygii	-1492
▁mendean	-1493
▁kir	-1494
▁informazio	-1495
▁ben	-1496
tuaren	-1497
▁val	-1498
▁orden	-1499
▁con	-1500
▁zor	-1501
aldi	-1502
▁atz	-1503
▁gas	-1504
▁orain	-1505
aro	-1506
eren	-1507
▁gainera	-1508
▁behin	-1509
▁itx	-1510
66	-1511
ih	-1512
▁mag	-1513
ca	-1514
▁xv	-1515
▁akt	-1516
▁lurralde	-1517
▁auk	-1518
▁gabe	-1519
▁irland	-1520
earen	-1521
▁com	-1522
▁bihurtu	-1523
ideak	-1524
▁inguruan	-1525
▁71	-1526
▁espez	-1527
▁okin	-1528
▁jose	-1529
son	-1530
be	-1531
▁jak	-1532
▁190	-1533
sa	-1534
▁hiriburua	-1535
apon	-1536
▁88	-1537
▁ari	-1538
55	-1539
amp	-1540
nes	-1541
▁jaio	-1542
▁tur	-1543
▁alemaniako	-1544
▁pun	-1545
eratu	-1546
lor	-1547
▁administratibo	-1548
▁68	-1549
▁erroldaren	-1550
▁kos	-1551
90	-1552
▁bir	-1553
▁eskualde	-1554
▁daitezke	-1555
▁elektr	-1556
▁izaten	-1557
▁utzi	-1558
ism	-1559
aman	-1560
▁sartu	-1561
92	-1562
▁33	-1563
▁martx	-1564
▁antol	-1565
atzaile	-1566
▁nabar	-1567
ere	-1568
▁lit	-1569
▁osatutako	-1570
63	-1571
▁buk	-1572
azo	-1573
of	-1574
▁astero	-1575
rog	-1576
ias	-1577
▁47	-1578
▁ezin	-1579
▁44	-1580
urre	-1581
▁las	-1582
tika	-1583
▁erau	-1584
▁nazio	-1585
ailea	-1586
▁kop	-1587
aia	-1588
lea	-1589
agatik	-1590
▁80	-1591
tez	-1592
▁col	-1593
one	-1594
▁babes	-1595
intza	-1596
▁ren	-1597
atus	-1598
▁kanton	-1599
▁58	-1600
▁mor	-1601
▁japon	-1602
▁eh	-1603
▁34	-1604
▁film	-1605
▁ph	-1606
▁modu	-1607
dura	-1608
ipuz	-1609
▁kantonamendu	-1610
▁]	-1611
▁def	-1612
▁hegazt	-1613
▁hauekin	-1614
▁por	-1615
alat	-1616
entzat	-1617
▁irabazi	-1618
▁[	-1619
▁sailkatua	-1620
▁tok	-1621
idez	-1622
▁|	-1623
ius	-1624
itatea	-1625
▁herriko	-1626
por	-1627
▁ohi	-1628
▁zein	-1629
▁mater	-1630
▁64	-1631
for	-1632
van	-1633
▁musika	-1634
dik	-1635
▁mai	-1636
ve	-1637
▁guztiak	-1638
▁komunikazio	-1639
▁italiako	-1640
tuan	-1641
isten	-1642
▁arren	-1643
▁abes	-1644
▁ordez	-1645
53	-1646
tek	-1647
▁proz	-1648
los	-1649
▁ark	-1650
▁erabili	-1651
▁probintzian	-1652
▁aita	-1653
▁egindako	-1654
▁gipuz	-1655
▁erauzte	-1656
▁borro	-1657
▁berean	-1658
gan	-1659
itx	-1660
▁onar	-1661
▁cr	-1662
▁sc	-1663
va	-1664
▁gud	-1665
▁sistema	-1666
fer	-1667
▁hal	-1668
ux	-1669
▁66	-1670
tuko	-1671
▁pa	-1672
itua	-1673
goak	-1674
▁art	-1675
▁osatzen	-1676
▁zur	-1677
onom	-1678
adan	-1679
▁lat	-1680
itutako	-1681
▁hegaztien	-1682
11	-1683
yp	-1684
▁berria	-1685
elako	-1686
▁barn	-1687
erik	-1688
itsi	-1689
▁alb	-1690
▁zitza	-1691
eles	-1692
▁jokatu	-1693
atuen	-1694
▁esat	-1695
▁ondo	-1696
tzaile	-1697
aga	-1698
tzak	-1699
▁zeh	-1700
ensis	-1701
iarrak	-1702
astien	-1703
▁zel	-1704
▁fun	-1705
▁ol	-1706
ketak	-1707
▁berri	-1708
▁ku	-1709
▁cas	-1710
▁mendebaldeko	-1711
garri	-1712
▁katal	-1713
▁tra	-1714
egi	-1715
▁hiria	-1716
atuko	-1717
▁zioten	-1718
▁pre	-1719
▁adibidez	-1720
no	-1721
egia	-1722
▁jen	-1723
▁duena	-1724
ioen	-1725
▁errus	-1726
▁narrastien	-1727
▁“	-1728
▁cor	-1729
ariaren	-1730
▁gutxiago	-1731
▁”	-1732
oako	-1733
▁euskaraz	-1734
arteko	-1735
▁ibai	-1736
▁op	-1737
▁56	-1738
ama	-1739
bes	-1740
▁filma	-1741
▁izendatu	-1742
eo	-1743
▁hur	-1744
▁material	-1745
▁hizkuntza	-1746
▁100	-1747
▁bete	-1748
▁prozes	-1749
▁inper	-1750
▁formula	-1751
ioaren	-1752
78	-1753
wa	-1754
▁bre	-1755
▁54	-1756
unak	-1757
▁horiek	-1758
iaz	-1759
▁agertzen	-1760
▁uzta	-1761
ente	-1762
arrei	-1763
▁ex	-1764
berr	-1765
▁maiatz	-1766
▁mota	-1767
▁seg	-1768
▁erakunde	-1769
▁york	-1770
ica	-1771
ft	-1772
▁harre	-1773
▁ep	-1774
▁idatzi	-1775
▁non	-1776
▁alderdi	-1777
▁zine	-1778
▁bizka	-1779
▁nafarroako	-1780
▁irakas	-1781
▁ingeles	-1782
batu	-1783
▁55	-1784
▁hed	-1785
▁za	-1786
▁soz	-1787
▁etor	-1788
▁aurka	-1789
ilgo	-1790
erro	-1791
elarik	-1792
taz	-1793
tsu	-1794
yr	-1795
erak	-1796
ign	-1797
▁ter	-1798
▁ezaguna	-1799
kunde	-1800
▁sortzen	-1801
▁ekain	-1802
tif	-1803
eraz	-1804
▁hasieran	-1805
▁ra	-1806
kul	-1807
98	-1808
arraren	-1809
he	-1810
▁portu	-1811
▁batzuetan	-1812
▁norm	-1813
etarako	-1814
des	-1815
pu	-1816
▁plan	-1817
▁ots	-1818
▁txik	-1819
▁taldea	-1820
uv	-1821
14	-1822
▁joh	-1823
▁zena	-1824
▁azter	-1825
ito	-1826
▁ezberdin	-1827
▁dez	-1828
▁herrian	-1829
▁hob	-1830
▁2017	-1831
uel	-1832
rin	-1833
▁sch	-1834
ong	-1835
▁beraz	-1836
log	-1837
uma	-1838
ekiko	-1839
alak	-1840
orde	-1841
▁esaterako	-1842
atura	-1843
ioi	-1844
ologia	-1845
▁ezkon	-1846
okor	-1847
▁bras	-1848
▁abuz	-1849
ima	-1850
97	-1851
▁_	-1852
▁grez	-1853
▁jarri	-1854
erre	-1855
▁sp	-1856
▁hurrengo	-1857
▁aber	-1858
▁posta	-1859
rat	-1860
▁paris	-1861
▁ezau	-1862
arako	-1863
▁tele	-1864
▁bildu	-1865
▁63	-1866
▁apaindegiak	-1867
ibil	-1868
▁apir	-1869
oma	-1870
▁asteroide	-1871
▁lig	-1872
▁okzitaniako	-1873
▁horrek	-1874
▁horrela	-1875
rom	-1876
br	-1877
▁igeltseroak	-1878
▁herriekin	-1879
eztu	-1880
▁kap	-1881
▁43	-1882
arrean	-1883
▁buruzko	-1884
▁ekoiz	-1885
16	-1886
▁cle	-1887
▁argitaratu	-1888
▁indar	-1889
▁mugimendu	-1890
▁abendu	-1891
▁orokor	-1892
▁maria	-1893
▁kl	-1894
▁hurbil	-1895
▁zurginak	-1896
▁handi	-1897
▁madr	-1898
▁besteak	-1899
teg	-1900
▁bol	-1901
oria	-1902
▁bilak	-1903
eri	-1904
ya	-1905
pena	-1906
up	-1907
enak	-1908
▁kirol	-1909
▁helburu	-1910
▁nabarmen	-1911
▁donost	-1912
arria	-1913
▁meta	-1914
▁munduko	-1915
alean	-1916
▁82	-1917
iarekin	-1918
▁ca	-1919
▁45	-1920
uratu	-1921
▁barruan	-1922
▁bide	-1923
▁90	-1924
▁barne	-1925
▁musik	-1926
15	-1927
▁uharte	-1928
▁omen	-1929
erra	-1930
▁mal	-1931
tus	-1932
ite	-1933
ros	-1934
▁ospe	-1935
▁errepublikako	-1936
za	-1937
atze	-1938
▁iturginak	-1939
erb	-1940
▁eskoz	-1941
▁azar	-1942
▁antzinako	-1943
▁osasun	-1944
tsi	-1945
ateko	-1946
▁jain	-1947
▁esker	-1948
esko	-1949
▁eguz	-1950
▁dagok	-1951
▁harreman	-1952
urt	-1953
▁apaindegia	-1954
▁elk	-1955
▁dauk	-1956
▁kide	-1957
▁tar	-1958
ioko	-1959
▁mu	-1960
▁irun	-1961
▁84	-1962
▁ekialdeko	-1963
▁zub	-1964
▁oz	-1965
▁tes	-1966
ons	-1967
▁ofiz	-1968
▁cl	-1969
▁nola	-1970
▁2008	-1971
xo	-1972
▁eremu	-1973
▁erromat	-1974
ff	-1975
tzean	-1976
kat	-1977
▁pin	-1978
▁berts	-1979
▁estatubatu	-1980
▁horietatik	-1981
eder	-1982
▁65	-1983
▁ang	-1984
aina	-1985
▁egungo	-1986
▁jatetxeak	-1987
▁arraza	-1988
illa	-1989
▁ordu	-1990
▁eskain	-1991
▁igeltseroa	-1992
aino	-1993
▁st	-1994
iel	-1995
▁pal	-1996
▁86	-1997
▁jarraitu	-1998
▁udalerriaren	-1999
eno	-2000
29	-2001
27	-2002
28	-2003
▁mak	-2004
▁der	-2005
▁kateg	-2006
▁aurkako	-2007
olo	-2008
▁kokatzen	-2009
▁burua	-2010
▁iritsi	-2011
▁eliza	-2012
▁ugari	-2013
▁zents	-2014
pi	-2015
▁frants	-2016
▁2011	-2017
▁egoera	-2018
▁liz	-2019
yc	-2020
▁sek	-2021
▁nazional	-2022
13	-2023
▁frantses	-2024
pend	-2025
▁ia	-2026
▁hautes	-2027
▁moduan	-2028
▁tro	-2029
▁zenean	-2030
▁ps	-2031
43	-2032
dua	-2033
▁funtz	-2034
▁desberdin	-2035
▁pe	-2036
▁ikasle	-2037
bidea	-2038
▁pat	-2039
▁53	-2040
ue	-2041
uri	-2042
onia	-2043
ismoa	-2044
▁joko	-2045
▁mac	-2046
▁distan	-2047
▁idazle	-2048
▁martin	-2049
▁amai	-2050
▁bertako	-2051
▁band	-2052
▁eraso	-2053
▁inde	-2054
▁zurgina	-2055
▁ingalat	-2056
▁gutxi	-2057
ex	-2058
▁85	-2059
stitu	-2060
▁austr	-2061
▁unibertsita	-2062
ven	-2063
▁kalif	-2064
▁izateko	-2065
▁anf	-2066
▁gog	-2067
ath	-2068
▁liter	-2069
▁gl	-2070
▁lehend	-2071
ant	-2072
▁zuena	-2073
▁zenb	-2074
▁dan	-2075
▁batetik	-2076
ym	-2077
▁arkitek	-2078
▁mex	-2079
▁iturgina	-2080
▁gutxiagoko	-2081
▁saria	-2082
▁botika	-2083
▁ekialdean	-2084
▁mendebaldean	-2085
▁jas	-2086
▁irailaren	-2087
▁margolaria	-2088
▁familia	-2089
▁–	-2090
▁super	-2091
▁margolariak	-2092
hes	-2093
▁geor	-2094
orian	-2095
▁barrei	-2096
▁eusk	-2097
und	-2098
▁hartan	-2099
▁urriaren	-2100
▁barrutia	-2101
itain	-2102
▁haien	-2103
▁europako	-2104
99	-2105
▁46	-2106
▁aurretik	-2107
▁sozial	-2108
▁john	-2109
▁nagusiak	-2110
▁independ	-2111
ikoen	-2112
▁aktore	-2113
▁banku	-2114
▁juan	-2115
▁pet	-2116
tuta	-2117
iii	-2118
▁milioi	-2119
lua	-2120
▁lin	-2121
▁ul	-2122
▁di	-2123
degi	-2124
▁ord	-2125
▁balio	-2126
▁maiatzaren	-2127
▁hisp	-2128
▁gorpu	-2129
▁txek	-2130
▁zinema	-2131
kide	-2132
urra	-2133
▁mich	-2134
▁kopuru	-2135
▁natur	-2136
tain	-2137
akoa	-2138
tsua	-2139
ipena	-2140
▁itzuli	-2141
▁erli	-2142
▁clear	-2143
▁pop	-2144
▁zati	-2145
▁61	-2146
▁karr	-2147
▁grand	-2148
▁aurreko	-2149
▁mel	-2150
▁ide	-2151
▁cal	-2152
▁lantokiak	-2153
▁zuela	-2154
are	-2155
▁mendearen	-2156
tag	-2157
▁sai	-2158
▁hirug	-2159
antza	-2160
▁77	-2161
▁tal	-2162
▁haz	-2163
tzaren	-2164
▁disko	-2165
▁top	-2166
▁mik	-2167
▁manten	-2168
ron	-2169
▁idatzia	-2170
▁handiena	-2171
▁barreiatutako	-2172
▁jainko	-2173
ung	-2174
aileak	-2175
▁ven	-2176
▁jakin	-2177
88	-2178
▁geroago	-2179
urri	-2180
▁ezagutzen	-2181
▁left	-2182
ver	-2183
▁abuztuaren	-2184
iagoa	-2185
kari	-2186
▁anfib	-2187
ja	-2188
▁lore	-2189
▁aldi	-2190
▁igo	-2191
ios	-2192
▁ezk	-2193
▁bereiz	-2194
▁uztailaren	-2195
▁bis	-2196
▁max	-2197
izun	-2198
▁zin	-2199
iari	-2200
▁brasilgo	-2201
▁eleberr	-2202
lar	-2203
▁disein	-2204
ho	-2205
▁argiketaria	-2206
▁79	-2207
tatik	-2208
que	-2209
▁gipuzko	-2210
▁180	-2211
▁mes	-2212
▁gertatu	-2213
▁hauteskunde	-2214
▁kim	-2215
▁ekainaren	-2216
▁xx	-2217
▁zuzendu	-2218
▁alp	-2219
22	-2220
▁kanpo	-2221
▁abenduaren	-2222
uc	-2223
▁auto	-2224
ograf	-2225
▁larr	-2226
▁edota	-2227
tutako	-2228
ies	-2229
▁kontro	-2230
▁martxoaren	-2231
▁politik	-2232
▁bereziki	-2233
vo	-2234
atiboak	-2235
▁garaian	-2236
▁74	-2237
▁santa	-2238
▁83	-2239
tira	-2240
▁75	-2241
▁eremuan	-2242
tra	-2243
ionala	-2244
▁urteetan	-2245
▁aren	-2246
▁mol	-2247
ick	-2248
▁galdu	-2249
pean	-2250
▁apirilaren	-2251
ley	-2252
▁can	-2253
▁mod	-2254
▁lanak	-2255
▁espezie	-2256
▁ordea	-2257
▁kasu	-2258
osa	-2259
▁89	-2260
▁trans	-2261
katzen	-2262
▁uste	-2263
▁britain	-2264
▁kaliforn	-2265
ns	-2266
▁prog	-2267
▁gainean	-2268
lari	-2269
▁aipamen	-2270
▁lap	-2271
▁atera	-2272
▁goi	-2273
ori	-2274
▁bio	-2275
▁hip	-2276
▁gizarte	-2277
▁erresuma	-2278
▁iparraldean	-2279
▁datuen	-2280
zen	-2281
▁bestalde	-2282
▁geld	-2283
leku	-2284
▁azaroaren	-2285
▁hasiera	-2286
don	-2287
▁handiak	-2288
tsa	-2289
▁txekiar	-2290
▁luze	-2291
iatu	-2292
ly	-2293
▁lep	-2294
▁nazioarteko	-2295
▁berak	-2296
▁mont	-2297
▁laguntz	-2298
▁hegoaldean	-2299
▁78	-2300
▁tre	-2301
77	-2302
ismoaren	-2303
oc	-2304
▁antzeko	-2305
▁barnean	-2306
▁askotan	-2307
iten	-2308
▁presid	-2309
▁188	-2310
▁bultz	-2311
itale	-2312
▁92	-2313
▁orb	-2314
▁argiketariak	-2315
▁esle	-2316
▁tren	-2317
berg	-2318
ime	-2319
▁herria	-2320
▁iraul	-2321
▁bon	-2322
▁ordenan	-2323
▁erabaki	-2324
tarako	-2325
▁mailako	-2326
▁mit	-2327
▁iparraldeko	-2328
▁denbora	-2329
▁boter	-2330
▁maila	-2331
▁mendeko	-2332
kan	-2333
▁hirugarren	-2334
aldia	-2335
▁proiek	-2336
▁guztira	-2337
▁pan	-2338
▁erlij	-2339
▁mut	-2340
ind	-2341
▁aritu	-2342
iala	-2343
▁irak	-2344
▁tex	-2345
▁bald	-2346
▁ener	-2347
kia	-2348
oen	-2349
kr	-2350
itur	-2351
▁zitzaion	-2352
▁amaitu	-2353
▁arrakas	-2354
▁anfibioen	-2355
▁irek	-2356
ise	-2357
ilik	-2358
▁lib	-2359
▁atx	-2360
ekoa	-2361
▁agertu	-2362
▁anton	-2363
▁pap	-2364
▁orduan	-2365
▁kategorian	-2366
▁ezarri	-2367
▁lana	-2368
▁zirela	-2369
▁kultur	-2370
len	-2371
ash	-2372
ith	-2373
▁189	-2374
▁zap	-2375
▁ingur	-2376
goko	-2377
▁beg	-2378
▁zabaldu	-2379
▁grab	-2380
dare	-2381
▁afrik	-2382
▁kantonamendua	-2383
▁ingalaterr	-2384
▁ira	-2385
▁aldeko	-2386
sen	-2387
▁hizkuntz	-2388
▁eraikin	-2389
▁gra	-2390
▁bilakatu	-2391
▁aintz	-2392
▁din	-2393
tazio	-2394
beh	-2395
tzel	-2396
▁igaro	-2397
▁hez	-2398
▁73	-2399
bert	-2400
▁ver	-2401
ichth	-2402
▁oraindik	-2403
▁estilo	-2404
▁ura	-2405
tegi	-2406
▁natiboak	-2407
▁elektro	-2408
▁iii	-2409
▁eb	-2410
▁kris	-2411
▁aeb	-2412
▁lantokia	-2413
▁ikaste	-2414
orik	-2415
itzaren	-2416
▁hegoaldeko	-2417
burg	-2418
aldea	-2419
▁neg	-2420
etaren	-2421
▁aldaketa	-2422
▁estatubatuar	-2423
▁katalun	-2424
tikul	-2425
▁sus	-2426
alis	-2427
ioan	-2428
oi	-2429
alaren	-2430
uth	-2431
▁geltok	-2432
▁alf	-2433
▁sam	-2434
▁nob	-2435
tiko	-2436
itzea	-2437
▁im	-2438
▁dagokion	-2439
▁ostean	-2440
▁okindeg	-2441
tera	-2442
▁ait	-2443
▁oro	-2444
▁xix	-2445
▁pse	-2446
▁texas	-2447
▁eraman	-2448
▁alderd	-2449
tun	-2450
▁bilb	-2451
▁taldearen	-2452
der	-2453
aldera	-2454
▁otsailaren	-2455
apena	-2456
▁egip	-2457
▁txapelketa	-2458
ctyl	-2459
ardo	-2460
71	-2461
reko	-2462
▁batekin	-2463
▁heldu	-2464
tore	-2465
▁zerr	-2466
▁anura	-2467
▁sob	-2468
atza	-2469
bur	-2470
▁jarr	-2471
▁ins	-2472
▁gehienak	-2473
▁duela	-2474
▁taldeak	-2475
arekiko	-2476
▁okindegi	-2477
ator	-2478
▁mendi	-2479
▁trad	-2480
▁berriro	-2481
▁arrakasta	-2482
▁ofizial	-2483
▁ezagun	-2484
▁hauen	-2485
ipen	-2486
▁lehena	-2487
▁etxe	-2488
▁magn	-2489
▁ste	-2490
agarr	-2491
itzat	-2492
tasunaren	-2493
istak	-2494
▁sun	-2495
▁99	-2496
bid	-2497
▁ser	-2498
▁ped	-2499
▁matx	-2500
etxeak	-2501
▁—	-2502
ado	-2503
▁gune	-2504
sis	-2505
▁japoniako	-2506
▁sortutako	-2507
ington	-2508
▁prof	-2509
▁asm	-2510
▁beren	-2511
▁jende	-2512
▁esleitutako	-2513
tara	-2514
▁miss	-2515
chus	-2516
rak	-2517
▁erroldak	-2518
▁eskoziako	-2519
gin	-2520
jek	-2521
rean	-2522
▁hamar	-2523
anda	-2524
▁los	-2525
▁hamarkadan	-2526
▁fo	-2527
▁hiriko	-2528
▁sub	-2529
▁char	-2530
▁ezaugarri	-2531
iano	-2532
▁fre	-2533
▁pu	-2534
pl	-2535
▁150	-2536
▁bidal	-2537
eratzen	-2538
▁aukera	-2539
▁izatea	-2540
▁ibaiaren	-2541
atx	-2542
atan	-2543
▁zehaz	-2544
▁elektrikoaren	-2545
▁filos	-2546
▁berdin	-2547
gen	-2548
▁dem	-2549
▁luis	-2550
itzako	-2551
▁osoan	-2552
▁camp	-2553
▁franc	-2554
turik	-2555
▁flor	-2556
▁neur	-2557
tuz	-2558
itze	-2559
▁bro	-2560
▁teleb	-2561
▁hai	-2562
je	-2563
▁tam	-2564
▁minis	-2565
76	-2566
▁tor	-2567
itasuna	-2568
▁hy	-2569
▁filosof	-2570
imo	-2571
jo	-2572
▁france	-2573
aera	-2574
▁hen	-2575
▁geratu	-2576
▁76	-2577
▁zi	-2578
▁kultura	-2579
▁batzuen	-2580
ry	-2581
▁urre	-2582
wn	-2583
aturiko	-2584
▁2006	-2585
▁historia	-2586
▁dauka	-2587
sh	-2588
igu	-2589
entziak	-2590
orako	-2591
▁altu	-2592
▁propos	-2593
odo	-2594
74	-2595
▁kolon	-2596
▁egitura	-2597
tela	-2598
orea	-2599
ager	-2600
biz	-2601
ham	-2602
lak	-2603
ango	-2604
stan	-2605
▁part	-2606
iidae	-2607
eraren	-2608
▁hol	-2609
▁bik	-2610
▁mic	-2611
ikoki	-2612
▁agindu	-2613
▁guru	-2614
▁osoa	-2615
car	-2616
izazio	-2617
mon	-2618
▁ekin	-2619
▁altz	-2620
edr	-2621
▁dezake	-2622
▁gizak	-2623
▁taldetan	-2624
▁fal	-2625
▁autonom	-2626
iera	-2627
▁nahas	-2628
▁gol	-2629
eto	-2630
▁dar	-2631
iarren	-2632
▁irlandako	-2633
▁kontze	-2634
aldian	-2635
ania	-2636
▁herio	-2637
▁2005	-2638
▁1990	-2639
ato	-2640
▁direla	-2641
▁berriak	-2642
zioa	-2643
▁dip	-2644
▁tresna	-2645
▁uk	-2646
▁aire	-2647
etasun	-2648
▁iraun	-2649
21	-2650
▁langile	-2651
▁98	-2652
▁kostalde	-2653
▁gran	-2654
▁beti	-2655
▁dorre	-2656
▁ox	-2657
▁irakasle	-2658
▁ken	-2659
75	-2660
let	-2661
▁ihes	-2662
▁1980	-2663
ico	-2664
del	-2665
▁gon	-2666
▁armad	-2667
▁gaz	-2668
▁pseud	-2669
▁die	-2670
▁zaio	-2671
▁konderri	-2672
erri	-2673
▁ibaia	-2674
▁gertatzen	-2675
▁abs	-2676
▁ram	-2677
▁onartu	-2678
▁izanik	-2679
▁esaten	-2680
▁merkat	-2681
▁familiako	-2682
▁jean	-2683
▁ikasketak	-2684
▁mos	-2685
lov	-2686
omys	-2687
▁madril	-2688
▁erl	-2689
▁ill	-2690
fek	-2691
▁popul	-2692
▁kontra	-2693
ides	-2694
▁handiko	-2695
iarrek	-2696
▁aldatu	-2697
▁konk	-2698
▁aurrean	-2699
▁lond	-2700
▁pents	-2701
▁konpos	-2702
▁bulegoak	-2703
▁ema	-2704
alen	-2705
▁hirian	-2706
urus	-2707
zk	-2708
▁jul	-2709
▁zibil	-2710
▁nes	-2711
▁2012	-2712
▁ezkondu	-2713
trop	-2714
lav	-2715
▁170	-2716
▁estr	-2717
iara	-2718
▁iba	-2719
▁ozean	-2720
▁energia	-2721
▁ikusi	-2722
mena	-2723
▁txir	-2724
▁kontrol	-2725
terik	-2726
▁kalifornia	-2727
cus	-2728
▁okindegiak	-2729
▁asmo	-2730
andu	-2731
▁polon	-2732
opa	-2733
▁portug	-2734
iam	-2735
▁sako	-2736
▁egok	-2737
▁batuetan	-2738
▁dents	-2739
▁poliz	-2740
▁zentro	-2741
▁zerrend	-2742
▁adierazten	-2743
▁entz	-2744
▁gir	-2745
inae	-2746
▁gaixo	-2747
bi	-2748
▁txin	-2749
81	-2750
alako	-2751
dem	-2752
tamen	-2753
▁hem	-2754
▁alaba	-2755
▁horregatik	-2756
▁kaz	-2757
▁gorr	-2758
▁500	-2759
▁gora	-2760
metr	-2761
▁krista	-2762
etx	-2763
arrena	-2764
▁zaz	-2765
▁metroko	-2766
etakoa	-2767
▁zig	-2768
▁jac	-2769
iza	-2770
▁marr	-2771
▁elementu	-2772
iarra	-2773
▁sei	-2774
izioa	-2775
24	-2776
eke	-2777
ukle	-2778
▁vo	-2779
dactyl	-2780
uss	-2781
tis	-2782
25	-2783
▁desager	-2784
▁ekip	-2785
▁lurra	-2786
zo	-2787
igh	-2788
▁leon	-2789
▁eusko	-2790
ane	-2791
▁handik	-2792
▁chr	-2793
▁gogor	-2794
ella	-2795
▁jatorrizko	-2796
▁teles	-2797
▁jud	-2798
▁unibertsitatean	-2799
▁ardur	-2800
kur	-2801
▁sil	-2802
73	-2803
▁estal	-2804
▁kontz	-2805
▁pon	-2806
▁maxim	-2807
▁gil	-2808
▁irag	-2809
toko	-2810
▁itsaso	-2811
pos	-2812
▁hamarkada	-2813
▁hauts	-2814
▁errom	-2815
▁bizitza	-2816
▁egoitza	-2817
▁handien	-2818
▁laur	-2819
▁guztiz	-2820
▁edu	-2821
▁azkenik	-2822
▁cam	-2823
ran	-2824
▁bati	-2825
▁politiko	-2826
unea	-2827
▁orbita	-2828
ichthys	-2829
dina	-2830
▁arre	-2831
▁muse	-2832
▁bitartez	-2833
bul	-2834
▁air	-2835
▁probintzia	-2836
▁laster	-2837
▁rhone	-2838
ylvan	-2839
▁semea	-2840
▁gerta	-2841
▁matxin	-2842
▁sant	-2843
iet	-2844
▁mis	-2845
94	-2846
▁rock	-2847
▁eten	-2848
▁milit	-2849
▁gorde	-2850
ota	-2851
▁andre	-2852
▁vill	-2853
▁pis	-2854
icus	-2855
▁abia	-2856
▁loire	-2857
▁gerran	-2858
▁solair	-2859
atok	-2860
▁ton	-2861
▁izate	-2862
cia	-2863
▁paz	-2864
▁batzuek	-2865
▁pilo	-2866
▁bos	-2867
▁nukle	-2868
garriak	-2869
▁ehun	-2870
▁modern	-2871
▁ikastetxe	-2872
▁haw	-2873
▁interes	-2874
▁130	-2875
▁espainiar	-2876
▁vir	-2877
▁will	-2878
ass	-2879
▁bereko	-2880
84	-2881
▁hid	-2882
▁erromatar	-2883
uke	-2884
▁iv	-2885
▁ezta	-2886
▁penns	-2887
▁baterako	-2888
▁aurkeztu	-2889
merkatu	-2890
▁2003	-2891
ev	-2892
▁deitzen	-2893
▁tenper	-2894
▁garrantzitsu	-2895
▁pennsylvan	-2896
ij	-2897
bu	-2898
▁alpeak	-2899
ierre	-2900
umen	-2901
▁liber	-2902
ey	-2903
▁pel	-2904
▁ond	-2905
abil	-2906
ty	-2907
▁fern	-2908
▁ikasi	-2909
▁tin	-2910
tari	-2911
inois	-2912
▁bateko	-2913
gos	-2914
▁96	-2915
▁erantz	-2916
atzailea	-2917
ilea	-2918
▁garaiko	-2919
85	-2920
agai	-2921
▁ros	-2922
91	-2923
▁soilik	-2924
▁illinois	-2925
▁giza	-2926
▁mig	-2927
arien	-2928
26	-2929
▁zain	-2930
erador	-2931
▁sir	-2932
▁arrazo	-2933
▁gertu	-2934
▁jasotzen	-2935
itzan	-2936
▁mir	-2937
▁behera	-2938
ater	-2939
uis	-2940
aila	-2941
eil	-2942
▁hezkuntza	-2943
▁io	-2944
▁arazo	-2945
▁erakus	-2946
▁mendil	-2947
▁81	-2948
▁lehendak	-2949
▁geroz	-2950
anth	-2951
▁finland	-2952
bon	-2953
ity	-2954
▁pla	-2955
▁hamarkad	-2956
▁eguzki	-2957
▁defin	-2958
▁errepublik	-2959
▁zuzendari	-2960
▁vic	-2961
▁eros	-2962
▁argipena	-2963
▁2004	-2964
▁solda	-2965
▁garaia	-2966
▁eskuratu	-2967
▁artikul	-2968
ae	-2969
amena	-2970
▁paul	-2971
▁ikusp	-2972
▁ekipamendu	-2973
▁hilabe	-2974
iald	-2975
▁auv	-2976
▁honetako	-2977
95	-2978
tatzeko	-2979
▁erabak	-2980
ando	-2981
▁profes	-2982
▁mark	-2983
ust	-2984
▁dugu	-2985
▁abesti	-2986
▁sak	-2987
ikatzen	-2988
▁baitzu	-2989
▁londres	-2990
▁azpif	-2991
▁av	-2992
▁1970	-2993
▁honela	-2994
▁buruzag	-2995
oge	-2996
▁abest	-2997
▁gaztelan	-2998
tzain	-2999
▁carol	-3000
▁mendilerro	-3001
atea	-3002
▁azpifamil	-3003
▁armada	-3004
dea	-3005
▁industria	-3006
▁2001	-3007
▁plaz	-3008
▁og	-3009
86	-3010
▁puntu	-3011
▁emazte	-3012
▁ministro	-3013
▁lege	-3014
▁printz	-3015
ernia	-3016
▁teoria	-3017
▁eskualdeko	-3018
▁elemen	-3019
▁organ	-3020
onen	-3021
▁od	-3022
▁ditzak	-3023
ize	-3024
▁handiagoa	-3025
▁dagokionez	-3026
▁irabaz	-3027
ietan	-3028
▁zald	-3029
garria	-3030
azioak	-3031
▁ikusk	-3032
▁arropa	-3033
▁hura	-3034
azk	-3035
▁edoz	-3036
▁antzer	-3037
alek	-3038
▁astr	-3039
art	-3040
▁110	-3041
▁agentziak	-3042
▁alegia	-3043
96	-3044
▁bata	-3045
▁bartzel	-3046
▁norbanakoentzat	-3047
▁arris	-3048
alus	-3049
aba	-3050
aster	-3051
▁jai	-3052
▁angel	-3053
▁140	-3054
▁okzitania	-3055
▁sistem	-3056
erren	-3057
▁antonio	-3058
▁baitz	-3059
pol	-3060
elle	-3061
inu	-3062
▁eragina	-3063
til	-3064
▁baitzen	-3065
ituta	-3066
▁argi	-3067
aldo	-3068
▁112	-3069
▁denean	-3070
▁sunts	-3071
▁futbolaria	-3072
▁azkenean	-3073
▁mari	-3074
▁izandako	-3075
use	-3076
▁jes	-3077
cc	-3078
▁ru	-3079
▁gaste	-3080
▁tol	-3081
▁titu	-3082
ints	-3083
▁medik	-3084
▁zizk	-3085
▁arrun	-3086
▁eskul	-3087
▁alex	-3088
▁cap	-3089
▁unibertsitate	-3090
istan	-3091
omb	-3092
▁gauz	-3093
andako	-3094
▁sul	-3095
▁dav	-3096
etak	-3097
egin	-3098
uren	-3099
azko	-3100
▁apl	-3101
▁prozesu	-3102
arg	-3103
93	-3104
▁aldizk	-3105
▁konpain	-3106
▁auzo	-3107
▁olin	-3108
▁zituela	-3109
▁enperador	-3110
▁2015	-3111
▁garrantzitsua	-3112
23	-3113
▁egitea	-3114
▁azpifamilia	-3115
▁jotzen	-3116
▁95	-3117
▁97	-3118
▁agentzia	-3119
▁tratamen	-3120
▁nafarroa	-3121
tre	-3122
▁landare	-3123
▁auvernia	-3124
ole	-3125
▁matem	-3126
ele	-3127
ish	-3128
▁sakon	-3129
▁bilboko	-3130
▁sag	-3131
ask	-3132
▁van	-3133
tearen	-3134
▁esper	-3135
▁irrat	-3136
krib	-3137
unean	-3138
▁arrisku	-3139
aug	-3140
▁gan	-3141
ny	-3142
ni	-3143
▁onen	-3144
▁91	-3145
arrez	-3146
▁araz	-3147
▁harateg	-3148
▁ospitale	-3149
▁garatu	-3150
▁fa	-3151
aber	-3152
▁ekarri	-3153
83	-3154
▁badu	-3155
▁hiz	-3156
▁zientif	-3157
ebec	-3158
var	-3159
▁olinp	-3160
▁edozein	-3161
onako	-3162
▁institu	-3163
▁1960	-3164
abide	-3165
▁aho	-3166
▁objek	-3167
▁fe	-3168
▁penints	-3169
eral	-3170
▁ekonomia	-3171
▁altx	-3172
▁ohia	-3173
ames	-3174
▁160	-3175
iller	-3176
▁comte	-3177
▁hawai	-3178
▁sari	-3179
court	-3180
▁katol	-3181
izen	-3182
▁my	-3183
▁1991	-3184
▁quebec	-3185
▁ikerketa	-3186
▁beltzak	-3187
▁108	-3188
ienez	-3189
▁errefer	-3190
bas	-3191
▁ard	-3192
ini	-3193
▁bait	-3194
dactylus	-3195
tzako	-3196
▁mah	-3197
▁dituena	-3198
▁zal	-3199
▁amerikar	-3200
ituz	-3201
▁bizkaiko	-3202
▁ingalaterrako	-3203
heim	-3204
▁94	-3205
aine	-3206
romis	-3207
▁berres	-3208
▁garapen	-3209
▁gaztelua	-3210
ou	-3211
ze	-3212
tasunak	-3213
▁300	-3214
araz	-3215
amerik	-3216
▁liga	-3217
▁gehiagotan	-3218
the	-3219
▁jatorria	-3220
▁bilbo	-3221
▁hemen	-3222
▁estatuko	-3223
▁dor	-3224
▁frank	-3225
▁errepublika	-3226
▁aldarrik	-3227
▁104	-3228
▁ondoan	-3229
toak	-3230
▁1999	-3231
▁probintziako	-3232
▁jokatzen	-3233
gor	-3234
▁isl	-3235
▁2002	-3236
▁asteroidearen	-3237
▁franche	-3238
▁autoesko	-3239
inus	-3240
wo	-3241
▁distantzi	-3242
▁lar	-3243
▁dentsitatea	-3244
▁zab	-3245
goz	-3246
▁bakar	-3247
▁karl	-3248
▁afro	-3249
▁bretain	-3250
▁jon	-3251
▁doku	-3252
ilak	-3253
▁arau	-3254
aleko	-3255
▁erabat	-3256
karien	-3257
▁zentr	-3258
pre	-3259
▁bitx	-3260
▁antzeztu	-3261
▁93	-3262
tzera	-3263
▁maximoa	-3264
▁1992	-3265
▁bezalako	-3266
▁tan	-3267
duko	-3268
ceph	-3269
tibo	-3270
▁uh	-3271
bek	-3272
▁102	-3273
▁harrap	-3274
▁ordain	-3275
▁jokal	-3276
▁geroztik	-3277
▁pirin	-3278
▁gipuzkoako	-3279
garren	-3280
pik	-3281
erria	-3282
▁maiz	-3283
▁multzo	-3284
lovak	-3285
ilus	-3286
▁zientz	-3287
▁distantziara	-3288
▁fas	-3289
▁gobernuak	-3290
▁2016	-3291
▁baiz	-3292
aldetik	-3293
▁mur	-3294
▁drog	-3295
▁eram	-3296
▁normand	-3297
▁cer	-3298
▁1995	-3299
azioaren	-3300
▁sab	-3301
▁itu	-3302
▁gobernu	-3303
▁ezagutu	-3304
xka	-3305
itzaile	-3306
rindu	-3307
▁akitan	-3308
tzailea	-3309
▁tom	-3310
▁hispan	-3311
▁feder	-3312
▁errad	-3313
▁aurkez	-3314
▁egingo	-3315
▁zerbitz	-3316
▁delako	-3317
▁irau	-3318
▁aldean	-3319
▁kontzep	-3320
▁laguntza	-3321
▁atlan	-3322
▁str	-3323
een	-3324
▁kontuan	-3325
isc	-3326
▁deritz	-3327
bus	-3328
letako	-3329
▁erroman	-3330
aux	-3331
▁termin	-3332
▁horretarako	-3333
▁demok	-3334
▁kolore	-3335
▁deskrib	-3336
▁supermerkatu	-3337
iztu	-3338
ilean	-3339
ky	-3340
▁zuenean	-3341
▁pedro	-3342
dek	-3343
▁107	-3344
▁kanta	-3345
▁ohiko	-3346
ins	-3347
▁zazpi	-3348
▁ikusten	-3349
▁cen	-3350
han	-3351
▁fl	-3352
▁mexikoko	-3353
andik	-3354
yo	-3355
▁sim	-3356
▁hond	-3357
▁erdialdeko	-3358
▁landa	-3359
▁gure	-3360
▁guztien	-3361
ario	-3362
▁bul	-3363
igo	-3364
▁1996	-3365
▁cyp	-3366
▁katedr	-3367
▁hiriaren	-3368
▁biak	-3369
▁jend	-3370
koak	-3371
▁wil	-3372
entin	-3373
ikatu	-3374
▁lekua	-3375
▁berre	-3376
▁eginez	-3377
▁bidai	-3378
▁zinem	-3379
▁hawaii	-3380
▁behatok	-3381
▁eragiten	-3382
▁latino	-3383
abeh	-3384
▁lehenago	-3385
▁1997	-3386
tom	-3387
oreak	-3388
igny	-3389
▁hom	-3390
▁eredu	-3391
▁lortzen	-3392
▁101	-3393
▁osatu	-3394
oka	-3395
gar	-3396
▁garrantzitsuen	-3397
tren	-3398
xe	-3399
ord	-3400
ologiko	-3401
▁cro	-3402
arrekin	-3403
duz	-3404
apartamen	-3405
apartamentu	-3406
▁xvi	-3407
▁zuha	-3408
▁1994	-3409
▁obra	-3410
▁garrai	-3411
▁berandu	-3412
▁txirrindu	-3413
▁mailan	-3414
▁bereh	-3415
▁mez	-3416
▁lerro	-3417
▁gelditu	-3418
▁wash	-3419
▁testu	-3420
▁deitu	-3421
▁burdin	-3422
▁cre	-3423
▁datu	-3424
▁um	-3425
▁wal	-3426
▁biltzen	-3427
▁erkide	-3428
▁gid	-3429
▁bl	-3430
▁122	-3431
▁misso	-3432
▁jer	-3433
▁riv	-3434
penak	-3435
vi	-3436
▁erraz	-3437
ketan	-3438
▁txikia	-3439
▁!	-3440
ogeita	-3441
▁louis	-3442
▁baizik	-3443
▁109	-3444
▁uler	-3445
▁erabilera	-3446
▁forma	-3447
▁program	-3448
▁tratamendu	-3449
▁aztar	-3450
ekan	-3451
adura	-3452
ael	-3453
▁1998	-3454
▁aldetik	-3455
▁1993	-3456
yko	-3457
▁dom	-3458
ford	-3459
ess	-3460
▁ezik	-3461
▁ontz	-3462
ple	-3463
▁donostiako	-3464
pis	-3465
▁halaber	-3466
udi	-3467
▁neb	-3468
▁arago	-3469
▁taldeko	-3470
mar	-3471
▁fel	-3472
▁murr	-3473
tas	-3474
▁zenbak	-3475
▁zib	-3476
▁ana	-3477
▁urtez	-3478
▁1989	-3479
▁anbul	-3480
uch	-3481
▁dia	-3482
itzean	-3483
▁2018	-3484
▁herrit	-3485
▁gipuzkoa	-3486
mont	-3487
▁bazter	-3488
▁eskatu	-3489
▁nol	-3490
▁animal	-3491
▁132	-3492
▁itxura	-3493
▁tir	-3494
▁amaieran	-3495
▁fos	-3496
▁direnak	-3497
▁washington	-3498
▁som	-3499
▁aten	-3500
▁urtekoa	-3501
otz	-3502
usen	-3503
▁kalte	-3504
▁azaltzen	-3505
deko	-3506
po	-3507
▁700	-3508
▁nahiko	-3509
▁horietako	-3510
arazi	-3511
▁william	-3512
aris	-3513
▁sartzen	-3514
▁kataluniako	-3515
▁besterik	-3516
fa	-3517
▁kanpoko	-3518
▁lis	-3519
▁pasa	-3520
▁parke	-3521
▁erreal	-3522
▁q	-3523
▁erdiko	-3524
▁urtero	-3525
▁kur	-3526
▁zelarik	-3527
▁pennsylvania	-3528
▁hautatu	-3529
▁kale	-3530
bia	-3531
▁karg	-3532
▁badira	-3533
▁autob	-3534
▁anbulantzia	-3535
▁sorr	-3536
▁nazionala	-3537
urik	-3538
ietako	-3539
iola	-3540
▁elik	-3541
▁horn	-3542
▁karlos	-3543
▁bakoitzak	-3544
▁xviii	-3545
alo	-3546
▁pertsonaia	-3547
▁batzorde	-3548
ardia	-3549
▁119	-3550
▁gata	-3551
iba	-3552
▁kong	-3553
▁eslovak	-3554
▁dok	-3555
▁116	-3556
▁ezar	-3557
▁pierre	-3558
▁bukatzeko	-3559
ann	-3560
iere	-3561
▁jardun	-3562
▁gorabeh	-3563
▁lortzeko	-3564
tso	-3565
▁eztaba	-3566
▁bra	-3567
▁atxilo	-3568
▁log	-3569
tern	-3570
▁pazif	-3571
▁adierazi	-3572
▁soldadu	-3573
▁apa	-3574
▁rich	-3575
ges	-3576
▁luzera	-3577
▁banaketa	-3578
▁nap	-3579
▁euskara	-3580
ingo	-3581
▁tartean	-3582
bideak	-3583
iok	-3584
kuntza	-3585
▁tradiz	-3586
ieg	-3587
▁beharko	-3588
con	-3589
▁hitzak	-3590
▁poloniako	-3591
▁astronom	-3592
▁baso	-3593
▁txur	-3594
▁micro	-3595
bin	-3596
▁bestetik	-3597
asko	-3598
▁dion	-3599
▁latin	-3600
lab	-3601
▁missouri	-3602
▁eraku	-3603
ieta	-3604
▁liburua	-3605
emin	-3606
▁sat	-3607
▁gehienetan	-3608
▁103	-3609
▁1979	-3610
ivo	-3611
lah	-3612
▁105	-3613
urrak	-3614
▁normalean	-3615
▁lehiak	-3616
korra	-3617
egu	-3618
▁zil	-3619
▁francis	-3620
▁je	-3621
▁erabiliz	-3622
▁distantzia	-3623
turiko	-3624
▁donostia	-3625
▁denez	-3626
aban	-3627
▁tenperatura	-3628
katua	-3629
▁lapur	-3630
▁1984	-3631
adi	-3632
▁mul	-3633
istaren	-3634
ikor	-3635
▁antolatu	-3636
▁kristau	-3637
▁izar	-3638
▁zientzia	-3639
▁ino	-3640
▁jada	-3641
▁espazio	-3642
▁kalkul	-3643
mos	-3644
fon	-3645
▁afroamerik	-3646
tetan	-3647
▁ume	-3648
▁botere	-3649
▁metodo	-3650
▁frantzia	-3651
▁111	-3652
▁azk	-3653
▁ozeano	-3654
ci	-3655
ugh	-3656
▁124	-3657
▁jasan	-3658
▁dinast	-3659
▁zenbaki	-3660
dro	-3661
▁106	-3662
ieres	-3663
zioak	-3664
▁hilo	-3665
▁1987	-3666
▁borgo	-3667
▁urter	-3668
kes	-3669
ariek	-3670
▁lanetan	-3671
▁funer	-3672
▁1986	-3673
▁128	-3674
▁emakum	-3675
ipe	-3676
▁drogeria	-3677
▁zik	-3678
meria	-3679
ling	-3680
▁sta	-3681
akter	-3682
▁cha	-3683
▁ple	-3684
peko	-3685
▁atal	-3686
▁haute	-3687
▁banatzen	-3688
▁utz	-3689
▁izendapen	-3690
▁118	-3691
▁aitz	-3692
▁pazifikoko	-3693
▁jarraitzen	-3694
▁ustez	-3695
can	-3696
esia	-3697
▁konderriak	-3698
▁frantziar	-3699
usa	-3700
▁alk	-3701
▁parr	-3702
▁hispano	-3703
▁literatura	-3704
igarren	-3705
▁kam	-3706
▁hos	-3707
▁anaia	-3708
▁metal	-3709
urren	-3710
▁jauregia	-3711
▁urtetik	-3712
▁lotura	-3713
rek	-3714
beste	-3715
▁balia	-3716
▁aurkitutako	-3717
dia	-3718
▁itxur	-3719
▁borroka	-3720
ule	-3721
▁bitarteko	-3722
▁1982	-3723
▁boto	-3724
▁rio	-3725
▁etxea	-3726
▁zutela	-3727
▁kopurua	-3728
▁beranduago	-3729
▁aipamena	-3730
▁ata	-3731
▁cyprin	-3732
▁konstitu	-3733
▁web	-3734
▁istor	-3735
ual	-3736
▁baitu	-3737
▁ekintza	-3738
▁izenak	-3739
asa	-3740
▁karras	-3741
▁114	-3742
▁epa	-3743
▁bidali	-3744
▁jartzen	-3745
▁erregea	-3746
cel	-3747
age	-3748
▁horretako	-3749
iteko	-3750
▁gail	-3751
▁diote	-3752
▁alexand	-3753
▁labur	-3754
▁erdialdean	-3755
dio	-3756
▁117	-3757
▁dr	-3758
gandik	-3759
▁urrezko	-3760
▁taldean	-3761
ner	-3762
▁toki	-3763
▁presidente	-3764
tzan	-3765
▁kontseil	-3766
bach	-3767
▁garrantzi	-3768
▁frog	-3769
▁matematik	-3770
entea	-3771
▁askok	-3772
▁antzez	-3773
▁europan	-3774
▁zai	-3775
▁teor	-3776
▁abertz	-3777
▁mekan	-3778
▁moz	-3779
kak	-3780
lamen	-3781
▁bida	-3782
▁literatur	-3783
▁aka	-3784
▁berehala	-3785
ileak	-3786
▁west	-3787
▁hitza	-3788
▁1981	-3789
▁bidea	-3790
▁james	-3791
▁gorputz	-3792
eth	-3793
▁olinpiar	-3794
▁politika	-3795
▁kendu	-3796
▁david	-3797
▁asiarrak	-3798
▁115	-3799
▁plat	-3800
▁robert	-3801
▁zentsuaren	-3802
▁fon	-3803
▁1978	-3804
▁ditzake	-3805
iatik	-3806
▁segur	-3807
▁1977	-3808
▁batasun	-3809
▁pertsonetatik	-3810
▁eskaintzen	-3811
▁irletako	-3812
▁zentsoan	-3813
▁1985	-3814
▁txuriak	-3815
▁gotor	-3816
▁beregan	-3817
▁virgin	-3818
esc	-3819
▁ask	-3820
▁bandera	-3821
▁afroamerikarrak	-3822
mun	-3823
▁113	-3824
▁267	-3825
tres	-3826
▁121	-3827
ibar	-3828
▁wh	-3829
▁belg	-3830
▁kopa	-3831
▁eginiko	-3832
portu	-3833
▁hasierako	-3834
▁hispanoak	-3835
▁herriaren	-3836
▁carolina	-3837
form	-3838
igen	-3839
▁helburua	-3840
▁harategi	-3841
▁mais	-3842
▁beraien	-3843
ney	-3844
▁eratu	-3845
▁minnes	-3846
iers	-3847
▁ibili	-3848
▁zez	-3849
▁eguzk	-3850
ailean	-3851
▁1983	-3852
▁jendar	-3853
uta	-3854
yph	-3855
▁1950	-3856
▁telebista	-3857
▁mugak	-3858
▁asmoz	-3859
▁129	-3860
▁absol	-3861
▁futbolari	-3862
▁beher	-3863
ium	-3864
obat	-3865
▁defend	-3866
osh	-3867
▁136	-3868
▁eduki	-3869
arriz	-3870
▁erlijio	-3871
orra	-3872
▁koro	-3873
atzean	-3874
▁parlamen	-3875
▁venez	-3876
▁zeharkatzen	-3877
▁1988	-3878
▁long	-3879
▁1936	-3880
▁herbeh	-3881
▁eskuin	-3882
▁euskaldun	-3883
▁134	-3884
▁britainiar	-3885
▁ingen	-3886
▁zuta	-3887
▁harres	-3888
atr	-3889
▁kontzer	-3890
▁125	-3891
▁eslovakiako	-3892
▁172	-3893
▁ale	-3894
▁baitzuen	-3895
▁itsason	-3896
irako	-3897
▁gaind	-3898
▁pirinio	-3899
val	-3900
itald	-3901
▁guztia	-3902
▁ezku	-3903
▁erresum	-3904
▁sent	-3905
▁idazlea	-3906
▁akitania	-3907
▁aste	-3908
▁bern	-3909
▁hobe	-3910
▁akadem	-3911
so	-3912
▁bazen	-3913
▁agir	-3914
▁intern	-3915
▁ingelesez	-3916
oki	-3917
▁dutenak	-3918
ior	-3919
▁ziur	-3920
▁etxerako	-3921
▁kre	-3922
▁sendo	-3923
cy	-3924
▁karraskarien	-3925
02	-3926
▁sortzeko	-3927
▁atom	-3928
▁suitzako	-3929
ation	-3930
▁xvii	-3931
▁munduan	-3932
▁gerraren	-3933
ield	-3934
▁harategiak	-3935
▁kro	-3936
▁ke	-3937
izatu	-3938
▁ideia	-3939
cha	-3940
▁kontrako	-3941
▁arn	-3942
tegia	-3943
▁litzat	-3944
▁uhartea	-3945
dr	-3946
ongo	-3947
▁aireportu	-3948
▁1976	-3949
ituak	-3950
▁177	-3951
▁altzari	-3952
erriko	-3953
▁idatzizko	-3954
▁emakumezko	-3955
odon	-3956
▁horietan	-3957
▁saiatu	-3958
▁135	-3959
korpor	-3960
▁santu	-3961
▁aska	-3962
▁azaldu	-3963
▁inkorpor	-3964
▁nig	-3965
▁irakur	-3966
▁idatzitako	-3967
▁hasten	-3968
▁iturr	-3969
▁zuzendariaren	-3970
▁zorro	-3971
▁cla	-3972
tsuak	-3973
▁erregearen	-3974
ituen	-3975
▁iturri	-3976
▁zuzendutako	-3977
onek	-3978
▁krit	-3979
▁kazet	-3980
▁oscar	-3981
▁len	-3982
▁horrez	-3983
▁burutu	-3984
▁144	-3985
▁168	-3986
▁inkorporatutako	-3987
▁haran	-3988
▁lotzen	-3989
▁123	-3990
esa	-3991
abiz	-3992
▁litzateke	-3993
▁sobi	-3994
▁eremua	-3995
▁penintsul	-3996
▁eskubide	-3997
▁cyprinidae	-3998
▁buka	-3999
▁honi	-4000
▁+	-4001
▁dator	-4002
▁oler	-4003
▁ala	-4004
tagon	-4005
arena	-4006
▁kub	-4007
kariak	-4008
▁aipatu	-4009
▁merkataritza	-4010
af	-4011
▁dur	-4012
xua	-4013
isko	-4014
chy	-4015
▁etn	-4016
▁espainia	-4017
iketa	-4018
▁meh	-4019
▁profesional	-4020
▁lehenbiz	-4021
▁aurkitzen	-4022
▁bota	-4023
▁molek	-4024
▁hab	-4025
▁mintz	-4026
ikus	-4027
▁meg	-4028
vel	-4029
▁bah	-4030
▁dauz	-4031
▁1975	-4032
▁europa	-4033
tris	-4034
▁publikoaren	-4035
▁ireki	-4036
icol	-4037
▁1968	-4038
▁send	-4039
bar	-4040
▁sm	-4041
itude	-4042
▁city	-4043
eros	-4044
▁voivo	-4045
▁gus	-4046
▁klima	-4047
▁hartako	-4048
▁lehendabiz	-4049
igan	-4050
▁fatx	-4051
duna	-4052
▁arku	-4053
ikola	-4054
▁hilabete	-4055
▁teknikoko	-4056
pir	-4057
▁zehatz	-4058
▁kidea	-4059
▁voivoderr	-4060
▁eraikina	-4061
▁gotorleku	-4062
eago	-4063
▁aroko	-4064
▁osoko	-4065
▁guztietan	-4066
▁eku	-4067
ilia	-4068
▁jendarmeria	-4069
▁ekar	-4070
▁hamab	-4071
▁ea	-4072
tikoa	-4073
▁hauetan	-4074
▁historian	-4075
▁normandia	-4076
▁137	-4077
▁fus	-4078
▁joera	-4079
▁ekitald	-4080
▁konstan	-4081
▁ibilbide	-4082
▁gainerako	-4083
uil	-4084
tsuen	-4085
▁prib	-4086
▁hitzar	-4087
▁thom	-4088
▁kaleratu	-4089
▁line	-4090
▁interpre	-4091
ves	-4092
iburua	-4093
▁inoiz	-4094
▁dat	-4095
▁tintor	-4096
▁aug	-4097
▁maz	-4098
▁eduk	-4099
▁mexiko	-4100
▁eskualdea	-4101
▁eszen	-4102
▁pom	-4103
karia	-4104
ifer	-4105
▁126	-4106
adore	-4107
erantz	-4108
▁kontin	-4109
▁mc	-4110
ezkoa	-4111
ches	-4112
▁sortua	-4113
▁gro	-4114
▁pau	-4115
▁pil	-4116
▁korron	-4117
▁sobietar	-4118
▁mikro	-4119
▁lagundu	-4120
ye	-4121
▁palat	-4122
▁club	-4123
▁far	-4124
umentu	-4125
▁167	-4126
▁landu	-4127
agn	-4128
▁vol	-4129
▁152	-4130
▁iritz	-4131
detan	-4132
▁gehiagoko	-4133
▁aktoreek	-4134
txo	-4135
▁dako	-4136
▁elektrotres	-4137
▁gauza	-4138
07	-4139
izki	-4140
▁elektrotresna	-4141
iei	-4142
▁une	-4143
▁borgoina	-4144
▁148	-4145
▁sainte	-4146
▁izaera	-4147
▁emaitza	-4148
▁ly	-4149
▁lim	-4150
chromis	-4151
ahi	-4152
eka	-4153
▁127	-4154
▁lam	-4155
▁gram	-4156
▁protes	-4157
▁ospatu	-4158
▁bela	-4159
▁manuel	-4160
▁oinarrizko	-4161
▁182	-4162
▁ikuskaritza	-4163
▁hes	-4164
ster	-4165
▁dig	-4166
▁etxeko	-4167
▁155	-4168
▁izenburu	-4169
ques	-4170
▁galiz	-4171
ings	-4172
▁800	-4173
▁ezberdinak	-4174
09	-4175
ger	-4176
fe	-4177
abea	-4178
▁hung	-4179
▁egitur	-4180
onte	-4181
▁142	-4182
▁1973	-4183
▁rhin	-4184
▁askoz	-4185
▁bakter	-4186
▁131	-4187
▁ix	-4188
▁estre	-4189
▁ohio	-4190
▁400	-4191
▁138	-4192
istek	-4193
▁irudi	-4194
▁178	-4195
▁1969	-4196
▁aberats	-4197
agarria	-4198
chen	-4199
ontzeko	-4200
eda	-4201
▁hurren	-4202
hy	-4203
abr	-4204
▁zegoela	-4205
ondo	-4206
▁geltokia	-4207
graf	-4208
▁petro	-4209
▁txikiak	-4210
ande	-4211
▁pi	-4212
▁kontak	-4213
hol	-4214
▁florida	-4215
▁bukatu	-4216
▁dak	-4217
▁mendia	-4218
▁bero	-4219
inatua	-4220
▁vi	-4221
▁zortzi	-4222
▁benetako	-4223
▁udalerriko	-4224
aska	-4225
▁kasuan	-4226
ema	-4227
▁wo	-4228
▁parrok	-4229
▁133	-4230
azki	-4231
taren	-4232
▁erren	-4233
▁sev	-4234
▁filme	-4235
▁rad	-4236
▁garaipen	-4237
▁1974	-4238
▁tran	-4239
▁aztarn	-4240
▁pilota	-4241
▁gainontzeko	-4242
▁412	-4243
gun	-4244
▁greziar	-4245
cephalus	-4246
esen	-4247
uridae	-4248
▁horri	-4249
▁konf	-4250
▁kritik	-4251
▁aipatzen	-4252
▁139	-4253
▁oih	-4254
▁izug	-4255
▁1972	-4256
cho	-4257
▁norv	-4258
▁saiak	-4259
▁autonomia	-4260
▁behe	-4261
▁charen	-4262
▁zaharra	-4263
▁renania	-4264
▁zabala	-4265
▁tron	-4266
opus	-4267
▁hortik	-4268
▁gorabehera	-4269
▁fund	-4270
▁ekonomiko	-4271
azia	-4272
▁independentzia	-4273
▁abiadura	-4274
eriak	-4275
▁deitua	-4276
tzearen	-4277
08	-4278
▁erregeak	-4279
▁handiago	-4280
▁delarik	-4281
▁dol	-4282
▁mary	-4283
▁184	-4284
▁ahos	-4285
▁adibide	-4286
cion	-4287
▁erdig	-4288
▁elkarte	-4289
ep	-4290
rim	-4291
▁zara	-4292
▁tamaina	-4293
▁hauteskundeetan	-4294
agarri	-4295
by	-4296
▁iruneko	-4297
▁siz	-4298
▁funts	-4299
01	-4300
▁behineko	-4301
▁galesko	-4302
tzaileak	-4303
▁emateko	-4304
ante	-4305
besteko	-4306
diko	-4307
▁son	-4308
olis	-4309
▁izatera	-4310
▁maur	-4311
▁bizkaia	-4312
▁garb	-4313
▁arl	-4314
▁dokumen	-4315
▁sare	-4316
▁zuzendaria	-4317
▁marne	-4318
▁kanpor	-4319
▁179	-4320
▁labor	-4321
▁gurutz	-4322
▁konple	-4323
▁aipagarr	-4324
▁luc	-4325
▁suk	-4326
▁austral	-4327
▁156	-4328
▁beharra	-4329
iterr	-4330
top	-4331
▁alemaniar	-4332
▁izenarekin	-4333
dorf	-4334
▁169	-4335
erakoan	-4336
ls	-4337
▁zubia	-4338
▁ospatzen	-4339
fo	-4340
etxe	-4341
ador	-4342
▁187	-4343
gabe	-4344
▁1967	-4345
▁debek	-4346
▁erakutsi	-4347
▁mantendu	-4348
▁zerrenda	-4349
▁erreak	-4350
▁charles	-4351
▁heriotza	-4352
▁virginia	-4353
▁jaz	-4354
▁geo	-4355
▁tenp	-4356
▁urtera	-4357
▁eskur	-4358
▁erdian	-4359
adak	-4360
▁neurri	-4361
▁komunitate	-4362
kizun	-4363
▁auzoa	-4364
▁hildako	-4365
uten	-4366
▁karbon	-4367
▁teknika	-4368
▁betetzen	-4369
▁francisco	-4370
triko	-4371
▁kate	-4372
txa	-4373
▁asp	-4374
▁gam	-4375
▁aro	-4376
vis	-4377
toa	-4378
▁este	-4379
▁kans	-4380
omat	-4381
▁orokorrean	-4382
▁poten	-4383
▁arraz	-4384
yth	-4385
▁bilduma	-4386
▁all	-4387
▁merkatu	-4388
txea	-4389
▁171	-4390
▁fernando	-4391
▁herriburua	-4392
▁ater	-4393
▁ugar	-4394
▁oinorde	-4395
▁gaztel	-4396
▁sco	-4397
▁lurraldea	-4398
▁141	-4399
yk	-4400
▁bla	-4401
▁1930	-4402
▁hartzeko	-4403
▁inp	-4404
▁672	-4405
▁lop	-4406
▁guztiek	-4407
▁monte	-4408
▁lotuta	-4409
tana	-4410
▁gaineko	-4411
▁erreferentzia	-4412
▁gut	-4413
▁145	-4414
illy	-4415
▁entren	-4416
itura	-4417
▁ezker	-4418
▁ogasun	-4419
▁argentin	-4420
▁domin	-4421
▁aintzira	-4422
gob	-4423
ris	-4424
▁osatua	-4425
▁lizeo	-4426
▁oklah	-4427
etariko	-4428
▁egunero	-4429
ws	-4430
goan	-4431
▁militar	-4432
▁var	-4433
iakoa	-4434
▁foru	-4435
▁erraldo	-4436
bel	-4437
▁iristen	-4438
▁636	-4439
▁174	-4440
▁neu	-4441
▁147	-4442
ene	-4443
▁diskoa	-4444
▁arazoak	-4445
uin	-4446
▁behatokitik	-4447
▁fer	-4448
▁638	-4449
▁palatinatua	-4450
▁lip	-4451
▁ondorio	-4452
lem	-4453
▁nan	-4454
▁etorri	-4455
▁jaureg	-4456
▁geruz	-4457
▁650	-4458
▁pix	-4459
▁desberdinak	-4460
unen	-4461
ophis	-4462
elo	-4463
▁txinako	-4464
algo	-4465
▁151	-4466
auz	-4467
▁166	-4468
agu	-4469
gai	-4470
lio	-4471
itarra	-4472
urreko	-4473
▁europar	-4474
ward	-4475
▁iber	-4476
▁land	-4477
▁oinarri	-4478
iho	-4479
urrean	-4480
▁isra	-4481
▁herrixka	-4482
▁mem	-4483
aratu	-4484
itibo	-4485
▁ibilbidea	-4486
alea	-4487
tia	-4488
▁sao	-4489
ifik	-4490
▁paral	-4491
▁ertzean	-4492
▁errepidea	-4493
utatu	-4494
▁miguel	-4495
▁mediterr	-4496
▁protagon	-4497
atzaileak	-4498
▁bib	-4499
agailu	-4500
▁mitolog	-4501
▁idazten	-4502
▁terr	-4503
▁kantonamenduan	-4504
▁641	-4505
aztun	-4506
▁selek	-4507
▁zapata	-4508
▁garrantzia	-4509
▁emandako	-4510
▁onenaren	-4511
▁voivoderriko	-4512
▁oper	-4513
aldiak	-4514
yan	-4515
▁kontserb	-4516
▁odol	-4517
pil	-4518
▁aroan	-4519
▁si	-4520
▁230	-4521
▁hondar	-4522
ops	-4523
lean	-4524
▁146	-4525
idura	-4526
▁neurr	-4527
▁castel	-4528
▁zelula	-4529
adur	-4530
▁auker	-4531
▁garrantzitsuena	-4532
04	-4533
ingen	-4534
▁gaztelaniaz	-4535
▁lik	-4536
▁1964	-4537
▁arke	-4538
▁aurki	-4539
▁psiko	-4540
fr	-4541
▁zar	-4542
▁funtzion	-4543
urn	-4544
▁auzoan	-4545
tem	-4546
utu	-4547
▁arras	-4548
iltz	-4549
▁158	-4550
▁geratzen	-4551
▁fakt	-4552
▁defen	-4553
retan	-4554
▁egiptoko	-4555
▁pers	-4556
▁orr	-4557
▁apaiz	-4558
05	-4559
▁1971	-4560
ikar	-4561
▁zizkion	-4562
▁fc	-4563
▁abar	-4564
atzera	-4565
itzera	-4566
▁sailkapen	-4567
▁arlo	-4568
▁horm	-4569
ialdera	-4570
illo	-4571
▁637	-4572
tsio	-4573
▁burg	-4574
▁partid	-4575
ay	-4576
▁badaude	-4577
▁iris	-4578
▁176	-4579
▁cu	-4580
iang	-4581
arriak	-4582
▁1920	-4583
▁175	-4584
▁vas	-4585
▁haus	-4586
▁korn	-4587
▁luzea	-4588
▁tarte	-4589
▁712	-4590
▁864	-4591
▁aub	-4592
▁ju	-4593
pan	-4594
▁etab	-4595
▁elementuen	-4596
via	-4597
▁lac	-4598
▁832	-4599
▁dub	-4600
▁funtzio	-4601
▁porro	-4602
▁irte	-4603
orekin	-4604
▁aus	-4605
▁arkitektura	-4606
▁639	-4607
field	-4608
▁1940	-4609
entziako	-4610
▁zelako	-4611
▁berezia	-4612
▁elkartea	-4613
▁837	-4614
▁867	-4615
mus	-4616
▁gun	-4617
▁borrokatu	-4618
▁181	-4619
▁omenez	-4620
▁monaster	-4621
▁ekintz	-4622
▁esparr	-4623
▁157	-4624
▁149	-4625
ientzia	-4626
▁desagertu	-4627
aros	-4628
si	-4629
▁zaur	-4630
ikuntza	-4631
▁lehenbiziko	-4632
▁836	-4633
▁tradizional	-4634
ienak	-4635
uki	-4636
▁madrilgo	-4637
▁proiektu	-4638
▁zelul	-4639
▁tontor	-4640
▁gaixotasun	-4641
▁kolor	-4642
lus	-4643
▁egu	-4644
▁sued	-4645
▁zahar	-4646
▁zuzenean	-4647
oia	-4648
▁hiriak	-4649
▁hortaz	-4650
ight	-4651
▁unibertsitateko	-4652
ker	-4653
▁161	-4654
▁preso	-4655
06	-4656
leak	-4657
▁362	-4658
▁goiko	-4659
▁musul	-4660
▁seine	-4661
▁christ	-4662
ismoak	-4663
▁esped	-4664
▁kokaturik	-4665
▁ohikoa	-4666
▁eraginez	-4667
▁konderriko	-4668
▁191	-4669
▁itun	-4670
▁errepide	-4671
erson	-4672
ezpik	-4673
ikul	-4674
▁hots	-4675
▁artikulu	-4676
my	-4677
▁664	-4678
▁harri	-4679
▁irten	-4680
▁errusiako	-4681
mor	-4682
▁aukeratu	-4683
▁goiz	-4684
▁185	-4685
ridae	-4686
▁efek	-4687
▁143	-4688
▁dek	-4689
▁zeuk	-4690
▁882	-4691
▁689	-4692
berto	-4693
▁nafar	-4694
▁kab	-4695
▁macro	-4696
▁magnitude	-4697
▁alemania	-4698
▁jun	-4699
▁errusiar	-4700
▁esate	-4701
▁hirur	-4702
ikolaje	-4703
egon	-4704
▁brikolaje	-4705
▁kron	-4706
▁649	-4707
her	-4708
▁861	-4709
▁paper	-4710
nath	-4711
ografia	-4712
▁154	-4713
▁ezez	-4714
▁trop	-4715
▁164	-4716
▁bien	-4717
▁train	-4718
▁862	-4719
▁cent	-4720
▁zail	-4721
tzu	-4722
way	-4723
▁nad	-4724
▁victor	-4725
▁ikaslekin	-4726
▁anai	-4727
▁patr	-4728
▁662	-4729
▁cote	-4730
▁alba	-4731
▁159	-4732
▁gaztelako	-4733
▁duk	-4734
tim	-4735
▁857	-4736
jar	-4737
cidae	-4738
▁masa	-4739
▁politikaria	-4740
udela	-4741
arrezko	-4742
hen	-4743
▁dakota	-4744
inn	-4745
▁wisc	-4746
▁abi	-4747
▁kob	-4748
▁ona	-4749
lidae	-4750
▁beau	-4751
laria	-4752
▁dantz	-4753
▁162	-4754
▁lehendabiziko	-4755
▁wiscons	-4756
▁musulman	-4757
▁arabako	-4758
kop	-4759
▁338	-4760
▁cos	-4761
ider	-4762
▁grabatu	-4763
▁parisko	-4764
▁iowa	-4765
ikoetan	-4766
▁ospetsu	-4767
▁arra	-4768
inek	-4769
▁bitxi	-4770
▁azpim	-4771
▁natural	-4772
logia	-4773
errian	-4774
▁xiii	-4775
▁zirkul	-4776
▁iraultza	-4777
arn	-4778
▁1962	-4779
▁1966	-4780
▁libre	-4781
▁up	-4782
▁gizonezko	-4783
▁dun	-4784
▁aldera	-4785
▁sinatu	-4786
eres	-4787
▁vien	-4788
itatearen	-4789
amo	-4790
▁motako	-4791
▁ofiziala	-4792
▁politikoa	-4793
▁237	-4794
▁legeb	-4795
▁1945	-4796
▁sinbol	-4797
▁hegazkin	-4798
ure	-4799
▁600	-4800
▁amaiera	-4801
agun	-4802
▁frantzian	-4803
▁legebiltz	-4804
▁gerrikoan	-4805
▁1965	-4806
uman	-4807
▁irlandar	-4808
▁estatua	-4809
▁oinarritzen	-4810
▁polizia	-4811
uh	-4812
▁831	-4813
▁860	-4814
▁wisconsin	-4815
leko	-4816
▁196	-4817
▁zientifikoa	-4818
wood	-4819
▁ordena	-4820
▁634	-4821
▁gido	-4822
▁carlos	-4823
▁doa	-4824
tib	-4825
▁gym	-4826
▁gizar	-4827
tos	-4828
▁hona	-4829
we	-4830
▁programa	-4831
▁bila	-4832
▁irunea	-4833
▁ev	-4834
▁1963	-4835
▁phil	-4836
▁inperioaren	-4837
▁are	-4838
▁zeraman	-4839
▁altuera	-4840
▁espainian	-4841
▁658	-4842
▁para	-4843
▁atlant	-4844
▁george	-4845
▁orduko	-4846
▁xii	-4847
▁komunik	-4848
▁izenekoa	-4849
▁honekin	-4850
▁153	-4851
▁ville	-4852
▁indarra	-4853
▁italia	-4854
▁afrikako	-4855
errek	-4856
▁iden	-4857
▁bertsol	-4858
▁hogeita	-4859
▁inperio	-4860
▁erresisten	-4861
town	-4862
▁186	-4863
udio	-4864
▁vil	-4865
akoak	-4866
▁dauzka	-4867
omus	-4868
▁trib	-4869
ison	-4870
▁aurp	-4871
▁etxean	-4872
▁beder	-4873
▁centre	-4874
▁ondasun	-4875
ste	-4876
▁165	-4877
▁173	-4878
▁jack	-4879
▁jarrera	-4880
▁361	-4881
▁ate	-4882
▁fol	-4883
imena	-4884
▁apur	-4885
▁bultzatu	-4886
▁jaun	-4887
▁absolut	-4888
▁zuhaitz	-4889
▁pic	-4890
▁bederatz	-4891
otus	-4892
▁858	-4893
▁objektu	-4894
▁antolatzen	-4895
pin	-4896
etaz	-4897
▁ados	-4898
▁gald	-4899
▁640	-4900
▁gataz	-4901
▁gudaros	-4902
▁igarotzen	-4903
abet	-4904
▁linea	-4905
letan	-4906
▁trin	-4907
▁eratzen	-4908
▁prak	-4909
▁erantzun	-4910
▁motor	-4911
▁gerora	-4912
▁fitx	-4913
▁identif	-4914
▁1958	-4915
▁aztertu	-4916
▁bereizten	-4917
▁ontzi	-4918
▁richard	-4919
sey	-4920
anen	-4921
▁german	-4922
▁egina	-4923
▁kalea	-4924
▁plata	-4925
▁izenez	-4926
▁monumentu	-4927
uj	-4928
orh	-4929
eten	-4930
▁hus	-4931
forma	-4932
▁ateratzen	-4933
uda	-4934
▁kargu	-4935
▁murriz	-4936
▁zutenean	-4937
well	-4938
arretan	-4939
▁lehendakari	-4940
orus	-4941
▁makur	-4942
▁bron	-4943
okoa	-4944
▁1961	-4945
▁egunean	-4946
▁autoeskola	-4947
izazioa	-4948
untzak	-4949
▁280	-4950
▁350	-4951
ive	-4952
▁dagoela	-4953
▁kontatzen	-4954
▁azido	-4955
▁gudua	-4956
etiko	-4957
▁taldek	-4958
▁het	-4959
▁akor	-4960
▁lurraren	-4961
▁gobernuaren	-4962
agon	-4963
▁1937	-4964
▁urrun	-4965
▁egipto	-4966
▁zenez	-4967
▁194	-4968
▁jokoetan	-4969
▁islam	-4970
ekoak	-4971
▁herritar	-4972
▁ordezkatu	-4973
▁egile	-4974
▁margolan	-4975
phis	-4976
▁zaldi	-4977
▁michael	-4978
tzar	-4979
▁ukr	-4980
▁berg	-4981
iri	-4982
leg	-4983
ume	-4984
▁reg	-4985
▁suedia	-4986
▁360	-4987
▁ferr	-4988
▁italiar	-4989
deak	-4990
▁blan	-4991
▁astur	-4992
▁thomas	-4993
adako	-4994
▁landar	-4995
▁nagusiki	-4996
▁minnesota	-4997
▁syn	-4998
▁trainer	-4999
▁bisita	-5000
ketaren	-5001
▁badago	-5002
etxea	-5003
▁historial	-5004
phus	-5005
▁619	-5006
pus	-5007
▁250	-5008
▁jesus	-5009
▁amerikako	-5010
itazio	-5011
▁uzten	-5012
ogon	-5013
▁dib	-5014
▁sein	-5015
▁abestia	-5016
▁hartuta	-5017
▁ahalbide	-5018
iac	-5019
▁isur	-5020
▁laugarren	-5021
▁ce	-5022
vier	-5023
▁legea	-5024
xa	-5025
▁feno	-5026
▁hurbilketa	-5027
▁call	-5028
▁titulua	-5029
▁giro	-5030
▁zirku	-5031
▁askoren	-5032
aleak	-5033
▁nerb	-5034
▁txikiago	-5035
yd	-5036
see	-5037
▁sum	-5038
▁fru	-5039
▁bider	-5040
▁240	-5041
▁1957	-5042
ados	-5043
▁bidean	-5044
▁esklab	-5045
tiz	-5046
▁trip	-5047
alki	-5048
▁garraiorako	-5049
▁alkate	-5050
▁bukaeran	-5051
▁ni	-5052
▁arkitekto	-5053
▁funeraria	-5054
ush	-5055
▁618	-5056
tatua	-5057
▁fam	-5058
untze	-5059
▁239	-5060
▁erromako	-5061
▁1939	-5062
▁kuts	-5063
▁ederr	-5064
arentzat	-5065
▁antzerki	-5066
▁bihurtzen	-5067
▁karta	-5068
iga	-5069
▁vel	-5070
▁bertsio	-5071
▁atxilotu	-5072
▁dam	-5073
▁oinarritua	-5074
▁informazioa	-5075
atar	-5076
tegr	-5077
▁hero	-5078
▁arrantz	-5079
▁xab	-5080
▁argazk	-5081
eraino	-5082
▁tel	-5083
onne	-5084
▁printzip	-5085
mann	-5086
tad	-5087
ulo	-5088
▁xiv	-5089
▁jener	-5090
▁proposatu	-5091
idge	-5092
▁aritzen	-5093
ette	-5094
▁269	-5095
▁dik	-5096
▁israel	-5097
ieten	-5098
▁argia	-5099
rad	-5100
▁osagai	-5101
▁we	-5102
▁ses	-5103
03	-5104
▁lake	-5105
▁beldur	-5106
▁klub	-5107
▁prim	-5108
▁luke	-5109
▁fenomen	-5110
▁nebr	-5111
▁630	-5112
▁emakumeen	-5113
▁nabarmena	-5114
▁fron	-5115
▁163	-5116
▁834	-5117
▁eskatzen	-5118
▁filosofia	-5119
gobius	-5120
burgo	-5121
▁bezain	-5122
▁island	-5123
▁&	-5124
▁617	-5125
sk	-5126
▁1948	-5127
▁lomb	-5128
▁saldu	-5129
▁gertak	-5130
atsu	-5131
▁aran	-5132
▁eskaini	-5133
▁ekoizpen	-5134
▁rub	-5135
turak	-5136
▁barruti	-5137
▁aldatzen	-5138
▁herrialdeko	-5139
▁treb	-5140
untzaren	-5141
▁eguzkiaren	-5142
ose	-5143
▁183	-5144
larik	-5145
▁pul	-5146
▁ezagunak	-5147
iensis	-5148
ryn	-5149
▁baldintz	-5150
▁rom	-5151
▁ditugu	-5152
inua	-5153
▁1959	-5154
▁kontu	-5155
▁parisen	-5156
izkio	-5157
itea	-5158
▁mikel	-5159
antis	-5160
▁mendeetan	-5161
▁irrati	-5162
ikan	-5163
▁museoa	-5164
▁oinarrituta	-5165
▁uko	-5166
▁beheko	-5167
▁hazi	-5168
▁sozio	-5169
uf	-5170
▁195	-5171
ational	-5172
▁estu	-5173
untzan	-5174
▁ondoko	-5175
▁erkidegoko	-5176
▁prist	-5177
irekin	-5178
▁areago	-5179
▁zenbat	-5180
▁esperimen	-5181
▁tun	-5182
▁georg	-5183
▁hondak	-5184
▁demokrat	-5185
▁tip	-5186
▁dome	-5187
▁nabarmendu	-5188
ware	-5189
▁222	-5190
▁que	-5191
▁serr	-5192
▁atzera	-5193
▁konkis	-5194
▁zo	-5195
▁ves	-5196
▁carr	-5197
▁bali	-5198
▁dutela	-5199
▁flu	-5200
▁ts	-5201
terus	-5202
▁solairu	-5203
▁harremanak	-5204
▁ame	-5205
▁sem	-5206
▁banatu	-5207
▁orokorreko	-5208
▁bizk	-5209
▁beltz	-5210
▁eguna	-5211
▁presidentea	-5212
ieu	-5213
ble	-5214
fal	-5215
▁elektron	-5216
▁hamarkadaren	-5217
adun	-5218
▁gradu	-5219
akuntza	-5220
▁urterekin	-5221
▁nav	-5222
rekin	-5223
▁aurrez	-5224
▁petr	-5225
▁eme	-5226
▁irakaslea	-5227
torea	-5228
▁sing	-5229
▁gutxira	-5230
zioaren	-5231
▁belaun	-5232
▁bizirik	-5233
orrak	-5234
▁korronte	-5235
▁tradizio	-5236
▁estan	-5237
▁maine	-5238
▁ats	-5239
▁deritzo	-5240
▁sas	-5241
atuaren	-5242
▁horrekin	-5243
▁baitira	-5244
▁batzuekin	-5245
▁star	-5246
vin	-5247
▁izaki	-5248
▁miner	-5249
▁aldizkari	-5250
▁oc	-5251
▁dal	-5252
▁ospetsua	-5253
▁begir	-5254
urs	-5255
▁zam	-5256
tzial	-5257
▁manif	-5258
kiz	-5259
▁193	-5260
▁341	-5261
▁ondare	-5262
▁bidaia	-5263
isto	-5264
ones	-5265
▁piztu	-5266
▁scinc	-5267
▁dra	-5268
▁baldintza	-5269
▁asteroideak	-5270
▁etorr	-5271
▁boterea	-5272
▁gez	-5273
ierazko	-5274
▁buruzagi	-5275
▁liburuan	-5276
▁339	-5277
▁sig	-5278
▁sarritan	-5279
▁ilun	-5280
▁hedatu	-5281
▁zituena	-5282
▁ebol	-5283
▁zuelarik	-5284
▁inperioa	-5285
▁va	-5286
akor	-5287
ortz	-5288
▁ibaiak	-5289
▁artista	-5290
▁aireportua	-5291
asti	-5292
ough	-5293
▁1931	-5294
▁eskutik	-5295
▁kilometr	-5296
▁sortzaile	-5297
izp	-5298
chel	-5299
▁238	-5300
▁’	-5301
▁ofizialki	-5302
▁bereganatu	-5303
ilen	-5304
▁berlin	-5305
dy	-5306
▁erosi	-5307
▁geometr	-5308
▁besteko	-5309
▁estrateg	-5310
▁ub	-5311
atiko	-5312
▁tu	-5313
abeko	-5314
idun	-5315
▁204	-5316
▁berreskur	-5317
▁abiatu	-5318
▁baitan	-5319
nam	-5320
anus	-5321
tuck	-5322
▁cast	-5323
▁soinu	-5324
▁garcia	-5325
iev	-5326
▁hipo	-5327
▁kontsum	-5328
▁prozesua	-5329
▁albo	-5330
▁cich	-5331
▁ezaugarriak	-5332
anta	-5333
▁348	-5334
▁kude	-5335
bera	-5336
▁albait	-5337
▁trenbide	-5338
mes	-5339
ustin	-5340
▁arro	-5341
▁gasteiz	-5342
▁1956	-5343
▁stan	-5344
▁zirenak	-5345
istiko	-5346
▁kapital	-5347
▁220	-5348
▁hein	-5349
▁xi	-5350
▁cm	-5351
▁bertatik	-5352
▁ehiz	-5353
orri	-5354
▁vii	-5355
▁real	-5356
▁zirenean	-5357
▁bakoitzean	-5358
▁konkistatu	-5359
▁661	-5360
▁838	-5361
tald	-5362
azioan	-5363
▁ongi	-5364
▁historiko	-5365
▁nobel	-5366
war	-5367
▁202	-5368
▁224	-5369
▁eraikitzen	-5370
▁multzoa	-5371
▁ais	-5372
▁1947	-5373
▁lurrak	-5374
▁ugal	-5375
▁marit	-5376
ulus	-5377
▁wol	-5378
▁abeslari	-5379
iden	-5380
untu	-5381
▁ign	-5382
▁parta	-5383
▁eszentriko	-5384
asen	-5385
ualles	-5386
wer	-5387
▁660	-5388
▁gib	-5389
▁mantentzen	-5390
▁lok	-5391
▁deus	-5392
▁bake	-5393
▁hartuz	-5394
▁balioa	-5395
▁aintzir	-5396
▁kornualles	-5397
▁arkans	-5398
▁asmatu	-5399
▁makurdura	-5400
artasun	-5401
▁georgia	-5402
▁bretainiako	-5403
ulu	-5404
▁orbitak	-5405
lon	-5406
▁sel	-5407
▁high	-5408
▁sortuz	-5409
▁santiago	-5410
▁suntsitu	-5411
▁eror	-5412
▁baditu	-5413
▁642	-5414
▁hark	-5415
▁just	-5416
▁auzit	-5417
▁erlijios	-5418
▁museo	-5419
▁zuelako	-5420
▁politikari	-5421
iente	-5422
▁kant	-5423
▁onartzen	-5424
▁may	-5425
idean	-5426
▁inaug	-5427
▁jokalari	-5428
▁frantsesez	-5429
▁352	-5430
▁zinego	-5431
▁bakoitza	-5432
yg	-5433
bak	-5434
▁egia	-5435
▁kilometroko	-5436
entr	-5437
▁vit	-5438
▁matxinada	-5439
▁jantz	-5440
▁kentuck	-5441
▁ner	-5442
ileko	-5443
etasuna	-5444
mend	-5445
▁beltza	-5446
▁adis	-5447
▁kristal	-5448
loss	-5449
▁arb	-5450
▁berm	-5451
▁satel	-5452
▁emaztea	-5453
▁ezkerre	-5454
izia	-5455
▁sindik	-5456
▁kontzen	-5457
▁metropol	-5458
idel	-5459
▁norveg	-5460
▁halere	-5461
▁joseph	-5462
alez	-5463
▁pays	-5464
▁228	-5465
▁gehitu	-5466
▁espezial	-5467
▁beharreko	-5468
fel	-5469
▁momentu	-5470
▁ets	-5471
▁baldin	-5472
▁uhartean	-5473
ati	-5474
▁batuak	-5475
▁kontzentr	-5476
▁sph	-5477
azion	-5478
▁frantzisko	-5479
▁jol	-5480
▁hedatzen	-5481
▁chir	-5482
▁villa	-5483
▁eztabaid	-5484
▁von	-5485
tziak	-5486
▁1934	-5487
▁michigan	-5488
▁orbitala	-5489
eae	-5490
▁272	-5491
▁410	-5492
▁merk	-5493
▁euskararen	-5494
▁erbes	-5495
▁exist	-5496
▁udako	-5497
▁eder	-5498
▁aebetako	-5499
aluz	-5500
▁indiana	-5501
▁au	-5502
izon	-5503
▁north	-5504
▁franco	-5505
▁zieten	-5506
▁bay	-5507
▁mam	-5508
▁ohar	-5509
▁egongo	-5510
ait	-5511
▁gern	-5512
▁daitekeen	-5513
▁eguzkiarekiko	-5514
▁bud	-5515
▁garaitu	-5516
▁albaitaria	-5517
edo	-5518
▁guduan	-5519
▁elkarrekin	-5520
undo	-5521
▁tut	-5522
engatik	-5523
zi	-5524
▁357	-5525
ulatus	-5526
▁kokatu	-5527
▁eleberri	-5528
▁1952	-5529
▁melan	-5530
▁aztertzen	-5531
▁irudikatzen	-5532
osc	-5533
amend	-5534
▁diseinatu	-5535
▁bag	-5536
▁kilometrora	-5537
ars	-5538
hire	-5539
ibal	-5540
▁1954	-5541
▁mila	-5542
▁berezi	-5543
▁uharteak	-5544
▁soft	-5545
▁estrein	-5546
▁musikag	-5547
▁kh	-5548
▁349	-5549
▁armen	-5550
▁atmos	-5551
▁eragile	-5552
karian	-5553
▁…	-5554
rea	-5555
▁hyl	-5556
▁liteke	-5557
▁zuzena	-5558
▁kin	-5559
▁lir	-5560
▁blok	-5561
▁etorkizun	-5562
▁jarraituz	-5563
▁henrik	-5564
ºkoa	-5565
errak	-5566
▁azkar	-5567
▁ardatz	-5568
▁autoeskolak	-5569
▁354	-5570
▁berezko	-5571
thal	-5572
ologo	-5573
▁ezer	-5574
▁color	-5575
▁grande	-5576
▁batezbeste	-5577
bad	-5578
ben	-5579
▁ange	-5580
▁hitu	-5581
▁txapeldun	-5582
▁katalan	-5583
▁boz	-5584
▁1941	-5585
▁haiek	-5586
▁michel	-5587
aldiaren	-5588
▁sizil	-5589
▁aben	-5590
erry	-5591
omor	-5592
▁659	-5593
▁erakar	-5594
▁handitu	-5595
▁359	-5596
▁hazkunde	-5597
kov	-5598
▁270	-5599
▁adar	-5600
mit	-5601
▁bidezko	-5602
▁eng	-5603
▁uako	-5604
▁210	-5605
▁kil	-5606
▁oklahoma	-5607
reg	-5608
▁absolutoa	-5609
▁aipatutako	-5610
doa	-5611
▁351	-5612
▁zuzendariak	-5613
▁batasuna	-5614
oni	-5615
▁arrazoi	-5616
uro	-5617
odont	-5618
▁estim	-5619
▁neska	-5620
▁betiko	-5621
▁baliabide	-5622
▁232	-5623
ailak	-5624
▁1932	-5625
▁1938	-5626
▁hurruntze	-5627
alais	-5628
▁1918	-5629
▁fik	-5630
tol	-5631
▁aktib	-5632
chi	-5633
oth	-5634
▁sug	-5635
▁esc	-5636
▁dantza	-5637
▁osatuta	-5638
▁sed	-5639
▁arma	-5640
▁zaie	-5641
▁agintari	-5642
▁baiez	-5643
▁nagusien	-5644
▁garona	-5645
▁iberiar	-5646
▁direnean	-5647
▁358	-5648
▁1949	-5649
▁gehienbat	-5650
▁planeta	-5651
▁diputatu	-5652
▁ann	-5653
ju	-5654
▁ran	-5655
▁hartzea	-5656
▁657	-5657
▁fres	-5658
▁disol	-5659
▁oinarritutako	-5660
▁alj	-5661
▁garaiera	-5662
▁erabiltzaile	-5663
lia	-5664
▁sous	-5665
▁zaila	-5666
▁jaurlar	-5667
▁1951	-5668
▁saltok	-5669
▁kode	-5670
▁aktorea	-5671
▁stre	-5672
mis	-5673
▁sakr	-5674
▁hiper	-5675
▁ordutik	-5676
▁342	-5677
▁ziz	-5678
lis	-5679
▁1946	-5680
aldiko	-5681
▁saone	-5682
onan	-5683
bentz	-5684
▁1917	-5685
▁antzerk	-5686
▁win	-5687
▁227	-5688
▁1955	-5689
▁cham	-5690
▁urtea	-5691
▁azpimarr	-5692
▁651	-5693
▁eras	-5694
▁scincidae	-5695
▁631	-5696
▁raf	-5697
▁metr	-5698
▁supermerkatuak	-5699
▁serb	-5700
▁jarraipen	-5701
iff	-5702
tala	-5703
shire	-5704
▁zulo	-5705
▁tim	-5706
▁kantu	-5707
itariak	-5708
▁izenaz	-5709
▁konposatu	-5710
tic	-5711
▁igor	-5712
▁final	-5713
▁zutabe	-5714
▁231	-5715
▁glob	-5716
▁gehienek	-5717
▁hegazti	-5718
▁aipatzeko	-5719
▁203	-5720
▁1942	-5721
▁moselle	-5722
▁zientzial	-5723
▁dro	-5724
▁udalerriak	-5725
▁irlanderaz	-5726
▁biho	-5727
izkion	-5728
▁ukrain	-5729
▁herbehere	-5730
uy	-5731
▁das	-5732
▁ramon	-5733
▁sw	-5734
▁sud	-5735
▁mold	-5736
▁union	-5737
▁segurtasun	-5738
▁205	-5739
▁elizaren	-5740
▁bestea	-5741
▁gatazka	-5742
▁liv	-5743
▁jauregi	-5744
▁bazuen	-5745
▁elkarren	-5746
▁spr	-5747
raren	-5748
▁manifes	-5749
▁wor	-5750
▁brun	-5751
▁aplikazio	-5752
▁erregimen	-5753
▁ec	-5754
ines	-5755
▁ordezkari	-5756
▁277	-5757
▁ahoskatua	-5758
▁dorrea	-5759
▁istr	-5760
▁bigarrena	-5761
▁bartzelonako	-5762
▁208	-5763
iceps	-5764
▁zalantz	-5765
▁hap	-5766
iop	-5767
▁268	-5768
▁ahol	-5769
▁279	-5770
▁tak	-5771
▁green	-5772
▁zuri	-5773
ert	-5774
▁fara	-5775
▁lurrin	-5776
▁integr	-5777
kako	-5778
aburu	-5779
▁berro	-5780
▁bikain	-5781
▁deitur	-5782
▁iraupen	-5783
itia	-5784
▁heb	-5785
▁garatzen	-5786
▁phyl	-5787
▁martxan	-5788
▁kostaldean	-5789
▁vall	-5790
ogen	-5791
▁berresk	-5792
rus	-5793
▁emanez	-5794
▁°	-5795
▁piz	-5796
▁1935	-5797
▁aldarrikatu	-5798
▁zitzaien	-5799
▁port	-5800
▁zuria	-5801
mut	-5802
▁kansas	-5803
▁madrilen	-5804
▁selekzio	-5805
▁proiektua	-5806
▁1953	-5807
imantis	-5808
▁gutxienez	-5809
aztea	-5810
▁gael	-5811
▁gaztea	-5812
▁teknik	-5813
▁212	-5814
▁pra	-5815
▁orkes	-5816
ioren	-5817
▁prote	-5818
▁eskolan	-5819
▁danim	-5820
▁jatorri	-5821
arritako	-5822
▁nekazar	-5823
▁ardura	-5824
▁itzultz	-5825
▁txan	-5826
▁urteen	-5827
▁hit	-5828
takoa	-5829
▁sand	-5830
▁pab	-5831
▁veg	-5832
cher	-5833
lepis	-5834
▁yo	-5835
alax	-5836
▁225	-5837
▁bois	-5838
▁urak	-5839
▁presio	-5840
▁eaj	-5841
▁dirud	-5842
▁282	-5843
▁pristimantis	-5844
itas	-5845
▁320	-5846
dan	-5847
leta	-5848
rako	-5849
atib	-5850
ctus	-5851
▁nar	-5852
▁roy	-5853
▁eran	-5854
▁kongres	-5855
▁gertaera	-5856
▁gobiidae	-5857
▁cichlidae	-5858
▁bederatzi	-5859
▁onena	-5860
osten	-5861
▁errug	-5862
▁datuak	-5863
▁napole	-5864
▁berreskuratu	-5865
▁632	-5866
▁buz	-5867
▁izotz	-5868
port	-5869
▁1944	-5870
▁dikta	-5871
▁tennes	-5872
▁ekialdera	-5873
ment	-5874
▁1929	-5875
▁departamenduko	-5876
▁236	-5877
▁1933	-5878
izioak	-5879
▁garag	-5880
▁edizio	-5881
▁mugimendua	-5882
cer	-5883
▁nit	-5884
▁set	-5885
▁zibila	-5886
orax	-5887
▁koor	-5888
▁zon	-5889
ibe	-5890
delo	-5891
▁antzin	-5892
▁res	-5893
▁champ	-5894
▁hosto	-5895
▁fro	-5896
▁buel	-5897
▁nabarmentzen	-5898
ilis	-5899
▁bus	-5900
olako	-5901
▁abertzale	-5902
oper	-5903
▁jauz	-5904
intzan	-5905
▁femin	-5906
▁legez	-5907
▁prin	-5908
▁apezpik	-5909
▁lanaren	-5910
▁ern	-5911
▁augus	-5912
▁dabil	-5913
▁egonkor	-5914
arro	-5915
▁errek	-5916
▁erakundeak	-5917
idoa	-5918
▁880	-5919
▁map	-5920
▁gonz	-5921
▁post	-5922
▁ahala	-5923
▁itxi	-5924
▁dezak	-5925
▁angeles	-5926
▁albaitariak	-5927
unt	-5928
▁aberas	-5929
▁irudik	-5930
▁denboraldi	-5931
▁euskarazko	-5932
▁falta	-5933
▁horma	-5934
▁teknologia	-5935
▁gizaki	-5936
bidean	-5937
▁li	-5938
opol	-5939
▁aitaren	-5940
▁indiako	-5941
▁arrak	-5942
▁konpainia	-5943
ax	-5944
▁221	-5945
▁432	-5946
▁ath	-5947
▁seb	-5948
▁229	-5949
▁estatuaren	-5950
osus	-5951
▁epe	-5952
▁baitziren	-5953
▁431	-5954
▁ezp	-5955
ikoek	-5956
▁hazten	-5957
▁exek	-5958
▁izana	-5959
▁halako	-5960
▁berrera	-5961
▁332	-5962
▁859	-5963
▁sines	-5964
▁arloan	-5965
ani	-5966
▁zuenez	-5967
▁prestatu	-5968
▁gasteizko	-5969
gus	-5970
iros	-5971
ces	-5972
▁278	-5973
▁isol	-5974
▁posib	-5975
▁eskal	-5976
▁hidro	-5977
▁gitarra	-5978
▁liburuak	-5979
kera	-5980
ks	-5981
▁wood	-5982
▁henry	-5983
▁erregul	-5984
▁ali	-5985
▁hop	-5986
▁lopez	-5987
▁maritime	-5988
ilio	-5989
▁kontzeptu	-5990
▁hyp	-5991
▁irudia	-5992
▁armadak	-5993
cio	-5994
▁peter	-5995
itzari	-5996
▁zeram	-5997
▁bea	-5998
▁porta	-5999
▁hauta	-6000
▁javier	-6001
arrezkoa	-6002
tto	-6003
tiar	-6004
▁musikari	-6005
▁ax	-6006
▁makina	-6007
▁berarekin	-6008
▁ilarg	-6009
▁erregina	-6010
▁gobernua	-6011
▁basel	-6012
▁barneko	-6013
▁eraikia	-6014
▁ikuspegi	-6015
▁572	-6016
▁massa	-6017
▁autobus	-6018
▁gaztelu	-6019
▁ingurune	-6020
kalek	-6021
▁1919	-6022
kun	-6023
andez	-6024
▁begi	-6025
▁alfon	-6026
▁ezagunena	-6027
▁izendatzeko	-6028
▁mendebaldera	-6029
▁abel	-6030
▁xabier	-6031
▁ariz	-6032
▁bort	-6033
▁mendiak	-6034
bro	-6035
tazioa	-6036
▁lepor	-6037
▁langileen	-6038
▁cir	-6039
idoak	-6040
▁bavar	-6041
▁266	-6042
uzko	-6043
▁869	-6044
▁laku	-6045
▁kokatutako	-6046
etikoa	-6047
▁geograf	-6048
izial	-6049
ariidae	-6050
▁bizimo	-6051
ideko	-6052
▁haiz	-6053
▁domina	-6054
▁hiriburuan	-6055
yren	-6056
▁proba	-6057
▁blu	-6058
▁espek	-6059
▁fan	-6060
▁urdin	-6061
▁irudiak	-6062
▁idazlearen	-6063
▁aditu	-6064
▁konplexu	-6065
▁orokorra	-6066
lop	-6067
▁milaka	-6068
▁620	-6069
▁analis	-6070
▁hitzarmen	-6071
tatus	-6072
bio	-6073
▁216	-6074
▁adiera	-6075
▁arkansas	-6076
par	-6077
▁txer	-6078
▁550	-6079
▁pob	-6080
▁eure	-6081
▁colum	-6082
▁handiaren	-6083
▁barb	-6084
▁antzekoa	-6085
▁eraikitzeko	-6086
tuna	-6087
▁mala	-6088
▁gorria	-6089
▁indian	-6090
▁jarraian	-6091
▁marx	-6092
▁lombardia	-6093
och	-6094
▁aske	-6095
▁egunkari	-6096
▁saio	-6097
▁zituzte	-6098
emus	-6099
trak	-6100
▁lub	-6101
izena	-6102
▁henrike	-6103
▁eramaten	-6104
urako	-6105
▁generoa	-6106
▁babesa	-6107
▁zubi	-6108
▁eraikitako	-6109
▁mi	-6110
▁batena	-6111
▁garrantzitsuak	-6112
▁gales	-6113
▁minas	-6114
▁mississ	-6115
▁katedrala	-6116
▁joaten	-6117
▁ordezk	-6118
▁militarra	-6119
yx	-6120
▁ass	-6121
agaiak	-6122
▁instal	-6123
▁537	-6124
▁texasko	-6125
arrarekin	-6126
▁elkartu	-6127
▁espedizio	-6128
eus	-6129
iter	-6130
▁filmak	-6131
▁zehazki	-6132
▁elkarriz	-6133
eba	-6134
▁mid	-6135
▁orn	-6136
mendi	-6137
▁ekoizten	-6138
▁teknologiko	-6139
low	-6140
▁539	-6141
▁nu	-6142
▁234	-6143
▁vie	-6144
▁ospea	-6145
▁534	-6146
▁mississip	-6147
xi	-6148
itis	-6149
amendua	-6150
tte	-6151
▁pair	-6152
▁mendetik	-6153
▁eskubidea	-6154
▁txikiagoa	-6155
▁erakusketa	-6156
▁beharrezkoa	-6157
▁espezi	-6158
▁310	-6159
▁britainia	-6160
▁tour	-6161
▁poeta	-6162
▁zaharren	-6163
▁sau	-6164
▁piez	-6165
goen	-6166
▁pare	-6167
hi	-6168
▁ces	-6169
▁ziklo	-6170
▁fikzio	-6171
entziaren	-6172
ycon	-6173
▁konkista	-6174
▁zes	-6175
▁ezartzen	-6176
▁847	-6177
▁diz	-6178
▁fen	-6179
▁kostaldeko	-6180
ross	-6181
▁udab	-6182
▁dublin	-6183
▁iragan	-6184
▁desegin	-6185
tah	-6186
illon	-6187
▁erraza	-6188
▁viii	-6189
alderantz	-6190
ji	-6191
hem	-6192
▁opera	-6193
▁aitzind	-6194
▁207	-6195
orro	-6196
▁gene	-6197
▁azterketa	-6198
▁proven	-6199
▁kontsul	-6200
iti	-6201
mak	-6202
▁begira	-6203
▁eskand	-6204
tapen	-6205
▁prefek	-6206
▁mineral	-6207
rib	-6208
▁kem	-6209
▁guad	-6210
▁tokiko	-6211
▁bakterio	-6212
icola	-6213
tzeari	-6214
▁edizioa	-6215
▁eztabaida	-6216
▁asmoa	-6217
▁proto	-6218
▁ekimen	-6219
▁bakoitzaren	-6220
▁512	-6221
▁540	-6222
▁mugan	-6223
orren	-6224
istako	-6225
teria	-6226
▁hama	-6227
▁atzetik	-6228
▁zabaltzen	-6229
▁260	-6230
illers	-6231
▁223	-6232
▁vinc	-6233
▁filip	-6234
enteak	-6235
▁leher	-6236
▁tolos	-6237
▁1922	-6238
ono	-6239
▁560	-6240
▁joa	-6241
▁laz	-6242
▁hern	-6243
▁zeukan	-6244
▁alabama	-6245
▁elkarteak	-6246
etts	-6247
▁adin	-6248
▁jor	-6249
agako	-6250
▁goren	-6251
▁geruza	-6252
▁bizantz	-6253
▁tennessee	-6254
ifor	-6255
▁kritika	-6256
▁alc	-6257
▁soc	-6258
▁wes	-6259
▁orri	-6260
abel	-6261
ales	-6262
▁salv	-6263
▁nord	-6264
▁poesia	-6265
▁molekul	-6266
▁dezakete	-6267
abor	-6268
▁654	-6269
▁zentral	-6270
▁hauetako	-6271
▁zeharkatu	-6272
▁noiz	-6273
els	-6274
▁536	-6275
▁llan	-6276
▁ordo	-6277
▁hog	-6278
▁ahalegin	-6279
▁gera	-6280
▁gregor	-6281
aire	-6282
▁sah	-6283
▁natura	-6284
▁txinera	-6285
▁gainetik	-6286
▁berriaren	-6287
▁eski	-6288
▁jatorriz	-6289
▁ohor	-6290
▁black	-6291
ostoma	-6292
▁erbester	-6293
▁dituztenak	-6294
rez	-6295
▁oph	-6296
▁arth	-6297
▁pale	-6298
▁batik	-6299
▁hidrog	-6300
▁nerbio	-6301
▁beherea	-6302
▁donostian	-6303
▁bok	-6304
▁harlan	-6305
▁242	-6306
▁fes	-6307
▁zutenak	-6308
fera	-6309
ites	-6310
▁ful	-6311
iturik	-6312
▁lux	-6313
▁lehiaketa	-6314
▁276	-6315
▁jaioa	-6316
▁trich	-6317
▁idazkari	-6318
▁gainaz	-6319
▁kideak	-6320
▁gainbeh	-6321
▁lantzen	-6322
▁eskultura	-6323
lops	-6324
▁ahul	-6325
izkunde	-6326
▁pasatzen	-6327
▁elis	-6328
▁kons	-6329
▁219	-6330
erari	-6331
▁sask	-6332
▁taula	-6333
ui	-6334
▁gunea	-6335
▁batuko	-6336
▁lasterketa	-6337
▁udalerritik	-6338
▁206	-6339
▁erori	-6340
▁emango	-6341
▁honakoak	-6342
▁tintoreria	-6343
▁biztanleriaren	-6344
ow	-6345
rid	-6346
▁430	-6347
▁fatxada	-6348
▁hegoaldera	-6349
▁sistemaren	-6350
hel	-6351
▁gin	-6352
▁zatia	-6353
oek	-6354
▁ler	-6355
▁murg	-6356
▁erabilitako	-6357
▁209	-6358
▁1943	-6359
▁marc	-6360
▁gaztelania	-6361
▁kn	-6362
▁547	-6363
▁red	-6364
ornis	-6365
▁piem	-6366
▁gaiak	-6367
▁infek	-6368
▁gaitasun	-6369
gur	-6370
▁hirig	-6371
▁226	-6372
▁erref	-6373
▁arraun	-6374
▁gordetzen	-6375
gana	-6376
ynchus	-6377
▁istrip	-6378
▁tenplu	-6379
▁sartzeko	-6380
▁aldaketak	-6381
▁muin	-6382
▁irits	-6383
▁zabalera	-6384
onim	-6385
▁241	-6386
▁ahots	-6387
▁gailu	-6388
▁ilustr	-6389
▁izanda	-6390
▁probabil	-6391
▁312	-6392
▁567	-6393
toren	-6394
▁oliv	-6395
▁south	-6396
▁sozialista	-6397
▁gorri	-6398
▁burgos	-6399
▁berroge	-6400
▁510	-6401
▁itzulia	-6402
▁armadaren	-6403
▁542	-6404
andar	-6405
itara	-6406
▁herrialdea	-6407
▁214	-6408
▁538	-6409
▁espir	-6410
▁lurraz	-6411
▁ekialde	-6412
▁substan	-6413
▁1928	-6414
▁eguneroko	-6415
▁561	-6416
▁568	-6417
▁dim	-6418
▁ints	-6419
▁babesteko	-6420
▁558	-6421
▁tenpl	-6422
berdina	-6423
▁ain	-6424
▁buruan	-6425
▁denboraldian	-6426
▁cour	-6427
▁udan	-6428
lina	-6429
▁txak	-6430
idan	-6431
▁218	-6432
▁dirua	-6433
▁kalean	-6434
▁monark	-6435
▁zuzendaritza	-6436
▁552	-6437
▁him	-6438
▁274	-6439
ilari	-6440
urraren	-6441
▁gutxien	-6442
▁maisu	-6443
▁nahian	-6444
▁ordenagailu	-6445
loa	-6446
▁alm	-6447
alari	-6448
teren	-6449
▁batuen	-6450
▁horretatik	-6451
▁diseinu	-6452
tikoak	-6453
▁arduratzen	-6454
▁211	-6455
▁hamarka	-6456
▁kanadan	-6457
▁konda	-6458
▁atzean	-6459
▁garaiak	-6460
▁saiakera	-6461
▁baitzuten	-6462
▁eragindako	-6463
▁rol	-6464
▁gizater	-6465
▁wa	-6466
▁nego	-6467
▁arrunta	-6468
▁beraren	-6469
▁217	-6470
▁papera	-6471
▁ordaindu	-6472
txako	-6473
▁negoz	-6474
▁antzok	-6475
▁ezizen	-6476
▁mugikor	-6477
teen	-6478
▁271	-6479
▁aitor	-6480
▁massachus	-6481
▁ingalaterra	-6482
▁235	-6483
▁parrokia	-6484
▁daitezkeen	-6485
▁281	-6486
▁erald	-6487
▁bavariako	-6488
▁erabiltzeko	-6489
onso	-6490
▁praktik	-6491
▁bartzelona	-6492
iph	-6493
▁287	-6494
▁tem	-6495
▁eser	-6496
apelle	-6497
▁biolog	-6498
fre	-6499
iceko	-6500
▁esplor	-6501
▁gehieg	-6502
tino	-6503
▁amb	-6504
▁lez	-6505
▁komiki	-6506
▁ordur	-6507
▁kargua	-6508
▁sebast	-6509
▁doktore	-6510
▁izendatua	-6511
▁252	-6512
▁gorp	-6513
▁uhin	-6514
aletan	-6515
▁faktore	-6516
▁maryland	-6517
▁banaturik	-6518
▁publikoak	-6519
lat	-6520
▁308	-6521
▁entzun	-6522
▁horrelako	-6523
▁411	-6524
▁xen	-6525
▁kontzertu	-6526
▁548	-6527
▁arabiar	-6528
▁alfontso	-6529
elak	-6530
itor	-6531
▁borough	-6532
▁570	-6533
▁690	-6534
▁chara	-6535
tion	-6536
▁559	-6537
tekin	-6538
▁senide	-6539
cako	-6540
▁692	-6541
▁etapa	-6542
▁hipotes	-6543
▁burutzen	-6544
▁gizakiaren	-6545
▁mendilerroa	-6546
alu	-6547
▁848	-6548
▁goz	-6549
▁psiki	-6550
▁gizateriaren	-6551
old	-6552
isen	-6553
otan	-6554
▁txapelketan	-6555
▁massachusetts	-6556
iat	-6557
▁harag	-6558
▁erroma	-6559
▁zubero	-6560
ike	-6561
pon	-6562
▁275	-6563
ezen	-6564
▁736	-6565
▁espor	-6566
▁estud	-6567
▁aldaera	-6568
▁laguntzen	-6569
▁partida	-6570
▁charente	-6571
▁322	-6572
▁1921	-6573
▁flav	-6574
▁zaharrena	-6575
▁fra	-6576
▁eboluz	-6577
▁bestela	-6578
▁557	-6579
▁chic	-6580
▁gom	-6581
▁1925	-6582
yi	-6583
tig	-6584
▁326	-6585
▁551	-6586
▁ore	-6587
▁pont	-6588
▁569	-6589
▁sto	-6590
▁noble	-6591
▁nolaba	-6592
▁partik	-6593
azen	-6594
▁zatik	-6595
▁zerikus	-6596
ophus	-6597
▁ziteke	-6598
nis	-6599
▁egite	-6600
▁karbono	-6601
▁teknolog	-6602
gune	-6603
▁lon	-6604
▁bideo	-6605
▁euskad	-6606
imin	-6607
▁postuan	-6608
▁molekula	-6609
▁ikuspuntu	-6610
▁zuzenbide	-6611
▁bav	-6612
▁ote	-6613
▁ric	-6614
iforme	-6615
▁562	-6616
▁bilba	-6617
▁336	-6618
iazio	-6619
▁1926	-6620
▁kore	-6621
▁ipuin	-6622
▁smith	-6623
▁eraztun	-6624
▁hiritik	-6625
iarik	-6626
▁artx	-6627
▁truk	-6628
▁alkat	-6629
▁direlako	-6630
▁inauguratu	-6631
▁nagusiaren	-6632
▁berdina	-6633
gio	-6634
▁dos	-6635
▁mau	-6636
▁scott	-6637
▁acanth	-6638
▁borrok	-6639
tle	-6640
▁ail	-6641
▁dial	-6642
▁jarraitzaile	-6643
▁309	-6644
▁dipl	-6645
▁protagonista	-6646
win	-6647
▁aski	-6648
▁sorrera	-6649
▁244	-6650
▁old	-6651
▁legeak	-6652
▁erreakzio	-6653
▁estreinatu	-6654
kiak	-6655
▁donos	-6656
▁julio	-6657
▁berriko	-6658
▁duenean	-6659
▁gizakiak	-6660
▁alboan	-6661
aca	-6662
▁gek	-6663
▁datza	-6664
▁ligako	-6665
▁itzulpen	-6666
▁historikoa	-6667
nan	-6668
▁mm	-6669
▁cad	-6670
▁1912	-6671
▁eska	-6672
▁loir	-6673
▁eleberrian	-6674
▁existitzen	-6675
telako	-6676
▁altern	-6677
▁852	-6678
ister	-6679
▁bana	-6680
▁roman	-6681
esek	-6682
▁flo	-6683
▁ezinbesteko	-6684
▁215	-6685
idako	-6686
▁azur	-6687
iagatik	-6688
▁rod	-6689
▁bilbon	-6690
▁dioten	-6691
▁propieta	-6692
ket	-6693
aran	-6694
▁egitera	-6695
▁argitale	-6696
▁gogo	-6697
▁basam	-6698
▁ekonomikoa	-6699
ox	-6700
▁cten	-6701
erarekin	-6702
▁zerbitzuak	-6703
▁marie	-6704
▁eskubideak	-6705
▁629	-6706
▁baden	-6707
▁nebraska	-6708
▁gatz	-6709
▁menpe	-6710
▁asiako	-6711
▁provence	-6712
▁adierazpen	-6713
▁hauteskundeak	-6714
▁648	-6715
▁1923	-6716
▁paus	-6717
▁marka	-6718
cal	-6719
igne	-6720
▁nas	-6721
ituko	-6722
▁gudu	-6723
▁ron	-6724
oniako	-6725
▁347	-6726
▁dram	-6727
▁turki	-6728
ski	-6729
▁bit	-6730
tzeaz	-6731
▁marko	-6732
arazten	-6733
▁altuena	-6734
▁batasunaren	-6735
▁argitaratutako	-6736
▁cyr	-6737
▁bizitzera	-6738
▁finlandiako	-6739
▁sinpl	-6740
▁harremana	-6741
▁251	-6742
▁868	-6743
▁king	-6744
▁lurper	-6745
▁719	-6746
▁itxar	-6747
▁demokr	-6748
▁esanahi	-6749
atiboa	-6750
arrizko	-6751
▁213	-6752
tzeak	-6753
▁urtetan	-6754
▁publikoa	-6755
▁mediterrane	-6756
▁564	-6757
▁kud	-6758
▁muino	-6759
dioa	-6760
itak	-6761
▁hill	-6762
▁koal	-6763
▁bezero	-6764
▁telesail	-6765
bete	-6766
eron	-6767
abeak	-6768
▁1927	-6769
▁lurmut	-6770
▁gaitasuna	-6771
▁325	-6772
▁eka	-6773
▁afrikan	-6774
▁folk	-6775
ikaren	-6776
▁valentziako	-6777
▁xeh	-6778
▁zurr	-6779
▁zerbait	-6780
▁kazetari	-6781
iaga	-6782
▁cop	-6783
▁war	-6784
▁pisu	-6785
erekin	-6786
▁hamabi	-6787
nathus	-6788
▁profesionala	-6789
▁zapal	-6790
lad	-6791
▁afrika	-6792
moa	-6793
agan	-6794
▁rec	-6795
▁ekid	-6796
▁araba	-6797
▁itsasoa	-6798
▁direlarik	-6799
▁errepublikaren	-6800
▁608	-6801
▁elur	-6802
▁altua	-6803
▁dioen	-6804
azional	-6805
▁hetero	-6806
▁kontrola	-6807
psis	-6808
keten	-6809
▁alko	-6810
▁erlo	-6811
▁espetx	-6812
▁gogorra	-6813
▁unibertsitatea	-6814
▁549	-6815
▁tokia	-6816
▁historiako	-6817
▁ti	-6818
▁klase	-6819
▁jaitsi	-6820
▁jainkoaren	-6821
▁sortzailea	-6822
ryne	-6823
ede	-6824
▁1914	-6825
▁oise	-6826
▁dugun	-6827
▁poema	-6828
▁daniel	-6829
oro	-6830
atsua	-6831
▁argital	-6832
▁eleberria	-6833
▁izateagatik	-6834
▁nin	-6835
▁minutu	-6836
▁nagusietako	-6837
▁tintoreriak	-6838
▁ut	-6839
▁aud	-6840
▁leiho	-6841
▁suediako	-6842
▁820	-6843
erazko	-6844
▁sirak	-6845
ef	-6846
▁princ	-6847
▁gauzak	-6848
▁joateko	-6849
▁dezakegu	-6850
bal	-6851
▁anat	-6852
▁golko	-6853
etarikoa	-6854
▁banda	-6855
itta	-6856
rich	-6857
ilidae	-6858
▁filipe	-6859
▁positibo	-6860
▁bizitzaren	-6861
doko	-6862
▁849	-6863
ulako	-6864
▁554	-6865
▁842	-6866
▁ertz	-6867
gabeko	-6868
tasunean	-6869
▁konbentz	-6870
▁beharrean	-6871
bre	-6872
▁1924	-6873
▁kontinen	-6874
▁laguntzaile	-6875
▁580	-6876
▁inbad	-6877
▁jolas	-6878
▁valle	-6879
opterus	-6880
▁andaluz	-6881
cr	-6882
▁bereziak	-6883
ehun	-6884
▁737	-6885
▁bater	-6886
▁alpes	-6887
▁erresistentzia	-6888
mel	-6889
▁bek	-6890
▁fland	-6891
▁horretaz	-6892
▁piemonte	-6893
▁basamortu	-6894
▁quebeceko	-6895
▁belar	-6896
▁nagusian	-6897
▁partaide	-6898
▁337	-6899
▁kantabr	-6900
▁erlazion	-6901
adia	-6902
▁topatu	-6903
iloba	-6904
tario	-6905
▁komand	-6906
▁lotutako	-6907
inger	-6908
▁corn	-6909
▁modelo	-6910
▁squ	-6911
▁bell	-6912
▁tokian	-6913
▁eskuetan	-6914
▁maitasun	-6915
▁pur	-6916
▁east	-6917
untzen	-6918
▁gurutze	-6919
▁posible	-6920
▁319	-6921
▁dic	-6922
▁berde	-6923
▁eugen	-6924
▁zigorra	-6925
▁292	-6926
▁628	-6927
▁734	-6928
▁mill	-6929
▁giltz	-6930
atzearen	-6931
▁kentucky	-6932
col	-6933
main	-6934
▁sax	-6935
▁diametro	-6936
▁gymn	-6937
▁buruj	-6938
ack	-6939
▁256	-6940
▁pren	-6941
▁antar	-6942
▁defentsa	-6943
▁illinoiseko	-6944
▁egoten	-6945
▁tenperatur	-6946
gol	-6947
lep	-6948
tip	-6949
▁248	-6950
▁danimark	-6951
▁saihes	-6952
atzat	-6953
▁iparraldera	-6954
jan	-6955
akul	-6956
▁cra	-6957
atuan	-6958
▁marin	-6959
▁718	-6960
▁2019	-6961
tziaren	-6962
▁adierazteko	-6963
▁870	-6964
▁abok	-6965
▁zigor	-6966
▁egokia	-6967
▁arrantza	-6968
non	-6969
▁aginp	-6970
▁oinarria	-6971
▁baxua	-6972
itmo	-6973
ailua	-6974
▁mendea	-6975
oh	-6976
pez	-6977
sch	-6978
▁311	-6979
oveko	-6980
▁prus	-6981
▁batzar	-6982
▁dituela	-6983
▁itsasontzi	-6984
▁aul	-6985
▁denak	-6986
▁konbin	-6987
▁jasaten	-6988
▁dokumentu	-6989
▁317	-6990
▁cur	-6991
▁hari	-6992
▁saltoki	-6993
▁582	-6994
tatzea	-6995
▁kimiko	-6996
iarraren	-6997
▁627	-6998
▁garaik	-6999
▁babestu	-7000
▁1910	-7001
▁apro	-7002
▁igar	-7003
▁687	-7004
▁1900	-7005
▁zerg	-7006
hausen	-7007
tarren	-7008
▁frogatu	-7009
▁emakumea	-7010
ame	-7011
▁747	-7012
▁bira	-7013
▁maroko	-7014
▁667	-7015
▁668	-7016
▁erail	-7017
▁alorre	-7018
▁postua	-7019
▁herbeher	-7020
agua	-7021
▁esn	-7022
▁fri	-7023
▁anal	-7024
▁eratorr	-7025
▁itsasoaren	-7026
inda	-7027
▁sierra	-7028
▁partikul	-7029
▁283	-7030
▁udalak	-7031
▁duelarik	-7032
▁273	-7033
▁montana	-7034
▁itur	-7035
▁mosku	-7036
▁erakundea	-7037
ild	-7038
acio	-7039
▁anth	-7040
▁kapita	-7041
▁lehenik	-7042
ican	-7043
▁baxu	-7044
▁hend	-7045
▁galax	-7046
▁margar	-7047
▁zituenean	-7048
iod	-7049
pec	-7050
sin	-7051
▁garbi	-7052
▁aux	-7053
▁mete	-7054
▁biribil	-7055
▁teil	-7056
▁haietan	-7057
▁lurraldeak	-7058
▁717	-7059
▁biek	-7060
▁artif	-7061
▁urrian	-7062
▁lortutako	-7063
ares	-7064
▁249	-7065
▁264	-7066
▁automat	-7067
▁377	-7068
▁nau	-7069
▁karga	-7070
▁lepto	-7071
▁oztop	-7072
▁torre	-7073
▁kolabor	-7074
▁erabateko	-7075
▁607	-7076
▁zak	-7077
▁nova	-7078
▁esparru	-7079
▁285	-7080
▁kle	-7081
astor	-7082
▁aldakor	-7083
▁alemanian	-7084
ituan	-7085
▁cruz	-7086
▁estatis	-7087
▁enperadore	-7088
ange	-7089
▁erretr	-7090
▁330	-7091
▁abenduan	-7092
tti	-7093
▁egiaz	-7094
▁bikote	-7095
▁martinez	-7096
▁garagardo	-7097
▁ll	-7098
▁om	-7099
▁birj	-7100
▁paisa	-7101
▁garaipena	-7102
tolo	-7103
▁inongo	-7104
▁santua	-7105
▁mailara	-7106
▁gainditu	-7107
▁aldizkaria	-7108
piko	-7109
▁pip	-7110
▁kontzej	-7111
zon	-7112
▁jazo	-7113
▁biltz	-7114
▁haize	-7115
▁taber	-7116
▁kartago	-7117
ria	-7118
duak	-7119
▁368	-7120
▁chem	-7121
▁inte	-7122
iantza	-7123
▁inaki	-7124
▁baserr	-7125
▁hiztun	-7126
▁297	-7127
▁nov	-7128
▁lein	-7129
▁minbiz	-7130
▁sistemak	-7131
▁ondorengoa	-7132
▁arrau	-7133
laritza	-7134
▁organo	-7135
▁fernandez	-7136
▁izateaz	-7137
▁biztanleen	-7138
▁uretan	-7139
▁izendapena	-7140
ois	-7141
▁tole	-7142
▁salbu	-7143
▁garapena	-7144
▁beharrezko	-7145
agarriak	-7146
olit	-7147
▁850	-7148
▁labe	-7149
▁postu	-7150
▁fisiko	-7151
▁amo	-7152
▁lot	-7153
▁erron	-7154
▁kau	-7155
▁adam	-7156
▁ezab	-7157
▁ikur	-7158
▁funtsezko	-7159
▁antza	-7160
▁ezberdinetan	-7161
ace	-7162
ifr	-7163
med	-7164
▁liola	-7165
▁azpies	-7166
▁konstituzio	-7167
▁taldearekin	-7168
aduna	-7169
▁cyn	-7170
▁harrizko	-7171
enos	-7172
▁duke	-7173
▁esangur	-7174
▁heltzen	-7175
▁zenetik	-7176
▁borrokan	-7177
paus	-7178
▁esz	-7179
otako	-7180
inguru	-7181
▁diska	-7182
ketetan	-7183
▁barbus	-7184
int	-7185
atsa	-7186
▁334	-7187
▁calais	-7188
▁fase	-7189
▁savo	-7190
▁donib	-7191
habil	-7192
▁apar	-7193
▁bilbao	-7194
▁asturias	-7195
▁kategoria	-7196
▁pertsonen	-7197
wako	-7198
▁479	-7199
lekua	-7200
▁hungar	-7201
▁lekuko	-7202
▁finkatu	-7203
▁heriotzaren	-7204
▁324	-7205
▁paulo	-7206
▁ekainean	-7207
chn	-7208
▁jus	-7209
▁chat	-7210
▁hamarkadetan	-7211
▁etengabe	-7212
▁merkatar	-7213
tone	-7214
▁louisiana	-7215
▁oinordeko	-7216
▁martxoan	-7217
▁490	-7218
▁cat	-7219
ismoan	-7220
▁bizia	-7221
▁zerbitzua	-7222
umo	-7223
itou	-7224
▁518	-7225
▁652	-7226
▁bob	-7227
▁nabig	-7228
▁alderdia	-7229
▁bizkaitar	-7230
▁euskaltzain	-7231
ili	-7232
azten	-7233
uneko	-7234
▁arin	-7235
▁688	-7236
▁1916	-7237
▁ekoizle	-7238
▁gipuzkoar	-7239
▁ahalbidetzen	-7240
▁318	-7241
▁askatu	-7242
▁ahalmen	-7243
▁ezkerreko	-7244
▁margolari	-7245
uela	-7246
▁340	-7247
▁sinple	-7248
▁finantz	-7249
▁aztarnak	-7250
▁colorado	-7251
▁233	-7252
▁antzera	-7253
wan	-7254
▁259	-7255
ioten	-7256
▁viet	-7257
▁kolonia	-7258
▁sorturiko	-7259
▁eraikinaren	-7260
▁txirrindulari	-7261
▁pit	-7262
▁sime	-7263
▁hilob	-7264
▁hartuko	-7265
▁kontinente	-7266
▁berp	-7267
▁datoz	-7268
▁orien	-7269
▁ero	-7270
▁you	-7271
▁aitak	-7272
▁unesc	-7273
▁eduardo	-7274
▁gazteak	-7275
▁estatuak	-7276
▁portugalgo	-7277
▁done	-7278
▁gatazk	-7279
▁italian	-7280
▁246	-7281
▁752	-7282
▁antso	-7283
▁perez	-7284
▁ikusle	-7285
▁errepres	-7286
▁errehabil	-7287
ingu	-7288
▁ematea	-7289
▁baititu	-7290
▁gehiena	-7291
▁istorio	-7292
▁kaliforniako	-7293
▁data	-7294
▁otom	-7295
▁utah	-7296
▁meatz	-7297
▁konpar	-7298
▁handirik	-7299
▁highland	-7300
aden	-7301
▁731	-7302
▁politikoak	-7303
▁290	-7304
▁742	-7305
▁754	-7306
▁londresko	-7307
▁eskubideen	-7308
▁lotu	-7309
▁rodr	-7310
goaren	-7311
▁eskol	-7312
▁arroka	-7313
▁aurkezten	-7314
▁turk	-7315
▁urrut	-7316
▁jendea	-7317
▁amerikan	-7318
▁greziako	-7319
▁mugitzen	-7320
▁hasieratik	-7321
▁argitaratzen	-7322
▁lanen	-7323
▁eskail	-7324
▁gerais	-7325
▁eguneko	-7326
▁ohitura	-7327
▁irailean	-7328
▁nagusitu	-7329
alar	-7330
▁245	-7331
▁estrop	-7332
▁duelako	-7333
▁mendiaren	-7334
▁lurraldean	-7335
▁truke	-7336
ostomus	-7337
▁255	-7338
▁284	-7339
kanaka	-7340
▁ituna	-7341
▁portua	-7342
▁album	-7343
▁pablo	-7344
▁sortzea	-7345
▁inperioko	-7346
▁partikula	-7347
ress	-7348
▁257	-7349
▁aileg	-7350
▁poitou	-7351
▁480	-7352
▁jeff	-7353
▁kudeak	-7354
▁sektore	-7355
▁taldeen	-7356
▁kontzeptua	-7357
▁840	-7358
▁urd	-7359
▁738	-7360
▁liberal	-7361
▁protestan	-7362
pel	-7363
▁243	-7364
▁general	-7365
▁monumen	-7366
▁animalien	-7367
▁zinegotzi	-7368
▁herrialdearen	-7369
▁258	-7370
▁yam	-7371
aiaren	-7372
▁kolek	-7373
▁parkea	-7374
▁georges	-7375
▁yorkeko	-7376
▁azkeneko	-7377
obil	-7378
quin	-7379
▁alderantz	-7380
yin	-7381
▁699	-7382
atzak	-7383
korrak	-7384
▁komedia	-7385
oe	-7386
aleen	-7387
▁laburre	-7388
ularis	-7389
etakoak	-7390
▁lankide	-7391
▁hiriburuko	-7392
▁408	-7393
▁697	-7394
▁glas	-7395
▁niko	-7396
▁erromatarren	-7397
▁hag	-7398
▁geltoki	-7399
cas	-7400
artean	-7401
▁funerariak	-7402
▁errehabilitazio	-7403
ife	-7404
ivers	-7405
▁artea	-7406
▁deskribatu	-7407
▁434	-7408
▁669	-7409
aketak	-7410
▁alban	-7411
▁moduko	-7412
▁txarte	-7413
▁kartzel	-7414
▁finantza	-7415
iol	-7416
tral	-7417
atika	-7418
▁jokoak	-7419
▁bertara	-7420
▁517	-7421
▁gris	-7422
▁tiro	-7423
▁chrys	-7424
▁ic	-7425
▁atzerr	-7426
▁naturala	-7427
▁tik	-7428
▁banandu	-7429
▁software	-7430
▁elektriko	-7431
▁ilar	-7432
▁konde	-7433
▁amaren	-7434
▁esanah	-7435
▁fenomeno	-7436
▁proportz	-7437
zor	-7438
▁jota	-7439
tolome	-7440
▁murgil	-7441
▁guztian	-7442
▁zek	-7443
▁asia	-7444
azioen	-7445
▁gonbid	-7446
▁herrig	-7447
isio	-7448
▁sec	-7449
elles	-7450
▁traf	-7451
▁depor	-7452
▁hartz	-7453
▁uraren	-7454
▁fu	-7455
pia	-7456
▁mait	-7457
▁urteak	-7458
▁amaitzen	-7459
▁testuinguru	-7460
▁zirelako	-7461
▁ordenaren	-7462
nik	-7463
uka	-7464
▁ve	-7465
▁klan	-7466
▁sobiet	-7467
irostris	-7468
▁jabetza	-7469
▁elkartzen	-7470
elli	-7471
▁bail	-7472
▁term	-7473
▁plaka	-7474
▁kimikoa	-7475
▁itsasoan	-7476
▁sof	-7477
▁hotel	-7478
▁inbas	-7479
▁rodrigu	-7480
▁ezkontza	-7481
▁plazaratu	-7482
burgh	-7483
▁world	-7484
▁zirelarik	-7485
ses	-7486
▁argazki	-7487
▁kalitate	-7488
utik	-7489
▁247	-7490
▁740	-7491
▁larre	-7492
▁zebil	-7493
▁filmean	-7494
▁erabilia	-7495
▁hizkuntzaren	-7496
cht	-7497
▁mendiz	-7498
▁kanpaina	-7499
▁telesaila	-7500
dt	-7501
▁banak	-7502
▁freder	-7503
ova	-7504
▁batasuneko	-7505
▁franko	-7506
▁colle	-7507
▁ohitur	-7508
▁independente	-7509
▁296	-7510
▁jackson	-7511
▁gonzalez	-7512
▁hun	-7513
▁tub	-7514
▁instr	-7515
▁jaten	-7516
▁jacques	-7517
▁santuaren	-7518
▁lak	-7519
▁thr	-7520
▁ezagunen	-7521
▁gregorio	-7522
chth	-7523
▁409	-7524
▁funtzioa	-7525
▁sav	-7526
hardu	-7527
ikari	-7528
▁egur	-7529
cheilus	-7530
▁auzoak	-7531
▁etxera	-7532
▁pennsylvaniako	-7533
hou	-7534
▁367	-7535
▁artz	-7536
▁sex	-7537
▁debu	-7538
adaren	-7539
▁zutab	-7540
▁azkarra	-7541
▁edward	-7542
▁315	-7543
▁316	-7544
▁cher	-7545
▁cons	-7546
▁batzen	-7547
▁berrien	-7548
▁sailkatu	-7549
lie	-7550
istro	-7551
▁ross	-7552
▁itsasoko	-7553
▁askatasuna	-7554
▁iraultzaren	-7555
agh	-7556
tter	-7557
▁bitan	-7558
▁somme	-7559
▁segundo	-7560
▁dinastia	-7561
atzailearen	-7562
▁inguratzen	-7563
▁739	-7564
▁sinplifik	-7565
▁blo	-7566
▁alfre	-7567
▁felix	-7568
▁fikziozko	-7569
▁emakumezkoen	-7570
▁babesten	-7571
▁ry	-7572
▁but	-7573
▁human	-7574
▁auzoko	-7575
▁koordin	-7576
▁elkarlan	-7577
▁bin	-7578
▁dendro	-7579
▁belgikako	-7580
▁1913	-7581
▁uharteko	-7582
ophryne	-7583
▁aragoiko	-7584
▁294	-7585
atikoa	-7586
▁minister	-7587
▁356	-7588
▁etik	-7589
temberg	-7590
rh	-7591
▁lee	-7592
▁lamp	-7593
▁modura	-7594
▁nahikoa	-7595
▁zerrendan	-7596
giz	-7597
▁cab	-7598
▁dinam	-7599
▁jauna	-7600
▁647	-7601
▁tig	-7602
▁arreta	-7603
▁erruman	-7604
▁chapelle	-7605
▁eraikinak	-7606
▁elkarrizketa	-7607
▁jup	-7608
▁judu	-7609
▁aplik	-7610
▁errio	-7611
▁sekre	-7612
▁supos	-7613
▁mundua	-7614
▁agindua	-7615
▁jainkoa	-7616
▁charentes	-7617
▁bizitzan	-7618
▁alderdiaren	-7619
bako	-7620
▁hogei	-7621
▁gerrak	-7622
▁mendik	-7623
▁sukald	-7624
▁dagokienez	-7625
ilu	-7626
▁fid	-7627
▁erdia	-7628
▁medio	-7629
▁gizona	-7630
▁handiz	-7631
▁berdinak	-7632
▁euskadiko	-7633
duta	-7634
itud	-7635
▁leuc	-7636
▁drama	-7637
▁zentz	-7638
▁bavaria	-7639
▁laburra	-7640
fen	-7641
▁261	-7642
izuna	-7643
▁urtarrilean	-7644
amako	-7645
arriko	-7646
▁che	-7647
▁pian	-7648
▁detek	-7649
igarria	-7650
▁mediku	-7651
▁zaragoz	-7652
itsu	-7653
▁877	-7654
▁ara	-7655
▁lod	-7656
▁one	-7657
▁ildo	-7658
▁arnas	-7659
▁berme	-7660
▁hezur	-7661
▁kuan	-7662
▁gekkon	-7663
▁herritarren	-7664
▁879	-7665
▁ezagutza	-7666
▁gekkonidae	-7667
▁254	-7668
turaren	-7669
▁argitara	-7670
abidea	-7671
▁ligan	-7672
▁harategia	-7673
▁402	-7674
▁lad	-7675
▁trik	-7676
▁johnson	-7677
▁aipagarriak	-7678
▁fig	-7679
▁mald	-7680
▁lurreko	-7681
▁bretainieraz	-7682
▁263	-7683
▁602	-7684
▁onak	-7685
▁chate	-7686
garrien	-7687
▁ezkerr	-7688
▁zaldun	-7689
▁zuriak	-7690
▁emaitzak	-7691
▁terminoa	-7692
▁gertakari	-7693
▁bakea	-7694
▁hango	-7695
▁penintsula	-7696
omo	-7697
tegiak	-7698
▁kolpe	-7699
▁national	-7700
▁bertsolari	-7701
▁ri	-7702
ther	-7703
▁sap	-7704
▁1911	-7705
▁zerga	-7706
▁brasil	-7707
▁abiadur	-7708
▁itxurako	-7709
▁ruf	-7710
▁loric	-7711
▁nolan	-7712
▁steph	-7713
▁ahalmena	-7714
▁rev	-7715
▁uda	-7716
▁hard	-7717
▁brook	-7718
▁erreta	-7719
▁253	-7720
▁344	-7721
eratik	-7722
▁jersey	-7723
▁turing	-7724
▁maiatzean	-7725
▁comp	-7726
▁opos	-7727
▁wurt	-7728
▁derr	-7729
▁mand	-7730
▁definitzen	-7731
▁xurg	-7732
▁enpresaren	-7733
▁erabiltzea	-7734
ute	-7735
▁265	-7736
▁berber	-7737
▁brev	-7738
lariak	-7739
▁antrop	-7740
▁ikusita	-7741
▁intelek	-7742
ault	-7743
▁541	-7744
▁nep	-7745
igile	-7746
▁aldund	-7747
▁ingelesa	-7748
▁ikastetxeetan	-7749
▁698	-7750
▁kokalek	-7751
▁ministroa	-7752
mas	-7753
▁288	-7754
▁antig	-7755
itatean	-7756
▁psikiatr	-7757
▁321	-7758
▁komen	-7759
▁salmen	-7760
▁polonia	-7761
▁elementuak	-7762
uga	-7763
wen	-7764
▁450	-7765
arrari	-7766
▁colub	-7767
▁hilobi	-7768
erodactylus	-7769
ric	-7770
tena	-7771
akizun	-7772
▁craug	-7773
▁oregon	-7774
▁baseliza	-7775
fin	-7776
wick	-7777
▁331	-7778
▁lekuak	-7779
▁hamaika	-7780
▁zitzaizkion	-7781
▁gos	-7782
▁ibn	-7783
ogram	-7784
▁satur	-7785
▁baitzituen	-7786
▁wurttemberg	-7787
▁cel	-7788
▁cob	-7789
▁haplo	-7790
▁314	-7791
▁viv	-7792
osaur	-7793
▁basil	-7794
▁pixkanaka	-7795
▁craugastor	-7796
▁prefektura	-7797
▁typh	-7798
etta	-7799
ateke	-7800
▁aret	-7801
▁azpieg	-7802
▁kanpain	-7803
▁salaman	-7804
▁alokairu	-7805
▁kontxako	-7806
▁giron	-7807
▁hiruko	-7808
▁alderdiko	-7809
nem	-7810
▁262	-7811
zkero	-7812
▁salb	-7813
▁ekolog	-7814
hai	-7815
erna	-7816
▁amaz	-7817
▁konden	-7818
▁pinyin	-7819
▁ospetsuen	-7820
plan	-7821
▁bloke	-7822
▁japonieraz	-7823
▁alts	-7824
▁cryp	-7825
toreak	-7826
▁donosti	-7827
▁donibane	-7828
▁uhartearen	-7829
oy	-7830
zan	-7831
▁900	-7832
arrib	-7833
▁1905	-7834
▁itzal	-7835
▁zuzeneko	-7836
▁calv	-7837
▁chal	-7838
▁ezezag	-7839
▁inolako	-7840
▁bru	-7841
▁tox	-7842
▁alberto	-7843
ates	-7844
▁420	-7845
▁429	-7846
▁579	-7847
▁bulego	-7848
▁filmaren	-7849
▁francois	-7850
▁kontakizun	-7851
enia	-7852
▁298	-7853
▁estua	-7854
▁andres	-7855
san	-7856
uve	-7857
▁730	-7858
itiko	-7859
▁lehenen	-7860
tzeagatik	-7861
▁380	-7862
istikoa	-7863
▁aurren	-7864
▁iowako	-7865
▁adiskide	-7866
▁hyps	-7867
▁sirakus	-7868
▁narrasti	-7869
▁frantsesa	-7870
▁intelektu	-7871
▁harrezkero	-7872
▁295	-7873
▁839	-7874
arretik	-7875
▁rafael	-7876
hun	-7877
▁851	-7878
grafia	-7879
▁austria	-7880
▁handienak	-7881
▁mitologian	-7882
▁zentsoaren	-7883
▁gizartearen	-7884
erg	-7885
aroa	-7886
metan	-7887
▁pata	-7888
tsuena	-7889
▁zintz	-7890
▁gizakien	-7891
cos	-7892
▁488	-7893
▁esklabo	-7894
▁latinez	-7895
▁univers	-7896
igr	-7897
▁urg	-7898
▁abuztuan	-7899
▁mediterran	-7900
itakoa	-7901
atzeari	-7902
opteraren	-7903
▁eres	-7904
▁eskas	-7905
▁gorputza	-7906
▁idazleak	-7907
▁medikuntza	-7908
lossus	-7909
▁ptero	-7910
▁meteor	-7911
▁errusia	-7912
▁gobernatu	-7913
▁pentsamendu	-7914
▁base	-7915
ms	-7916
▁kla	-7917
▁antze	-7918
▁lizentz	-7919
▁732	-7920
▁nac	-7921
itateak	-7922
▁philip	-7923
tzez	-7924
▁323	-7925
▁sac	-7926
▁gurasoak	-7927
▁omentzeko	-7928
▁akats	-7929
▁boliv	-7930
▁jatorriko	-7931
▁ezarritako	-7932
omyc	-7933
peta	-7934
▁gabri	-7935
▁characidae	-7936
ser	-7937
▁caud	-7938
▁klasiko	-7939
▁muturrean	-7940
lac	-7941
odor	-7942
▁espan	-7943
▁pales	-7944
▁tropik	-7945
▁chiropteraren	-7946
▁herbehereetako	-7947
enz	-7948
▁konek	-7949
▁bikaina	-7950
▁indarrean	-7951
fort	-7952
viako	-7953
▁diego	-7954
▁dialek	-7955
▁denboraldia	-7956
▁by	-7957
atia	-7958
▁hum	-7959
▁zaion	-7960
▁lortuz	-7961
▁portugal	-7962
▁iragarri	-7963
▁ohorezko	-7964
▁291	-7965
▁gio	-7966
▁gis	-7967
▁lew	-7968
▁puy	-7969
▁sten	-7970
▁urtearen	-7971
▁mississippi	-7972
dont	-7973
eras	-7974
▁aisne	-7975
▁hobek	-7976
▁bilatzen	-7977
▁herritik	-7978
▁solairuan	-7979
▁norvegiako	-7980
pek	-7981
olde	-7982
▁499	-7983
▁now	-7984
burua	-7985
▁deritzon	-7986
▁hurrenez	-7987
iboa	-7988
▁cul	-7989
▁edin	-7990
▁astronomo	-7991
▁wy	-7992
▁1908	-7993
tarrak	-7994
▁bertso	-7995
▁guardia	-7996
▁itsasor	-7997
▁jur	-7998
▁mina	-7999
▁herrira	-8000
nar	-8001
▁prez	-8002
▁tasa	-8003
yer	-8004
▁750	-8005
azken	-8006
▁espero	-8007
▁sardin	-8008
▁baziren	-8009
▁bereizi	-8010
dam	-8011
tei	-8012
▁nem	-8013
▁zezake	-8014
▁gainbehera	-8015
pha	-8016
▁anitz	-8017
▁zibilaren	-8018
nos	-8019
retik	-8020
▁holly	-8021
▁balitz	-8022
▁ohioko	-8023
▁arizona	-8024
▁txileko	-8025
▁ikasketa	-8026
▁grezieraz	-8027
▁lem	-8028
▁azuk	-8029
aut	-8030
elen	-8031
▁691	-8032
▁buenos	-8033
▁elkartearen	-8034
▁hans	-8035
▁uztar	-8036
telarik	-8037
▁agirre	-8038
▁laurent	-8039
ienne	-8040
▁indus	-8041
▁gauzatu	-8042
▁uztailean	-8043
▁293	-8044
▁301	-8045
▁388	-8046
▁ardo	-8047
▁haitz	-8048
▁athlet	-8049
▁efektu	-8050
▁idazlan	-8051
▁pintura	-8052
▁auzitegi	-8053
▁departamendu	-8054
yidae	-8055
▁salatu	-8056
▁galtzen	-8057
▁penintsulan	-8058
ialdi	-8059
▁dips	-8060
▁hiltzen	-8061
▁aroa	-8062
▁soziala	-8063
dal	-8064
ianus	-8065
▁migr	-8066
▁santo	-8067
▁eginda	-8068
▁azaroan	-8069
▁apirilean	-8070
anak	-8071
▁seguru	-8072
▁antzina	-8073
▁satelite	-8074
▁potentzia	-8075
▁azpi	-8076
▁intsek	-8077
▁tamain	-8078
▁germain	-8079
▁debekatu	-8080
▁327	-8081
▁422	-8082
▁zih	-8083
▁napol	-8084
▁espetxe	-8085
▁traineru	-8086
dul	-8087
▁inten	-8088
▁jaiotza	-8089
▁abestiak	-8090
▁nolanahi	-8091
▁populazio	-8092
▁probintziaren	-8093
▁nom	-8094
ovice	-8095
▁atze	-8096
▁nicol	-8097
▁ugaztun	-8098
▁aurkikuntza	-8099
elek	-8100
idium	-8101
▁1906	-8102
▁etorkin	-8103
▁ty	-8104
▁soin	-8105
▁misio	-8106
▁mendilerroan	-8107
▁671	-8108
▁aginte	-8109
▁baiona	-8110
▁lurrean	-8111
▁berrogeita	-8112
rian	-8113
uzio	-8114
▁872	-8115
▁sarri	-8116
▁mariaren	-8117
▁orkestra	-8118
iso	-8119
▁hin	-8120
▁1907	-8121
▁eskandina	-8122
aw	-8123
urak	-8124
▁cric	-8125
▁ospets	-8126
▁cac	-8127
▁fle	-8128
▁sep	-8129
tegian	-8130
▁oblas	-8131
▁unescok	-8132
▁substantzia	-8133
▁doh	-8134
▁astro	-8135
▁catal	-8136
▁erlazio	-8137
▁sebastian	-8138
▁kulturaren	-8139
ult	-8140
pidae	-8141
ibaloi	-8142
▁drago	-8143
▁galera	-8144
▁berrian	-8145
▁negozio	-8146
▁harremanetan	-8147
▁irr	-8148
▁bosn	-8149
▁doub	-8150
▁zorion	-8151
▁zehaztu	-8152
▁hartutako	-8153
▁jarraipena	-8154
▁deskribatzen	-8155
▁492	-8156
▁522	-8157
ignac	-8158
▁1909	-8159
▁egotea	-8160
▁bestera	-8161
▁saskibaloi	-8162
andro	-8163
▁energ	-8164
▁498	-8165
▁zit	-8166
▁aliatu	-8167
▁herrix	-8168
▁defents	-8169
▁espektro	-8170
▁haietako	-8171
▁laguntzaz	-8172
▁laguntzarekin	-8173
▁egitas	-8174
▁parean	-8175
▁trants	-8176
▁barroko	-8177
▁hizkuntzak	-8178
▁489	-8179
▁fink	-8180
▁mister	-8181
▁zaharberr	-8182
▁maite	-8183
▁ingeni	-8184
▁ignacio	-8185
iru	-8186
durik	-8187
▁bran	-8188
▁difer	-8189
▁irizp	-8190
▁duenez	-8191
▁japoniar	-8192
▁marrazki	-8193
▁psikolog	-8194
bra	-8195
▁328	-8196
▁matr	-8197
▁prest	-8198
▁porrot	-8199
▁aldizkarian	-8200
phy	-8201
▁644	-8202
▁fakul	-8203
▁anolis	-8204
odontidae	-8205
▁lehendakaria	-8206
▁kentz	-8207
▁igoera	-8208
▁pizkunde	-8209
▁erreforma	-8210
▁329	-8211
▁407	-8212
▁ash	-8213
ikara	-8214
▁iruz	-8215
▁kors	-8216
itzailea	-8217
▁fakulta	-8218
▁marrazk	-8219
▁antzekoak	-8220
▁galiziako	-8221
▁364	-8222
▁tald	-8223
▁bizidun	-8224
▁perpaus	-8225
▁seinale	-8226
▁zurezko	-8227
▁abeslaria	-8228
bada	-8229
▁ober	-8230
▁hondarrib	-8231
▁interpretazio	-8232
kien	-8233
▁635	-8234
igarri	-8235
▁lurzor	-8236
tegiaren	-8237
▁sinplifikatuz	-8238
▁751	-8239
▁alta	-8240
▁brand	-8241
idearen	-8242
▁ordura	-8243
▁pasatu	-8244
▁semeak	-8245
▁telefon	-8246
▁zirkuitu	-8247
▁poz	-8248
▁croc	-8249
▁muskul	-8250
▁konstantin	-8251
▁edon	-8252
▁aldea	-8253
▁jaiot	-8254
▁radio	-8255
▁heidel	-8256
▁saiatzen	-8257
▁•	-8258
▁ker	-8259
▁kum	-8260
iekin	-8261
lezko	-8262
▁sekula	-8263
▁eskolak	-8264
▁materia	-8265
▁plataforma	-8266
▁mediterraneo	-8267
▁741	-8268
komun	-8269
▁puer	-8270
▁barrena	-8271
▁gelditzen	-8272
tzun	-8273
▁lut	-8274
▁aman	-8275
▁immun	-8276
▁istil	-8277
ihar	-8278
▁428	-8279
afrik	-8280
▁altzair	-8281
▁ohikoak	-8282
▁komunista	-8283
▁poliziaren	-8284
▁lurraldearen	-8285
akh	-8286
amer	-8287
▁gaiz	-8288
▁errend	-8289
▁302	-8290
▁got	-8291
▁sym	-8292
iarazi	-8293
▁erreka	-8294
▁okupatu	-8295
ikon	-8296
arius	-8297
lanis	-8298
▁1890	-8299
▁abanta	-8300
▁nukleo	-8301
▁haserre	-8302
▁hegoafrik	-8303
▁hondartza	-8304
arki	-8305
▁baitute	-8306
▁baserri	-8307
▁ekarpen	-8308
▁dec	-8309
▁batua	-8310
▁albert	-8311
▁solido	-8312
▁urtebete	-8313
▁nev	-8314
▁hilketa	-8315
ferentzia	-8316
krip	-8317
▁kata	-8318
▁orto	-8319
iarako	-8320
▁patro	-8321
▁bateria	-8322
▁erretiratu	-8323
▁dre	-8324
▁oli	-8325
gunean	-8326
▁bilaketa	-8327
▁palestin	-8328
sek	-8329
▁ean	-8330
▁jel	-8331
▁rib	-8332
▁pase	-8333
▁seti	-8334
▁beroa	-8335
urrezko	-8336
▁izenaren	-8337
▁gaia	-8338
eratua	-8339
▁inpor	-8340
▁melano	-8341
▁txosten	-8342
▁dirudienez	-8343
ska	-8344
igin	-8345
▁335	-8346
▁720	-8347
▁lanik	-8348
▁herrien	-8349
▁egunetan	-8350
chez	-8351
iran	-8352
▁petri	-8353
▁titul	-8354
▁atxiki	-8355
erriaren	-8356
▁enperadorearen	-8357
nay	-8358
agne	-8359
rach	-8360
▁seku	-8361
▁badir	-8362
ary	-8363
▁alda	-8364
▁prem	-8365
▁froga	-8366
▁alkohol	-8367
▁errugbi	-8368
▁lorateg	-8369
▁pod	-8370
▁inber	-8371
▁erromatarrek	-8372
▁kup	-8373
▁greba	-8374
▁hier	-8375
▁zarau	-8376
ophorus	-8377
▁sk	-8378
▁313	-8379
▁bed	-8380
▁kolp	-8381
▁krom	-8382
▁daram	-8383
▁oreka	-8384
▁existen	-8385
▁ezizena	-8386
timetro	-8387
unc	-8388
▁624	-8389
▁russ	-8390
▁agian	-8391
▁bertik	-8392
▁disolb	-8393
▁daudela	-8394
▁jeneral	-8395
▁baztertu	-8396
▁berdineko	-8397
▁zituztela	-8398
jel	-8399
asuna	-8400
egiak	-8401
ordea	-8402
▁lehor	-8403
▁pisua	-8404
▁aba	-8405
▁aldak	-8406
▁kroaz	-8407
▁titulu	-8408
▁armadako	-8409
idad	-8410
▁agr	-8411
▁taul	-8412
▁giroa	-8413
▁athletic	-8414
▁proposamen	-8415
▁ekonomiaren	-8416
anov	-8417
▁1903	-8418
▁letra	-8419
▁egokitu	-8420
▁hazkuntza	-8421
▁440	-8422
▁701	-8423
▁arist	-8424
tasunez	-8425
▁inprim	-8426
▁otsailean	-8427
olak	-8428
keria	-8429
▁autor	-8430
▁garaile	-8431
▁ingurumen	-8432
▁286	-8433
▁nema	-8434
▁angelu	-8435
▁arrazoia	-8436
▁hitzetik	-8437
▁justizia	-8438
▁bosgarren	-8439
▁427	-8440
▁eryth	-8441
▁simon	-8442
itarren	-8443
▁alkatea	-8444
▁kokapen	-8445
▁txikiko	-8446
▁ikusteko	-8447
▁isurtzen	-8448
▁dagoenean	-8449
▁eraginkor	-8450
▁zum	-8451
▁dizkio	-8452
tatutako	-8453
▁itxarop	-8454
▁lirateke	-8455
▁alexandro	-8456
▁erregistro	-8457
▁presentzia	-8458
▁pac	-8459
▁poec	-8460
▁tarn	-8461
etidae	-8462
▁arreba	-8463
▁lekuan	-8464
▁luzeak	-8465
▁zutelako	-8466
tiboa	-8467
enidae	-8468
taldian	-8469
▁plazan	-8470
▁hungariako	-8471
▁gorputzaren	-8472
ase	-8473
odus	-8474
espen	-8475
▁lizarr	-8476
▁aldagai	-8477
▁kontser	-8478
▁istorioa	-8479
▁honetatik	-8480
hu	-8481
iy	-8482
ull	-8483
intzat	-8484
▁inspir	-8485
▁likido	-8486
▁handian	-8487
▁vietnam	-8488
▁ibiltzen	-8489
▁sv	-8490
arrera	-8491
▁iritzi	-8492
▁ekitaldi	-8493
ikak	-8494
▁royal	-8495
▁erradik	-8496
▁ci	-8497
udun	-8498
▁gard	-8499
▁scor	-8500
▁muridae	-8501
▁erraldoi	-8502
▁matematika	-8503
▁1915	-8504
▁hall	-8505
▁tomas	-8506
izioaren	-8507
▁daukate	-8508
▁herrietako	-8509
▁pinyineraz	-8510
▁ingeniaritza	-8511
▁304	-8512
▁pros	-8513
▁interne	-8514
▁elikagai	-8515
▁hedabide	-8516
ball	-8517
▁lun	-8518
▁syl	-8519
▁dimen	-8520
▁altsas	-8521
▁zutena	-8522
ologikoa	-8523
▁hedapen	-8524
▁erregeen	-8525
▁poliziak	-8526
▁aurreikus	-8527
▁colubridae	-8528
itsua	-8529
▁kapera	-8530
▁398	-8531
▁406	-8532
▁436	-8533
▁841	-8534
▁lud	-8535
taine	-8536
▁mars	-8537
▁zeel	-8538
▁birus	-8539
entzian	-8540
▁zauritu	-8541
kir	-8542
▁sustr	-8543
▁erreform	-8544
▁306	-8545
iform	-8546
▁fosil	-8547
▁behartu	-8548
izazioaren	-8549
▁laguntzeko	-8550
▁ech	-8551
onimo	-8552
terako	-8553
▁phryn	-8554
▁delakoa	-8555
atzaileen	-8556
▁elkarteko	-8557
▁harrapatu	-8558
▁prozesuan	-8559
uze	-8560
▁bale	-8561
▁lineak	-8562
▁tenplua	-8563
▁zehazten	-8564
▁rodriguez	-8565
▁nazionalak	-8566
lec	-8567
adol	-8568
▁ipu	-8569
▁jorr	-8570
▁utziz	-8571
▁benetan	-8572
▁chicago	-8573
▁ditzakete	-8574
▁zituelarik	-8575
▁kontzentrazio	-8576
▁1000	-8577
▁zioen	-8578
▁center	-8579
▁chateau	-8580
▁iturria	-8581
▁liolaemus	-8582
▁ezagunenak	-8583
▁minnesotako	-8584
eden	-8585
txeb	-8586
▁ras	-8587
▁tas	-8588
▁gang	-8589
▁mall	-8590
▁agerian	-8591
▁estiloa	-8592
▁alderdiak	-8593
▁historikoki	-8594
▁mugimenduaren	-8595
▁305	-8596
▁355	-8597
▁nos	-8598
alitate	-8599
ami	-8600
elu	-8601
wor	-8602
darra	-8603
okrat	-8604
▁hyper	-8605
▁param	-8606
▁neguko	-8607
▁ingelesezko	-8608
okr	-8609
▁lum	-8610
istura	-8611
▁hautsi	-8612
▁erresumako	-8613
edro	-8614
▁854	-8615
abeth	-8616
▁terror	-8617
▁baimena	-8618
▁beharbada	-8619
hin	-8620
arch	-8621
▁kaleko	-8622
▁kontur	-8623
▁oxigen	-8624
▁osoaren	-8625
▁zeudela	-8626
▁maitemin	-8627
▁erresumaren	-8628
tiv	-8629
▁fot	-8630
▁1904	-8631
▁eibar	-8632
▁egilea	-8633
▁gotorlekua	-8634
mako	-8635
▁1902	-8636
▁klin	-8637
▁saso	-8638
▁seri	-8639
anthus	-8640
▁itsasar	-8641
▁legearen	-8642
▁udaletxea	-8643
▁289	-8644
▁507	-8645
▁zul	-8646
▁finala	-8647
▁euskadi	-8648
▁menpeko	-8649
vie	-8650
amin	-8651
ello	-8652
enen	-8653
thorax	-8654
▁eskolako	-8655
▁petrolio	-8656
ds	-8657
agus	-8658
▁405	-8659
▁714	-8660
▁legeg	-8661
▁onddo	-8662
▁zentzu	-8663
▁igotzen	-8664
orhynchus	-8665
pid	-8666
acion	-8667
atzeak	-8668
▁peters	-8669
▁desberdinetan	-8670
▁lob	-8671
▁borde	-8672
▁eutsi	-8673
▁askotako	-8674
▁hamabost	-8675
▁marraz	-8676
▁paralel	-8677
▁bap	-8678
adidae	-8679
▁chaet	-8680
▁iluna	-8681
▁sakaban	-8682
▁gizartean	-8683
▁argitalpen	-8684
▁konpainiak	-8685
ideen	-8686
▁1901	-8687
▁anne	-8688
▁nano	-8689
▁obrak	-8690
▁klasikoa	-8691
▁osaturiko	-8692
▁ay	-8693
▁502	-8694
▁519	-8695
▁fur	-8696
▁brus	-8697
▁hemis	-8698
▁jasotako	-8699
▁abeltzain	-8700
▁londresen	-8701
▁1889	-8702
▁lasa	-8703
▁henri	-8704
▁erradio	-8705
tta	-8706
ctic	-8707
gues	-8708
illan	-8709
▁agur	-8710
izunak	-8711
▁prezio	-8712
▁zeinak	-8713
▁zihoan	-8714
dus	-8715
mond	-8716
▁doug	-8717
▁errez	-8718
▁prozed	-8719
▁arrakast	-8720
▁calvados	-8721
▁norabide	-8722
▁lehenengoa	-8723
▁366	-8724
▁520	-8725
▁pes	-8726
▁megal	-8727
▁river	-8728
▁datorr	-8729
▁nazionalaren	-8730
cin	-8731
loven	-8732
▁dakar	-8733
▁garaiena	-8734
▁lizentzia	-8735
▁604	-8736
▁oto	-8737
tunak	-8738
araino	-8739
▁parad	-8740
▁zezen	-8741
▁derrig	-8742
dactylidae	-8743
▁ezinezkoa	-8744
▁414	-8745
▁497	-8746
tatuz	-8747
▁galde	-8748
▁sortuko	-8749
▁turingia	-8750
▁produkzio	-8751
▁missourieko	-8752
ych	-8753
▁antzezlan	-8754
▁artifizial	-8755
▁544	-8756
▁berari	-8757
▁pentsatzen	-8758
▁quin	-8759
▁gutun	-8760
▁jazar	-8761
▁talka	-8762
▁ahotsa	-8763
▁normal	-8764
▁musikaren	-8765
▁ezberdinen	-8766
▁zentimetro	-8767
▁ion	-8768
▁uran	-8769
▁mendek	-8770
▁gipuzkoan	-8771
▁hod	-8772
kidea	-8773
▁valley	-8774
▁karrera	-8775
▁osatzeko	-8776
▁handiagoak	-8777
mi	-8778
apa	-8779
▁nam	-8780
▁zale	-8781
▁berau	-8782
▁greko	-8783
▁soric	-8784
▁ideiak	-8785
▁digital	-8786
▁horizon	-8787
▁ingeniar	-8788
arioa	-8789
▁amph	-8790
▁lurs	-8791
▁izendatzen	-8792
▁509	-8793
▁ela	-8794
▁kontsid	-8795
▁udazken	-8796
▁ateratzeko	-8797
▁telebistan	-8798
▁presidenteak	-8799
cl	-8800
▁deko	-8801
▁anark	-8802
▁errib	-8803
▁guztietako	-8804
▁jazz	-8805
▁klor	-8806
izatzen	-8807
▁georgiako	-8808
▁prestatzen	-8809
com	-8810
▁main	-8811
▁yosh	-8812
▁gilen	-8813
▁eleuth	-8814
artasuna	-8815
▁zibilean	-8816
▁aurreneko	-8817
▁tos	-8818
▁zun	-8819
burgoko	-8820
▁betiere	-8821
▁elektrikoa	-8822
gow	-8823
▁307	-8824
▁333	-8825
▁381	-8826
alekua	-8827
chester	-8828
akue	-8829
taro	-8830
▁390	-8831
▁528	-8832
▁aku	-8833
etari	-8834
▁hobeto	-8835
▁areagotu	-8836
ardi	-8837
▁bun	-8838
▁vos	-8839
▁alpe	-8840
▁bill	-8841
▁cara	-8842
▁dizip	-8843
▁protoko	-8844
▁zizkioten	-8845
aski	-8846
▁365	-8847
atuena	-8848
▁hasiko	-8849
▁txapelduna	-8850
▁hills	-8851
▁loturik	-8852
▁maurice	-8853
▁christoph	-8854
▁ingalaterran	-8855
ashi	-8856
▁376	-8857
gintza	-8858
▁allen	-8859
▁triang	-8860
▁neurtzen	-8861
▁mugimenduak	-8862
ters	-8863
▁890	-8864
▁idah	-8865
▁leiz	-8866
▁poem	-8867
ologian	-8868
▁baimen	-8869
▁kimika	-8870
▁mugitu	-8871
ologiaren	-8872
▁mugatzen	-8873
▁animaliak	-8874
▁okindegia	-8875
yz	-8876
▁pag	-8877
atean	-8878
▁carl	-8879
▁ertain	-8880
▁law	-8881
▁1898	-8882
illako	-8883
▁abere	-8884
▁ordurako	-8885
▁liburuaren	-8886
▁psikiatriko	-8887
▁erakundearen	-8888
obr	-8889
▁387	-8890
▁krist	-8891
▁alabaina	-8892
▁ny	-8893
▁sl	-8894
▁421	-8895
▁694	-8896
▁jim	-8897
egina	-8898
▁lewis	-8899
▁datork	-8900
▁neguan	-8901
ipo	-8902
lax	-8903
orum	-8904
uria	-8905
▁tang	-8906
▁dadin	-8907
▁azkena	-8908
▁hautaga	-8909
▁irauten	-8910
▁pentsatu	-8911
▁aztertzeko	-8912
▁748	-8913
tatuak	-8914
▁campo	-8915
▁newton	-8916
▁agindupean	-8917
▁esperientzia	-8918
▁hipermerkatu	-8919
yle	-8920
akin	-8921
ieux	-8922
▁404	-8923
▁xxi	-8924
andia	-8925
▁indo	-8926
▁mendiko	-8927
itzaileak	-8928
iger	-8929
▁tyr	-8930
▁bres	-8931
▁sedimen	-8932
▁baionako	-8933
▁matxinatu	-8934
ope	-8935
▁sinte	-8936
▁sanchez	-8937
▁emakumeek	-8938
▁kontrolatzen	-8939
feld	-8940
▁etb	-8941
teetan	-8942
▁enbor	-8943
▁zehatza	-8944
▁indartsua	-8945
hat	-8946
rel	-8947
▁670	-8948
▁zan	-8949
▁gabriel	-8950
▁ekintzak	-8951
▁trichomyc	-8952
rop	-8953
▁504	-8954
▁1848	-8955
▁sara	-8956
▁txina	-8957
▁adimen	-8958
▁marcel	-8959
▁printze	-8960
▁senarra	-8961
▁handitzen	-8962
▁muturreko	-8963
▁erbesteratu	-8964
▁1870	-8965
▁ikusgai	-8966
▁mugakide	-8967
bora	-8968
ique	-8969
▁378	-8970
oming	-8971
▁plak	-8972
▁wilhel	-8973
▁haplochromis	-8974
opo	-8975
ical	-8976
uang	-8977
▁pia	-8978
▁borond	-8979
▁zitekeen	-8980
toi	-8981
▁arch	-8982
▁gaitz	-8983
▁aitortu	-8984
▁saltzen	-8985
▁organismo	-8986
▁299	-8987
egatik	-8988
▁brown	-8989
▁mutil	-8990
▁alboko	-8991
▁centro	-8992
▁artekoa	-8993
▁harekin	-8994
▁hylidae	-8995
▁lantegi	-8996
▁arkitektoak	-8997
▁card	-8998
▁badirudi	-8999
▁murriztu	-9000
▁portugald	-9001
▁ezagunagoa	-9002
▁produktuak	-9003
oso	-9004
▁oxid	-9005
▁oihan	-9006
▁arrunt	-9007
▁korrik	-9008
▁filosofo	-9009
▁jartzeko	-9010
▁alt	-9011
arrut	-9012
▁etxalde	-9013
▁tarteko	-9014
▁601	-9015
▁lil	-9016
▁krisi	-9017
▁zatiak	-9018
karen	-9019
ulata	-9020
▁hara	-9021
odidae	-9022
▁algor	-9023
▁anaiak	-9024
▁laguna	-9025
▁bertsioa	-9026
▁kanadako	-9027
▁cho	-9028
osoma	-9029
▁eskala	-9030
▁bizitzen	-9031
ebe	-9032
▁363	-9033
▁glen	-9034
▁lotua	-9035
▁apogon	-9036
▁baitze	-9037
▁gorriak	-9038
▁katoliko	-9039
▁345	-9040
▁tum	-9041
▁barak	-9042
▁crist	-9043
▁zetor	-9044
▁hartua	-9045
▁heriotz	-9046
▁303	-9047
uriko	-9048
▁hode	-9049
▁353	-9050
▁etap	-9051
▁barre	-9052
▁nekazari	-9053
▁zenbakia	-9054
▁eskuineko	-9055
▁aipatzekoa	-9056
riako	-9057
▁ustel	-9058
▁eredua	-9059
▁savoia	-9060
▁altxatu	-9061
▁artzain	-9062
▁cricetidae	-9063
▁propietate	-9064
fan	-9065
illus	-9066
▁argent	-9067
▁esloven	-9068
▁askatasun	-9069
▁dinastiako	-9070
kie	-9071
▁cass	-9072
▁stal	-9073
▁clark	-9074
▁mazed	-9075
▁bolumen	-9076
dela	-9077
▁665	-9078
▁negu	-9079
▁ateak	-9080
▁eginak	-9081
▁buruzagia	-9082
▁loricariidae	-9083
str	-9084
erara	-9085
▁sher	-9086
▁plast	-9087
▁artearen	-9088
itt	-9089
rac	-9090
▁396	-9091
▁vik	-9092
▁grac	-9093
▁leih	-9094
▁ibaien	-9095
▁subjek	-9096
▁nicolas	-9097
▁ye	-9098
▁kid	-9099
▁jura	-9100
▁rekin	-9101
▁britan	-9102
▁napoleon	-9103
aingo	-9104
ialak	-9105
▁pena	-9106
▁castro	-9107
▁honakoa	-9108
▁pseudo	-9109
lenn	-9110
▁gerrako	-9111
esi	-9112
▁589	-9113
▁pio	-9114
▁rat	-9115
denak	-9116
tsioa	-9117
▁burgosko	-9118
▁stor	-9119
termin	-9120
▁lengoa	-9121
▁hiririk	-9122
eki	-9123
imus	-9124
▁dei	-9125
▁meur	-9126
▁berrez	-9127
▁santuak	-9128
▁508	-9129
atzeaz	-9130
ophilus	-9131
▁nafarroan	-9132
tum	-9133
▁arta	-9134
▁ikar	-9135
▁irad	-9136
▁suer	-9137
▁barru	-9138
▁ester	-9139
▁botoen	-9140
▁magnet	-9141
intzaren	-9142
▁agustin	-9143
▁tentsio	-9144
▁ikerketak	-9145
eng	-9146
▁vin	-9147
▁torn	-9148
▁gusta	-9149
▁zortz	-9150
▁diskoaren	-9151
▁erm	-9152
▁lid	-9153
▁pak	-9154
▁rep	-9155
▁mach	-9156
▁ereser	-9157
▁aztarna	-9158
▁sentimendu	-9159
ors	-9160
▁369	-9161
▁871	-9162
unetik	-9163
▁autom	-9164
▁perio	-9165
itarrak	-9166
▁franklin	-9167
▁musikagile	-9168
▁zientifiko	-9169
bl	-9170
▁lev	-9171
▁erloj	-9172
▁jurid	-9173
▁alaska	-9174
▁arabieraz	-9175
▁trenbidea	-9176
▁penintsulako	-9177
▁424	-9178
▁rud	-9179
▁kolorea	-9180
▁bihurtuz	-9181
kid	-9182
asia	-9183
tzio	-9184
▁426	-9185
▁pieza	-9186
▁larriak	-9187
▁moderno	-9188
▁hitzarmena	-9189
▁liburutegi	-9190
tac	-9191
▁errenta	-9192
▁mantentzeko	-9193
▁343	-9194
▁384	-9195
▁527	-9196
▁605	-9197
▁rem	-9198
▁baze	-9199
▁ziho	-9200
bestez	-9201
▁sents	-9202
▁tribu	-9203
▁museoan	-9204
▁hainbeste	-9205
amon	-9206
▁digu	-9207
▁fair	-9208
tatuta	-9209
▁alber	-9210
▁johan	-9211
▁jones	-9212
▁gizakia	-9213
▁pirinioetako	-9214
amn	-9215
gua	-9216
▁887	-9217
▁ink	-9218
▁zazp	-9219
▁publiz	-9220
▁gazteen	-9221
asek	-9222
txean	-9223
▁1880	-9224
▁urez	-9225
▁irlanda	-9226
▁bakarrak	-9227
▁etxearen	-9228
▁valladol	-9229
▁kontseilu	-9230
undi	-9231
▁loh	-9232
▁etsai	-9233
▁arantz	-9234
▁estazio	-9235
▁memoria	-9236
▁iraultzaile	-9237
anek	-9238
tzetik	-9239
▁domingo	-9240
▁oinarriak	-9241
zu	-9242
ips	-9243
▁ebro	-9244
▁hodi	-9245
▁ekonomikoak	-9246
▁enperadoreak	-9247
▁372	-9248
itoak	-9249
▁esne	-9250
▁arrok	-9251
▁meuse	-9252
▁aqu	-9253
▁bast	-9254
▁gros	-9255
▁hauei	-9256
▁eramateko	-9257
asi	-9258
pes	-9259
▁areto	-9260
▁orobat	-9261
▁oinordekoa	-9262
▁argentinako	-9263
adr	-9264
▁fort	-9265
▁klim	-9266
▁norte	-9267
▁elisabet	-9268
▁elkarrek	-9269
▁enperadorea	-9270
olf	-9271
▁jerus	-9272
▁badute	-9273
▁neurriak	-9274
▁zuzentzen	-9275
▁rob	-9276
▁vern	-9277
▁gaurko	-9278
▁olerki	-9279
▁vienne	-9280
liz	-9281
elus	-9282
gile	-9283
oiak	-9284
tius	-9285
▁413	-9286
isioa	-9287
▁urban	-9288
▁bihotz	-9289
any	-9290
▁435	-9291
▁511	-9292
maren	-9293
▁vers	-9294
▁plano	-9295
▁erasoa	-9296
▁estaltzen	-9297
▁administratiboa	-9298
irak	-9299
▁370	-9300
▁487	-9301
▁brad	-9302
▁atala	-9303
▁borbo	-9304
▁ahalik	-9305
arretako	-9306
▁baitago	-9307
▁epaile	-9308
▁sarbide	-9309
▁frantziak	-9310
dale	-9311
vill	-9312
▁monta	-9313
▁politikan	-9314
▁zutelarik	-9315
▁656	-9316
doras	-9317
jarvi	-9318
ostom	-9319
▁euri	-9320
▁entre	-9321
▁pribatu	-9322
▁lurretan	-9323
▁estatubatuarra	-9324
azu	-9325
onak	-9326
tarra	-9327
▁gand	-9328
▁itsasad	-9329
▁espiritu	-9330
garritasun	-9331
▁identifik	-9332
▁kantitate	-9333
fis	-9334
net	-9335
ony	-9336
idus	-9337
more	-9338
amendi	-9339
▁beach	-9340
▁oparo	-9341
▁water	-9342
▁gehiag	-9343
▁hiribil	-9344
▁victoria	-9345
▁nazioartean	-9346
wig	-9347
txoa	-9348
▁ase	-9349
ather	-9350
ilako	-9351
rique	-9352
▁hotz	-9353
▁sufr	-9354
▁harry	-9355
▁zezan	-9356
▁salvador	-9357
▁erreferendu	-9358
▁batezbesteko	-9359
▁goku	-9360
▁rein	-9361
▁erago	-9362
▁tolosa	-9363
olin	-9364
▁1892	-9365
▁1897	-9366
turako	-9367
▁dordo	-9368
▁ibaian	-9369
▁joango	-9370
▁amaitzeko	-9371
▁hamarkadako	-9372
esten	-9373
ezina	-9374
▁haut	-9375
izatua	-9376
ulidae	-9377
▁julia	-9378
▁mendietan	-9379
▁konderriaren	-9380
▁enba	-9381
▁osorik	-9382
▁bizkaian	-9383
▁transmit	-9384
▁urteotan	-9385
▁denboraren	-9386
▁bibl	-9387
▁chap	-9388
▁dutena	-9389
▁ans	-9390
▁lex	-9391
▁pozo	-9392
iagoak	-9393
▁haurdun	-9394
▁hoberen	-9395
▁kontutan	-9396
▁txikiena	-9397
▁zerikusia	-9398
▁printzipio	-9399
agoak	-9400
▁nire	-9401
▁atomo	-9402
▁hamarr	-9403
▁hasita	-9404
▁douglas	-9405
▁hondakin	-9406
▁internet	-9407
▁artistiko	-9408
utro	-9409
▁625	-9410
▁fac	-9411
orreko	-9412
▁babil	-9413
▁milio	-9414
▁espezif	-9415
▁bizimodu	-9416
▁alemaniarrak	-9417
hyla	-9418
▁hub	-9419
▁suz	-9420
▁morr	-9421
▁mendig	-9422
▁sakona	-9423
▁aholkul	-9424
▁jainkoak	-9425
▁501	-9426
▁626	-9427
▁fax	-9428
▁karratu	-9429
▁pp	-9430
▁pala	-9431
urteko	-9432
▁corre	-9433
▁lapurdiko	-9434
▁lizeoetan	-9435
▁fir	-9436
▁stock	-9437
▁batuan	-9438
▁sartzea	-9439
▁konplexua	-9440
ited	-9441
▁zim	-9442
▁formako	-9443
▁zitezke	-9444
ezka	-9445
zion	-9446
▁491	-9447
▁621	-9448
▁rab	-9449
▁piano	-9450
tzerakoan	-9451
▁militarrak	-9452
▁729	-9453
▁cin	-9454
ariar	-9455
▁sarea	-9456
▁lanbide	-9457
arko	-9458
▁badia	-9459
itateko	-9460
▁ikertu	-9461
▁kideek	-9462
▁heinean	-9463
bis	-9464
▁equ	-9465
▁clin	-9466
▁jord	-9467
▁kenn	-9468
▁chris	-9469
tazioak	-9470
▁arbaso	-9471
▁vicente	-9472
atzaileek	-9473
▁iraupena	-9474
▁zeelanda	-9475
▁dagoeneko	-9476
▁jaurlaritzak	-9477
▁did	-9478
▁cambr	-9479
▁lauta	-9480
▁saioa	-9481
▁indark	-9482
▁edinburgh	-9483
tov	-9484
atro	-9485
▁amin	-9486
▁egotzi	-9487
▁utzita	-9488
▁jainkosa	-9489
▁itzultzen	-9490
▁346	-9491
▁577	-9492
▁mys	-9493
ights	-9494
talis	-9495
▁belle	-9496
▁wilhelm	-9497
▁egunkaria	-9498
rezko	-9499
▁etsa	-9500
teridae	-9501
▁datorkio	-9502
▁modernoa	-9503
▁403	-9504
▁dut	-9505
▁dekor	-9506
▁jaurt	-9507
▁ideologia	-9508
try	-9509
eroa	-9510
▁pik	-9511
▁mora	-9512
▁zaizkio	-9513
ueva	-9514
▁aleg	-9515
▁harik	-9516
▁zientzi	-9517
▁erabakia	-9518
▁zaharrak	-9519
▁laburretarako	-9520
▁gh	-9521
alau	-9522
▁sup	-9523
▁ahiz	-9524
zional	-9525
▁lorategi	-9526
▁siziliako	-9527
▁monasterio	-9528
▁nolabaiteko	-9529
▁errepidearen	-9530
nil	-9531
uto	-9532
▁496	-9533
▁535	-9534
▁gehi	-9535
▁harana	-9536
▁kardin	-9537
▁handikoa	-9538
dec	-9539
▁888	-9540
▁1899	-9541
▁oker	-9542
▁pomac	-9543
▁orratz	-9544
▁international	-9545
▁bax	-9546
▁hay	-9547
ester	-9548
vision	-9549
▁doubs	-9550
▁gymno	-9551
▁lehia	-9552
▁arazoa	-9553
▁konputa	-9554
▁jokalaria	-9555
▁1860	-9556
▁giovan	-9557
▁kooper	-9558
▁prezip	-9559
▁haurrak	-9560
▁sakonera	-9561
▁herritarrek	-9562
ance	-9563
real	-9564
▁fall	-9565
▁test	-9566
▁sumendi	-9567
▁gehiengoa	-9568
▁munduaren	-9569
otr	-9570
▁sn	-9571
▁494	-9572
▁yor	-9573
▁amor	-9574
▁boul	-9575
▁guda	-9576
▁spin	-9577
▁yonne	-9578
▁metroa	-9579
mys	-9580
uck	-9581
▁nik	-9582
▁bola	-9583
▁fruitu	-9584
▁gorena	-9585
▁munich	-9586
▁urrats	-9587
▁anderson	-9588
▁araberakoa	-9589
leri	-9590
▁behi	-9591
▁jane	-9592
▁pedago	-9593
▁arriskuan	-9594
irau	-9595
▁460	-9596
▁indre	-9597
▁urriak	-9598
▁argitaratua	-9599
▁622	-9600
▁inc	-9601
▁akzio	-9602
▁enbax	-9603
▁azpiko	-9604
▁taldeek	-9605
▁ikertzen	-9606
▁mendebalde	-9607
▁historiaren	-9608
iler	-9609
▁roc	-9610
▁atzeko	-9611
▁ontzia	-9612
▁zinemag	-9613
▁menderatu	-9614
000	-9615
etro	-9616
tina	-9617
▁pad	-9618
▁brig	-9619
goslav	-9620
▁argiz	-9621
▁darama	-9622
▁johann	-9623
▁parana	-9624
▁ekuazio	-9625
▁oinarritu	-9626
▁izugarrizko	-9627
itore	-9628
▁elorr	-9629
▁harka	-9630
▁deklar	-9631
▁formak	-9632
▁aldekoa	-9633
▁lortuko	-9634
▁ekoizpena	-9635
zy	-9636
▁latinezko	-9637
▁dipsadidae	-9638
lic	-9639
atxo	-9640
ortzi	-9641
▁iren	-9642
▁orne	-9643
▁tayl	-9644
▁india	-9645
▁memor	-9646
▁ortodo	-9647
itzarako	-9648
▁gironda	-9649
▁nahastu	-9650
▁wyoming	-9651
▁alexander	-9652
▁bestearen	-9653
▁diametroa	-9654
▁ibilbidean	-9655
icia	-9656
opota	-9657
▁dutelako	-9658
▁idazteko	-9659
▁defendatzen	-9660
▁errepublikan	-9661
▁conne	-9662
▁konta	-9663
▁alorrean	-9664
▁buruzkoa	-9665
▁baldintzak	-9666
▁hep	-9667
stein	-9668
▁amak	-9669
▁bath	-9670
▁enkar	-9671
▁santan	-9672
▁glasgow	-9673
▁beherako	-9674
osen	-9675
▁874	-9676
▁tib	-9677
▁ahaz	-9678
▁apol	-9679
edrich	-9680
▁dolar	-9681
▁aurkik	-9682
▁ederra	-9683
▁fantas	-9684
▁hautag	-9685
▁lurrun	-9686
▁arduradun	-9687
▁ondorengoak	-9688
▁382	-9689
ainen	-9690
adanik	-9691
▁zedin	-9692
▁hondor	-9693
▁joanes	-9694
▁*	-9695
▁atea	-9696
▁bour	-9697
▁kudeatzen	-9698
▁zilarrezko	-9699
ols	-9700
ugu	-9701
▁397	-9702
▁529	-9703
▁wat	-9704
etarik	-9705
olles	-9706
▁abian	-9707
▁valde	-9708
▁plante	-9709
▁jadanik	-9710
▁iraunkor	-9711
▁395	-9712
▁vau	-9713
▁gomend	-9714
▁irunean	-9715
▁meurthe	-9716
▁oak	-9717
engan	-9718
▁amets	-9719
▁haurren	-9720
▁apezpiku	-9721
diak	-9722
▁ples	-9723
▁niger	-9724
▁kolonb	-9725
▁springs	-9726
▁nahasten	-9727
▁christian	-9728
▁gobernuko	-9729
uruz	-9730
▁dev	-9731
▁mih	-9732
▁morf	-9733
▁eskozia	-9734
bs	-9735
idg	-9736
tata	-9737
▁482	-9738
▁ita	-9739
▁wolf	-9740
▁jabea	-9741
▁jorge	-9742
▁betebeh	-9743
▁eguzkia	-9744
▁wikiped	-9745
▁hartzaile	-9746
▁langileak	-9747
▁ondorioak	-9748
▁finlandia	-9749
▁375	-9750
iorik	-9751
adorea	-9752
▁joseba	-9753
▁lehorr	-9754
▁haurtzar	-9755
▁495	-9756
▁zip	-9757
eretan	-9758
▁isere	-9759
▁brachy	-9760
▁manche	-9761
sta	-9762
obran	-9763
▁1888	-9764
▁pall	-9765
ciatus	-9766
▁denis	-9767
▁istripu	-9768
▁posizio	-9769
▁roberto	-9770
▁behintzat	-9771
▁eskailera	-9772
▁izp	-9773
▁anti	-9774
▁cuen	-9775
▁pueb	-9776
▁eztan	-9777
▁robin	-9778
▁white	-9779
▁egunez	-9780
▁aberatsa	-9781
▁izugarri	-9782
▁nagusiko	-9783
▁ulertzeko	-9784
nen	-9785
▁armak	-9786
▁serie	-9787
▁burges	-9788
▁erriox	-9789
▁frantziaren	-9790
met	-9791
▁486	-9792
▁525	-9793
▁oiar	-9794
▁sulf	-9795
tariak	-9796
▁kanpoaldean	-9797
atxu	-9798
▁atmosfer	-9799
oklas	-9800
▁alan	-9801
▁neutro	-9802
▁schistura	-9803
▁udalerrien	-9804
▁konputagailu	-9805
▁sho	-9806
oides	-9807
▁eban	-9808
▁hamil	-9809
▁hebre	-9810
▁arrats	-9811
▁dihardu	-9812
▁gizaban	-9813
▁hemisfer	-9814
▁dentsitate	-9815
▁aldizkariaren	-9816
kina	-9817
▁865	-9818
turan	-9819
▁1893	-9820
▁atlet	-9821
▁mendian	-9822
▁mailatik	-9823
▁internazional	-9824
▁459	-9825
▁hex	-9826
▁kai	-9827
▁olio	-9828
ketako	-9829
▁chlor	-9830
ibr	-9831
iva	-9832
▁bao	-9833
turen	-9834
▁1879	-9835
▁kordo	-9836
cen	-9837
ilan	-9838
▁383	-9839
▁leio	-9840
▁kutxa	-9841
▁model	-9842
▁txand	-9843
▁azpitik	-9844
▁austriako	-9845
▁kudeaketa	-9846
▁zaragozako	-9847
▁love	-9848
▁presioa	-9849
▁vincent	-9850
▁teleskop	-9851
▁xaf	-9852
tidae	-9853
▁pais	-9854
▁hobetu	-9855
▁izenean	-9856
▁erlijioso	-9857
▁inork	-9858
▁panta	-9859
▁fisika	-9860
▁aurpegi	-9861
▁berrikuntza	-9862
▁hamarkadatik	-9863
▁historialari	-9864
hl	-9865
hr	-9866
talak	-9867
▁dragoi	-9868
▁zegoena	-9869
▁entrenatzaile	-9870
ilog	-9871
▁gim	-9872
▁rand	-9873
▁bizik	-9874
▁koroa	-9875
▁senar	-9876
▁gehiengo	-9877
▁jugoslav	-9878
▁etengabeko	-9879
▁hondakinak	-9880
amb	-9881
hor	-9882
omon	-9883
▁kun	-9884
▁pus	-9885
mouth	-9886
▁sold	-9887
iarrean	-9888
▁luzatu	-9889
▁harrera	-9890
lay	-9891
ezin	-9892
▁stu	-9893
▁well	-9894
▁zera	-9895
▁montan	-9896
▁gehitzen	-9897
▁errusieraz	-9898
ego	-9899
aira	-9900
▁ever	-9901
▁minu	-9902
▁kanad	-9903
▁agintea	-9904
▁berrehun	-9905
▁ezezaguna	-9906
▁ingeniari	-9907
▁385	-9908
▁sid	-9909
atiba	-9910
askako	-9911
▁puerto	-9912
▁erakuts	-9913
▁bizitzako	-9914
cu	-9915
iven	-9916
resio	-9917
trina	-9918
uteko	-9919
▁cott	-9920
▁aprobe	-9921
▁boltxeb	-9922
▁txanpon	-9923
▁esanahia	-9924
▁ezberdina	-9925
511	-9926
oshi	-9927
▁ehiza	-9928
▁albuma	-9929
▁garden	-9930
arazteko	-9931
▁hizkera	-9932
▁nikolas	-9933
▁oinplan	-9934
▁bidaiari	-9935
elor	-9936
apean	-9937
▁1882	-9938
▁1896	-9939
▁gose	-9940
▁shin	-9941
izkien	-9942
▁bideg	-9943
atearen	-9944
▁errota	-9945
▁eremuak	-9946
▁erregistr	-9947
▁estropada	-9948
▁hidrogeno	-9949
▁laborateg	-9950
▁maiztasun	-9951
▁gehiegizko	-9952
▁iparraldetik	-9953
izu	-9954
iton	-9955
▁374	-9956
▁clo	-9957
▁izoz	-9958
▁arthur	-9959
▁burdina	-9960
▁irteera	-9961
atzerakoan	-9962
▁ikertzaile	-9963
▁cy	-9964
▁fisio	-9965
▁kapitu	-9966
▁street	-9967
▁abokatu	-9968
▁friedrich	-9969
▁artikuluak	-9970
oll	-9971
usse	-9972
▁isa	-9973
▁jab	-9974
▁coun	-9975
▁batere	-9976
▁nahasketa	-9977
▁australiako	-9978
aze	-9979
kins	-9980
magn	-9981
▁856	-9982
▁cyc	-9983
▁net	-9984
▁ruiz	-9985
▁ditzakegu	-9986
▁bultzatzen	-9987
haus	-9988
▁poni	-9989
▁harria	-9990
▁amerika	-9991
▁sekulako	-9992
▁392	-9993
▁tierra	-9994
▁belarri	-9995
▁joaquin	-9996
▁erroldan	-9997
▁1891	-9998
▁diaz	-9999
▁ikurra	-10000
▁simetr	-10001
▁mendera	-10002
▁azaltzeko	-10003
▁apaintzeko	-10004
kh	-10005
rey	-10006
uts	-10007
▁464	-10008
▁tera	-10009
▁ipini	-10010
▁spring	-10011
▁ugariak	-10012
▁zigortu	-10013
▁zonalde	-10014
▁bidaltzen	-10015
▁errespeta	-10016
▁jarritako	-10017
▁neurtzeko	-10018
▁antolatutako	-10019
tein	-10020
▁386	-10021
▁lav	-10022
▁aniz	-10023
▁isil	-10024
▁lisk	-10025
▁tetr	-10026
▁pelik	-10027
▁eusten	-10028
▁deporti	-10029
▁zineman	-10030
▁errealitate	-10031
cor	-10032
ezia	-10033
idur	-10034
ipenak	-10035
▁vasco	-10036
▁nowiki	-10037
▁intents	-10038
ige	-10039
kim	-10040
ibid	-10041
mina	-10042
agaien	-10043
daketa	-10044
▁aldian	-10045
▁iritziz	-10046
▁inbaditu	-10047
▁ukrainako	-10048
▁zaharrean	-10049
▁konposizio	-10050
opolis	-10051
▁unean	-10052
idactyl	-10053
▁kondea	-10054
▁ganbera	-10055
▁iristeko	-10056
▁zibilizazio	-10057
txu	-10058
▁deabr	-10059
▁diete	-10060
▁printzea	-10061
▁zaharreko	-10062
ozo	-10063
▁394	-10064
▁maj	-10065
linen	-10066
kariko	-10067
▁barra	-10068
▁ahizpa	-10069
▁distir	-10070
▁jantzi	-10071
tikoaren	-10072
▁kanpora	-10073
▁aprobetx	-10074
▁atzerriko	-10075
▁ingurukoa	-10076
▁pertsonaiak	-10077
ega	-10078
ting	-10079
▁1857	-10080
▁mezu	-10081
▁oste	-10082
▁etienne	-10083
▁american	-10084
▁bisitatu	-10085
▁erabakitzen	-10086
obal	-10087
rata	-10088
urgia	-10089
▁gazta	-10090
▁rober	-10091
▁ontziak	-10092
▁egiturak	-10093
▁islatzen	-10094
▁azpiespez	-10095
▁zientzialari	-10096
▁aldarrikatzen	-10097
umin	-10098
▁1894	-10099
▁aurpeg	-10100
▁bilatu	-10101
▁dioenez	-10102
▁esanetan	-10103
▁egurrezko	-10104
▁kanporatu	-10105
hac	-10106
zah	-10107
then	-10108
▁417	-10109
▁sky	-10110
▁1850	-10111
▁trag	-10112
▁txikien	-10113
▁ulertzen	-10114
▁definizio	-10115
▁ekitaldia	-10116
▁belaunaldi	-10117
▁bartzelonan	-10118
gon	-10119
doak	-10120
▁438	-10121
▁ardi	-10122
▁whit	-10123
▁uzteko	-10124
▁gogorrak	-10125
▁lehengus	-10126
366	-10127
544	-10128
rys	-10129
wal	-10130
▁1861	-10131
▁cory	-10132
▁valen	-10133
▁ezizenez	-10134
▁kalearen	-10135
▁herrialdeetan	-10136
cop	-10137
ions	-10138
▁gers	-10139
▁kosm	-10140
▁platy	-10141
▁roger	-10142
▁aristo	-10143
▁merinda	-10144
▁komunikabide	-10145
alem	-10146
utus	-10147
iriko	-10148
▁chan	-10149
▁umor	-10150
▁asian	-10151
▁dagozk	-10152
idactylus	-10153
▁alarg	-10154
▁dezan	-10155
▁ikasteko	-10156
▁fitxategi	-10157
▁berreraiki	-10158
▁aipagarrienak	-10159
▁1895	-10160
▁asir	-10161
▁linc	-10162
▁noth	-10163
▁jaiak	-10164
▁bideratu	-10165
▁524	-10166
▁last	-10167
▁vlad	-10168
▁bourg	-10169
▁bitarte	-10170
▁konstel	-10171
▁dordoina	-10172
▁carolinako	-10173
▁ا	-10174
▁kv	-10175
ague	-10176
otis	-10177
▁389	-10178
icourt	-10179
▁arauak	-10180
▁aintziraren	-10181
urua	-10182
elatu	-10183
otyph	-10184
▁gaix	-10185
▁costa	-10186
▁azukre	-10187
▁eskaera	-10188
▁sizilia	-10189
▁aurrekon	-10190
eca	-10191
ynch	-10192
▁592	-10193
▁623	-10194
▁myr	-10195
▁tab	-10196
▁fuen	-10197
▁soci	-10198
▁brian	-10199
▁bilera	-10200
▁irekia	-10201
▁lagunak	-10202
▁paretak	-10203
▁termino	-10204
▁definitu	-10205
▁kataluniar	-10206
▁hirurogeita	-10207
355	-10208
356	-10209
▁470	-10210
▁612	-10211
▁cav	-10212
▁1830	-10213
▁zeren	-10214
▁kansasko	-10215
▁transmis	-10216
▁parrokian	-10217
▁konpainiaren	-10218
▁acc	-10219
▁jam	-10220
omako	-10221
▁beir	-10222
resion	-10223
▁loren	-10224
ieraren	-10225
▁petrol	-10226
ognathus	-10227
▁monarkia	-10228
▁plataform	-10229
▁zenbaitetan	-10230
mad	-10231
▁416	-10232
cistr	-10233
▁thor	-10234
cistrus	-10235
ituzten	-10236
▁deusez	-10237
▁egitean	-10238
nu	-10239
522	-10240
bias	-10241
ichi	-10242
▁oax	-10243
icolor	-10244
▁basat	-10245
▁maita	-10246
penaren	-10247
▁norber	-10248
▁walter	-10249
▁jendeak	-10250
▁argiaren	-10251
▁666	-10252
▁off	-10253
izkie	-10254
▁zutik	-10255
▁alonso	-10256
▁united	-10257
▁zirkulu	-10258
▁gizartea	-10259
▁ikuskizun	-10260
kas	-10261
igon	-10262
▁spha	-10263
▁iloba	-10264
▁errein	-10265
▁felipe	-10266
▁nitrog	-10267
▁abentura	-10268
▁barakaldo	-10269
edad	-10270
idio	-10271
▁633	-10272
detako	-10273
▁aldia	-10274
▁beran	-10275
▁mount	-10276
▁ponte	-10277
▁jakina	-10278
▁komuna	-10279
▁kristo	-10280
▁txarra	-10281
▁litoria	-10282
▁diseinua	-10283
▁indarrak	-10284
cis	-10285
▁468	-10286
▁556	-10287
▁1876	-10288
▁diez	-10289
▁hyperol	-10290
▁paisaia	-10291
irre	-10292
aleku	-10293
▁formul	-10294
▁biltzar	-10295
▁partidu	-10296
▁aktoreak	-10297
osi	-10298
▁693	-10299
tzien	-10300
▁amen	-10301
▁chau	-10302
▁emit	-10303
▁soil	-10304
tarrek	-10305
▁leton	-10306
▁migel	-10307
▁osatuz	-10308
▁kontzertuak	-10309
▁ezinbestekoa	-10310
kl	-10311
cty	-10312
ikia	-10313
▁end	-10314
▁1887	-10315
▁bizil	-10316
▁zatiketa	-10317
▁seigarren	-10318
▁aipagarria	-10319
▁enpresaburu	-10320
▁dj	-10321
laren	-10322
▁ebak	-10323
ikoari	-10324
▁infan	-10325
▁ptolome	-10326
▁giovanni	-10327
▁hautagai	-10328
▁jefferson	-10329
▁kostaldea	-10330
hof	-10331
▁kg	-10332
▁day	-10333
▁occ	-10334
▁plo	-10335
▁beld	-10336
▁txori	-10337
▁agente	-10338
▁emaitz	-10339
▁horiei	-10340
▁mehatx	-10341
▁veneto	-10342
▁haranean	-10343
▁gaixotasuna	-10344
▁literaturan	-10345
▁monasterioa	-10346
399	-10347
▁gaizk	-10348
▁abestu	-10349
▁jaisten	-10350
▁suediar	-10351
▁mintzatzen	-10352
tob	-10353
▁609	-10354
▁gem	-10355
▁direnez	-10356
▁irakurri	-10357
▁kultural	-10358
▁aipaturiko	-10359
▁481	-10360
▁dud	-10361
▁trim	-10362
ingham	-10363
▁aljer	-10364
▁senat	-10365
▁lituan	-10366
▁bazuten	-10367
▁gaztela	-10368
▁israelgo	-10369
▁bizantziar	-10370
▁gobernadore	-10371
577	-10372
588	-10373
▁598	-10374
▁mess	-10375
▁gasko	-10376
▁larri	-10377
▁osaba	-10378
▁bonbar	-10379
▁erreser	-10380
tier	-10381
▁462	-10382
▁abr	-10383
▁orio	-10384
untain	-10385
▁hamaz	-10386
▁isuri	-10387
▁estatus	-10388
▁zizkien	-10389
▁hipotesi	-10390
▁zorrotza	-10391
▁agintaldian	-10392
oln	-10393
vice	-10394
▁371	-10395
▁546	-10396
▁dekre	-10397
▁hamps	-10398
▁zatian	-10399
▁zibilak	-10400
▁konfeder	-10401
▁connectic	-10402
▁mitologiako	-10403
▁cd	-10404
itus	-10405
▁suitz	-10406
ologikoak	-10407
▁aliantza	-10408
▁protesta	-10409
▁itzultzeko	-10410
▁ges	-10411
iatus	-10412
▁punk	-10413
ikaria	-10414
▁honetaz	-10415
▁tresnak	-10416
yon	-10417
▁399	-10418
▁423	-10419
▁anto	-10420
▁hong	-10421
▁ivan	-10422
▁kutx	-10423
▁erasoak	-10424
▁daudenak	-10425
▁nacional	-10426
▁bilakatzen	-10427
alon	-10428
gunea	-10429
▁1840	-10430
▁aube	-10431
▁hera	-10432
edi	-10433
▁727	-10434
ialde	-10435
igarr	-10436
▁cross	-10437
mea	-10438
▁565	-10439
▁603	-10440
▁jartzea	-10441
▁pauloko	-10442
▁abiatzen	-10443
599	-10444
▁415	-10445
uther	-10446
▁topo	-10447
arioak	-10448
▁bened	-10449
▁erans	-10450
▁hegal	-10451
▁mehatxu	-10452
▁erlazioa	-10453
▁interesa	-10454
▁xehetasun	-10455
▁danimarkako	-10456
mia	-10457
roc	-10458
▁sop	-10459
▁argudi	-10460
▁vosges	-10461
▁lortzea	-10462
▁espeziea	-10463
▁burutzeko	-10464
▁erabiliko	-10465
322	-10466
▁gener	-10467
▁uztea	-10468
obrycon	-10469
▁sariak	-10470
izatzeko	-10471
▁eraberr	-10472
▁ezagutzeko	-10473
▁sailkapena	-10474
▁telebistako	-10475
uge	-10476
aton	-10477
inoa	-10478
▁kafe	-10479
▁leongo	-10480
▁berretsi	-10481
▁datorren	-10482
▁burdinbide	-10483
▁hizkuntzal	-10484
▁gertatutako	-10485
taria	-10486
▁reich	-10487
▁antolak	-10488
▁arriskua	-10489
▁berlingo	-10490
▁nagusitasuna	-10491
▁departamendua	-10492
320	-10493
388	-10494
▁516	-10495
▁rip	-10496
▁bang	-10497
▁xede	-10498
▁bortx	-10499
▁baztan	-10500
▁harrob	-10501
▁katolikoa	-10502
▁mitologia	-10503
▁arraindegi	-10504
▁ekialdetik	-10505
▁hirugarrena	-10506
394	-10507
iper	-10508
ipes	-10509
istu	-10510
zano	-10511
izkoa	-10512
zabal	-10513
▁balko	-10514
▁artzap	-10515
318	-10516
itro	-10517
terr	-10518
▁379	-10519
worth	-10520
▁1868	-10521
▁doaz	-10522
▁yoko	-10523
▁hamalau	-10524
▁hobetzeko	-10525
jin	-10526
▁koa	-10527
▁vid	-10528
incus	-10529
lekin	-10530
▁fred	-10531
▁hirib	-10532
▁bideak	-10533
▁micros	-10534
▁aebetan	-10535
▁bikoitza	-10536
▁heziketa	-10537
eur	-10538
atum	-10539
▁418	-10540
▁poes	-10541
▁atenas	-10542
▁izanez	-10543
▁egileak	-10544
▁estudio	-10545
▁toponim	-10546
▁merkatur	-10547
▁modernoaren	-10548
elia	-10549
pson	-10550
▁401	-10551
▁aero	-10552
▁kezk	-10553
icauda	-10554
▁etnia	-10555
▁gomez	-10556
igintza	-10557
▁autore	-10558
▁dirudi	-10559
▁behereko	-10560
▁ekonomian	-10561
▁materialak	-10562
368	-10563
bury	-10564
ular	-10565
▁566	-10566
▁azpe	-10567
▁zero	-10568
▁espar	-10569
▁farao	-10570
▁borrokal	-10571
▁katalunia	-10572
oli	-10573
imir	-10574
▁ach	-10575
iscus	-10576
▁ball	-10577
chthys	-10578
▁aparte	-10579
▁iragar	-10580
▁batzuetara	-10581
vic	-10582
yes	-10583
▁ou	-10584
▁448	-10585
▁kno	-10586
igeno	-10587
▁hobea	-10588
▁julian	-10589
▁armadan	-10590
▁eserleku	-10591
▁jaiotako	-10592
▁mikrobio	-10593
▁australia	-10594
▁erretaula	-10595
▁inguruetan	-10596
▁proposamena	-10597
jer	-10598
yama	-10599
▁bow	-10600
andon	-10601
▁ford	-10602
obates	-10603
▁gorte	-10604
▁sorgin	-10605
▁handika	-10606
▁metrora	-10607
▁filmetan	-10608
todactylus	-10609
▁entrenatzailea	-10610
hal	-10611
▁dv	-10612
osia	-10613
ondik	-10614
▁1872	-10615
▁loch	-10616
▁helen	-10617
▁roche	-10618
▁siber	-10619
▁dohain	-10620
▁ehunka	-10621
▁esaldi	-10622
▁sektor	-10623
▁vermont	-10624
▁zatitan	-10625
▁alemanez	-10626
▁elizabeth	-10627
377	-10628
380	-10629
aroan	-10630
ichla	-10631
turus	-10632
▁aires	-10633
▁artur	-10634
▁pachy	-10635
▁elizak	-10636
▁gotiko	-10637
▁wilson	-10638
▁dituztela	-10639
▁zenbakian	-10640
▁ef	-10641
▁gw	-10642
▁nork	-10643
ismoari	-10644
▁akordio	-10645
▁lapurdi	-10646
▁abiatuta	-10647
▁elektroi	-10648
▁sisteman	-10649
ee	-10650
581	-10651
▁456	-10652
▁pec	-10653
▁way	-10654
▁gluko	-10655
▁laran	-10656
▁gaueko	-10657
aziorako	-10658
▁dagokio	-10659
▁mendekoa	-10660
▁had	-10661
idoen	-10662
▁inor	-10663
▁larru	-10664
▁elektriz	-10665
▁portaera	-10666
▁euskalduna	-10667
nus	-10668
▁451	-10669
▁abiap	-10670
▁hamah	-10671
▁jokoa	-10672
▁mahai	-10673
aritzan	-10674
▁abstrak	-10675
▁trantsizio	-10676
398	-10677
574	-10678
gue	-10679
jon	-10680
▁loph	-10681
▁paras	-10682
▁elezah	-10683
▁argentina	-10684
▁berreskuratzeko	-10685
374	-10686
itoa	-10687
▁cork	-10688
▁ident	-10689
enburgo	-10690
▁bakearen	-10691
▁inperial	-10692
atzeagatik	-10693
▁eraikitzea	-10694
323	-10695
329	-10696
362	-10697
▁fed	-10698
▁scar	-10699
▁arina	-10700
▁armatu	-10701
▁nobela	-10702
▁sindro	-10703
▁itsaser	-10704
▁txinatar	-10705
▁deituriko	-10706
▁oklahomako	-10707
▁elkarlanean	-10708
▁nazionaleko	-10709
306	-10710
527	-10711
uso	-10712
▁izo	-10713
▁ganb	-10714
▁mats	-10715
▁haurr	-10716
▁ezpata	-10717
▁santos	-10718
▁zorrotz	-10719
▁misterio	-10720
344	-10721
ieri	-10722
▁728	-10723
▁1842	-10724
▁daud	-10725
▁artis	-10726
▁kopia	-10727
▁txinan	-10728
▁estandar	-10729
▁indianako	-10730
▁izatearen	-10731
▁maitasuna	-10732
▁eskualdeak	-10733
370	-10734
mol	-10735
qua	-10736
inco	-10737
▁foot	-10738
▁krip	-10739
▁merc	-10740
▁sorta	-10741
▁sintes	-10742
316	-10743
yro	-10744
▁425	-10745
▁545	-10746
▁aude	-10747
▁both	-10748
▁poly	-10749
▁bohem	-10750
▁ondar	-10751
▁eragoz	-10752
▁scorpa	-10753
▁jenerala	-10754
▁kapitain	-10755
▁kolektibo	-10756
▁442	-10757
▁597	-10758
▁plas	-10759
ituriko	-10760
▁brontz	-10761
▁perfek	-10762
▁indartsu	-10763
▁otomandar	-10764
585	-10765
lam	-10766
igma	-10767
▁439	-10768
▁663	-10769
ketek	-10770
▁azko	-10771
▁helm	-10772
▁apost	-10773
▁hirira	-10774
▁ziurren	-10775
▁crocidura	-10776
▁zaharraren	-10777
▁proposatzen	-10778
311	-10779
azpi	-10780
▁505	-10781
▁eston	-10782
▁house	-10783
▁kasua	-10784
▁symph	-10785
▁aukeratzen	-10786
528	-10787
▁433	-10788
▁444	-10789
▁arc	-10790
▁kit	-10791
▁milan	-10792
▁tourra	-10793
▁abesten	-10794
▁hostoak	-10795
▁lehengo	-10796
▁punturik	-10797
▁gaztelaniazko	-10798
pr	-10799
310	-10800
387	-10801
518	-10802
525	-10803
aph	-10804
oga	-10805
tola	-10806
▁506	-10807
▁555	-10808
▁876	-10809
bator	-10810
▁1841	-10811
▁1859	-10812
▁vera	-10813
▁izurr	-10814
▁carmen	-10815
oglossus	-10816
▁hilobia	-10817
▁aitzindari	-10818
▁erradiazio	-10819
▁estrategia	-10820
529	-10821
▁biel	-10822
▁mate	-10823
▁rosa	-10824
▁xake	-10825
tropis	-10826
▁disney	-10827
▁landak	-10828
▁ulertu	-10829
▁harresi	-10830
▁hitzetan	-10831
▁garatzeko	-10832
▁arduraduna	-10833
▁nabarmenak	-10834
▁cyrtodactylus	-10835
347	-10836
381	-10837
383	-10838
540	-10839
583	-10840
▁643	-10841
▁cub	-10842
▁arde	-10843
▁baliatu	-10844
▁filipin	-10845
▁irakurle	-10846
▁jotzaile	-10847
▁baieztatu	-10848
▁eskaintza	-10849
523	-10850
526	-10851
586	-10852
zkoa	-10853
▁lie	-10854
▁she	-10855
▁izarra	-10856
▁bizirau	-10857
▁paragua	-10858
▁villers	-10859
▁akademia	-10860
▁demokrazia	-10861
hn	-10862
▁ded	-10863
▁1864	-10864
uensis	-10865
▁kareh	-10866
ifikazio	-10867
▁mendirik	-10868
570	-10869
575	-10870
bard	-10871
ibel	-10872
quez	-10873
▁arak	-10874
▁baro	-10875
azteko	-10876
chelys	-10877
ialder	-10878
▁leinu	-10879
▁noblez	-10880
517	-10881
▁kax	-10882
▁niz	-10883
eginak	-10884
▁kodea	-10885
▁jabetu	-10886
▁indibid	-10887
▁omenezko	-10888
▁jeneralak	-10889
▁pertsonal	-10890
▁erregeorde	-10891
▁673	-10892
▁agu	-10893
▁lle	-10894
kizuna	-10895
▁bonba	-10896
▁adarra	-10897
kortasun	-10898
▁zentroa	-10899
▁deustuko	-10900
▁koalizio	-10901
▁txikiagoak	-10902
372	-10903
504	-10904
510	-10905
coc	-10906
loph	-10907
▁455	-10908
▁div	-10909
▁kel	-10910
▁1869	-10911
▁mito	-10912
▁izpir	-10913
▁gaizki	-10914
▁legend	-10915
▁record	-10916
▁mendien	-10917
▁baserria	-10918
▁kazetaria	-10919
502	-10920
▁ear	-10921
▁rug	-10922
▁tob	-10923
anzko	-10924
▁1886	-10925
▁oxigeno	-10926
▁harturik	-10927
▁ohikoena	-10928
▁kongelatu	-10929
▁ziurrenik	-10930
376	-10931
593	-10932
enne	-10933
truk	-10934
▁iza	-10935
▁pim	-10936
▁usad	-10937
▁gorro	-10938
▁moral	-10939
▁moztu	-10940
tzearekin	-10941
▁hamilton	-10942
▁kontrolatzeko	-10943
573	-10944
tio	-10945
tran	-10946
▁odo	-10947
▁torr	-10948
dutako	-10949
▁aditz	-10950
▁indartu	-10951
▁zituztenak	-10952
▁nazionalean	-10953
▁programazio	-10954
326	-10955
340	-10956
508	-10957
alan	-10958
▁obr	-10959
▁arroz	-10960
▁esanez	-10961
▁dutenez	-10962
▁hizkuntzen	-10963
wald	-10964
▁801	-10965
▁rap	-10966
ellus	-10967
▁bulg	-10968
▁conf	-10969
▁ibar	-10970
alidae	-10971
▁kostu	-10972
kariaren	-10973
teagatik	-10974
▁aginduz	-10975
▁egutegi	-10976
▁indones	-10977
▁betetzeko	-10978
▁lurrikara	-10979
▁sentitzen	-10980
▁literaturaren	-10981
512	-10982
542	-10983
igl	-10984
▁ue	-10985
kara	-10986
▁ray	-10987
erena	-10988
▁prov	-10989
▁helio	-10990
▁daukan	-10991
▁jarriz	-10992
▁julien	-10993
▁vienako	-10994
▁aldizkariak	-10995
▁estatistika	-10996
312	-10997
521	-10998
▁bei	-10999
▁fede	-11000
▁alfab	-11001
▁bathy	-11002
▁night	-11003
▁konstituzioa	-11004
389	-11005
572	-11006
587	-11007
▁tul	-11008
▁alor	-11009
▁emil	-11010
▁habe	-11011
istango	-11012
▁ederre	-11013
▁zilind	-11014
▁pomacentr	-11015
▁artzapezpik	-11016
302	-11017
378	-11018
397	-11019
omer	-11020
▁441	-11021
▁521	-11022
▁plana	-11023
▁ricardo	-11024
▁ustezko	-11025
▁ailegatu	-11026
▁atentatu	-11027
▁eskoziar	-11028
▁oraingoan	-11029
▁craugastoridae	-11030
509	-11031
▁503	-11032
▁587	-11033
▁bau	-11034
bourg	-11035
ropol	-11036
▁gorako	-11037
▁origin	-11038
▁ekoiztu	-11039
▁arduratu	-11040
▁ondorioa	-11041
▁ordenako	-11042
▁kilometroan	-11043
▁595	-11044
▁ginea	-11045
▁neskat	-11046
▁ikastol	-11047
▁militan	-11048
▁garailea	-11049
▁altxamendu	-11050
▁emakumearen	-11051
▁independent	-11052
524	-11053
541	-11054
595	-11055
sel	-11056
ione	-11057
tten	-11058
▁mcc	-11059
▁erup	-11060
▁four	-11061
▁txim	-11062
▁hutsa	-11063
▁inigo	-11064
▁kobaz	-11065
▁bernard	-11066
▁mexikon	-11067
▁zabalak	-11068
▁desberdina	-11069
▁erregealdian	-11070
304	-11071
342	-11072
343	-11073
392	-11074
395	-11075
546	-11076
597	-11077
sky	-11078
uneak	-11079
▁atra	-11080
▁gold	-11081
ainoko	-11082
▁alvar	-11083
▁kausa	-11084
▁mario	-11085
▁thamn	-11086
▁banatua	-11087
▁errepidean	-11088
365	-11089
503	-11090
506	-11091
chan	-11092
▁875	-11093
▁cum	-11094
▁dukea	-11095
▁ehung	-11096
▁modua	-11097
ophthal	-11098
▁katedral	-11099
▁amaierako	-11100
▁frantziara	-11101
369	-11102
590	-11103
591	-11104
arax	-11105
▁kaw	-11106
olito	-11107
▁down	-11108
▁galtz	-11109
▁buruko	-11110
▁probabilitate	-11111
363	-11112
382	-11113
548	-11114
576	-11115
logo	-11116
dunak	-11117
innis	-11118
imetro	-11119
▁lampro	-11120
▁zenaren	-11121
▁osagaiak	-11122
328	-11123
348	-11124
353	-11125
cey	-11126
iem	-11127
▁bb	-11128
▁419	-11129
▁599	-11130
▁ola	-11131
aztuna	-11132
▁emigr	-11133
▁koldo	-11134
▁alfred	-11135
▁debuta	-11136
▁mender	-11137
▁sultan	-11138
▁vesper	-11139
▁metabol	-11140
▁williams	-11141
384	-11142
549	-11143
579	-11144
nie	-11145
▁wr	-11146
▁sic	-11147
▁hotza	-11148
▁oligo	-11149
▁nahita	-11150
▁orrialde	-11151
▁piramide	-11152
mu	-11153
391	-11154
▁744	-11155
▁833	-11156
▁kiss	-11157
▁fusil	-11158
▁ahozko	-11159
▁serran	-11160
▁lengoaia	-11161
▁ezartzeko	-11162
▁erdigunean	-11163
314	-11164
390	-11165
589	-11166
oto	-11167
▁gi	-11168
▁373	-11169
▁fuj	-11170
ithec	-11171
tzela	-11172
▁1881	-11173
▁vaud	-11174
▁zeto	-11175
tatuko	-11176
▁eslav	-11177
▁etiop	-11178
▁calabr	-11179
▁columb	-11180
▁montes	-11181
iarekiko	-11182
▁enrique	-11183
▁stephen	-11184
▁mekanika	-11185
▁izenburua	-11186
▁jauregian	-11187
▁horrenbestez	-11188
364	-11189
385	-11190
393	-11191
atra	-11192
idak	-11193
yron	-11194
▁exp	-11195
▁lug	-11196
▁akus	-11197
▁mesk	-11198
▁scho	-11199
iparis	-11200
unaren	-11201
▁sumend	-11202
▁frances	-11203
▁prozedura	-11204
▁‑	-11205
360	-11206
▁526	-11207
▁576	-11208
arias	-11209
▁1871	-11210
▁deba	-11211
▁mass	-11212
▁little	-11213
aldietan	-11214
▁analisi	-11215
▁ebanjel	-11216
▁mugatik	-11217
▁zuzentz	-11218
▁baliatuz	-11219
▁kontsumo	-11220
▁gasteizen	-11221
301	-11222
327	-11223
367	-11224
515	-11225
596	-11226
▁1820	-11227
▁endo	-11228
▁good	-11229
▁isabel	-11230
▁fabrika	-11231
arengatik	-11232
▁eskandinav	-11233
▁kontserbator	-11234
571	-11235
oaz	-11236
▁tw	-11237
lesen	-11238
▁gord	-11239
▁rhac	-11240
▁biluz	-11241
garrena	-11242
▁esanda	-11243
▁egoeran	-11244
▁infekzio	-11245
▁irizpide	-11246
▁euskaldunak	-11247
516	-11248
toma	-11249
▁pez	-11250
▁dame	-11251
▁nigr	-11252
▁berna	-11253
▁larria	-11254
▁tropid	-11255
▁yorken	-11256
▁dagoenez	-11257
▁aurrerago	-11258
▁zientzien	-11259
▁aurrerapen	-11260
▁eskualdearen	-11261
373	-11262
▁1885	-11263
imenez	-11264
▁izandakoa	-11265
▁ospetsuak	-11266
345	-11267
501	-11268
▁514	-11269
▁als	-11270
▁molde	-11271
▁hantxe	-11272
▁sintom	-11273
▁hitzaren	-11274
▁batasunak	-11275
▁jerusalem	-11276
▁populazioa	-11277
592	-11278
uno	-11279
osem	-11280
▁time	-11281
larien	-11282
tegiko	-11283
▁joana	-11284
▁neder	-11285
▁jesusen	-11286
▁hauetatik	-11287
▁landareak	-11288
309	-11289
361	-11290
hon	-11291
ness	-11292
▁469	-11293
▁590	-11294
▁724	-11295
▁azala	-11296
▁koron	-11297
▁amphis	-11298
▁ardenak	-11299
▁azalpen	-11300
▁lapurre	-11301
▁abantaila	-11302
▁ospakizun	-11303
▁programak	-11304
▁laurogeita	-11305
308	-11306
321	-11307
513	-11308
566	-11309
nas	-11310
enay	-11311
inga	-11312
▁biarr	-11313
▁idaho	-11314
▁ulster	-11315
396	-11316
ctr	-11317
isi	-11318
erdi	-11319
▁naiz	-11320
▁creek	-11321
▁baliteke	-11322
▁argazkiak	-11323
▁oinarrian	-11324
▁etorritako	-11325
▁elektromagn	-11326
547	-11327
594	-11328
omia	-11329
▁476	-11330
▁makin	-11331
▁marsh	-11332
▁nebul	-11333
▁txoko	-11334
ogramma	-11335
▁mailak	-11336
ketarako	-11337
▁itxuraz	-11338
▁jatorrian	-11339
303	-11340
386	-11341
507	-11342
514	-11343
520	-11344
itr	-11345
edra	-11346
vern	-11347
▁596	-11348
▁hat	-11349
▁hoz	-11350
▁kra	-11351
angel	-11352
▁adre	-11353
▁ikurr	-11354
▁elizako	-11355
▁ekialdea	-11356
▁liburutegia	-11357
▁salamancako	-11358
305	-11359
lip	-11360
goza	-11361
▁393	-11362
▁722	-11363
▁euzko	-11364
▁festa	-11365
▁saila	-11366
▁trach	-11367
▁kretaz	-11368
▁praktika	-11369
▁inperioak	-11370
▁veneziako	-11371
▁autonomoan	-11372
313	-11373
317	-11374
isek	-11375
▁454	-11376
▁821	-11377
▁wit	-11378
iloen	-11379
▁bikt	-11380
izkrib	-11381
▁jakue	-11382
▁lider	-11383
▁pleth	-11384
▁habita	-11385
▁txakur	-11386
tasunari	-11387
▁diskoan	-11388
▁saileko	-11389
▁saleros	-11390
vy	-11391
324	-11392
arka	-11393
ebra	-11394
enean	-11395
orrek	-11396
▁1789	-11397
▁kell	-11398
▁pier	-11399
▁young	-11400
▁lincoln	-11401
▁zeregin	-11402
▁gutxitan	-11403
▁mendebaldea	-11404
▁identifikatu	-11405
325	-11406
505	-11407
hama	-11408
▁1878	-11409
▁txil	-11410
ategiak	-11411
unearen	-11412
▁aditua	-11413
▁ekaitz	-11414
▁lurrera	-11415
▁zaragoza	-11416
▁aldatzeko	-11417
▁probintzietako	-11418
ος	-11419
598	-11420
610	-11421
ege	-11422
sko	-11423
cker	-11424
holm	-11425
▁civ	-11426
▁sua	-11427
▁herak	-11428
▁esteban	-11429
▁burujabe	-11430
▁bizitzeko	-11431
▁antolaketa	-11432
erio	-11433
▁1867	-11434
▁abad	-11435
▁ander	-11436
▁epait	-11437
▁txinat	-11438
▁sartuta	-11439
▁sindikatu	-11440
▁brontzezko	-11441
005	-11442
sec	-11443
vers	-11444
▁513	-11445
oridae	-11446
▁emeak	-11447
▁zaind	-11448
▁gunean	-11449
▁saturn	-11450
igarriak	-11451
▁apostol	-11452
▁komentu	-11453
▁objektuak	-11454
▁vespertil	-11455
▁eskuizkrib	-11456
▁sekuentzia	-11457
▁zerbitzari	-11458
beko	-11459
ectes	-11460
elari	-11461
▁beso	-11462
▁estat	-11463
▁heste	-11464
▁ibarra	-11465
▁hirurehun	-11466
▁ij	-11467
agen	-11468
idos	-11469
▁445	-11470
baren	-11471
illas	-11472
▁iman	-11473
▁mata	-11474
▁sarthe	-11475
▁teresa	-11476
▁irailak	-11477
abigarren	-11478
▁defendatu	-11479
▁garaietan	-11480
▁udaberrian	-11481
543	-11482
▁449	-11483
rurus	-11484
▁sute	-11485
▁txor	-11486
▁berbera	-11487
▁jaurtik	-11488
cheilidae	-11489
▁sociedad	-11490
▁musikagilea	-11491
▁trichomycterus	-11492
319	-11493
545	-11494
584	-11495
tha	-11496
▁447	-11497
▁452	-11498
▁472	-11499
▁made	-11500
▁plut	-11501
▁wall	-11502
▁botan	-11503
▁gastr	-11504
▁allier	-11505
▁turismo	-11506
▁bidaiatu	-11507
▁nebraskako	-11508
▁potentzial	-11509
▁467	-11510
▁ethe	-11511
▁home	-11512
inidae	-11513
▁banan	-11514
▁brach	-11515
▁luzez	-11516
▁campos	-11517
▁claude	-11518
▁loreak	-11519
omorphus	-11520
▁soldata	-11521
▁alderdien	-11522
▁geografia	-11523
▁hampshire	-11524
▁jendearen	-11525
▁aipatzekoak	-11526
371	-11527
519	-11528
580	-11529
611	-11530
ali	-11531
▁nak	-11532
eland	-11533
illes	-11534
▁piet	-11535
iatzen	-11536
ylidae	-11537
▁metod	-11538
▁sabin	-11539
▁hirien	-11540
ainville	-11541
▁hasteko	-11542
▁moldatu	-11543
622	-11544
▁391	-11545
▁nel	-11546
zkoak	-11547
▁1847	-11548
▁oaxaca	-11549
▁erritmo	-11550
▁prestak	-11551
▁lurretik	-11552
▁helburuak	-11553
379	-11554
mere	-11555
▁bord	-11556
▁rose	-11557
▁shar	-11558
▁stra	-11559
▁tail	-11560
▁intel	-11561
▁kanal	-11562
▁polem	-11563
entzial	-11564
▁gogoko	-11565
▁mugatu	-11566
▁caudata	-11567
▁errepik	-11568
▁testuak	-11569
▁bateratu	-11570
▁erreserba	-11571
▁gudaroste	-11572
▁gazteluaren	-11573
ics	-11574
raul	-11575
▁tona	-11576
▁arana	-11577
▁polim	-11578
▁montag	-11579
▁urdina	-11580
▁zelaia	-11581
▁patrick	-11582
▁corydoras	-11583
▁nederland	-11584
▁batzordeak	-11585
▁α	-11586
341	-11587
fas	-11588
igilea	-11589
▁fronte	-11590
▁morgan	-11591
▁puntua	-11592
▁nahiago	-11593
▁irabaziz	-11594
▁euskotren	-11595
▁germaniako	-11596
▁gizabanako	-11597
▁teknologikoetan	-11598
346	-11599
349	-11600
375	-11601
arin	-11602
akzio	-11603
otris	-11604
▁1884	-11605
▁beta	-11606
▁orle	-11607
▁buruaz	-11608
▁lanari	-11609
▁dutenean	-11610
▁idatzita	-11611
▁handietan	-11612
▁taldekide	-11613
▁etheostoma	-11614
▁erreginaren	-11615
uzen	-11616
▁610	-11617
▁725	-11618
▁app	-11619
▁cau	-11620
▁hea	-11621
▁deseg	-11622
▁goraip	-11623
▁irratia	-11624
▁amphisba	-11625
▁ikasleak	-11626
pt	-11627
▁jacob	-11628
▁erromes	-11629
▁gertuko	-11630
001	-11631
582	-11632
oman	-11633
arrag	-11634
▁bahitu	-11635
▁katean	-11636
▁zaldia	-11637
▁teknikak	-11638
▁kontrolpean	-11639
▁katolikoaren	-11640
699	-11641
▁588	-11642
▁eza	-11643
▁deux	-11644
▁irakats	-11645
▁luzeena	-11646
▁jarduten	-11647
▁eleberriak	-11648
▁zabaltzeko	-11649
▁vespertilion	-11650
nak	-11651
irus	-11652
▁674	-11653
▁ave	-11654
taldi	-11655
▁konex	-11656
inensis	-11657
▁galdera	-11658
▁esperien	-11659
▁mountain	-11660
▁litekeena	-11661
▁herrialdeak	-11662
578	-11663
▁zh	-11664
▁465	-11665
▁chev	-11666
onotus	-11667
▁hamas	-11668
▁hirietan	-11669
▁ikasleen	-11670
▁autonomoa	-11671
▁bihurtzeko	-11672
▁jauregiaren	-11673
▁konstantinop	-11674
▁·	-11675
asco	-11676
▁pri	-11677
tekoa	-11678
▁laud	-11679
▁proteina	-11680
iae	-11681
ysa	-11682
petu	-11683
zako	-11684
▁1874	-11685
ilaria	-11686
▁howard	-11687
ichthyidae	-11688
▁aitzindaria	-11689
▁457	-11690
▁530	-11691
▁655	-11692
▁844	-11693
▁deg	-11694
▁alto	-11695
▁anna	-11696
▁notre	-11697
▁orban	-11698
▁point	-11699
▁adostu	-11700
▁berdea	-11701
▁batzuei	-11702
▁taberna	-11703
▁egitasmo	-11704
▁erabakiak	-11705
▁helburuarekin	-11706
rix	-11707
iloi	-11708
stro	-11709
▁dum	-11710
▁bolun	-11711
▁artist	-11712
▁brycon	-11713
▁krimen	-11714
iengatik	-11715
▁hiltzeko	-11716
▁jakintza	-11717
▁pelikula	-11718
▁portugale	-11719
▁zalantzan	-11720
▁lurraldeetan	-11721
▁616	-11722
▁ciud	-11723
ionatu	-11724
mendia	-11725
▁lepido	-11726
▁bukaera	-11727
▁aginpidea	-11728
563	-11729
ici	-11730
▁mr	-11731
etus	-11732
tadt	-11733
▁461	-11734
▁iso	-11735
kuntz	-11736
▁glor	-11737
▁oihar	-11738
▁kideen	-11739
▁urteaz	-11740
▁batuetara	-11741
▁hiriburutik	-11742
▁luzeetarako	-11743
315	-11744
kol	-11745
emon	-11746
iman	-11747
rino	-11748
▁ado	-11749
▁aha	-11750
▁sys	-11751
atera	-11752
▁louv	-11753
▁pere	-11754
▁barcel	-11755
▁pairatu	-11756
▁bizimodua	-11757
▁horretara	-11758
▁ilargiaren	-11759
▁iparraldea	-11760
▁uharteetako	-11761
002	-11762
602	-11763
iario	-11764
tella	-11765
▁musc	-11766
lerrek	-11767
▁aralar	-11768
▁norops	-11769
▁lekuald	-11770
▁moskuko	-11771
▁jaiotzen	-11772
▁zetorren	-11773
▁itzulpena	-11774
▁margarita	-11775
▁dituelarik	-11776
▁herrialdeen	-11777
▁ordezkatzen	-11778
008	-11779
tikan	-11780
itidae	-11781
▁birik	-11782
▁suitza	-11783
▁etorkizunean	-11784
▁nemacheilidae	-11785
abean	-11786
▁deia	-11787
itaren	-11788
▁umore	-11789
▁sendoa	-11790
▁gidaritza	-11791
▁burututako	-11792
▁denborarekin	-11793
307	-11794
atem	-11795
▁leial	-11796
▁punta	-11797
▁termo	-11798
▁windo	-11799
▁galeria	-11800
▁izarrak	-11801
▁luzatzen	-11802
▁aurreratu	-11803
▁kontratua	-11804
▁materiala	-11805
▁prozesuak	-11806
▁uharteetan	-11807
565	-11808
▁485	-11809
optera	-11810
▁harro	-11811
▁pelikul	-11812
akon	-11813
▁tax	-11814
▁lyco	-11815
▁sphen	-11816
▁gastro	-11817
▁tartea	-11818
▁artelan	-11819
▁ophichth	-11820
▁katolikoak	-11821
▁kilometrotara	-11822
004	-11823
677	-11824
▁493	-11825
amoto	-11826
tzian	-11827
▁robo	-11828
▁zing	-11829
▁cesar	-11830
▁finko	-11831
▁ekoitz	-11832
▁zuzenbidea	-11833
▁azpiegitura	-11834
▁tradizionala	-11835
333	-11836
606	-11837
644	-11838
682	-11839
vas	-11840
aiak	-11841
edun	-11842
onau	-11843
opodo	-11844
▁agam	-11845
▁mapa	-11846
itarrek	-11847
▁askapen	-11848
▁estadio	-11849
▁floridako	-11850
▁manifestazio	-11851
▁kontsideratzen	-11852
umena	-11853
▁carn	-11854
▁from	-11855
▁irreg	-11856
▁garest	-11857
▁zitezkeen	-11858
▁agintariek	-11859
▁dinastiaren	-11860
▁eskuratzeko	-11861
este	-11862
kete	-11863
mani	-11864
atsuak	-11865
▁egoki	-11866
▁hanka	-11867
▁kosta	-11868
▁tolosako	-11869
▁italieraz	-11870
▁teoriaren	-11871
▁eraginkorra	-11872
borg	-11873
undu	-11874
aspis	-11875
▁saur	-11876
▁aizko	-11877
▁enpar	-11878
▁lepid	-11879
▁odola	-11880
▁zelai	-11881
▁kanpoan	-11882
▁stanley	-11883
▁campania	-11884
▁dezakeen	-11885
▁hegoaldea	-11886
▁handienetako	-11887
604	-11888
idem	-11889
▁735	-11890
▁sci	-11891
▁1800	-11892
▁1877	-11893
▁emir	-11894
▁ents	-11895
ophrys	-11896
▁assoc	-11897
▁pobre	-11898
adoreak	-11899
▁estruk	-11900
▁hitzen	-11901
▁aintzat	-11902
▁gaztetan	-11903
▁espezieak	-11904
▁transform	-11905
ceae	-11906
ores	-11907
tatze	-11908
iletik	-11909
▁jeltz	-11910
tasunik	-11911
▁daraman	-11912
▁korrika	-11913
▁mesopota	-11914
▁daitekeena	-11915
▁eskainitako	-11916
jas	-11917
woo	-11918
▁721	-11919
▁ande	-11920
toaren	-11921
eriaren	-11922
▁erritu	-11923
▁sinfon	-11924
▁albiste	-11925
▁botatzen	-11926
▁japonian	-11927
▁ofizialak	-11928
▁luk	-11929
▁1854	-11930
▁bita	-11931
▁izak	-11932
▁jesu	-11933
▁askea	-11934
▁hondo	-11935
▁horia	-11936
▁zeina	-11937
▁zergak	-11938
▁aparatu	-11939
▁oraingo	-11940
▁txarrak	-11941
▁mekanismo	-11942
ese	-11943
lig	-11944
yen	-11945
▁dna	-11946
antol	-11947
▁nazi	-11948
▁krime	-11949
▁doazen	-11950
▁ezagut	-11951
▁federal	-11952
▁japonia	-11953
▁sevilla	-11954
▁sustatu	-11955
▁armarria	-11956
▁ezezagun	-11957
▁elikatzen	-11958
▁independentea	-11959
695	-11960
otik	-11961
▁our	-11962
▁pty	-11963
▁1836	-11964
▁1862	-11965
▁bufon	-11966
▁tebas	-11967
▁london	-11968
▁izugarria	-11969
▁biztanleek	-11970
▁egunkarian	-11971
ml	-11972
nost	-11973
iratu	-11974
▁alek	-11975
▁cren	-11976
▁isot	-11977
▁diskoak	-11978
▁jainkos	-11979
▁oroitza	-11980
▁kristalak	-11981
▁hegoaldetik	-11982
688	-11983
ory	-11984
tora	-11985
▁702	-11986
▁pyr	-11987
agile	-11988
uille	-11989
▁etan	-11990
▁sego	-11991
▁grezia	-11992
▁menper	-11993
▁neoklas	-11994
▁arrazional	-11995
▁heidelberg	-11996
▁politikoen	-11997
▁kalkulatzen	-11998
006	-11999
607	-12000
rag	-12001
▁upn	-12002
ateak	-12003
ianok	-12004
iboak	-12005
▁genet	-12006
▁satan	-12007
▁amster	-12008
▁leopol	-12009
▁kontzil	-12010
▁nabaria	-12011
▁jarduerak	-12012
007	-12013
601	-12014
697	-12015
aix	-12016
unez	-12017
vako	-12018
ction	-12019
▁asty	-12020
ifrons	-12021
▁lagin	-12022
▁belgika	-12023
▁egipton	-12024
▁ekartzen	-12025
▁kondaira	-12026
▁toledoko	-12027
▁urteetako	-12028
▁mugakideak	-12029
681	-12030
yra	-12031
▁amn	-12032
siste	-12033
▁afgan	-12034
▁jauzi	-12035
▁zoritx	-12036
▁ministroak	-12037
626	-12038
pas	-12039
dium	-12040
▁458	-12041
▁lou	-12042
lossa	-12043
elaren	-12044
▁prakt	-12045
▁castle	-12046
etaraino	-12047
▁navarra	-12048
▁saxonia	-12049
▁basilika	-12050
garritasuna	-12051
680	-12052
▁dog	-12053
ercus	-12054
▁1858	-12055
▁jako	-12056
▁amodio	-12057
▁bisigo	-12058
▁botoak	-12059
▁prents	-12060
▁viktor	-12061
▁aktiboa	-12062
▁euskarri	-12063
▁apaingarri	-12064
sc	-12065
toia	-12066
▁466	-12067
▁835	-12068
▁laua	-12069
onidae	-12070
▁obran	-12071
▁zuntz	-12072
▁bertar	-12073
▁compan	-12074
▁guatem	-12075
itzearen	-12076
▁artisau	-12077
▁izateak	-12078
▁estatuen	-12079
▁typhlops	-12080
▁protokolo	-12081
▁pilotalekua	-12082
▁politikoaren	-12083
lyn	-12084
into	-12085
mery	-12086
illac	-12087
▁iran	-12088
▁iron	-12089
▁txal	-12090
eneuve	-12091
▁hortz	-12092
▁madag	-12093
▁osoak	-12094
alditik	-12095
obranch	-12096
▁aldake	-12097
▁aragoi	-12098
▁adituek	-12099
▁tolkien	-12100
▁konpondu	-12101
▁instrumen	-12102
683	-12103
ezi	-12104
usio	-12105
▁484	-12106
▁usur	-12107
▁petit	-12108
▁pixka	-12109
atuetan	-12110
ieratik	-12111
▁ospita	-12112
▁guadala	-12113
ikoarekin	-12114
▁oposizio	-12115
▁konturatu	-12116
▁metrotako	-12117
▁asturiasko	-12118
▁esperimentu	-12119
pp	-12120
674	-12121
678	-12122
ding	-12123
elio	-12124
▁dif	-12125
▁etr	-12126
▁pem	-12127
atzan	-12128
▁akab	-12129
▁hann	-12130
▁joxe	-12131
▁khan	-12132
barrut	-12133
roskop	-12134
▁buruak	-12135
▁dionis	-12136
▁kanada	-12137
▁errebel	-12138
▁guztiei	-12139
▁arruntak	-12140
▁jarraitzeko	-12141
615	-12142
nea	-12143
iens	-12144
▁523	-12145
▁855	-12146
▁urk	-12147
▁1883	-12148
▁cler	-12149
▁maran	-12150
▁mobil	-12151
▁progres	-12152
▁errusian	-12153
▁aldarrikapen	-12154
603	-12155
608	-12156
685	-12157
teo	-12158
▁if	-12159
iops	-12160
▁645	-12161
▁god	-12162
sburg	-12163
▁1812	-12164
▁1851	-12165
▁amon	-12166
▁apal	-12167
▁brit	-12168
ailles	-12169
degiak	-12170
izabal	-12171
▁ainger	-12172
▁famatua	-12173
▁gehiegi	-12174
▁village	-12175
▁herrietan	-12176
▁funtzionatzen	-12177
▁nabarmentzeko	-12178
676	-12179
684	-12180
▁678	-12181
▁rho	-12182
▁vul	-12183
tonek	-12184
igango	-12185
▁eratuz	-12186
▁indiar	-12187
▁sintag	-12188
▁lagunek	-12189
▁konpromis	-12190
▁magnetiko	-12191
▁triangelu	-12192
▁baitzegoen	-12193
▁literaturako	-12194
621	-12195
mac	-12196
▁543	-12197
ategia	-12198
▁igande	-12199
aletasun	-12200
▁atseden	-12201
▁fisikoa	-12202
▁hierark	-12203
▁teoriak	-12204
▁askatzen	-12205
▁igotzeko	-12206
▁dimentsio	-12207
▁baliabideak	-12208
▁zazpigarren	-12209
612	-12210
617	-12211
gal	-12212
ret	-12213
anax	-12214
iota	-12215
orno	-12216
▁lus	-12217
ainak	-12218
tzari	-12219
ophryn	-12220
▁kaler	-12221
▁tetra	-12222
ogaster	-12223
▁alditan	-12224
▁altsasu	-12225
▁zituelako	-12226
▁beldurrezko	-12227
673	-12228
teri	-12229
▁cup	-12230
▁lodi	-12231
erarik	-12232
urekin	-12233
▁txile	-12234
▁laukiz	-12235
▁college	-12236
▁irabazten	-12237
▁sevillako	-12238
▁solairuko	-12239
642	-12240
675	-12241
▁863	-12242
▁pago	-12243
▁punc	-12244
▁batuek	-12245
▁loturak	-12246
▁zelulak	-12247
▁ekosiste	-12248
▁erakarri	-12249
▁estiloko	-12250
▁telefono	-12251
▁erdigunea	-12252
▁jasotzeko	-12253
▁azpiespezie	-12254
▁mendebaldetik	-12255
mal	-12256
moko	-12257
▁ent	-12258
▁sha	-12259
ignan	-12260
▁gernika	-12261
▁idazkera	-12262
▁nortasun	-12263
▁prozesuaren	-12264
614	-12265
toni	-12266
▁437	-12267
▁443	-12268
▁neo	-12269
▁1839	-12270
▁nilo	-12271
▁bizid	-12272
▁josef	-12273
▁maris	-12274
▁pista	-12275
aziorik	-12276
tikaren	-12277
▁persiar	-12278
ocephalus	-12279
▁kontzejua	-12280
▁metalezko	-12281
▁mineralaren	-12282
640	-12283
inia	-12284
▁ando	-12285
▁blas	-12286
▁play	-12287
▁kanon	-12288
▁garbia	-12289
▁bernardo	-12290
▁biltzeko	-12291
▁gainazal	-12292
▁tontorra	-12293
▁nagusiena	-12294
613	-12295
679	-12296
lik	-12297
elan	-12298
▁553	-12299
fonia	-12300
▁with	-12301
▁eskuz	-12302
▁music	-12303
▁elizan	-12304
▁emilia	-12305
▁ordoki	-12306
▁bertoko	-12307
▁gizonen	-12308
▁agerpena	-12309
▁football	-12310
▁honetara	-12311
616	-12312
648	-12313
sov	-12314
eler	-12315
enoa	-12316
olen	-12317
weil	-12318
▁533	-12319
▁vis	-12320
▁hart	-12321
▁mara	-12322
▁estad	-12323
▁lanpos	-12324
▁negatibo	-12325
▁urterako	-12326
▁erantzuna	-12327
▁zuberoako	-12328
▁industriak	-12329
▁michigango	-12330
▁unibertsitar	-12331
624	-12332
629	-12333
die	-12334
toen	-12335
▁892	-12336
▁deb	-12337
▁mix	-12338
agaia	-12339
▁goog	-12340
▁more	-12341
▁pter	-12342
▁blues	-12343
▁monts	-12344
▁sagar	-12345
odontis	-12346
▁lawren	-12347
▁muskulu	-12348
▁zutenez	-12349
▁bizileku	-12350
▁hiriekin	-12351
erta	-12352
▁ble	-12353
aridae	-12354
ikotik	-12355
▁mutur	-12356
▁markes	-12357
▁taylor	-12358
▁astyanax	-12359
▁diziplina	-12360
▁geometria	-12361
609	-12362
689	-12363
▁bac	-12364
▁argo	-12365
atikan	-12366
▁agiri	-12367
▁katea	-12368
▁milia	-12369
▁parap	-12370
▁araban	-12371
▁eskein	-12372
▁guneak	-12373
▁heights	-12374
▁ateratako	-12375
▁egindakoa	-12376
▁funtzioak	-12377
▁abestiaren	-12378
009	-12379
ort	-12380
lano	-12381
nell	-12382
▁474	-12383
▁cook	-12384
▁iban	-12385
iolako	-12386
▁eneko	-12387
▁silva	-12388
osaurus	-12389
▁zehark	-12390
▁abentur	-12391
▁fitxatu	-12392
▁diplomat	-12393
▁udalaren	-12394
▁funtzional	-12395
▁zientziaren	-12396
▁proiektuaren	-12397
618	-12398
693	-12399
698	-12400
erd	-12401
▁ya	-12402
enda	-12403
▁573	-12404
▁abd	-12405
eroak	-12406
▁1808	-12407
▁conc	-12408
▁stern	-12409
▁nekazal	-12410
▁jarraiki	-12411
▁nolabait	-12412
▁soldaduak	-12413
▁arrantzale	-12414
▁astronomia	-12415
gn	-12416
687	-12417
aco	-12418
ote	-12419
agna	-12420
elis	-12421
aceae	-12422
▁cong	-12423
▁emaz	-12424
▁gall	-12425
▁tern	-12426
willer	-12427
▁patxi	-12428
▁phyll	-12429
▁polar	-12430
▁zefal	-12431
aziaren	-12432
tzarako	-12433
▁hitzaldi	-12434
▁turkiako	-12435
▁zalantzarik	-12436
641	-12437
643	-12438
655	-12439
▁446	-12440
▁pig	-12441
▁dend	-12442
▁ather	-12443
▁andrea	-12444
▁golkoa	-12445
▁joatea	-12446
▁gustuko	-12447
▁izatetik	-12448
▁kontratu	-12449
▁operazio	-12450
▁sinesmen	-12451
▁harresiak	-12452
▁asmoarekin	-12453
▁kontzientzia	-12454
605	-12455
say	-12456
gizon	-12457
▁1849	-12458
▁bearn	-12459
▁gabea	-12460
▁santur	-12461
▁margotu	-12462
▁hamahiru	-12463
▁unitatea	-12464
▁baliatzen	-12465
▁gordetzeko	-12466
▁lurraldeko	-12467
003	-12468
696	-12469
fri	-12470
lex	-12471
lot	-12472
▁591	-12473
▁alv	-12474
agrus	-12475
▁diox	-12476
▁orek	-12477
▁osaka	-12478
▁absolu	-12479
▁gauean	-12480
▁haurra	-12481
▁ikuspeg	-12482
▁erlijioa	-12483
▁fantasia	-12484
▁ondasunak	-12485
▁ikastetxea	-12486
646	-12487
692	-12488
eli	-12489
alda	-12490
▁jub	-12491
▁sad	-12492
▁una	-12493
▁anab	-12494
▁inau	-12495
▁ideal	-12496
▁susta	-12497
▁tuber	-12498
▁argiak	-12499
▁galile	-12500
▁iradok	-12501
▁teorian	-12502
▁zezaten	-12503
arrentzat	-12504
▁kolonial	-12505
▁katalanez	-12506
▁planetaren	-12507
▁873	-12508
▁guy	-12509
▁tap	-12510
▁jurg	-12511
entoko	-12512
▁ukatu	-12513
▁xanth	-12514
▁ilargi	-12515
▁efektua	-12516
▁elkarri	-12517
▁bazituen	-12518
▁udaletxe	-12519
▁espainiak	-12520
▁kontrolatu	-12521
▁herritarrak	-12522
620	-12523
645	-12524
▁aj	-12525
ctor	-12526
exek	-12527
oven	-12528
▁515	-12529
▁maf	-12530
erriak	-12531
▁castan	-12532
▁ciudad	-12533
▁alfabet	-12534
▁erregai	-12535
▁egiptoar	-12536
623	-12537
boro	-12538
kion	-12539
olfo	-12540
osin	-12541
xual	-12542
▁1834	-12543
▁phys	-12544
itsuak	-12545
tziala	-12546
urrena	-12547
▁aholku	-12548
▁aitona	-12549
▁aurrer	-12550
▁aukerak	-12551
▁eztanda	-12552
▁gotzain	-12553
▁nazioen	-12554
▁pomeran	-12555
▁bufonidae	-12556
▁proiektuak	-12557
▁andaluziako	-12558
▁paraliparis	-12559
ll	-12560
690	-12561
eza	-12562
ovo	-12563
ury	-12564
▁679	-12565
manni	-12566
▁amil	-12567
aileko	-12568
▁arpil	-12569
▁della	-12570
▁aberde	-12571
▁gorpua	-12572
▁neurtu	-12573
▁pribil	-12574
▁aparteko	-12575
▁ekoizteko	-12576
▁indarkeria	-12577
▁onartutako	-12578
647	-12579
649	-12580
fran	-12581
▁abra	-12582
▁apus	-12583
▁pris	-12584
tarien	-12585
▁plang	-12586
▁rhino	-12587
▁arrosa	-12588
▁marina	-12589
▁single	-12590
▁soinua	-12591
▁aebtako	-12592
▁anthony	-12593
▁hasitako	-12594
▁hoberena	-12595
670	-12596
zik	-12597
ovce	-12598
▁478	-12599
inoen	-12600
▁1500	-12601
▁wind	-12602
▁bakark	-12603
▁hormak	-12604
▁samuel	-12605
▁barbara	-12606
▁agertuko	-12607
▁bakoitzari	-12608
▁salbuespen	-12609
628	-12610
▁dy	-12611
▁ال	-12612
▁hud	-12613
▁buck	-12614
▁pist	-12615
▁balor	-12616
▁dirau	-12617
▁gorago	-12618
▁plater	-12619
▁onartua	-12620
▁jaiotzez	-12621
▁johannes	-12622
▁ohiturak	-12623
▁gobernuan	-12624
▁antolatzeko	-12625
▁argitaletxe	-12626
▁xe	-12627
ioph	-12628
anger	-12629
iteak	-12630
okoak	-12631
▁1865	-12632
▁1873	-12633
▁tras	-12634
▁batai	-12635
▁zango	-12636
▁emilio	-12637
▁onenak	-12638
▁testua	-12639
▁zurich	-12640
▁izateari	-12641
▁alabamako	-12642
▁kritikatu	-12643
iku	-12644
ray	-12645
akar	-12646
amar	-12647
▁483	-12648
▁aca	-12649
ander	-12650
▁pott	-12651
▁monro	-12652
ifikatu	-12653
▁social	-12654
arrerako	-12655
▁anfibio	-12656
▁egokiak	-12657
▁herriari	-12658
▁diktadura	-12659
▁kontzertua	-12660
gr	-12661
pg	-12662
691	-12663
eti	-12664
osp	-12665
tsk	-12666
soni	-12667
ulua	-12668
▁583	-12669
▁nat	-12670
ionym	-12671
▁cres	-12672
▁elong	-12673
▁fermin	-12674
▁hartze	-12675
▁berritu	-12676
▁kartzelan	-12677
▁bereizteko	-12678
▁elikagaiak	-12679
▁instituzio	-12680
625	-12681
iec	-12682
▁768	-12683
▁rus	-12684
▁pass	-12685
▁hydro	-12686
▁parek	-12687
▁estand	-12688
▁murinae	-12689
▁ortodox	-12690
▁altueran	-12691
▁espetxean	-12692
▁taldeetan	-12693
▁aurkezteko	-12694
▁desberdinen	-12695
▁espainiaren	-12696
▁sortzaileetako	-12697
627	-12698
cott	-12699
line	-12700
quer	-12701
▁iger	-12702
ialdia	-12703
ologoa	-12704
▁dauzk	-12705
▁lingu	-12706
▁eskumen	-12707
▁katalunian	-12708
▁musulmanen	-12709
▁zerbitzuen	-12710
▁irakaskuntza	-12711
ixka	-12712
▁475	-12713
▁878	-12714
▁put	-12715
▁1852	-12716
dukzio	-12717
▁apolo	-12718
▁minim	-12719
▁bizkai	-12720
▁sareak	-12721
▁zirkun	-12722
▁giltzurr	-12723
▁igortzen	-12724
▁zuzendar	-12725
▁jakinarazi	-12726
▁villeneuve	-12727
▁aztarnategi	-12728
ape	-12729
issa	-12730
ungo	-12731
▁rif	-12732
ilius	-12733
▁soul	-12734
▁adams	-12735
▁benito	-12736
▁jordan	-12737
▁bitartekoak	-12738
▁matematikari	-12739
▁594	-12740
▁726	-12741
adoko	-12742
atore	-12743
▁1814	-12744
inchus	-12745
olaren	-12746
▁basko	-12747
▁justin	-12748
▁market	-12749
▁softwar	-12750
▁kentzeko	-12751
▁hypostomus	-12752
▁askatasunaren	-12753
619	-12754
midae	-12755
▁1863	-12756
▁cand	-12757
▁sozieta	-12758
▁euskaltz	-12759
▁gehienen	-12760
▁katalina	-12761
▁sistemat	-12762
▁institutu	-12763
▁arkeologia	-12764
▁industrian	-12765
▁atlantikoak	-12766
hao	-12767
utx	-12768
enas	-12769
▁715	-12770
▁joe	-12771
▁kaf	-12772
▁fosf	-12773
tiarra	-12774
▁hindu	-12775
▁deskon	-12776
▁madrid	-12777
▁tyrann	-12778
▁ondotik	-12779
▁turismoa	-12780
▁borrokatzen	-12781
▁euskaldunen	-12782
▁metropolitan	-12783
466	-12784
jea	-12785
▁hipp	-12786
▁opar	-12787
▁norab	-12788
ibarren	-12789
▁arekin	-12790
▁orleans	-12791
▁laurehun	-12792
▁triploph	-12793
▁nafarroakoa	-12794
ibia	-12795
ture	-12796
▁oil	-12797
▁beas	-12798
▁mans	-12799
▁moko	-12800
▁tropa	-12801
▁mesnil	-12802
▁aristote	-12803
▁atractus	-12804
▁hemendik	-12805
▁hurbildu	-12806
▁hazkundea	-12807
▁orokorrak	-12808
▁arrakastatsua	-12809
694	-12810
ezur	-12811
obius	-12812
▁franz	-12813
▁glazi	-12814
▁kings	-12815
▁floren	-12816
▁estadioa	-12817
▁hiriburuaren	-12818
686	-12819
dez	-12820
edy	-12821
uco	-12822
iles	-12823
▁477	-12824
▁life	-12825
▁polo	-12826
▁komis	-12827
▁tower	-12828
▁ustek	-12829
▁eszena	-12830
▁sexual	-12831
▁jakitea	-12832
▁laburrak	-12833
▁sozialak	-12834
▁dutelarik	-12835
▁guztiaren	-12836
▁milurteko	-12837
▁aplikatzen	-12838
▁erkidegoan	-12839
tila	-12840
doren	-12841
▁angu	-12842
▁hugo	-12843
▁saul	-12844
takoak	-12845
▁broad	-12846
▁cotes	-12847
▁jupit	-12848
▁societ	-12849
▁prentsa	-12850
▁graduatu	-12851
▁callionym	-12852
▁ezagutuko	-12853
▁prezipita	-12854
▁erdialdera	-12855
▁hurbiltzen	-12856
▁triplophysa	-12857
kii	-12858
moc	-12859
uff	-12860
eram	-12861
▁1815	-12862
▁hyph	-12863
▁karp	-12864
▁palm	-12865
▁motel	-12866
▁stein	-12867
ipinnis	-12868
▁altuen	-12869
▁interf	-12870
▁berebiz	-12871
▁lursail	-12872
▁mendeen	-12873
▁jaialdia	-12874
671	-12875
672	-12876
aume	-12877
▁corr	-12878
▁farm	-12879
▁trig	-12880
▁barik	-12881
▁front	-12882
▁kluba	-12883
▁ziona	-12884
▁montre	-12885
▁urriko	-12886
▁autobio	-12887
▁bidetik	-12888
▁russell	-12889
▁heltzeko	-12890
▁vladimir	-12891
▁baliogabe	-12892
▁bihurtuko	-12893
▁erakundeko	-12894
▁udazkenean	-12895
▁ekipamenduak	-12896
▁‘	-12897
hid	-12898
sia	-12899
ains	-12900
cell	-12901
morf	-12902
rops	-12903
▁kev	-12904
eriko	-12905
▁pean	-12906
▁xume	-12907
▁kopako	-12908
▁gastronom	-12909
▁kalitatea	-12910
▁terminoak	-12911
▁existentzia	-12912
▁kokatutakoa	-12913
▁barrutietako	-12914
▁cn	-12915
bell	-12916
orex	-12917
▁578	-12918
▁bari	-12919
▁abesb	-12920
▁aldir	-12921
▁marra	-12922
anthias	-12923
▁peruko	-12924
▁aritzeko	-12925
▁zergatik	-12926
▁garapenean	-12927
▁ospetsuena	-12928
▁probintziak	-12929
ikoz	-12930
kian	-12931
ctylo	-12932
itzek	-12933
▁1790	-12934
▁hila	-12935
baitek	-12936
▁alumin	-12937
▁grezian	-12938
▁emazteak	-12939
▁errioxako	-12940
▁dagoelarik	-12941
▁kentuckyko	-12942
▁sz	-12943
kario	-12944
uetan	-12945
ostero	-12946
▁bonap	-12947
▁shang	-12948
villers	-12949
▁atmosf	-12950
▁franca	-12951
▁juduen	-12952
▁batzordeko	-12953
▁desberdintasun	-12954
411	-12955
▁tv	-12956
arak	-12957
otip	-12958
▁dug	-12959
agune	-12960
emont	-12961
▁leke	-12962
ganako	-12963
iodakt	-12964
kideak	-12965
▁bisit	-12966
▁toles	-12967
atikoak	-12968
▁ditugun	-12969
▁hamasei	-12970
▁erromara	-12971
▁soziolog	-12972
▁artiodakt	-12973
▁derrigorre	-12974
▁garatutako	-12975
▁demokratikoa	-12976
lock	-12977
▁463	-12978
▁770	-12979
airik	-12980
▁anom	-12981
▁shak	-12982
▁infin	-12983
▁langu	-12984
▁poliki	-12985
▁eraitsi	-12986
▁hormigo	-12987
▁beharrak	-12988
▁iparralde	-12989
▁serranidae	-12990
▁britainiarrek	-12991
yu	-12992
igi	-12993
hard	-12994
hill	-12995
kiko	-12996
▁755	-12997
▁judut	-12998
▁banako	-12999
▁monter	-13000
▁propio	-13001
▁deritze	-13002
▁teilatu	-13003
▁valentz	-13004
▁jakiteko	-13005
▁erabilita	-13006
▁gonbidatu	-13007
▁kapitaina	-13008
▁australian	-13009
▁dramatikoa	-13010
▁beharrezkoak	-13011
410	-13012
pro	-13013
estr	-13014
iora	-13015
ogne	-13016
yrus	-13017
▁pow	-13018
▁rene	-13019
▁zuhai	-13020
erraren	-13021
▁bizkar	-13022
▁torres	-13023
▁tropak	-13024
▁jarrita	-13025
▁harlandu	-13026
▁poloniar	-13027
▁bakarkako	-13028
▁gernikako	-13029
▁arrakastarik	-13030
rei	-13031
vus	-13032
tona	-13033
tton	-13034
▁586	-13035
▁mitx	-13036
▁agerr	-13037
▁ambly	-13038
▁kateak	-13039
▁luzeko	-13040
▁aldendu	-13041
▁balizko	-13042
▁windows	-13043
▁guadalaj	-13044
▁koroaren	-13045
▁eginkizun	-13046
wi	-13047
sor	-13048
imac	-13049
izar	-13050
rera	-13051
▁711	-13052
▁erra	-13053
ikeria	-13054
▁aster	-13055
osemion	-13056
▁tronua	-13057
▁askotar	-13058
▁metodoa	-13059
▁salmenta	-13060
▁merkatari	-13061
▁parametro	-13062
▁txikietan	-13063
▁institutuan	-13064
gy	-13065
▁py	-13066
abia	-13067
▁473	-13068
▁ito	-13069
▁1875	-13070
▁onur	-13071
▁zeuz	-13072
▁catar	-13073
▁parab	-13074
▁republ	-13075
▁zatitu	-13076
▁lorenzo	-13077
▁parisera	-13078
▁partehar	-13079
▁yokohama	-13080
esta	-13081
▁eul	-13082
▁cnem	-13083
▁krat	-13084
ientea	-13085
lingen	-13086
▁droga	-13087
▁natal	-13088
▁ariege	-13089
▁bizkor	-13090
etarekin	-13091
torearen	-13092
▁brontze	-13093
▁koreako	-13094
▁siriako	-13095
▁fontaine	-13096
itasunaren	-13097
▁idazkaria	-13098
▁militarren	-13099
▁connecticut	-13100
king	-13101
▁chen	-13102
arraga	-13103
▁gauez	-13104
▁academ	-13105
▁akordioa	-13106
▁solairua	-13107
▁frederiko	-13108
▁merkatuan	-13109
kre	-13110
ceus	-13111
usek	-13112
▁cit	-13113
ineko	-13114
▁atel	-13115
▁comm	-13116
▁hauxe	-13117
▁solid	-13118
▁ziola	-13119
gailuak	-13120
▁deskar	-13121
▁harmon	-13122
▁irakurtzen	-13123
▁herrialdean	-13124
▁erabakitzeko	-13125
▁frantsesezko	-13126
ech	-13127
atek	-13128
iloa	-13129
oste	-13130
tiak	-13131
▁532	-13132
▁yun	-13133
arran	-13134
untua	-13135
▁ultr	-13136
▁hyphess	-13137
▁gatazkak	-13138
▁irlandan	-13139
▁kokapena	-13140
▁deritzona	-13141
▁elizbarrut	-13142
▁hyphessobrycon	-13143
kada	-13144
leen	-13145
▁680	-13146
▁tod	-13147
igraf	-13148
uluak	-13149
▁cald	-13150
▁feud	-13151
▁shim	-13152
bideko	-13153
▁anglo	-13154
▁arbol	-13155
▁gorak	-13156
▁izatez	-13157
▁hilaire	-13158
▁porrota	-13159
▁columbia	-13160
▁pairatzen	-13161
▁aktibitate	-13162
tsia	-13163
▁puz	-13164
▁laga	-13165
▁shel	-13166
▁berrik	-13167
▁eugene	-13168
▁mugatua	-13169
▁intsektu	-13170
▁akademiako	-13171
▁nekazarien	-13172
▁gizonezkoen	-13173
▁populatuena	-13174
▁penintsularen	-13175
ofis	-13176
▁alg	-13177
▁boy	-13178
▁cec	-13179
ignon	-13180
iloak	-13181
▁herm	-13182
▁sole	-13183
taldia	-13184
uville	-13185
▁labar	-13186
▁amazon	-13187
▁etxetik	-13188
▁ikaslea	-13189
▁auzoaren	-13190
▁kimikoak	-13191
▁lizentzi	-13192
▁saiatuko	-13193
▁hizkuntzan	-13194
▁komandante	-13195
sex	-13196
▁563	-13197
▁hib	-13198
▁nog	-13199
▁vig	-13200
naren	-13201
▁bass	-13202
▁chel	-13203
▁habs	-13204
▁harm	-13205
▁vega	-13206
▁zelu	-13207
▁gantz	-13208
▁izengo	-13209
▁villan	-13210
▁irteten	-13211
▁diktadur	-13212
▁handikoak	-13213
▁berezitasun	-13214
▁garraiatzen	-13215
umb	-13216
eton	-13217
vant	-13218
▁471	-13219
▁homo	-13220
▁ille	-13221
▁nich	-13222
espena	-13223
▁urria	-13224
iformes	-13225
▁goizeko	-13226
▁karratuko	-13227
▁kutsadura	-13228
▁jarraituko	-13229
fet	-13230
▁780	-13231
▁out	-13232
adunak	-13233
▁ferro	-13234
▁lanek	-13235
▁seneg	-13236
cephala	-13237
▁homose	-13238
▁saioak	-13239
▁hiztegi	-13240
▁sinbolo	-13241
▁txartel	-13242
▁determin	-13243
▁jainkoen	-13244
▁sarrerako	-13245
▁inguratuta	-13246
▁komunikazioa	-13247
477	-13248
oss	-13249
linus	-13250
▁1866	-13251
▁coul	-13252
▁moul	-13253
▁sean	-13254
iziala	-13255
▁groen	-13256
▁ikatz	-13257
▁catarina	-13258
▁txineraz	-13259
▁berreraik	-13260
▁synodontis	-13261
▁historikoak	-13262
ebo	-13263
▁710	-13264
▁889	-13265
della	-13266
txoak	-13267
▁kora	-13268
▁basur	-13269
▁abadia	-13270
▁apurtu	-13271
▁krimin	-13272
▁markak	-13273
▁pentsa	-13274
▁alfonso	-13275
▁errefux	-13276
▁formatu	-13277
▁herault	-13278
▁zirenez	-13279
▁eratzeko	-13280
▁hedadura	-13281
▁ospatzeko	-13282
▁ikuspuntutik	-13283
▁oinarriturik	-13284
422	-13285
als	-13286
fil	-13287
nice	-13288
quet	-13289
▁686	-13290
▁gua	-13291
▁spe	-13292
▁cyan	-13293
iraino	-13294
▁imita	-13295
▁ispil	-13296
▁steve	-13297
▁propag	-13298
▁ardatza	-13299
▁fundatu	-13300
▁huskako	-13301
▁izarren	-13302
▁bolumena	-13303
▁ezagutua	-13304
▁birjinaren	-13305
▁erromatarrak	-13306
653	-13307
oba	-13308
▁fox	-13309
▁via	-13310
▁eric	-13311
idanik	-13312
▁croix	-13313
▁adrian	-13314
▁ostera	-13315
▁primate	-13316
▁utzitako	-13317
▁erakartzen	-13318
▁intelektual	-13319
▁sarietarako	-13320
tap	-13321
▁682	-13322
▁berd	-13323
▁ezen	-13324
▁pake	-13325
▁abade	-13326
intzako	-13327
▁buztin	-13328
▁jarriko	-13329
▁laurden	-13330
▁ekialder	-13331
▁hastapen	-13332
▁labridae	-13333
▁zaintzen	-13334
▁algoritmo	-13335
▁eratorria	-13336
agak	-13337
cens	-13338
▁ene	-13339
▁lyn	-13340
▁wel	-13341
▁lago	-13342
▁idazk	-13343
▁basque	-13344
▁bridge	-13345
▁balioak	-13346
▁records	-13347
▁itunaren	-13348
▁berebiziko	-13349
▁hyperolius	-13350
▁kantabriako	-13351
420	-13352
499	-13353
amia	-13354
joki	-13355
▁bare	-13356
▁hank	-13357
▁lord	-13358
▁song	-13359
▁stur	-13360
arreta	-13361
▁heren	-13362
▁merkur	-13363
▁microh	-13364
▁montgo	-13365
▁abandon	-13366
▁bezalaxe	-13367
▁borrokak	-13368
▁doktorea	-13369
▁eraginda	-13370
▁garaieran	-13371
▁langileek	-13372
▁zintzilik	-13373
▁bilakatuko	-13374
▁finlandiar	-13375
▁azpimarratu	-13376
ents	-13377
erok	-13378
lers	-13379
rena	-13380
▁453	-13381
antea	-13382
maten	-13383
▁dien	-13384
▁txap	-13385
iarrei	-13386
▁ammon	-13387
▁bietan	-13388
▁euroko	-13389
▁aminoaz	-13390
▁janaria	-13391
▁santuko	-13392
▁batzutan	-13393
▁idatziak	-13394
▁sorreran	-13395
▁daitekeela	-13396
hua	-13397
vard	-13398
▁eva	-13399
▁josu	-13400
▁lope	-13401
▁uefa	-13402
▁vende	-13403
▁buztan	-13404
▁psitta	-13405
▁galaxia	-13406
▁lehenak	-13407
▁hegoalde	-13408
▁kartzela	-13409
▁minerala	-13410
▁zeukaten	-13411
▁dituelako	-13412
▁geltokiak	-13413
▁ordezkaria	-13414
hs	-13415
erek	-13416
▁615	-13417
▁kak	-13418
▁doinu	-13419
▁nahia	-13420
▁ongiz	-13421
▁usain	-13422
▁aitzak	-13423
▁bolkan	-13424
▁jasoko	-13425
▁hausnar	-13426
▁lautada	-13427
▁zaldiak	-13428
▁alboetan	-13429
▁handituz	-13430
▁murrizten	-13431
▁aurkitzeko	-13432
▁batzuetako	-13433
▁egunkariaren	-13434
▁ordezkaritza	-13435
▁04	-13436
astes	-13437
▁1837	-13438
▁sofia	-13439
▁egunak	-13440
▁presta	-13441
▁lurpeko	-13442
▁marshall	-13443
▁zentroak	-13444
▁familiakoa	-13445
▁nazionalista	-13446
ulak	-13447
▁760	-13448
▁wild	-13449
weiler	-13450
▁antib	-13451
▁armor	-13452
▁kezka	-13453
▁lokal	-13454
▁zurto	-13455
neville	-13456
▁gurtza	-13457
izkieten	-13458
▁egoerak	-13459
▁ipuinak	-13460
▁miranda	-13461
▁zebilen	-13462
▁arrautza	-13463
▁fruituak	-13464
▁gurasoen	-13465
▁sardinia	-13466
▁banatutako	-13467
▁irakasleak	-13468
▁espainiarra	-13469
▁jal	-13470
▁kyo	-13471
▁lekeit	-13472
▁trinko	-13473
▁aroaren	-13474
▁ugalketa	-13475
▁erresumak	-13476
▁txapelketak	-13477
▁sphenomorphus	-13478
wil	-13479
usta	-13480
▁1792	-13481
▁1832	-13482
▁asan	-13483
erarako	-13484
▁gidari	-13485
▁eremuaren	-13486
atre	-13487
wich	-13488
▁tup	-13489
ievre	-13490
▁aldez	-13491
▁tekton	-13492
▁gutxitu	-13493
▁zetozen	-13494
▁diktador	-13495
▁feminista	-13496
▁egunkariak	-13497
▁alderantziz	-13498
414	-13499
ilin	-13500
▁585	-13501
▁675	-13502
jiang	-13503
▁ebalu	-13504
▁emate	-13505
▁fluxu	-13506
▁leize	-13507
▁mongo	-13508
enetako	-13509
▁delitu	-13510
▁lurren	-13511
▁ardeche	-13512
▁markatu	-13513
▁epaiketa	-13514
▁irakasten	-13515
▁konstante	-13516
▁alemaniarrek	-13517
▁jr	-13518
elop	-13519
uchi	-13520
▁745	-13521
▁abu	-13522
azale	-13523
iozko	-13524
letik	-13525
▁1831	-13526
▁dasy	-13527
▁ming	-13528
iarena	-13529
▁kopen	-13530
enshire	-13531
iliidae	-13532
▁charlo	-13533
▁dorreak	-13534
▁egoteko	-13535
▁aplikatu	-13536
▁estiloan	-13537
▁itsaslas	-13538
▁iturburu	-13539
▁zinemaldian	-13540
404	-13541
yll	-13542
▁571	-13543
▁anb	-13544
▁cus	-13545
▁mair	-13546
▁zikl	-13547
▁hegan	-13548
▁zatirik	-13549
▁anitzeko	-13550
▁metrokoa	-13551
▁partzial	-13552
▁naturalak	-13553
▁dokumental	-13554
▁lurmuturra	-13555
▁pilotaleku	-13556
▁itzultzaile	-13557
▁hemidactylus	-13558
▁artiodaktiloen	-13559
496	-13560
▁593	-13561
▁sib	-13562
dinam	-13563
gaitz	-13564
▁atez	-13565
▁erta	-13566
▁peru	-13567
▁piaui	-13568
▁bareko	-13569
▁mongol	-13570
▁monten	-13571
▁oparoa	-13572
▁leporatu	-13573
▁aldakorra	-13574
▁mendebaleko	-13575
▁handienetakoa	-13576
efiz	-13577
tano	-13578
▁584	-13579
▁open	-13580
▁sans	-13581
▁sele	-13582
▁duran	-13583
▁tirok	-13584
▁gogoan	-13585
▁zeruko	-13586
izazioak	-13587
▁gizonek	-13588
▁ingurua	-13589
ologikoki	-13590
▁deportivo	-13591
▁kazetaritza	-13592
gl	-13593
hib	-13594
▁ov	-13595
▁866	-13596
▁fay	-13597
iarte	-13598
torio	-13599
▁alej	-13600
▁coll	-13601
▁otto	-13602
▁sylv	-13603
▁saras	-13604
iarreko	-13605
▁argitu	-13606
▁bosnia	-13607
▁diaman	-13608
▁durango	-13609
▁gurasoek	-13610
▁irakatsi	-13611
▁kalkulatu	-13612
▁atlantikoko	-13613
▁nothobranch	-13614
iria	-13615
▁sinp	-13616
▁bruce	-13617
▁caste	-13618
▁eskar	-13619
▁guard	-13620
▁melod	-13621
▁ganber	-13622
▁paragu	-13623
▁plazar	-13624
▁antzokian	-13625
▁ekiditeko	-13626
▁erraldoia	-13627
▁irekitzen	-13628
▁zeharkako	-13629
▁interneten	-13630
▁mantentzea	-13631
▁suposatzen	-13632
188	-13633
421	-13634
asso	-13635
atoa	-13636
chia	-13637
▁hug	-13638
▁lom	-13639
▁kein	-13640
▁laba	-13641
tsioak	-13642
▁desbid	-13643
▁nikola	-13644
▁hiritar	-13645
▁zostero	-13646
▁entzuten	-13647
▁koloreak	-13648
▁pilotari	-13649
▁deitutako	-13650
▁gorputzak	-13651
▁hiribildu	-13652
▁printzesa	-13653
413	-13654
485	-13655
487	-13656
488	-13657
cke	-13658
azar	-13659
ampus	-13660
orria	-13661
▁anas	-13662
▁tari	-13663
▁txar	-13664
▁paten	-13665
▁ustia	-13666
▁zeinek	-13667
▁antoine	-13668
▁errenaz	-13669
▁bukatzen	-13670
▁baliokidea	-13671
▁eurovision	-13672
▁atlantikoan	-13673
▁ezaugarrien	-13674
199	-13675
475	-13676
497	-13677
iao	-13678
vey	-13679
joko	-13680
txob	-13681
ontzi	-13682
▁mann	-13683
▁biktim	-13684
▁lawrence	-13685
▁maiatzak	-13686
▁eratutako	-13687
▁exekutatu	-13688
▁etorkizuneko	-13689
405	-13690
orrus	-13691
▁1845	-13692
▁sino	-13693
▁konpu	-13694
▁miren	-13695
▁sosten	-13696
▁txistu	-13697
▁arraina	-13698
▁pirinioak	-13699
▁azpiegitur	-13700
122	-13701
429	-13702
474	-13703
ras	-13704
opel	-13705
▁920	-13706
▁ceph	-13707
▁coch	-13708
▁arran	-13709
▁kantz	-13710
▁ostro	-13711
tsuaren	-13712
▁madison	-13713
▁bultzada	-13714
▁metroaren	-13715
▁santander	-13716
▁txapelketaren	-13717
pide	-13718
▁nub	-13719
▁vor	-13720
▁yan	-13721
ariko	-13722
estes	-13723
▁aless	-13724
▁astean	-13725
▁jateko	-13726
▁phyllo	-13727
▁bikotea	-13728
▁agintzen	-13729
▁dimisioa	-13730
▁harkaitz	-13731
▁metamorf	-13732
▁zeramika	-13733
▁landareen	-13734
▁zaharrenak	-13735
424	-13736
ery	-13737
ijar	-13738
ylus	-13739
ypto	-13740
▁756	-13741
gaiak	-13742
▁1838	-13743
▁isla	-13744
▁ling	-13745
escens	-13746
ezkoak	-13747
▁ahula	-13748
▁kabuz	-13749
▁txeko	-13750
▁erlieb	-13751
▁nazien	-13752
▁sartuz	-13753
▁castell	-13754
▁hungari	-13755
▁zuzenak	-13756
▁aitzitik	-13757
▁etapatan	-13758
▁zehatzak	-13759
▁frantsesak	-13760
▁microhylidae	-13761
482	-13762
allus	-13763
athan	-13764
umean	-13765
▁peta	-13766
▁zuma	-13767
▁atxik	-13768
olophus	-13769
▁etaren	-13770
▁kupula	-13771
▁tekniko	-13772
▁venezia	-13773
▁enpresen	-13774
▁elikadura	-13775
▁gymnothorax	-13776
▁erabiltzaileak	-13777
484	-13778
492	-13779
our	-13780
unb	-13781
yak	-13782
doen	-13783
tula	-13784
▁tai	-13785
katal	-13786
▁mons	-13787
▁scot	-13788
erakoa	-13789
▁extre	-13790
▁minor	-13791
▁rovan	-13792
omorpha	-13793
ografiko	-13794
▁bazkide	-13795
▁monopol	-13796
▁beaumont	-13797
▁dakotako	-13798
▁europara	-13799
▁kargutik	-13800
▁teologia	-13801
▁erasotzen	-13802
▁gauzatzen	-13803
▁irakurketa	-13804
418	-13805
tam	-13806
▁vr	-13807
amus	-13808
ceko	-13809
tenak	-13810
▁cala	-13811
itzeak	-13812
tiboak	-13813
▁gabon	-13814
▁laino	-13815
▁biloba	-13816
▁hauexek	-13817
▁austriar	-13818
▁microsof	-13819
▁zuhaitza	-13820
▁zailtasun	-13821
▁oinarrituz	-13822
486	-13823
apia	-13824
inan	-13825
▁746	-13826
▁891	-13827
icaud	-13828
▁1200	-13829
▁blue	-13830
▁perc	-13831
▁plur	-13832
aineko	-13833
▁polin	-13834
▁aitzin	-13835
▁elkarr	-13836
▁atalean	-13837
▁kalkulu	-13838
▁maitale	-13839
▁ekarriko	-13840
▁funtsean	-13841
▁bihotzeko	-13842
▁bizilagun	-13843
▁boltxebik	-13844
▁ezagutzera	-13845
▁gertakizun	-13846
▁kontserbadore	-13847
▁selekzioarekin	-13848
ru	-13849
470	-13850
483	-13851
ete	-13852
inos	-13853
▁653	-13854
▁716	-13855
▁ome	-13856
▁rin	-13857
▁was	-13858
iones	-13859
▁aven	-13860
▁hare	-13861
▁lituz	-13862
▁parac	-13863
▁somal	-13864
▁jaurti	-13865
▁aldatuz	-13866
▁behaketa	-13867
▁barrutiko	-13868
▁gorriaren	-13869
▁ingelesak	-13870
▁ospitalea	-13871
▁ahaleginak	-13872
▁kontseiluko	-13873
▁familiarekin	-13874
419	-13875
boa	-13876
jak	-13877
nac	-13878
pea	-13879
tho	-13880
▁suge	-13881
rachus	-13882
▁derib	-13883
▁malda	-13884
▁tunis	-13885
▁izanak	-13886
▁osteko	-13887
▁prezioa	-13888
▁eremuetan	-13889
▁alderatuta	-13890
▁sustatzeko	-13891
412	-13892
428	-13893
thus	-13894
▁bog	-13895
erian	-13896
▁guan	-13897
▁accip	-13898
▁freku	-13899
▁hustu	-13900
▁linux	-13901
▁sebas	-13902
▁deituak	-13903
▁salbatu	-13904
▁bueltatu	-13905
▁amsterdam	-13906
▁kontrakoa	-13907
▁bultzatuta	-13908
▁jeneralaren	-13909
402	-13910
426	-13911
dis	-13912
usi	-13913
icap	-13914
▁574	-13915
▁611	-13916
kuntzan	-13917
▁coelor	-13918
▁augusto	-13919
▁kasutan	-13920
▁agamidae	-13921
▁espazioa	-13922
▁oiartzun	-13923
▁telesailean	-13924
▁coelorinchus	-13925
▁ezberdinetako	-13926
▁probabilitatea	-13927
416	-13928
423	-13929
480	-13930
ree	-13931
tie	-13932
yrh	-13933
thes	-13934
▁884	-13935
arana	-13936
▁1810	-13937
▁asald	-13938
▁ahaztu	-13939
▁hernan	-13940
▁irregul	-13941
▁jotzeko	-13942
▁koorden	-13943
▁magalean	-13944
▁francoren	-13945
▁granadako	-13946
▁sistemako	-13947
▁ahalbidetu	-13948
tn	-13949
490	-13950
agi	-13951
zel	-13952
berri	-13953
▁beat	-13954
▁etak	-13955
▁marg	-13956
intzak	-13957
kripzio	-13958
orraren	-13959
▁ezegon	-13960
▁sailak	-13961
▁sevres	-13962
▁calabria	-13963
▁ikerlari	-13964
▁arrazoiak	-13965
▁christopher	-13966
▁gidaritzapean	-13967
478	-13968
481	-13969
jos	-13970
▁01	-13971
emia	-13972
pina	-13973
▁646	-13974
▁nec	-13975
leren	-13976
▁kume	-13977
▁aubin	-13978
▁errit	-13979
▁great	-13980
▁klaus	-13981
▁alvarez	-13982
▁igotzea	-13983
▁kontras	-13984
▁vilaine	-13985
▁apirilak	-13986
▁fisikoak	-13987
▁osagarri	-13988
▁errepideko	-13989
▁aberastasun	-13990
▁egutegiaren	-13991
omi	-13992
▁606	-13993
▁845	-13994
▁rik	-13995
▁aseg	-13996
▁benj	-13997
▁eriz	-13998
▁kask	-13999
▁morro	-14000
▁altuko	-14001
▁diplom	-14002
▁koefiz	-14003
▁oztopo	-14004
▁toledo	-14005
▁irakeko	-14006
▁hartatik	-14007
▁irabazlea	-14008
▁senidetuta	-14009
▁ordezkariak	-14010
orpu	-14011
▁nil	-14012
▁1817	-14013
▁1856	-14014
▁linf	-14015
tarazi	-14016
▁inpos	-14017
▁ponia	-14018
▁trena	-14019
▁kazakh	-14020
▁malays	-14021
▁turkiar	-14022
▁aliatuen	-14023
▁izenekoak	-14024
▁monumentua	-14025
▁herrialdetan	-14026
495	-14027
agor	-14028
andi	-14029
tell	-14030
europ	-14031
▁aphy	-14032
▁dait	-14033
▁lanc	-14034
▁ston	-14035
etetan	-14036
▁apala	-14037
▁renfe	-14038
▁urrea	-14039
▁harata	-14040
▁maketa	-14041
▁aritutako	-14042
▁hondamend	-14043
▁ustiatzen	-14044
fi	-14045
471	-14046
▁hi	-14047
fast	-14048
urne	-14049
zeko	-14050
▁mim	-14051
aurus	-14052
degia	-14053
kiaren	-14054
roctus	-14055
▁albor	-14056
▁epine	-14057
▁merid	-14058
▁udala	-14059
▁espana	-14060
▁graham	-14061
▁nondik	-14062
▁ohartu	-14063
▁erantsi	-14064
▁ikusiko	-14065
▁osasuna	-14066
▁setiatu	-14067
▁beteriko	-14068
▁ptolomeo	-14069
▁dagoelako	-14070
▁hilabetez	-14071
▁zefalopodo	-14072
▁gobernatzen	-14073
▁unibertsala	-14074
427	-14075
493	-14076
▁blog	-14077
▁caer	-14078
▁dias	-14079
▁izpi	-14080
▁vari	-14081
learen	-14082
▁akord	-14083
▁aleks	-14084
▁latza	-14085
▁lucas	-14086
▁sigmo	-14087
▁apaiza	-14088
▁kopenh	-14089
▁logika	-14090
▁kretaze	-14091
▁gorputzeko	-14092
▁produktuen	-14093
mm	-14094
498	-14095
bri	-14096
▁peg	-14097
gabea	-14098
▁bala	-14099
▁moda	-14100
koaren	-14101
▁harris	-14102
▁antzoki	-14103
▁birjina	-14104
▁jaialdi	-14105
▁orkestr	-14106
▁antzokia	-14107
▁ezartzea	-14108
▁inportan	-14109
473	-14110
abo	-14111
▁hav	-14112
idens	-14113
▁gren	-14114
emidae	-14115
ianako	-14116
▁arroa	-14117
▁rugby	-14118
▁troch	-14119
▁miller	-14120
iformeen	-14121
▁datozen	-14122
▁artistak	-14123
▁martxoak	-14124
▁zezakeen	-14125
▁gobernari	-14126
▁paraguaiko	-14127
▁elektrikoak	-14128
▁hegoalderantz	-14129
408	-14130
dle	-14131
lit	-14132
pak	-14133
ues	-14134
igur	-14135
kura	-14136
obar	-14137
turi	-14138
▁isid	-14139
▁morm	-14140
▁mura	-14141
▁nabe	-14142
▁oria	-14143
hattan	-14144
iakoak	-14145
▁arros	-14146
▁asper	-14147
▁arloko	-14148
▁karlis	-14149
▁uholde	-14150
▁azaleko	-14151
▁bozeram	-14152
▁inaugur	-14153
▁dantzari	-14154
▁sarbidea	-14155
▁abiaduran	-14156
▁gorputzean	-14157
▁psikologia	-14158
415	-14159
▁05	-14160
▁eco	-14161
berge	-14162
bidez	-14163
▁euzk	-14164
▁blenn	-14165
▁ezean	-14166
▁stone	-14167
▁balore	-14168
▁dortok	-14169
▁musikal	-14170
▁sailean	-14171
▁txirrindular	-14172
472	-14173
bet	-14174
inas	-14175
▁mog	-14176
▁rog	-14177
▁nasa	-14178
▁grove	-14179
▁lakua	-14180
▁motak	-14181
▁antena	-14182
▁martxa	-14183
▁western	-14184
▁abuztuak	-14185
▁aurkakoa	-14186
▁gazteler	-14187
▁hedapena	-14188
▁karlista	-14189
▁gramatika	-14190
▁ikuspegia	-14191
▁jotzailea	-14192
▁mikroskop	-14193
▁zitzaizkien	-14194
▁itsasoratzen	-14195
406	-14196
476	-14197
494	-14198
burn	-14199
typh	-14200
▁684	-14201
▁810	-14202
▁gul	-14203
organ	-14204
▁delta	-14205
▁google	-14206
▁guadal	-14207
▁eragilea	-14208
▁haraneko	-14209
▁merkatal	-14210
▁alemaniak	-14211
▁bielorrus	-14212
▁antzerkian	-14213
▁energiaren	-14214
▁eraginpean	-14215
▁kontratatu	-14216
▁zabalkunde	-14217
▁antolakuntza	-14218
hir	-14219
omy	-14220
tax	-14221
▁pav	-14222
▁xer	-14223
anako	-14224
cheil	-14225
antzan	-14226
▁adiskid	-14227
▁filmatu	-14228
▁aldekoak	-14229
▁buruaren	-14230
▁heinrich	-14231
▁ondasuna	-14232
▁erabilpen	-14233
▁errotazio	-14234
▁irudikatu	-14235
▁nagusietan	-14236
▁herbehereak	-14237
iata	-14238
osko	-14239
autus	-14240
▁fish	-14241
▁schw	-14242
▁drome	-14243
▁bitxia	-14244
▁hilabet	-14245
▁pakistan	-14246
▁antzerkia	-14247
▁praktikan	-14248
▁diferentzia	-14249
▁pomeraniako	-14250
oke	-14251
usk	-14252
▁08	-14253
cock	-14254
▁elg	-14255
▁gat	-14256
▁chil	-14257
▁amore	-14258
▁erako	-14259
▁giroan	-14260
▁errekon	-14261
▁aurpegia	-14262
▁harresia	-14263
▁olerkari	-14264
▁talderik	-14265
▁elkarrizk	-14266
▁iraunkorra	-14267
▁manchester	-14268
▁gudarosteak	-14269
▁etxebizitzak	-14270
▁unibertsoaren	-14271
▁531	-14272
▁886	-14273
▁get	-14274
▁fris	-14275
▁tara	-14276
alista	-14277
▁betea	-14278
▁birtu	-14279
▁gobio	-14280
▁osora	-14281
▁irango	-14282
▁mallor	-14283
▁school	-14284
▁harriak	-14285
▁mariano	-14286
▁norvegia	-14287
ismoarekin	-14288
▁eraikitze	-14289
▁hiltzaile	-14290
▁parkearen	-14291
▁estatubatuarrak	-14292
tii	-14293
idis	-14294
iete	-14295
itxo	-14296
▁anc	-14297
▁clu	-14298
▁lyc	-14299
▁gius	-14300
▁isle	-14301
▁nesk	-14302
▁balkan	-14303
▁justif	-14304
▁kubako	-14305
▁setioa	-14306
▁bozkatu	-14307
▁nuklear	-14308
▁riviere	-14309
▁erortzen	-14310
▁fisikari	-14311
▁ikastola	-14312
▁kasuetan	-14313
▁koloreko	-14314
▁behatokia	-14315
▁kulturala	-14316
▁ekarritako	-14317
▁kontseilua	-14318
▁saihesteko	-14319
▁†	-14320
407	-14321
425	-14322
gok	-14323
idi	-14324
udo	-14325
▁bapt	-14326
▁kair	-14327
▁vald	-14328
iazioa	-14329
tomias	-14330
▁kapit	-14331
▁lande	-14332
▁aragon	-14333
▁galdek	-14334
▁orange	-14335
▁aldamen	-14336
▁alfabeto	-14337
▁errusiak	-14338
▁positiboa	-14339
▁pertsonala	-14340
▁ekialderantz	-14341
▁frantziarrak	-14342
abak	-14343
gawa	-14344
keen	-14345
ugua	-14346
▁sis	-14347
▁ebaz	-14348
▁goit	-14349
aldien	-14350
diaren	-14351
▁oihal	-14352
▁kalteak	-14353
▁kantuak	-14354
▁egokitza	-14355
▁organiko	-14356
▁eraikuntz	-14357
▁argentinan	-14358
▁bakterioak	-14359
▁flandriako	-14360
▁arkeologiko	-14361
▁bultzatzeko	-14362
489	-14363
491	-14364
kos	-14365
sten	-14366
▁fat	-14367
▁lov	-14368
ogeno	-14369
▁1819	-14370
▁crom	-14371
▁gako	-14372
▁andra	-14373
▁karol	-14374
▁diskur	-14375
▁gutxiko	-14376
▁judizial	-14377
▁merkatua	-14378
▁venezuel	-14379
▁atlantiko	-14380
▁atmosfera	-14381
▁aukeratua	-14382
▁gaixotasunak	-14383
▁presidentearen	-14384
409	-14385
adas	-14386
omin	-14387
view	-14388
▁881	-14389
▁bod	-14390
asaki	-14391
▁ipin	-14392
enburg	-14393
▁danub	-14394
▁diona	-14395
▁moore	-14396
▁serra	-14397
▁tenis	-14398
▁gurpil	-14399
▁konkre	-14400
▁kritiko	-14401
▁eramango	-14402
▁erkidego	-14403
▁sariaren	-14404
▁taldeari	-14405
▁biografia	-14406
▁eskultore	-14407
▁ezkertiar	-14408
▁australiar	-14409
▁kongresuan	-14410
▁musulmanak	-14411
▁iparralderantz	-14412
120	-14413
▁raj	-14414
alera	-14415
opsis	-14416
▁bear	-14417
arrita	-14418
uraren	-14419
▁ahizp	-14420
▁amorr	-14421
▁goias	-14422
▁zesar	-14423
▁larruaz	-14424
▁mozorro	-14425
▁sarrask	-14426
▁ezaugarr	-14427
▁eustomias	-14428
▁jokalariak	-14429
479	-14430
555	-14431
asc	-14432
gov	-14433
set	-14434
tul	-14435
harus	-14436
▁1822	-14437
▁shog	-14438
▁toku	-14439
landia	-14440
▁auzia	-14441
▁jeitsi	-14442
▁gerretan	-14443
▁plastiko	-14444
▁antigorpu	-14445
▁irabazteko	-14446
▁unibertsitateak	-14447
198	-14448
agr	-14449
ral	-14450
uli	-14451
▁ww	-14452
▁581	-14453
▁brie	-14454
▁road	-14455
▁spec	-14456
▁bikoiz	-14457
▁crypto	-14458
▁trachy	-14459
▁aliatuek	-14460
▁kokaleku	-14461
▁alderatuz	-14462
▁erromantz	-14463
▁naturaren	-14464
▁adierazpena	-14465
181	-14466
mir	-14467
▁libr	-14468
adurak	-14469
▁lazio	-14470
▁marco	-14471
▁orduz	-14472
istekin	-14473
urretik	-14474
▁abango	-14475
▁kaleak	-14476
▁luzean	-14477
▁neptun	-14478
▁azkenengo	-14479
▁ekintzaile	-14480
▁kopuruaren	-14481
▁barnealdean	-14482
▁gregoriotar	-14483
kala	-14484
▁arz	-14485
tonen	-14486
▁inpl	-14487
charax	-14488
uelako	-14489
▁kevin	-14490
▁mezua	-14491
▁titan	-14492
▁andrew	-14493
▁haiekin	-14494
▁izpiritu	-14495
▁valentin	-14496
obatrachus	-14497
▁gertaerak	-14498
▁ordezkatuz	-14499
▁deskribapen	-14500
▁baitzituzten	-14501
▁garraiatzeko	-14502
▁ondorioztatu	-14503
▁^	-14504
553	-14505
▁esf	-14506
▁ian	-14507
▁rim	-14508
bridge	-14509
▁falls	-14510
▁molda	-14511
▁tirab	-14512
▁fasean	-14513
▁kantua	-14514
▁trikuh	-14515
▁herriek	-14516
▁kentzen	-14517
▁debutatu	-14518
▁harrapak	-14519
cephalidae	-14520
▁lanarekin	-14521
▁operazioa	-14522
▁parlamentuak	-14523
178	-14524
rol	-14525
vet	-14526
ulazio	-14527
▁zelta	-14528
▁eskura	-14529
▁txekos	-14530
▁adarrak	-14531
▁desados	-14532
▁klinika	-14533
▁orbital	-14534
▁gehienez	-14535
▁bretainia	-14536
▁komunistak	-14537
▁kontzeptuak	-14538
now	-14539
vik	-14540
▁bh	-14541
arium	-14542
estio	-14543
oplas	-14544
▁latz	-14545
▁rain	-14546
▁astun	-14547
▁dibis	-14548
▁sesta	-14549
▁begiak	-14550
▁deform	-14551
▁ilunak	-14552
▁martir	-14553
▁kulturan	-14554
▁neurketa	-14555
▁sarearen	-14556
▁zuzendua	-14557
▁aipagarri	-14558
▁montgomery	-14559
▁barrutiaren	-14560
403	-14561
jen	-14562
enac	-14563
▁pie	-14564
▁esfer	-14565
ezkuntza	-14566
nathidae	-14567
▁ustetan	-14568
▁gracilis	-14569
▁lurrikar	-14570
▁otsailak	-14571
▁bartolome	-14572
▁germaniar	-14573
▁merindade	-14574
▁espainiara	-14575
▁espainiarrak	-14576
▁legebiltzark	-14577
▁konderrietako	-14578
▁09	-14579
char	-14580
lins	-14581
oder	-14582
▁zuh	-14583
itoen	-14584
▁1352	-14585
▁1809	-14586
▁mero	-14587
▁roth	-14588
▁barna	-14589
▁miliz	-14590
atarren	-14591
▁famatu	-14592
▁johnny	-14593
▁urugua	-14594
▁tranbia	-14595
▁abiarazi	-14596
▁loturiko	-14597
▁metodoak	-14598
▁bermatzen	-14599
▁alemaniaren	-14600
▁tenperaturak	-14601
py	-14602
417	-14603
443	-14604
espe	-14605
quel	-14606
▁til	-14607
ietsi	-14608
▁1835	-14609
celles	-14610
▁diplo	-14611
▁paler	-14612
▁kolpea	-14613
▁makinak	-14614
▁erdigune	-14615
▁diskoetxe	-14616
▁stockholm	-14617
▁ehungintza	-14618
▁erromantiz	-14619
463	-14620
▁733	-14621
tique	-14622
▁bara	-14623
▁enbr	-14624
▁erik	-14625
▁kirk	-14626
▁raym	-14627
hammad	-14628
▁amate	-14629
▁seman	-14630
▁atalak	-14631
▁ezkero	-14632
▁sarean	-14633
▁dezaten	-14634
▁erlatib	-14635
▁antzeman	-14636
▁delakoan	-14637
▁mankomun	-14638
▁zituenak	-14639
▁lagunduta	-14640
▁zenbakiak	-14641
▁aurrerantz	-14642
ous	-14643
umi	-14644
inoak	-14645
istia	-14646
▁curr	-14647
▁kiev	-14648
▁mist	-14649
▁pear	-14650
▁sorg	-14651
▁scien	-14652
▁teore	-14653
▁lorpen	-14654
▁utziko	-14655
▁agerpen	-14656
▁kantari	-14657
▁laranja	-14658
▁meskita	-14659
▁kanpotik	-14660
▁oxigenoa	-14661
▁sintomak	-14662
▁elementua	-14663
enik	-14664
▁713	-14665
▁kut	-14666
▁ort	-14667
▁roz	-14668
▁1818	-14669
▁kill	-14670
▁modul	-14671
▁korpor	-14672
▁nievre	-14673
▁ondarr	-14674
▁zelulen	-14675
hezkuntza	-14676
▁ikasleek	-14677
▁oinplano	-14678
▁tentsioa	-14679
▁instalazio	-14680
▁itxaropena	-14681
▁guztietatik	-14682
▁segurtasuna	-14683
▁~	-14684
deb	-14685
ink	-14686
arez	-14687
cken	-14688
▁ota	-14689
▁run	-14690
errik	-14691
itzaz	-14692
▁tony	-14693
▁billy	-14694
▁lotur	-14695
▁barand	-14696
▁estalia	-14697
▁pintore	-14698
▁horiekin	-14699
▁suertatu	-14700
▁barrutiak	-14701
▁manhattan	-14702
▁zuzenduta	-14703
▁erantzuten	-14704
401	-14705
▁02	-14706
▁leo	-14707
▁basa	-14708
▁susm	-14709
▁urda	-14710
▁ardoa	-14711
▁herze	-14712
▁media	-14713
▁queen	-14714
▁berpiz	-14715
▁durang	-14716
▁horixe	-14717
▁atzeman	-14718
▁kazetar	-14719
kuntzaren	-14720
▁erantzuk	-14721
▁herritan	-14722
▁pasabide	-14723
▁portuges	-14724
▁hurbileko	-14725
▁berpizkunde	-14726
▁geltokiaren	-14727
iu	-14728
444	-14729
▁07	-14730
isse	-14731
nica	-14732
▁yvel	-14733
onaren	-14734
▁distr	-14735
ikorako	-14736
▁aireko	-14737
▁erloju	-14738
▁ernest	-14739
▁loiret	-14740
▁udaleko	-14741
▁laburbil	-14742
▁neuville	-14743
▁salaketa	-14744
▁uniforme	-14745
▁zubiaren	-14746
▁erabiliak	-14747
▁espezieen	-14748
▁jokatzeko	-14749
▁sorkuntza	-14750
▁arkitektoa	-14751
▁bidalitako	-14752
▁baliogabeko	-14753
▁elektroniko	-14754
▁azpimarratzeko	-14755
▁konstituzioaren	-14756
lei	-14757
gaia	-14758
omak	-14759
tzioa	-14760
▁arka	-14761
▁lots	-14762
▁mesa	-14763
▁meza	-14764
iketak	-14765
▁cirrh	-14766
▁etena	-14767
▁igles	-14768
▁manip	-14769
▁aveyron	-14770
▁kaserna	-14771
▁sortuak	-14772
▁domeinua	-14773
▁uztailak	-14774
▁kroaziako	-14775
▁argudiatuz	-14776
▁ederretako	-14777
▁kalkulatzeko	-14778
180	-14779
196	-14780
nom	-14781
▁06	-14782
▁cuc	-14783
▁nim	-14784
▁ezoh	-14785
▁lerr	-14786
▁pino	-14787
▁txab	-14788
atsuen	-14789
▁gogoa	-14790
▁sasoi	-14791
▁ramses	-14792
▁zerren	-14793
atutakoa	-14794
▁baionan	-14795
▁ezabatu	-14796
▁neutral	-14797
▁sarrerak	-14798
▁automobil	-14799
▁segundoko	-14800
▁bereizketa	-14801
▁immunitate	-14802
▁brandenburgo	-14803
▁03	-14804
▁1700	-14805
▁ahoa	-14806
▁bark	-14807
▁tekl	-14808
▁badak	-14809
▁colom	-14810
▁fasea	-14811
▁heroi	-14812
▁porto	-14813
▁hotela	-14814
▁kuarte	-14815
▁ekainak	-14816
▁jendaur	-14817
▁turingo	-14818
▁bikainak	-14819
▁epaileak	-14820
▁zabalean	-14821
▁jorratzen	-14822
▁zegoenean	-14823
▁zientziak	-14824
▁okzitanieraz	-14825
176	-14826
185	-14827
186	-14828
455	-14829
rod	-14830
dell	-14831
▁695	-14832
▁und	-14833
▁alac	-14834
▁dian	-14835
▁iner	-14836
aletik	-14837
itudea	-14838
tzatik	-14839
▁carep	-14840
▁chang	-14841
▁ihesi	-14842
▁orein	-14843
▁thail	-14844
▁cantal	-14845
▁ostatu	-14846
▁catalun	-14847
▁aldatzea	-14848
▁izenpetu	-14849
▁sinfonia	-14850
▁sozialde	-14851
▁ateratzea	-14852
▁espazioan	-14853
▁hamazazpi	-14854
▁careproctus	-14855
▁ospetsuaren	-14856
▁prestatzeko	-14857
▁aldizkarietan	-14858
▁populazioaren	-14859
egun	-14860
olia	-14861
▁kus	-14862
amoko	-14863
verde	-14864
▁beka	-14865
pierre	-14866
▁magnes	-14867
▁nevada	-14868
▁pobrez	-14869
aduraren	-14870
▁abraham	-14871
▁bihotza	-14872
▁entzule	-14873
▁erasotu	-14874
▁ikastur	-14875
odactylus	-14876
▁baimendu	-14877
▁doktrina	-14878
▁erlatibo	-14879
▁ezkutuan	-14880
▁zutabeak	-14881
▁erreginak	-14882
▁sozialdem	-14883
▁berehalako	-14884
▁kolonbiako	-14885
▁informatika	-14886
▁errendimendu	-14887
▁zefalopodoen	-14888
▁valladolideko	-14889
175	-14890
183	-14891
zes	-14892
▁753	-14893
▁792	-14894
▁bou	-14895
▁ete	-14896
▁psn	-14897
▁http	-14898
▁syng	-14899
itikoa	-14900
▁airea	-14901
▁diario	-14902
▁azalean	-14903
▁gotortu	-14904
▁sekretu	-14905
▁ammonite	-14906
▁atzealdean	-14907
▁errepideak	-14908
104	-14909
184	-14910
197	-14911
eze	-14912
pres	-14913
uter	-14914
▁846	-14915
▁dul	-14916
▁muz	-14917
▁pha	-14918
▁1844	-14919
▁gaua	-14920
ikunde	-14921
▁carlo	-14922
▁umeak	-14923
▁arabar	-14924
▁basoak	-14925
▁ibidem	-14926
▁varsov	-14927
▁edonola	-14928
▁gerlari	-14929
▁musikan	-14930
▁patriar	-14931
▁sagardo	-14932
▁barrokoa	-14933
▁zegoenez	-14934
[...]
