##<s>
##</s>
##[PAD]
##[CLS]
##[SEP]
##[MASK]
t
a
##he
##in
the
##er
s
o
,
##re
c
##on
##en
.
##an
##at
b
f
w
##it
##is
##ed
p
##ar
##es
in
##or
##al
of
m
an
d
e
##ic
##ro
h
and
##as
##ing
##ion
l
to
"
##ent
##le
n
##us
g
##un
1
##il
re
##ur
th
-
##om
##ut
##el
##ra
##ct
##ri
##et
is
##ol
##ul
##st
##ly
as
##ak
for
be
##id
##ce
)
(
##ation
##ch
##ot
##ve
##am
##im
on
##ver
st
##ir
al
19
con
##ta
k
##ad
##and
he
##ow
was
j
##ist
##ith
de
that
##ter
'
with
##ia
wh
pro
##ig
it
by
##os
2
com
z
v
##em
##her
##ag
##ers
##ren
su
##ay
##est
at
ch
co
mo
##if
or
##ik
ex
##um
are
##ort
##rom
##iz
un
##pe
se
##ate
##res
##op
##iv
##ab
##art
##ant
ar
*
##ity
##qu
:
from
##ies
##ain
##ment
##ud
20
r
us
##io
##ug
##ere
##end
so
##ian
##th
##ich
le
ne
ha
##ip
eta
##ial
##ive
##se
##ac
##land
##ess
his
##ical
##ill
##te
##und
##pp
##atu
##pt
##all
##od
##ko
##ber
which
##so
##der
##ated
fo
##ard
comp
this
not
##ge
##ish
##per
##ht
sh
were
pl
##ction
en
am
##og
##ran
y
##ie
inc
wor
##up
##ast
##ther
have
##ary
has
##ult
##ong
ro
##red
ad
##ome
part
##ition
##du
ab
cl
##rit
can
ac
##ine
af
##ib
whe
per
##pl
##ap
##ame
##ell
also
##de
##ub
##ile
er
man
##av
##ako
its
##unt
sp
##oc
##ide
##ence
18
##ect
other
##ugh
ag
comm
##age
cont
all
##to
;
##ally
200
te
##ass
##ations
but
form
had
##ure
im
one
##ust
##ang
##az
go
their
res
##aren
##ice
##ater
##ry
##ire
been
##ign
##fer
##ous
mar
ra
3
es
tra
inter
##rig
such
el
##ok
fin
sc
##man
##ely
##lud
##ue
##uld
##ars
sy
##ord
ev
fir
##ree
201
##ions
pol
##ld
i
po
dis
##vel
##erv
##ten
##uen
bec
rec
new
cons
who
island
some
me
##are
##ru
includ
they
em
##own
first
no
##ts
##ore
##ces
there
##ff
##ari
most
##vers
tim
##act
des
cent
##out
##port
##ced
more
spe
ye
##ck
eu
la
##ates
##ose
ind
eg
##ft
bl
##ack
##orm
ma
tw
##olog
5
gro
##ric
##hed
##ite
ele
##ance
after
her
out
##uring
ap
##ory
##tain
may
bas
##one
euro
pres
##00
bet
mus
##ents
##uz
##ond
fil
jo
reg
da
ph
##cial
##een
##ubl
bo
##ational
act
##able
over
199
used
col
fe
##ight
pe
##ace
than
##ors
pre
##rib
##low
##cess
##ens
these
when
##ould
##ited
##ze
–
##uth
work
##ular
kn
gen
ter
##les
up
two
##ach
into
di
##ph
during
4
count
many
##stem
rel
qu
##aus
do
how
##amp
bat
time
iz
lo
use
ger
##vern
##ms
we
gre
%
sub
system
##iss
##dition
islands
##ail
ez
##ative
##int
##ier
##als
##arra
##ific
under
inf
##ij
zen
ed
ent
hig
num
air
play
app
inst
##ings
##ress
bel
tran
##ious
##wn
only
govern
##ci
pop
##ween
def
produ
trans
between
/
198
##ase
eng
##arg
##ied
war
##ism
197
##co
##ough
ear
##ans
min
fran
##ron
est
6
##oth
##ues
ur
##ix
dec
##ved
##ict
par
off
##ities
##ah
fl
att
##zen
##gan
would
sa
call
fol
set
##iko
publ
pri
world
car
##very
sec
gu
mem
sin
##ident
##ual
##ade
##ican
##ury
##za
##me
##right
##gra
##ics
prov
amer
gener
dif
will
where
bro
sch
##ost
pa
inv
##ild
##velop
europe
develop
##ines
about
government
##ever
##urn
hist
ber
##ai
##ys
supp
found
##ient
##ek
##ath
##min
serv
##ute
however
15
city
while
thro
##ake
##ating
##hes
##cept
##ons
char
acc
art
met
pr
known
pos
peop
ob
group
##ject
##ished
sm
years
writ
imp
##ted
196
dep
##old
him
##hen
##cted
##ral
cap
ant
194
lang
eus
##ution
eff
sim
follow
main
##ua
people
rem
##tern
const
##ien
end
##rol
rep
##ke
195
exp
both
##ible
any
7
cre
##aria
zuen
film
langu
ge
high
eusk
17
ec
##ists
##ized
later
8
##ina
ass
since
through
##rop
##ually
fre
oper
bu
##fore
##ower
int
music
##ind
##ians
fren
##ily
dist
mil
century
##ward
again
##rist
##hip
loc
being
##yn
##ause
french
law
arg
##its
##onom
##ically
polit
intern
##ants
u
##ays
##our
often
##go
nort
##form
called
##iet
br
##ider
them
lik
spec
partic
##ise
king
##ript
differ
she
stud
##alt
sur
lit
##ural
brit
well
then
##ctions
##ble
_
if
made
##ange
fun
including
##elf
pers
##bl
##uc
9
##ale
##ria
early
states
##ne
##ull
192
##oy
##jor
##other
##ins
sign
##ks
year
class
##ves
##ments
mon
##cc
##bers
##ature
major
orig
united
christ
uni
progra
##ample
##round
port
number
##ined
cor
##ility
equ
common
ty
became
ri
sever
food
incre
##sc
##tle
fam
##000
national
long
##ulation
##ife
med
state
##ful
beh
—
##uch
##led
hand
commun
ir
far
mat
european
pass
ep
##anta
##alk
miss
result
##cy
##itu
##ware
consider
191
origin
##ries
pat
##ula
lead
ser
##ick
comple
paul
str
milit
hel
small
##ional
before
contin
##iak
##ning
german
##ave
three
##zak
##pen
##ters
fij
##ather
country
##iel
##iod
leg
##gor
atl
example
cult
##ep
##ret
##ived
appe
fa
joh
mill
x
16
az
hous
##ood
##uss
language
based
hor
because
##rent
##ket
moder
##lo
alth
same
euskal
dem
desc
##ving
land
larg
##ided
although
cy
har
ext
dire
public
american
##mm
##ean
##ages
000
193
own
12
##iar
##xt
##ught
exper
##vent
free
arm
period
##ision
##ura
##ures
##ela
ba
ke
##era
occ
ret
against
id
histor
second
##uten
effect
four
##zia
##ago
##ilt
rom
each
cur
like
soft
infl
several
##rant
##ius
sw
econom
record
finland
cal
gra
tre
even
expl
include
13
##ract
power
10
##etan
##ased
##ds
##iew
##ner
now
##rat
hum
john
different
modern
military
izan
party
france
import
charact
##urt
##ared
best
##ium
show
south
tradition
##ified
could
design
##gen
##cript
stand
bor
den
support
lar
##app
##cer
##iam
ref
software
auth
term
colle
##aking
giv
great
requ
song
$
##ames
british
population
##osed
det
##ork
sing
##ont
##arch
##itar
dra
##ene
let
et
blues
person
mod
much
organ
##ka
11
##ris
##ald
##way
##nolog
inde
##ued
##omet
##urch
non
poss
area
stat
allow
those
val
north
refer
univers
##bert
remain
within
##til
div
bere
esta
##otzak
arch
prop
14
##ired
mid
large
following
##iako
##ively
##alde
suc
dira
tech
##els
##han
##unc
##soci
elect
estatu
##hern
service
function
##ases
around
another
formula
arte
fore
av
fact
test
associ
urte
##hem
ii
name
190
ann
did
sea
prof
##ank
##una
lab
##quent
general
##pect
rev
tem
establ
##erg
##oun
offic
until
##que
ak
##pend
belie
##hel
god
##inese
chinese
bar
accord
##itz
##eng
##son
due
right
addition
##ool
day
dom
very
international
open
popular
##irc
##ital
back
among
move
level
du
order
##ior
ale
book
conf
process
##ss
##inc
ins
vol
circ
##ann
##zeko
falk
vers
falkland
##orts
bi
ta
vis
zit
using
million
##py
##ilar
##ness
liter
compan
lim
##ience
rece
je
##ball
var
##put
##ement
ira
life
according
typ
fiji
##oa
ampl
0
ca
zuten
particular
sl
sol
direct
similar
##rum
rad
##ented
down
mund
sour
what
describ
president
last
rele
team
##ley
##ruct
##ert
mor
##ended
idaz
##ika
##ink
##ock
opp
##ister
social
aur
biz
ital
post
##ba
##ark
nat
zapp
atlanta
perform
began
independ
##get
ere
nor
lehen
church
development
zi
lat
indust
##ety
##par
gar
ident
water
zappa
author
school
members
success
##ried
run
gain
every
hal
countries
political
##ised
resp
##ty
##ize
ce
del
erre
considered
##ets
##ason
ox
old
##ality
west
appro
repres
disc
##ately
##kin
human
##ator
##ivid
##raft
left
##ou
ara
cla
chang
somet
written
##ps
##por
##tal
hy
##duced
rest
##ategor
##uk
##ting
still
comput
phil
usually
bus
net
individ
##for
along
##ven
led
##be
##ril
dan
house
control
##ese
##une
##ogra
bur
death
##ives
place
contain
##ony
##arri
##ijah
elijah
christian
aut
rese
standard
crit
home
mend
##cl
##ats
##ides
sug
rock
add
adv
though
##ices
##day
aff
sal
ide
less
tele
vari
important
##ox
##craft
need
given
sty
just
thir
invol
various
##ially
##ization
##itive
engl
good
stri
zient
##gest
beg
prote
character
fur
##oss
late
##ertain
child
idazle
##cent
bre
##ribut
##zaile
atta
force
##val
##ploy
east
##ration
english
##ote
##uis
##ield
men
near
sout
##akes
##alth
##ropy
189
make
amplif
report
event
engine
vi
##ably
jai
ste
##iaren
local
return
##ense
hen
win
intro
##empt
current
##ws
##dom
ik
ship
thus
history
program
civ
way
view
##ences
##ention
see
ziren
entropy
##ea
bra
cat
cri
wom
decl
short
##ec
##atik
egun
wright
##bt
##ena
##teg
gl
li
##rote
fair
##iarra
does
build
court
start
total
##ification
##xim
tx
nav
##ple
ga
ald
head
line
mult
civil
proper
published
ek
low
ten
appl
treat
inform
ut
foot
sort
developed
##ude
##atzen
sent
recent
sat
##ither
case
union
further
##ica
##ita
##pre
eas
few
rul
akto
aust
caus
activ
wrote
university
##of
##lear
mot
##istic
erab
community
##ume
##aced
real
point
ing
##imate
geor
##idence
afric
pract
become
##igh
cod
comb
##ob
##uan
hol
anal
##ada
jud
2008
must
guitar
market
##oph
ze
##ross
187
edo
claim
schol
largest
without
dev
##ering
host
china
##mber
der
top
areas
conse
range
letter
##ane
##cing
##hest
mag
sam
five
init
attack
##ological
particip
##iers
esk
ball
sports
##ton
my
six
##ental
bon
prim
##cially
having
##urs
##ining
camp
express
##af
##imes
ang
iss
counc
suggest
research
signific
30
sk
dyn
bain
instit
##amed
bir
hon
zer
1980
finn
prom
exist
proble
original
zientzia
##row
neg
mater
compil
lib
belg
kult
role
council
established
##ody
certain
culture
##ash
##izk
##tic
bate
third
change
herria
profess
##lee
mix
influ
compos
systems
included
##ioa
##ival
phys
##ending
others
##here
repl
family
##hod
##ify
##aken
fut
jap
wes
code
soci
final
should
single
temper
possible
##batu
integ
source
strong
instrum
##bs
##ove
gal
##iving
never
production
##ring
alb
frant
former
estatubatu
##by
##eko
##ira
25
##erak
##ites
##reek
mer
grow
span
press
times
##ruction
mundua
movement
earl
said
word
##itions
constit
england
william
traditional
##tu
broad
present
sometimes
##med
tr
##ling
##vered
mean
read
roman
regard
species
##ule
##unk
##atic
hart
jose
admin
study
member
kingdom
aircraft
##ged
##osp
sem
espe
impro
kultura
##bo
ki
##ints
tek
norm
either
zituen
gr
##eder
##ends
esp
##ories
2010
##ograph
numbers
significant
##ding
##ille
works
attempt
kategor
football
##ems
##aves
188
kon
pet
1970
egin
prev
took
style
project
special
##side
##ured
2011
coast
forces
method
##ology
game
freder
spanish
balt
struct
concept
southern
##has
##ariak
came
appear
##ara
##rie
##ivan
jav
ris
son
cast
rich
beste
river
relations
##work
##arren
help
2007
2012
kirol
trade
##ime
##zko
jan
tit
list
parl
black
central
natural
##leb
##used
##asing
##ember
##wards
dest
prob
town
object
>
##ler
##ways
alm
jul
obs
syn
##etako
gerta
##ability
especially
##dle
##aged
2006
care
evil
seen
turn
##vision
celeb
compet
evidence
represent
independent
##mit
##uel
##ered
ban
mic
##rated
bill
cell
heri
company
version
administ
economic
material
produced
received
##eb
##na
os
##anor
eth
hil
targ
thera
q
acid
held
elves
teknolog
generally
##air
##ogn
##aint
##rian
gas
wid
##antic
priv
##atures
built
deter
attlee
nation
heriotzak
transport
##eta
##rid
dut
key
##ances
##iness
separ
words
western
gertaerak
##asy
##ata
##ges
##ots
##azio
fle
pur
2009
exec
plan
sull
relig
##ication
##ination
rather
capital
germany
product
interest
jaiotzak
teknologia
##gn
##bur
ve
##face
##ikoa
##ison
##ores
186
field
accept
dynast
except
kirolak
individual
##gia
aim
fant
heav
mass
super
##ascript
complex
eleanor
official
##rict
aug
ver
aver
democ
disco
louis
polic
computer
##bol
##ger
##oak
50
##hing
age
2014
army
fail
hold
love
mart
active
region
##ala
##uak
##yal
env
fac
tax
##istan
1990
know
side
take
upon
month
contest
##la
##ym
emp
won
conn
road
above
techn
concer
sullivan
##gi
##iff
##line
bal
log
mex
zuz
##gress
card
##onment
making
recogn
##ken
##ops
##read
dit
##aster
kill
summ
swed
women
created
##ulf
##ency
tri
2000
base
batu
half
meas
news
##gether
##olution
series
subject
together
conscript
##ait
##ches
##self
##uary
ast
tro
copy
diff
##ential
groups
invest
itself
territ
parliam
children
dr
ip
##ista
cbt
dav
avail
behav
energ
baltic
commer
settle
finnish
##aut
fer
jew
nit
##ission
middle
fantasy
scholars
described
##bit
##let
##ffic
##lect
ham
lan
oct
ord
oxy
tor
faro
fish
full
sept
parliament
##ham
##icle
##thel
agre
argent
oxygen
##ll
km
lur
mal
##aries
fire
once
portug
##ead
##iles
##tens
bil
band
exam
viol
week
##lement
begin
defin
japan
terms
aktore
employ
entire
foreign
related
languages
##au
##ators
anim
kont
athan
envir
might
today
white
climate
##ount
labour
athanas
specific
technolog
introduced
##ipp
##ned
##ott
##ague
##tech
##ysis
fig
alex
##rialde
ground
instead
science
influence
##do
##com
##hab
ach
aud
behar
chican
player
transl
january
athanasius
particularly
?
hom
ren
##lying
cerv
stre
tour
berri
health
changes
connect
economy
previous
##atz
domin
subst
taken
commit
output
influen
players
##mon
22
ho
100
self
##tained
numer
princ
energy
frantz
caltech
increased
september
##uzt
ib
ol
##endu
jes
body
album
played
republ
northern
released
##sche
cit
mun
pen
cost
educ
youn
average
surface
available
continued
associated
##ban
##tan
##ored
geh
sett
feder
condition
##bel
##uns
##back
##ming
##ober
130
giz
1960
russ
named
codice
theory
dynasty
engineering
##pa
=
bc
##utes
fri
mig
##ament
fund
type
least
means
occur
formed
princip
industry
minister
##ma
##bre
##ones
ben
tal
##count
##ought
1950
born
bron
august
society
whether
temperature
##ov
prot
sold
forest
missile
percent
increase
##hers
deb
fra
##ients
live
rail
father
provin
himself
october
##aten
##ietz
you
##urity
2005
bonn
filk
guzt
hizk
james
nitro
polyn
alexand
thought
classical
javascript
##ae
##arth
wil
cyber
nietz
provided
nietzsche
21
##icton
march
##quently
center
conver
espain
famous
perfor
britain
business
position
fredericton
information
opt
tur
##arily
arri
frank
lower
prime
songs
almost
little
mother
referred
##ez
##cul
24
##ctor
##ribution
provide
environment
##oll
##onst
era
dece
##iction
carri
indic
parts
altern
african
austral
hizkunt
parties
##uts
latin
allowed
command
defined
democrat
constitution
##iox
##tar
san
##icult
club
hard
kategoria
performan
throughout
ps
##eles
##olic
abs
dam
lic
aurk
next
april
egute
account
airport
functions
treatment
characters
increasing
##asun
##hips
bad
pot
red
wat
chem
fall
redu
rule
vict
york
capone
dri
kar
##elves
days
apost
jesus
whose
amount
flight
programm
##ief
##adem
##chan
ask
2001
come
cour
birth
epist
sound
league
living
polynes
respons
majority
eventually
æ
##isl
##oms
##orn
##rik
##onia
##pper
##rael
esc
pal
squ
vir
light
announ
higher
minist
convent
network
respect
constant
includes
reported
difficult
##rus
sym
desp
pred
rate
site
spir
achie
expert
consist
located
##lin
##mod
cam
fis
put
coll
june
mark
condu
ephes
henry
thems
access
conserv
themselves
##emb
##icip
184
foc
##unter
able
cath
##elling
multip
atlantic
successful
##oid
##less
ill
1999
bank
cann
gave
david
extre
micro
story
cyberp
association
##ray
hi
##ound
sus
##cient
clos
navy
prec
filos
legal
model
action
israel
observ
widely
behavior
december
followed
commercial
&
##cle
##uta
23
glo
2015
batz
laws
risk
paris
royal
empire
jewish
points
season
continu
security
uk
##oted
##atory
2004
arbit
target
brought
chicano
limited
outside
analysis
electron
##hy
##roy
##rypt
emak
lond
wall
cases
saint
caused
critic
eguteg
george
nature
rights
scient
filosof
beginning
cyberpunk
therefore
typically
’
##omp
##zea
27
##rane
##text
##asuna
##itect
##ument
coup
data
flow
clear
finan
##ributed
philos
founded
private
architect
operations
##va
##ape
##uko
##ceed
cru
elf
saw
away
cave
below
grand
quest
##ilities
extens
collect
despite
forward
results
started
therapy
writing
cultural
technology
##bal
##ples
don
##itzen
deli
purp
franc
legisl
likely
mechan
belgium
literat
prevent
smaller
copyright
##ano
##oke
wik
brass
greek
rules
months
##ux
##hib
##ike
##ola
40
##rial
big
cho
osc
sar
text
wood
agint
close
forms
manag
offer
##ications
pressure
programs
republic
originally
##fa
]
|
##ung
26
##rage
get
##verse
ther
agric
baina
ships
##ression
across
broadc
execut
necess
policy
effects
##ror
##oint
oce
say
gold
situ
cause
nobel
oppos
spain
visit
aleman
growth
robert
erabilt
municip
establish
settlement
35
che
jer
nag
##utako
1920
ever
lack
lost
park
past
liber
maxim
space
cities
eastern
nations
problem
agricult
performed
##ery
##ili
##ires
##rest
ots
1995
heat
dance
earth
training
amplifier
##bor
##het
##men
kl
##deko
##medi
exc
fal
hyd
nah
pac
##oaren
##uries
##uzten
acts
rain
caves
izend
stage
greater
richard
recorded
required
companies
##hu
[
##bru
##ern
##amic
2013
acqu
dago
enco
stan
##ailaren
academ
london
ancient
college
idazlea
mention
designed
amplifiers
estatubatuar
##ques
##rast
web
##berht
##itude
bish
ikus
meet
size
thre
becom
chief
foods
value
##ibility
larger
strips
earlier
mission
require
underst
commonly
elements
##yl
##ida
##ront
185
kim
nar
sil
tru
##ength
##ikoak
fest
##bruary
gradu
moved
ocean
quant
secret
federal
february
agintariak
##uit
##cies
##ners
##ties
183
ari
ice
deal
died
kent
wind
emper
peace
subse
types
##atively
highest
approxim
internet
services
otsailaren
<
##acy
##altz
afg
##ached
##iance
##oting
july
ondo
colon
famil
media
explor
travel
produce
regions
orrialde
##zi
##rend
fav
lot
pow
sex
adop
mess
##pected
citiz
radio
distin
length
compiler
determin
religious
##uals
ada
##iffel
2003
2016
coal
cogn
hasi
##ulated
queen
title
æthel
canary
election
features
authority
influenced
professional
##aps
##oses
dig
gor
imm
nuc
vit
conc
loss
rank
board
nagus
afghan
served
status
epistle
meaning
regular
building
structure
##di
##ki
ah
##iest
##inal
##omas
##ying
kan
mad
mis
##icles
##ioxid
cape
surv
tack
aphas
better
canada
depart
levels
longer
leading
records
studies
contains
involved
regional
definition
television
conscription
ko
##etik
##iped
##onse
hit
psy
##udela
bene
dial
semi
step
cross
whole
affect
always
compon
italian
antioxid
believed
maintain
construction
##den
##ico
##ona
##ply
31
60
##etic
mur
pie
ult
##izing
anti
mach
##mitted
champ
young
future
highly
signal
sweden
techni
brother
ephesus
remains
catholic
directly
arbitrage
##iot
28
##ades
##ateg
bit
doc
1979
1998
duen
link
##atzeko
##istics
##lected
award
launc
shown
sortu
centre
office
reason
spirit
aphasia
politik
electric
personal
practice
education
financial
implement
##ino
##aces
##ipel
fem
van
##asion
##ledge
hour
##arekin
games
occup
events
charles
negative
territory
activities
performance
independence
!
##ango
##arre
##ched
##ingu
##lowe
ans
fif
rap
tom
via
asia
dead
exch
find
marg
##ements
faith
grant
herri
urtar
##isation
eiffel
mathem
##udelaire
destroy
marlowe
problems
transfer
baudelaire
æthelberht
##uf
##we
##olf
op
##iera
hot
hyp
pil
##iding
##minal
##urren
2017
chic
clus
defe
enem
ethn
here
ipar
lord
armed
crime
emerg
green
inhab
names
battle
leader
nitrox
stated
comment
defence
musical
probably
remained
response
##ana
##xon
##mark
##rate
##sour
deg
pay
saf
poet
vill
went
cover
estim
psych
thomas
emakume
emperor
largely
station
examples
urtarril
polynesia
conditions
32
vo
##onic
##rary
cup
nom
oil
pan
1994
bret
reco
remo
tend
##rative
##utions
freed
frequ
jarra
amerik
america
artists
appeared
japanese
#
##iro
##ffer
##uzko
bud
ens
hau
mac
naf
##aring
1997
arab
feed
mand
weap
bound
input
lived
seven
urban
##ulations
counter
archipel
complete
announced
commission
historical
individuals
##vi
##ama
##azi
##umn
##viet
lag
##aving
gero
insp
kind
##isions
neigh
price
skill
track
mostly
needed
powers
soviet
urteko
discuss
elected
variety
activity
contract
approximately
##ee
##ema
##ids
##oni
##zat
sn
##ands
##inet
##oney
reb
farm
give
memb
sail
stra
confl
speak
belief
divided
towards
wikiped
equation
location
numerous
replaced
students
philosoph
alternative
##kn
##zo
##ila
ess
too
##chest
##modyn
idea
nove
qual
##atives
##ologia
##zailea
benef
crypt
europ
makes
night
export
income
oscill
aktorea
passeng
sources
november
operation
thermodyn
##eth
##iek
##oon
33
##eter
ple
##ables
##ously
keep
pain
soon
minor
varia
consum
mainly
##quential
billion
improve
leaders
working
patients
products
separate
programming
estatubatuarra
##eak
##eum
##ney
##hood
182
alf
fit
gab
mel
oso
tas
##ensus
##rants
disp
fort
##porary
adapt
added
basis
equal
itsas
prior
shows
joined
address
stanley
missiles
##ias
##oen
oh
ell
kat
sen
##inatu
doub
folk
##ilaren
diren
estre
astron
resist
simply
chicago
defense
experim
pacific
reduced
institute
primarily
instrument
urtarrilaren
##zez
##ares
##resp
bay
gri
##ption
1947
1982
##aching
effic
hebre
global
native
mexican
protest
operating
literatura
distribution
##wh
ly
##iago
##ises
##itan
##wood
178
bab
emb
tun
##ising
1948
conv
dute
look
says
wide
assum
break
journ
scale
basque
flying
propos
carried
internal
provides
effective
knowledge
industrial
literature
properties
revolution
archipelago
##enn
##itza
##phas
##ster
##unch
los
pra
##lands
1930
ditu
egit
uses
##anding
marri
pruss
fijian
content
composed
intended
transform
##sh
##aur
##gal
##mar
##mer
##uck
34
##arik
##wing
179
bis
lin
mov
rob
wal
##anned
##erson
##ready
1945
date
plat
whom
##orders
##ructed
azken
musik
breton
contem
museum
promin
simple
article
believe
introdu
citizens
question
speaking
initially
consequential
##ards
mit
##asons
##orial
bond
face
fell
hego
unit
front
hydro
minim
mount
novel
already
consequ
factors
ondoren
playing
schools
physical
progress
municipal
responsible
54
ot
##aign
##berg
##usal
bey
cab
pas
tex
agar
done
ones
poem
scot
star
corre
daily
money
suppl
africa
border
cervix
killed
authors
decided
feature
primary
instance
multiple
recently
zituzten
broadcast
completed
suggested
estreinatu
##omb
ja
##ithm
atm
bak
isl
phr
##anded
##arrak
##embly
##inary
##onian
1968
2018
chap
deep
eman
lear
moun
pric
rare
rome
trib
wife
block
bring
incor
moral
speed
users
##itation
assist
batean
emphas
prison
review
suffer
volume
applied
claimed
measure
methods
accepted
campaign
compared
surround
currently
afghanistan
##oko
##burg
##clus
##eria
ion
lay
unl
1940
magn
vide
##ughter
books
chall
creed
plant
thous
factor
futbol
immedi
interp
carriers
cognitive
##mp
##esl
ic
tv
##hold
##icit
amb
aqu
dro
flu
mut
##iforn
##iogra
1976
mole
pair
sequ
##ensive
filma
focus
noted
radar
takes
##respond
beyond
create
depend
ethnic
gehien
gregor
animals
explain
committe
investig
mountain
returned
australia
remaining
additional
correspond
##ech
##ios
##isc
##ole
29
36
il
##ened
##otes
181
fio
gip
inj
lif
yet
##ffaut
1996
erag
ille
quick
resid
round
supre
theat
azores
actions
appears
fiorent
initial
maximum
nuclear
contrast
truffaut
centuries
hizkuntza
##bi
##nel
##reg
##zio
##iter
han
hir
jaz
kom
mug
##aches
##inger
##ortun
diet
dise
izen
rand
spar
errom
maria
stren
degree
encour
errege
forced
joseph
police
reform
russia
summer
##fficient
derived
pattern
possess
assembly
chemical
falklands
prominent
fiorentina
##ded
##rad
##ras
##wise
120
cro
pak
ven
##adian
##anced
##elled
##ridge
##ufact
1992
cred
cust
guth
hild
jean
poor
quar
seek
spok
##ection
avoid
basic
batek
bronx
ingur
nafar
contro
domest
matter
resour
complet
release
decision
exchange
experien
extended
governor
manufact
communities
##ns
##oria
##hesis
##icted
1991
2002
abra
jack
sare
told
wars
decre
depth
eguna
sport
arrest
cannot
latter
streng
autonom
element
patient
distinct
earliest
festival
historia
launched
supported
testament
controvers
##50
##bat
##bon
##ols
##artu
##bour
##resh
fel
kop
our
rat
##ralde
##water
atom
subs
arran
hartu
india
rough
woman
antzez
cancer
county
launch
string
concent
convers
equival
running
stories
approach
proposed
frequency
mentioned
democratic
discovered
##rak
##uls
##uese
bez
lie
lut
##arent
##eland
##rying
1993
dens
diss
hill
hund
prin
sens
virt
zinc
##usalem
conqu
limit
albert
impact
reject
speech
attacks
letters
actually
families
presence
property
buildings
identified
portuguese
relatively
##ads
##wer
##cles
##oned
##onek
##pped
##tact
cha
sir
unc
##aketa
##order
1983
bran
doct
happ
myth
##bility
equip
films
peter
seems
sense
circle
placed
denmark
hundred
inhabit
zuzendu
astronom
declared
expected
incorpor
marriage
positive
estimated
jerusalem
potential
##ows
##ste
##ypt
##izes
##orea
cle
cth
pun
voc
dela
guns
male
oxid
repe
eight
param
santa
units
houses
issued
script
decades
involve
reached
consists
criminal
mathemat
versions
agreement
champions
connected
expertise
experience
scientific
relationship
##ca
##oe
##arc
##uma
##enth
##erve
##iana
##publ
adj
flo
hop
ori
tub
von
1975
1981
1986
cris
gran
hori
orth
prem
slow
true
andre
anton
ended
immig
italy
magaz
scand
think
##ference
atmosp
martin
refers
reserv
specif
street
taking
extreme
purpose
refused
domestic
register
committee
necessary
previously
organization
##aled
##haps
##itor
##odox
##ream
##ulhu
##ully
180
500
iii
inn
rab
rea
sun
wag
##ested
wave
##itable
accur
daite
fresh
guard
lines
metal
motor
poems
reign
serve
##ifornia
affair
araber
argued
franco
licens
abraham
achieve
categor
cthulhu
finally
married
replace
argentina
something
christianity
##ha
##ls
##xi
##aki
##mat
##uek
38
##abal
##illa
##play
bed
etc
##eratu
capt
cold
hala
hero
jazz
jews
brain
chron
enfor
imper
plans
print
urtea
video
bishop
biztan
circum
figure
formal
fourth
issues
prices
##izations
changed
gipuzko
guthrie
perhaps
preserv
section
zerrend
interpre
membrane
opportun
converted
elections
appearance
##20
##ga
##ett
##iah
##abor
##katu
##lers
##raam
##urte
cop
lau
##erife
##ville
1969
1973
ezta
prep
user
amait
autom
cycle
explo
falta
older
annual
career
overse
wilson
reasons
aktoreek
missions
politics
regarded
tenerife
contribut
frequently
instruments
##po
##tz
##lim
##mes
##rek
##ugg
##use
##vey
##amin
##dell
##ione
##itch
asc
cra
veh
##eties
##heast
##inity
##olved
alde
ezra
guid
nora
sand
sund
##encies
abesl
algor
baten
comic
faroe
theme
aspect
corpor
danish
detail
effort
failed
worked
ability
appoint
protect
reconst
director
district
depending
equipment
universal
equivalent
recognized
inhabitants
contemporary
##ump
##win
65
70
##band
##lymp
##oper
##town
##zial
hab
zeh
##ields
1946
alle
carl
eliz
exer
sant
##atured
##manent
catal
egypt
exile
hypot
jaiak
olymp
perts
plays
rapid
rates
satie
scott
strip
enough
friend
winter
##ographic
demonst
orchest
serious
alliance
antzeztu
becoming
canadian
critical
improved
resulted
selected
amaitzeko
gregoriot
musicians
standards
urteurren
application
##ax
+
##koa
##omm
##rog
90
##ibly
##idun
400
gut
las
rot
rug
##aming
1987
erak
hall
impl
page
path
reve
seem
stop
tell
turk
##iation
##ishing
conne
dutch
extra
nazio
talde
twent
belong
damage
normal
spoken
adopted
circuit
faroese
hildako
quality
supreme
disorder
identity
orthodox
powerful
extensive
permanent
california
foundation
importance
agriculture
##iki
##las
##nam
na
zu
##arte
##egia
##head
##iano
##iast
bid
bot
cut
kas
##cious
##haska
1967
1985
bapt
doll
scre
want
##ension
##rities
cells
fully
roads
teams
allows
americ
beings
charge
course
nearly
plants
slight
spread
##urteetan
francis
medical
notable
sehaska
cervical
mainland
observed
egutegiko
executive
interpret
resulting
alexandria
management
bisurteetan
celebrities
translation
urteurrenak
##ex
##ker
##phy
##umb
80
gd
##ania
##igen
##uted
aro
jac
nas
ran
rig
##iable
1956
1958
1971
1988
blue
chur
pope
salt
vary
viet
zero
##ifying
capac
duten
fight
ideal
labor
meant
phase
copper
escort
opened
things
coastal
conclud
entered
fiction
fishing
growing
physics
churches
featured
substant
attention
izendegia
reference
determined
officially
protection
represented
##90
##gu
##che
##cks
##gin
##sex
##war
ey
##bide
##outh
##west
bol
dim
fix
gaz
mas
mob
ora
vac
zin
1906
bide
burn
cook
goal
gulf
hain
holy
sist
vote
##ground
alone
comes
paper
sampl
scene
schro
score
agreed
causes
crisis
diving
eztaba
gained
luther
passed
values
arrived
dialect
friends
proport
sparrow
argument
composer
division
errepubl
portugal
historian
presented
electronic
eurovision
institutions
respectively
specifically
##ey
##can
##uge
##vin
##ford
##hens
##isms
##keta
##over
##wick
177
cub
haz
ign
kal
uns
##amics
##itate
##paper
##table
##tical
1978
anne
arth
ezag
irab
mixt
shot
##dinger
baino
draft
errus
genre
joint
optim
tried
behind
divers
marine
priest
symbol
temple
conduct
swedish
audience
biztanle
conflict
continue
creation
requires
coalition
newspaper
differences
schrodinger
administration
##wa
”
##ini
##ipl
##key
##ode
56
uh
##ella
##oral
##room
##tage
##view
hus
kit
lev
luc
oin
rhy
spl
##apers
##ellig
##hetic
##ieraz
##rates
##rence
1974
1984
anth
gord
stay
##antage
analy
erres
gives
honor
movie
spent
##edition
assess
colony
musika
showed
signed
troops
useful
visual
waters
library
offered
traffic
baseball
daughter
entirely
province
collectiv
formation
completely
gregoriotar
“
##gon
##oir
##alle
##ioak
##rera
##ship
ath
enj
##ropri
##uaren
1951
1977
afro
etak
fame
iran
phot
util
ways
##inated
apart
chann
ekial
ellip
enter
griff
idatz
share
sites
stock
write
##mission
##ography
actual
bereiz
celebr
cooper
helped
memory
philip
supply
zuzend
belgian
closely
context
density
freedom
heavily
quarter
apostles
feedback
materials
resources
difference
erabiltzen
philosophy
subsequent
antioxidant
##osm
##zek
##osis
##teen
aer
hur
lad
les
##aging
##arian
##eness
##ompan
1966
1989
2019
else
feel
race
rout
##iences
##uments
agent
aldiz
brows
compl
initi
issue
pleas
purch
##imately
animal
artean
arteko
arthur
bezala
census
courts
curren
deploy
expect
female
occurs
saying
sunday
georgia
overall
removed
testing
typical
accompan
neighbor
occasion
starting
violence
components
depression
opposition
constructed
egutegiaren
increasingly
##ho
##zy
##atua
150
cas
vig
arra
iraq
note
pict
scen
wing
exerc
image
amraam
claims
dituen
extent
random
unique
wealth
argitar
gainera
illegal
ordered
roughly
settled
strateg
literary
overseas
soldiers
destroyed
controlled
frantziako
techniques
administrative
##aug
##dor
##ilo
##mas
##nes
##rok
##wor
##zer
61
aw
ll
mc
##aket
##bing
##ouse
dia
hed
jim
mos
##igned
##tered
1927
1939
1949
1972
arts
beat
dark
grew
mary
pier
rise
roll
uste
zone
##ceeded
alien
izena
matem
quite
react
combat
compar
domain
online
stress
toward
##inations
carrier
experts
fijians
opening
advanced
distance
inspired
magazine
normally
obtained
projects
settlers
suggests
christians
conservative
transportation
##lf
€
##abet
##ging
elk
erl
haw
lid
##gment
##thing
elbl
hiri
isol
lege
trop
zion
##icated
cards
doctr
enjoy
pilot
veget
##ception
albums
device
format
giving
models
norway
proved
teleph
threat
arabera
bizidun
captain
contact
edition
follows
leaving
liberal
message
theatre
combined
describe
expanded
pakistan
argentine
describes
passenger
similarly
situation
authorities
combination
applications
architecture
consequences
traditionally
##aw
##bed
##din
##ees
##ift
##iti
##uer
52
mm
##antz
##imed
##indu
##more
##rief
##ston
bih
ded
die
enc
fat
1912
1919
coma
duke
gaur
harm
joan
mich
opin
room
vess
arist
attra
bater
bible
dituz
fleet
heavy
komun
libur
mende
negot
perox
plate
rugby
sheep
voice
##istical
batzuk
edward
egiten
places
romans
treaty
cluster
emerged
figures
garrant
housman
indigen
quantum
quickly
targets
distingu
explicit
greatest
existence
principle
regarding
residents
sufficient
ultimately
competition
experienced
significantly
##pr
##ya
##aff
##ero
rh
##iety
##ogue
##rupt
##unte
##writ
159
aeb
cip
fru
jok
kol
lip
nab
ray
rod
xvi
zut
##aling
##atuta
##pread
1959
asko
cars
gent
liqu
ment
mong
poll
sami
zeal
anglo
asked
brief
depos
kings
rural
upper
wides
##uration
argues
calcul
determ
double
ekonom
expans
humans
mendeb
prohib
recomm
shared
square
themes
theore
writer
awarded
journal
machine
meeting
notably
planned
receive
someone
village
visited
challeng
congress
cultures
europako
occurred
strongly
contained
disorders
exception
lovecraft
convention
indigenous
structures
widespread
##sa
##adi
##hou
##mud
##wan
44
##alty
##inth
##untz
##urik
300
agm
aid
alt
gib
gol
mol
naz
sho
##ieval
##rical
1942
1955
cand
cart
luis
mind
pure
sche
trad
your
aband
label
notes
piece
rhyth
ruled
seats
spect
tests
##insaltz
##ription
artist
euskar
muslim
strict
canaria
capable
classes
efforts
granted
husband
install
russian
voltage
appropri
ballroom
griffith
medieval
americans
providing
hypothesis
performers
steinsaltz
composition
immediately
##bu
##ii
##zt
45
75
gi
uz
##bury
##iled
##inav
##reko
##vald
got
ire
jur
nic
nik
sax
vul
##iring
##iting
##ropol
##works
1965
dang
emer
konp
nato
pack
pron
rein
rose
##ilemon
alder
bizka
charg
dixon
exhib
lyric
martx
match
reven
solid
weeks
catull
closed
elblag
erabil
legend
studio
farmers
ingeles
opposed
prophet
reflect
weather
document
integral
lurralde
philemon
proteins
religion
sampling
slightly
appointed
expressed
interview
organized
provinces
popularity
traditions
administrat
agricultural
subsequently
##ato
##con
##oys
##ped
##bach
##bles
##engo
##fect
##ooth
##orth
##osen
##phic
adm
auk
bib
bul
sac
sum
##iency
##ietan
##where
1917
bomb
emot
figh
fill
gard
juan
karl
lort
sets
sulf
uter
zela
##ceived
##icians
##ternal
bruns
canal
enemy
gerra
hours
izate
multi
smith
views
##atutako
##issions
bihurt
defend
eccles
hebrew
master
mexico
phrase
polish
turned
unlike
affairs
correct
handien
liddell
nafarro
researc
weapons
whereas
abrahams
allowing
batasuna
circumst
concepts
stations
writings
advantage
brunswick
technical
possession
##kt
##ael
##isp
##kto
##och
##sen
##apor
##embl
##mann
##onym
##rick
ama
dog
gai
heg
hip
mam
sav
1911
1921
1931
cosm
datu
fast
flor
gara
hope
mist
nahi
neut
shar
teac
vern
##cement
##icable
absol
blind
blood
exact
irish
marit
mixed
naval
opera
owned
youth
##olished
##theless
biogra
chosen
detect
fields
heaven
irland
nearby
poland
prince
singer
digital
guztiak
paralle
philipp
shortly
torvald
volunte
zealand
academic
apparent
elliptic
imperial
intellig
policies
relative
attempted
conducted
principal
collection
processing
historically
instrumental
nevertheless
environmental
##iny
55
ig
si
##akoa
ark
dar
ern
hob
jak
jun
nap
por
swe
tah
##astic
##board
##icial
##scape
##usion
1910
1915
1954
1957
drug
ezab
gosp
hunt
kept
lake
orde
costs
dates
egite
going
lands
needs
plain
proto
shang
split
storm
table
dances
extrem
indian
mongol
reduce
sample
sector
severe
voting
castrat
devices
farming
greatly
periods
radical
respond
existing
interior
metropol
partners
restrict
theories
celebrity
dependent
eztabaida
herrialde
lehenengo
processes
varieties
consistent
facilities
recordings
transition
politikaria
##30
##70
##bc
##da
##dy
##aga
##ali
##gar
##uke
##ush
39
##alin
##ante
##icts
##ilea
##kund
##racy
arc
etx
gdp
hem
nam
tai
und
vag
wis
zib
##cules
##etary
##ivity
##known
##lines
1929
1964
brun
esan
flem
kong
pros
soil
##riaren
azter
daude
frame
hence
holds
simpl
zabal
afrobe
finger
impris
pierre
poetry
search
talmud
termin
beliefs
disease
enemies
irabazi
unknown
catullus
downtown
frantzia
indicate
operated
household
otherwise
professor
scandinav
secretary
attributed
classified
ecclesiast
resistance
statistics
governments
legislation
researchers
participants
temperatures
thermodynamic
##hol
##leg
##nia
##zil
##bern
##cell
##ctic
##entz
##ingo
##pass
##rile
154
box
dir
kel
mes
##house
##ismoa
##ulate
1926
1928
bars
cant
dism
easy
elim
firm
grez
huts
imag
indo
join
load
nova
shap
trav
vacu
##arents
##elarik
brack
calls
codes
elias
fisik
gases
ideas
marie
saria
appeal
archae
choice
exclus
johann
miguel
moving
murder
negoti
proced
therap
weapon
aurkako
aurkitu
becomes
cabinet
display
failure
markets
neutral
outback
scholar
workers
attempts
changing
collabor
defeated
identify
purposes
rejected
sequence
component
construct
dominated
positions
technique
thousands
acceptance
behavioral
developing
expression
politikari
influential
opportunity
statistical
surrounding
reconstruction
##10
##fl
##gd
##rey
##tel
##zes
##aine
##arin
##eral
##greg
##ocks
##otic
##vert
##wide
156
anx
ave
dio
enl
epp
gam
itz
nut
tip
ton
##emble
##geita
##rayed
1924
1952
carn
draw
hiru
ikas
nine
unus
##aldean
##ressed
essex
expos
heart
shall
##iration
gospel
inside
marked
obtain
rivers
screen
select
sister
smooth
spring
styles
apostle
michael
passing
tourism
washing
winning
compound
directed
erresuma
guidance
rational
recovery
zerrenda
alexander
direction
entertain
expansion
personnel
wikipedia
atmosphere
containing
espainiako
integrated
legislative
publication
antioxidants
introduction
thermodynamics
##asc
##ete
##oyd
##tom
58
ov
##agan
##ilib
##imar
##well
buy
erd
mai
max
nig
rid
sor
##fully
##ibide
##iders
##inent
##odies
##stein
##uetan
1914
1918
aita
bern
crus
hels
horn
hosp
irak
leon
send
tong
##aldeko
##iarrak
accom
drawn
galat
goods
leave
parad
phoen
berriz
branch
bronze
campus
candid
coming
custom
finals
handia
revers
survey
terror
unable
##entially
aspects
chemist
dituzte
ireland
restaur
setting
warming
writers
capacity
doctrine
dominant
employed
izendatu
maritime
ministry
solution
strength
compilers
democrats
southeast
expressive
generation
leadership
operational
parliamentary
understanding
constitutional
##igu
##rif
##ugu
##elic
##inki
##ping
##road
176
abd
duz
lee
sky
unf
##angel
##etric
##iment
##iplom
1902
1916
1937
1961
1962
arms
ezek
gall
irud
mail
synd
weak
##arriak
fifth
fixed
inper
islam
judge
navig
patri
recre
##amental
##atzaren
##ologist
##pective
##rations
advent
aveiro
danger
declar
diplom
favour
guiana
hosted
liquid
owners
rhythm
safety
tackle
taiwan
wagner
bishops
decline
ezekiel
flemish
harbour
justice
managed
nothing
objects
railway
request
reserve
vietnam
finished
germanic
helsinki
involves
oriented
platform
possibly
determine
increases
programme
autonomous
registered
ameriketako
fundamental
characteristics
##ef
##ky
##isf
##off
##oty
##rer
41
eh
gn
##ault
##come
##dera
##down
##enak
##hera
##know
##lets
##lord
##roke
##rong
##rust
##vere
aip
anc
bru
sla
tar
utc
##field
##inako
##ograf
##pping
##untza
1944
belt
bibl
crew
ezin
paid
phen
seat
syll
tren
walk
##papers
beaut
brown
crown
lloyd
merch
occas
oppon
orden
ottom
saxon
staff
texts
vigee
##itarian
acknow
budget
esther
hautes
horret
margol
medium
minute
mobile
nether
oldest
pieces
portra
prophe
punish
ranked
sevent
subsid
vulner
anxiety
causing
covered
euskara
hainbat
mixture
organic
showing
signals
studied
trading
bigarren
clusters
filosofo
measures
nitrogen
scotland
transist
criticism
delivered
extremely
frederick
permitted
practical
statement
newspapers
represents
furthermore
institution
universities
circumstances
participation
relationships
##ew
##alu
##aso
##cia
##gro
##oly
##tax
##zym
47
59
iv
tu
za
##iced
##ikul
##load
##nand
##pher
##quar
##rich
##uits
##word
158
164
cin
efa
gel
hij
lap
tab
wit
##antly
##arako
##berts
##endar
1941
1963
ages
arlo
bott
cako
deck
felt
gang
hitz
mant
ming
salv
snow
alice
casey
goals
heard
lingu
procl
towns
coloss
confir
europa
hijack
limits
skills
exports
explorer
external
numerals
patterns
resident
computers
continues
interests
intervent
capability
conversion
continental
errepublika
probability
transferred
conventional
erabiltzaile
characterized
establishment
representative
##my
##ny
##ams
##bau
##cal
##rea
51
93
lt
ug
##anal
##anda
##cers
##fall
##iari
##kins
##omes
##rium
##zean
bow
boy
dez
kil
nov
sud
why
##archy
##ifies
##ights
##ipped
1925
1932
cond
drop
emig
greg
guit
gutx
iron
levu
resc
sell
shor
talk
##ribute
agree
basin
bloke
comed
drive
favor
innov
invad
kanpo
manif
shape
tells
trail
##utation
brazil
choose
crimes
disput
ending
eragin
manner
mental
profit
rebell
viewed
winner
adibide
batasun
bihurtu
cakobau
cartoon
channel
forests
gehiago
license
mendean
minutes
munduko
officer
pauline
affected
articles
currency
headquar
pertsona
variable
orchestra
succeeded
expedition
hauteskund
industries
influences
maiatzaren
supplement
washington
regulations
considerable
metropolitan
##jo
##mo
##arm
##equ
##esa
##geb
##ioz
##lic
##ope
##rew
##urg
91
##bell
151
160
amy
ebu
gun
ken
luz
##eneko
##ivers
##ranes
##rison
##uratu
1900
1909
1923
antz
core
enab
fuel
gast
merg
purs
ring
sain
seal
##alater
##arteko
##bridge
asian
audio
cited
finns
holly
lives
medik
newly
withd
##certain
##iveness
alfred
ancest
batera
biolog
chance
column
compre
defeat
exists
preced
prefer
raised
rarely
serves
strugg
valley
victor
artikul
compens
compris
critics
dealing
equilib
europar
illness
ottoman
partial
prussia
reports
worship
absolute
accounts
colonial
formerly
frequent
hardware
invented
planning
relation
algorithm
conscious
engineers
ingalater
islanders
movements
worldwide
conference
functional
martxoaren
presidente
scientists
situations
effectively
nationalist
netherlands
collectivism
mathematical
representing
controversial
characteristic
##isa
##ora
37
62
hu
##ardo
##iary
##oten
##stad
##uing
ash
cyt
job
rub
sab
##inate
1903
1908
1922
1934
ahal
amok
cert
eric
gabe
lies
poly
rang
runs
synt
tact
vast
webs
advoc
begun
camer
chain
entry
erlij
esper
gramm
hauek
intel
obser
roots
stone
sugar
usage
contra
easily
ezagut
galile
gibson
gobern
hutsik
listed
partly
scheme
submar
taught
twenty
zinema
antonio
designs
focused
jackson
matters
mothers
parents
reality
retired
singing
strings
tourist
victory
vitamin
younger
achieved
airports
historic
opposite
retained
revealed
scottish
standing
suffered
superior
composers
officials
spiritual
uncertain
continuous
department
encouraged
investment
oscillator
passengers
equilibrium
participate
communications
»
##bes
##mun
##olo
##sec
43
57
85
ue
##ales
##emor
##enez
##esty
##ifer
##imus
##olas
##omen
##urak
ali
bce
bes
fab
gir
osp
pav
rud
ves
##abeth
##achus
##atzea
##ellow
##onald
##while
##zymes
bake
bizi
dive
fash
flat
glut
harv
hier
loan
meat
mont
nord
onto
rene
task
vent
##artean
##herent
angel
horre
infin
jarri
maver
reach
revol
rival
rocks
votes
##atzaile
begins
broken
demand
elbing
ematen
geomet
gordon
horren
howard
izango
lyrics
mythos
narrow
tahiti
##aneously
angeles
arrival
assumed
balance
existed
flaming
guitars
hartzen
housing
operate
routine
creating
declined
hospital
minority
onesimus
producer
prussian
reaching
batuetako
commander
involving
matematik
mechanics
molecules
producing
recording
telephone
zutelarik
argitaratu
historians
percentage
supporting
appropriate
contributed
description
settlements
occasionally
performances
requirements
successfully
organizations
interpretation
##ado
##aka
##irr
##izt
##lor
##roc
##ros
##zed
42
cn
om
##amen
##elve
##ique
##iver
##rena
##rete
##ults
azp
ego
epa
eug
jon
kor
ped
sao
unp
##hedul
##oring
##uneko
1901
1936
1953
aest
anto
cash
eigh
fans
pick
root
unem
unre
uzta
##andako
##vering
actor
carry
diver
evalu
fired
forum
garai
glass
imped
items
ondor
piano
satur
store
subur
truth
##lection
assert
carbon
cipher
decade
exempt
guided
indeed
manuel
scores
scotia
strike
twelve
writes
##atically
##atzailea
absence
academy
adapted
advance
amounts
ansbach
circles
classic
distort
forming
gregory
hebrews
lasting
promote
renamed
student
trained
treated
##abilities
amicable
commemor
conquest
deployed
francois
hydrogen
isolated
produces
sentence
thousand
unemploy
williams
arguments
communist
concerned
concluded
cryptanal
gradually
ministers
reduction
separated
assessment
connection
exceptions
performing
distributed
interpreted
involvement
maintaining
politicians
territorial
additionally
compositions
independentzia
«
##cel
##hor
##ori
##ota
##otu
48
49
64
ia
od
ok
ru
##akia
##ekin
##eman
##icon
##king
##koak
##omin
##othy
##page
153
175
ago
baz
cer
fly
lam
liv
lyn
mud
obj
pit
roy
vii
wel
##enced
##intza
##itako
##izial
##opher
1876
1943
ahab
azal
epis
feat
fulf
juda
laet
prol
sole
uefa
warm
wild
wolf
xvii
##gdalin
##itekto
apoll
baita
batez
beraz
berez
brook
coach
color
hands
henri
katal
kimik
mundu
ratio
telev
twice
worth
acting
anyone
athlet
berria
comics
cultiv
desert
explan
intens
kimika
linear
linked
precip
prompt
proven
publis
satisf
stroke
sulfur
vernet
walter
wanted
artific
clearly
comprom
concern
daiteke
details
enzymes
evolved
fashion
handiak
honetan
iceland
italiar
phoenix
schedul
selling
vehicle
violent
credited
laetrile
modified
prepared
repeated
romantic
abandoned
arkitekto
churchill
frantziar
maintains
perceived
protected
regularly
secondary
southwest
variables
commentary
comprehens
consisting
designated
discussion
immigrants
translated
populations
incorporated
entertainment
participating
##fc
##rd
##alf
##lan
##oud
##raz
##uzk
88
ud
ul
##argo
##gian
##iere
##ieth
##omor
##onso
##oped
##rako
##then
155
alk
atx
bob
cul
ecm
err
iso
raf
wed
##agues
##arria
##inson
##matic
##ystem
1890
1913
bede
cham
cool
corn
cruz
drum
epit
meta
nola
plus
pref
safe
sued
##aketak
##etatik
##ounced
bonds
canon
chair
chaos
clean
drain
ekain
elekt
flame
fried
hosts
hotel
inher
jokal
moses
norse
pairs
plane
popul
recon
solar
squad
texas
walls
watch
##areness
##ategory
##igarren
##isphere
##vereign
arrang
bottom
donost
harold
prepar
sought
stages
teoria
volcan
aristot
diverse
engaged
fernand
goldoni
grounds
gunship
opinion
peoples
persons
portion
timothy
alemania
approved
campbell
hizkuntz
moreover
operates
reaction
subjects
suitable
universe
visitors
abeslaria
amygdalin
efficient
espainiar
evolution
meanwhile
questions
sovereign
background
comparison
conscripts
hemisphere
interested
maintained
principles
reputation
understood
exploration
ecclesiastes
headquarters
communication
implementation
##eds
##lig
##lov
##mel
##pan
##set
ax
ku
va
##abil
##ador
##apse
##arsh
##hard
##oles
##otik
##umen
157
ced
cel
ezk
kai
lux
neu
pap
##acing
##ender
##eping
##etime
##orous
##place
##state
##usten
1905
abst
brig
clin
gaul
goes
knew
stad
subd
tube
vice
zure
##stream
adopt
algeb
apply
argue
aurka
bruce
doing
dream
japon
korea
leads
mayor
motiv
pents
rabbi
sartu
valid
##mmetric
abdera
agents
aldeko
attend
buried
cattle
daniel
debate
duties
ensure
harmon
imposs
kopern
offers
satell
silver
simult
weight
assembl
borders
dropped
forcing
killing
microso
olympic
restric
stating
unusual
annually
brackish
category
circuits
incident
measured
mentions
networks
occupied
vehicles
consensus
ekainaren
emissions
framework
francisco
intermedi
literatur
mountains
practices
preserved
rebellion
sentences
substance
artificial
efficiency
futbolaria
provincial
references
strengthen
considering
conventions
electricity
necessarily
municipalities
responsibility
##zu
##fts
##ipe
##iri
##mal
##osa
##pet
##the
##uff
##via
##wed
66
95
gh
kh
##ancy
##atar
##atuz
##bait
##cher
##icks
##idea
##intz
##odes
##oeba
##ogen
##oked
##orra
##scop
##teko
110
fro
muc
ros
syd
tam
##agail
##arrit
##azioa
##eenth
##gency
##helet
##ithms
##itzer
barb
bras
debt
egon
esku
fict
flav
gree
hear
java
jeff
lank
lock
loop
meps
modu
nick
orri
phon
sons
soph
tort
viti
##ertzen
antar
barne
bruss
erreg
excav
fland
grown
honek
irits
serie
tools
treas
trees
verse
wales
##athione
##ensions
##umented
acquis
assign
aztert
bridge
dagoen
decomp
ernest
escape
evapor
facult
gaelic
gaztel
italia
napole
notion
remote
rocket
scenes
stored
uterus
alleged
austria
benefit
cameron
chapter
constra
convert
corinth
deliber
depends
erabili
euskald
fighter
flights
florida
fulfill
holding
infring
lieuten
neither
perfect
serving
acquired
benefits
brothers
formally
geograph
graduate
invasion
mandarin
ministro
operator
saturday
sections
speakers
supplied
committed
democracy
intellect
pollution
suffering
experiment
freshwater
proportion
uztailaren
variations
consumption
glutathione
neighborhood
conservatives
##cm
{
##ani
##aux
##etx
##gue
##ieg
##ima
##oki
##rix
##sts
##uba
53
67
98
cd
jr
##aret
##atus
##eper
##orri
##uble
##vens
170
dat
gil
hms
hub
hug
lud
mom
xab
##atuko
##dered
##icate
##iduna
##itled
##orean
##tagon
1867
1871
baal
bada
bass
bure
diox
earn
fear
file
fitx
fris
indu
jury
krog
lind
ordu
peak
qing
sect
ster
utzi
##urance
##wealth
arian
brand
buruz
buses
delta
deriv
diagn
elder
ezaug
jacob
jones
links
lists
medal
ports
roles
sixth
slave
steel
subsc
tourn
upgra
vocal
wrong
##ictions
arithm
awards
basket
berean
bertan
camera
condem
dating
define
ezarri
horiek
ingred
vacuum
yellow
alderdi
borough
browser
conclus
imposed
invited
mediter
nagusia
prosper
prototy
rapidly
reading
revenue
statute
turkish
vessels
zabaldu
abeslari
agencies
arranged
brussels
decrease
licenses
lutheran
parallel
tropical
urriaren
vertical
volcanic
##ifications
acknowled
amerikako
awareness
cambridge
chemistry
continuum
emergency
execution
invention
irailaren
kontinent
portrayed
prisoners
australian
categories
documented
ecmascript
employment
explicitly
impossible
understand
implemented
nazioarteko
possibility
presidentea
substantial
commonwealth
considerably
municipality
participated
restrictions
corresponding
##oo
##px
##bin
##edu
##ido
##kes
##lea
##nat
##udi
##uli
##wig
##zar
fu
lu
mr
##aker
##apen
##artz
##book
##etts
##ikan
##most
##otan
##vant
##zing
auz
hoc
lis
pul
sel
sle
##aleko
##berto
##iling
##oplas
##orage
1870
1895
bell
berd
bert
diam
edit
elev
gene
gert
hell
huge
jend
keys
libr
nasa
rehe
stim
tree
usaf
zenb
##agatik
##writer
absor
annex
aquit
deleg
eraik
flour
gizon
golgi
ikusi
izaki
kelly
metro
ninet
pagan
patag
recru
taxes
touch
unity
##imarama
##ugarren
actors
claude
client
consec
couple
dezake
driven
idatzi
iraila
losing
lowest
quoted
really
remark
rescue
shaped
subdiv
switch
syntax
thanks
vision
xabier
##omorphic
anthony
apollos
baptism
chamber
conform
dioxide
encrypt
errefer
founder
islamic
judaism
kilomet
kohelet
learned
ofizial
premier
suspend
thereby
witness
accurate
aldaketa
arrested
biblical
captured
judicial
kingdoms
krogstad
netscape
olympics
sariduna
sciences
thinking
transmit
ekialdeko
immediate
migration
parameter
patriarch
qualified
receiving
referring
socialist
stability
describing
lieutenant
provisions
statements
bainimarama
connections
consequence
declaration
perspective
recognition
recommended
territories
theological
intermediate
archaeological
identification
##hi
##no
##wi
##ito
##nis
##tea
##yan
46
83
cc
cp
ju
mu
rf
##enge
##iful
##inez
##ituz
##part
##pres
##tera
##zits
149
173
800
bai
din
ist
lia
qur
sig
tet
try
upd
wet
##aceae
##akers
##ening
##gradu
##ician
##istak
##light
##ribed
##under
1888
1898
1904
1935
bact
colo
corp
cort
doug
duty
ends
hans
hung
klan
konk
kris
merc
mort
nash
neck
sang
shad
sult
vien
whit
##uccess
##urally
afrik
cargo
carol
deput
disag
divis
doubt
drink
egind
erail
faced
farms
flood
habit
hegaz
helic
horiz
jator
kolon
outer
pione
raise
regul
sailk
terra
trial
wider
##ructure
acidic
adding
config
extend
faroes
filled
integr
lehend
phases
protok
secure
senior
sydney
termed
trying
virgin
aggress
calling
compuls
dismiss
egiteko
evening
faculty
imports
looking
origins
picture
theater
unified
website
##achusetts
artistic
colonies
emphasis
engineer
entitled
euskaraz
executed
fighting
flanders
founding
generate
hundreds
infinite
maverick
officers
promoted
prophets
proposal
strictly
abolished
alongside
candidate
challenge
contracts
dedicated
discussed
employees
featuring
fictional
gipuzkoar
intention
microsoft
specified
successor
topologia
algorithms
apparently
assistance
authorship
everything
zuzendaria
accompanied
cooperation
garrantzits
philippians
competitions
intelligence
unemployment
concentration
massachusetts
representation
##nd
##ti
£
°
α
##cts
##jun
##ogy
##yer
..
87
96
ht
ka
ms
##appe
##bish
##ipen
##pean
##pris
##ulum
##urre
##uses
##xual
...
162
axi
bah
bos
cry
eur
fan
fox
ibm
jin
kut
ost
rum
seb
tan
voy
##isted
##prise
##rekin
##ricts
1880
1933
bako
bald
baro
boom
boys
burg
chan
cyan
dena
egip
fifa
irre
jump
kern
lect
mile
none
plot
shif
sick
tank
tool
zhou
##irrind
##linder
##oplasm
##tering
arren
autob
berts
essay
falls
false
holid
linux
lipid
monop
prize
reper
shock
simon
teach
vital
zehar
zuzen
##lements
##ulative
affili
assass
daitez
deaths
desire
earned
ethics
fellow
gather
greece
hockey
illust
iritsi
libert
lurrik
motion
onartu
passes
patrol
prosec
remove
sacrif
shakes
stayed
suppor
virtue
weekly
aldarri
beharko
cooking
diction
dietary
erakund
helicop
hunting
induced
infrast
loturak
manager
phrases
proceed
rehears
seventh
slavery
stadium
streets
willing
browsers
castrati
compiled
counting
cylinder
everyday
everyone
exposure
learning
predomin
robinson
salinity
tendency
txirrind
audiences
aztertzen
compounds
computing
decisions
distribut
elsewhere
essential
indicates
mendearen
narrative
occasions
reactions
reflected
satellite
scheduled
surviving
suspended
zientzial
colossians
concerning
mainstream
nineteenth
occupation
originated
profession
restaurant
undergradu
aristoteles
controversy
distinction
enforcement
instruction
sovereignty
expectations
intervention
championships
cryptanalysis
precipitation
classification
simultaneously
##aro
##bia
##bil
##ils
##lem
##ois
##rip
##rut
##tes
##tha
##tik
##wes
xx
##anes
##esta
##helm
##lete
##pena
##umes
##urse
##what
bom
gnu
gus
guy
jas
kam
kid
pir
sau
seg
som
thr
tot
tox
##hered
##ikoen
##vious
1879
1897
aged
apir
elig
eyes
feet
gate
lith
nire
perm
sess
solo
spot
tall
trum
##amoeba
##rition
appre
atxil
babyl
bands
bidez
boats
check
chose
claus
cloud
clubs
deals
enper
flows
fluid
guest
homes
juris
lakes
mugim
nahiz
noble
norve
notor
nucle
oscar
shelf
sight
taste
trust
uhart
usual
zitza
##chester
adjust
berlin
bodies
closer
filmed
fruits
mining
nordic
orders
recall
retrie
routes
slaves
trials
varies
victim
wisdom
algebra
baptist
berriak
dispers
douglas
exploit
finding
funding
iparral
johnson
minimum
paramet
penalty
printed
privile
reinfor
seeking
sistema
accuracy
archbish
athletes
attended
aukeratu
breaking
carrying
chapters
depicted
dramatic
esperant
euskaltz
gehienak
horizont
manifest
memorial
remember
shakespe
somewhat
supplies
tourists
afrobeats
bizkaitar
dangerous
districts
electoral
emotional
galatians
generated
impedance
literally
prototype
twentieth
basketball
businesses
celebrated
diplomatic
electrical
emakumezko
filosofoak
nafarroako
vegetables
destruction
explanation
inspiration
contribution
difficulties
establishing
improvements
recreational
decompression
distinguished
philosophical
##25
##aic
##alo
##arn
##bee
##bid
##cep
##run
##vis
09
63
74
dc
ea
pu
um
wa
##agen
##atze
##azar
##buru
##ente
##hist
##onen
##oust
##utsi
161
bbc
bio
cum
dub
fed
hud
hym
ine
kaz
mah
nan
qin
ram
ske
sob
sup
tup
vic
##ained
##asant
##ceira
##going
##rimin
##shire
1000
1899
alco
asks
bera
budd
bund
crow
esko
fled
foss
hack
haut
hong
iker
inqu
jord
kant
mode
pull
ross
ston
symp
thin
tone
welf
yard
zaur
##action
##arrean
##ritage
##teenth
antio
aurre
botan
catch
chari
cohen
coinc
coins
error
femin
guide
haren
hindu
index
jakin
konts
metab
molec
noise
probe
route
saioa
schem
sides
spoke
theod
thing
tubes
txant
zibil
agindu
banned
behalf
borrow
cardin
carnot
castle
consol
discip
doctor
emakum
exclud
faster
frants
injury
irault
matrix
median
plural
promot
reconc
rising
saints
sozial
stands
##ologists
accused
adieraz
contrad
dancing
dispute
enperad
ethical
herrian
itsasoa
lankide
legally
millenn
musikag
obvious
passage
plateau
storage
teacher
welfare
withdra
anything
civilian
collapse
commerce
consumed
darkness
handiena
heritage
inherent
judgment
pleasure
squadron
supports
survived
terceira
threaten
amplitude
aquitaine
associate
discovery
europeans
expensive
extension
hollywood
libraries
marketing
offensive
populated
procedure
responded
boundaries
manufactur
mathematic
mechanical
regardless
regulation
restricted
compilation
constantius
educational
experiments
holomorphic
ingredients
limitations
oscillators
shakespeare
championship
organisation
presidential
contributions
infrastructure
transformation
##ei
##fe
##ja
##kk
##vo
##aba
##ips
##sis
##uro
69
72
pc
##aera
##atia
##emed
##emic
##iant
##ismo
##izio
##olve
##ptic
##riko
##uden
##unci
##zent
147
168
600
ard
cot
dag
dna
gon
gur
hid
jos
lav
lew
lex
map
mik
pin
pla
rol
sit
tib
vel
##erako
##irect
##itter
##ocerv
##organ
##point
1891
1892
1907
1938
2020
ager
alma
crop
eduk
etab
furn
gluc
hang
kost
logo
mild
oler
orok
pray
rebu
shir
subt
swit
txik
wart
zego
##artzen
##athing
##erated
##tuaren
advis
asroc
coord
digit
ferry
harre
hazna
hills
krist
layer
legit
lortu
manus
ordez
polym
proof
shift
steps
sympt
toxic
yield
##aroaren
##ierazko
##natural
##osexual
abroad
acoust
advert
advice
aldatu
allied
ambigu
authen
batuak
capita
comedy
copies
covers
credit
erdial
errors
formul
gaulle
gizone
hasier
height
homing
inguru
moment
nagusi
oxford
palmas
panels
peters
poison
propri
racial
retain
seeker
server
sounds
tunnel
unless
varied
zioten
##enduaren
antioch
baroque
chronic
descend
descent
ekialde
erregea
falling
generic
hostile
implies
jacques
massive
peaceke
substit
wilhelm
##gregation
accident
adibidez
admitted
argentin
assigned
autonomy
chancell
confeder
contrary
daitezke
disputed
eligible
fernando
integers
interact
merchant
reducing
teaching
treating
txantilo
visiting
antarctic
attracted
confirmed
departure
explained
identical
inhabited
installed
italiarra
oxidation
partially
publisher
recognize
reservoir
returning
sophistic
submarine
unsuccess
adaptation
apirilaren
approaches
arithmetic
criticized
dictionary
horizontal
linguistic
manuscript
membership
ordenagail
structural
vulnerable
corporation
mathematics
participant
replacement
theoretical
underground
cryptography
imprisonment
technologies
##ih
}
##abe
##amb
##ati
##bul
##hyd
##rin
00
71
##abel
##ails
##ario
##best
##ccer
##enne
##iang
##iatu
##iors
##ippi
##itud
##ocol
##ogie
##pler
##unen
##zale
##zhou
166
alv
eld
fee
fid
gat
hay
isa
jot
kub
lig
liz
mir
moz
orb
pig
pon
raw
xii
xix
zel
##acent
##ateke
##atuak
##bling
##erian
##erted
##heric
##iform
##ilian
##leman
##penak
1887
1896
alph
anat
boot
buru
cere
clar
clim
dual
enth
erem
erro
flag
gone
klas
laid
pale
pret
sale
save
shel
shut
##aratus
##commun
##estone
##izazio
##orship
##uation
abund
admir
amate
amend
atent
banks
broke
capit
cease
curve
davis
defic
fails
folkl
fruit
funds
gabri
ghost
ibsen
inaug
incom
inner
katol
macro
oblig
owner
panel
sales
shell
sweet
tends
topic
train
waltz
##entziak
##ografia
##ressive
##ruption
##tenance
agency
armies
arrazo
autumn
blacks
caving
chiefs
citing
cosmic
cruise
egungo
enpres
facing
handed
hurren
images
inland
johnny
jurisd
konpos
merely
mixers
presum
procla
regist
runner
sexual
soccer
sultan
valued
verses
vessel
##iversary
amongst
aurrera
buruzko
charged
charges
concert
drawing
earthqu
gaining
haznawi
indones
inherit
integer
journey
katalun
oinarri
prepare
reforms
reperto
singers
stopped
theorem
unclear
adjacent
branches
bringing
cardinal
dialects
egindako
equipped
horretan
interval
licensed
morality
ondorioz
phenomen
purchase
relevant
smallest
spending
teachers
thoughts
vesicles
addressed
aldaketak
apparatus
augustine
azaroaren
beautiful
collected
continent
defensive
dynasties
encounter
gizonezko
hijackers
historial
iparralde
membranes
northeast
requiring
sensitive
temporary
terrorist
collective
complexity
compulsory
kategoriak
laboratory
mechanisms
parameters
pronounced
protestant
publishing
substances
supporters
tournament
volunteers
anniversary
counterpart
determining
exclusively
maintenance
proprietary
commissioned
consequently
experimental
negotiations
transmission
automatically
hauteskundeak
manufacturing
opportunities
psychological
erreferentziak
##sk
##aiz
##car
##cop
##imi
##ioi
##lav
##lex
##oln
##pez
##wid
##yst
##zon
68
78
cr
fi
fm
ny
wu
##abul
##aind
##anna
##atea
##atur
##cast
##ertu
##fare
##gers
##imen
##isen
##itik
##kari
##mont
##rand
##rano
##rodu
##time
##unak
##waak
asp
cad
cay
dak
dil
eat
gom
lys
pel
pic
rib
ric
sak
sed
sid
spa
zah
##hetor
##ingly
##ketak
##utive
1830
1865
1873
bost
buen
bull
door
eros
ford
homo
jobs
linc
merk
mini
plas
poit
reun
shop
tape
trip
wish
##icting
##idents
##ietako
##rating
##untary
accep
aimed
alumn
batua
clans
corps
edoze
embed
engag
georg
gross
laser
loyal
lurra
mouth
palma
poets
rever
stars
stead
swing
waste
width
wound
##ikoaren
##issippi
##istango
##osystem
##rogeita
andrew
austri
bidali
cannon
commod
conjun
denbor
disapp
easier
eating
editor
egipto
endors
enlarg
exceed
excell
excess
invent
leaves
lotura
ludwig
memoir
novels
resign
rhetor
shares
surren
urtean
accompl
amerika
appreci
citizen
crusade
cyanide
damaged
exchang
finance
fitxate
highway
hogeita
horrela
izeneko
komunik
lincoln
mounted
offices
paradox
postwar
protein
qualify
returns
windows
acoustic
airlines
attacked
atxilotu
claiming
concerns
concerts
consolid
creative
diseases
florence
folklore
governed
gunships
harreman
hegazkin
imported
lifetime
likewise
nagusiak
nashwaak
nazional
observer
oinarrit
overlord
pictures
portrait
settings
stoneman
strategy
symptoms
ultimate
alemaniar
chronicle
conflicts
elizabeth
ephesians
equations
filosofia
governing
margolari
mechanism
orrialdea
ownership
recovered
strategic
agreements
connecting
continuing
contribute
eliminated
hizkuntzak
missionary
orchestral
patagonian
phenomenon
republican
atmospheric
broadcaster
competitive
distinguish
electronics
ingalaterra
integration
mississippi
personality
residential
scandinavia
scholarship
specialized
supplements
utilitarian
concentrated
infringement
mendebaldeko
scandinavian
translations
comprehensive
independently
investigation
##fs
##ask
##hof
##met
##ram
##rim
##riz
##uez
97
bs
mg
##bitz
##cano
##erts
##esar
##fire
##heas
##heim
##hell
##itus
##leth
##omon
##oven
##uchy
112
118
132
152
163
arn
asm
atz
aus
dun
ead
jel
lob
oro
oze
phd
ree
riv
sie
slo
soc
sod
sop
unw
vik
zab
zfc
##ander
##burua
##ecess
##ethel
##icide
##icing
##letic
##rolog
##unean
##width
##ymond
1878
bati
bird
cuis
dick
duzu
elis
entz
fasc
fine
frag
glac
golf
kick
lago
lion
marc
nami
otto
suff
tied
trig
unix
vinc
wake
wins
yuan
zena
##altzen
##asters
##berdin
##hemiah
##irical
##itudes
##itzeko
##osomes
##ptions
##ranean
##scopic
abdul
acids
aland
alloc
artem
atoms
attor
burut
cerem
charl
cloth
drama
drugs
encom
enric
eskoz
facil
finds
forth
giant
lagun
lewis
marsh
milan
moroc
norwe
ordea
owing
pages
poeta
polon
posta
releg
rhine
roger
rooms
shoot
stall
stran
taula
thick
ustez
yards
##actions
##ocervix
##osphere
##western
##zaileak
bertha
blocks
coined
engage
golden
guidel
hirian
hitler
hudson
infant
intent
interf
judges
kepler
krista
lasted
meters
ospets
penins
planet
revolt
rulers
saxony
seemed
sistem
stream
topics
transm
tribes
weaken
whites
worker
##heastern
##onscious
##ructions
antoine
centres
consult
demands
dollars
dynamic
epithel
exactly
execute
expense
ezabatu
longest
metabol
pension
priests
promise
raymond
restore
scandal
sortzen
switzer
variant
volcano
walking
wartime
winners
zerbitz
##istically
accommod
attached
attribut
believes
canarian
canaries
clinical
confused
deposits
dituzten
familiar
happened
inguruan
irlandar
johannes
morrison
nehemiah
pleasant
presents
profound
terminal
variants
authentic
bandwidth
certainly
conquered
consisted
entamoeba
followers
highlands
indicated
komunista
koperniko
labourers
mandatory
musikaria
opponents
organised
predecess
purchased
selection
symmetric
variation
archbishop
autobiogra
biological
challenges
chancellor
complement
households
millennium
polynesian
accordingly
attribution
categorized
conjunction
evaporation
frequencies
preparation
quarterback
switzerland
transformed
transistors
compensation
destinations
geographical
intellectual
proportional
significance
consciousness
neighborhoods
predominantly
representatives
##fo
##hl
##ml
##xe
##agn
##asa
##bot
##box
##cho
##eli
##hav
##kus
##oli
##opl
##phe
##ulu
##uri
ay
cf
ky
ub
##acts
##adic
##alph
##ansk
##char
##elle
##inea
##iner
##itle
##keen
##lind
##olar
##olph
##oren
##orik
##umin
##urua
##wald
##zioa
172
bri
cem
cnp
hat
kir
laf
leo
mez
rio
sik
spo
tut
una
vib
##aitza
##anted
##apped
##arrek
##atika
##comes
##eless
##etara
##iagoa
##ijing
##isten
##itary
##leton
##onese
##ratic
##ztatu
1849
1869
1889
bour
brid
cens
chat
cycl
eras
espl
feud
fret
goog
gora
hugh
inse
litz
maur
mond
mota
neur
obsc
ohia
peng
saga
surf
susp
tang
tier
tiss
tons
wage
wait
##aturik
##bertso
##entzia
##script
affir
alter
arose
bilak
broca
chuck
cliff
crane
crist
cytos
delay
dress
eaten
elite
euseb
fewer
files
filmm
franz
ilarg
jimmy
kinds
lanak
libre
magic
mines
moves
nutri
pasah
poliz
prove
raimi
recip
remin
retic
revel
sauce
sized
steve
tasks
teles
thumb
trend
##jection
anonym
answer
arians
binary
bitter
bought
cinema
colour
compat
cotton
cylind
darwin
decree
deemed
deeply
estate
eugene
explos
fought
franca
hurric
korean
michel
noting
regime
sebast
senate
sobiet
societ
sudden
tracks
amateur
attract
bakarra
bernard
besteak
biggest
bizitza
bothnia
brigade
cayenne
crucial
customs
dituena
edozein
engines
enjoyed
episode
europan
fortune
keeping
leagues
mendeko
muslims
normand
offence
onwards
persian
readers
reviews
rolling
sectors
secular
sharing
summary
tackles
uniform
warhead
wealthy
afrobeat
analytic
bereziki
boundary
cellular
chicanos
duration
enabling
entering
estimate
explains
forestry
hurrengo
ingelesa
margaret
moderate
napoleon
opinions
opponent
ordinary
portions
publicly
receiver
sedition
shipping
straight
struggle
supposed
tactical
aesthetic
antzinako
breathing
cantonese
developer
discrimin
economics
encompass
exercises
friedrich
guitarist
inflation
initiated
iruditzen
launching
locations
multiplic
northwest
nutrition
objective
unibertso
virtually
acceptable
demolished
earthquake
erdialdeko
personally
proclaimed
repertoire
respective
suggesting
aldarrikatu
essentially
iparraldeko
neighboring
requirement
modification
peacekeeping
publications
amplification
collaboration
revolutionary
sophisticated
##hr
##sp
‘
##ahn
##azp
##azu
##chi
##col
##ecd
##har
##hte
##hua
##iac
##jud
##kez
##lar
##rap
##sey
##tex
##tib
76
81
86
99
ie
pm
py
wo
##ache
##amps
##asia
##aziz
##hess
##kets
##mond
##name
##oard
##ophy
##ople
##oyuk
##roll
##rome
##ruck
##tery
##zone
148
azk
bin
cav
eag
elb
ian
jam
joe
jor
len
mak
maz
pus
rac
ses
usa
yes
zor
zub
##aldia
##avier
##enses
##iesin
##ishes
##ithic
##iture
##itzak
##izatu
##izers
##ogene
##onsin
##texts
##verty
1874
1882
1894
abol
abuz
athe
bard
barn
beta
bits
coin
empt
ency
fitz
flex
hect
mamm
math
narc
nerv
pant
suva
tale
teut
tomb
torn
txin
unex
wisc
wool
zait
##ateral
##ologne
##ophone
##tzmann
arrow
aware
balio
beach
bever
blade
borde
chord
debut
divor
doubl
eguzk
ezker
feast
grain
harry
hiria
honen
isaac
konek
leban
logic
males
mason
miner
mucus
ninth
petro
pitch
ready
siber
spawn
spont
surve
symph
tales
throw
txina
zehaz
zuena
##amation
aboard
afford
amaitu
atomic
carter
cathed
cavers
dealer
denied
divine
eskual
freely
google
horror
itsaso
julian
lesser
looked
mixing
norveg
ozeano
plasma
prefix
prozes
repeat
ruling
salome
titles
tonnes
traced
transf
turkey
undert
vienna
voyage
zegoen
##atherine
assault
beijing
biology
capture
cologne
defines
deliver
devoted
disagre
electro
endemic
equally
estonia
feeling
georges
getting
hasiera
herself
inperio
landing
matches
morning
museums
options
poverty
precurs
prevail
removal
shorter
skilled
solomon
warfare
zauritu
zenbait
##ationally
absorbed
abstract
anderson
attested
attitude
bacteria
castrato
centered
chairman
contents
contests
covering
embedded
emerging
epistles
facility
fraction
humanity
indirect
injuries
izandako
junction
mixtures
musician
notation
outcomes
painting
peroxide
populous
prompted
pronunci
protokol
quantity
reflects
taliesin
uniberts
villages
assembled
bizidunen
boltzmann
christmas
combining
commented
corporate
exclusive
ezaugarri
integrals
limestone
neighbour
norwegian
operators
performer
sacrifice
selective
voluntary
wisconsin
accessible
architects
assumption
babylonian
berrogeita
calculated
conclusion
constitute
cumulative
developers
difficulty
errepublik
greenhouse
homosexual
indicating
initiative
interstate
punishment
quantities
resolution
transistor
underlying
appearances
arrangement
citizenship
copyrighted
demographic
distinctive
expressions
frantziarra
gipuzkoarra
potentially
programmers
progressive
unconscious
capabilities
conservation
supernatural
zientzialari
specification
undergraduate
multiplicative
##gg
##hs
##uv
##arl
##bir
##ikl
##iqu
##iry
##lab
##log
##nal
##oka
##pie
##rot
##ube
##uka
84
dw
fs
mi
ts
##adan
##aina
##cult
##erie
##ibal
##inct
##irie
##izer
##oker
##oons
##rika
##udio
##uria
##wall
##zyme
113
119
171
250
bea
bip
enh
inb
pom
row
rsa
tag
tay
vin
vot
##arrik
##elako
##group
##ideak
##ikoko
##ilton
##isely
##iteke
##owned
##retik
1884
amaz
angl
ansi
araz
baie
bait
beck
bias
bind
blan
brad
buck
canc
dict
dogs
egia
encl
fees
fred
gods
ions
item
jaio
khan
leop
macd
mann
mare
mike
muss
pere
pico
pilg
pill
rely
skin
soul
sper
sung
sure
tail
taxi
tres
trus
unde
unin
uphe
##istent
##itated
##izable
##laimed
##rupted
##ularia
abert
adequ
alloy
arago
array
baitz
basea
basel
breed
brute
carib
chart
coven
crack
dated
demok
duena
edota
enorm
frust
grass
holes
hoped
infra
inver
iritz
konst
learn
memor
modul
overs
parks
persu
pluck
ralph
reson
retre
sharp
sheet
shore
spele
strat
stret
tetra
tight
titus
ultra
uncle
upris
voted
winds
worst
##arshare
##ughters
adults
allies
alloys
arabic
aurkez
beauty
boston
carlos
celtic
conven
decide
direla
expend
fairly
fallen
festiv
fluent
funded
garden
gaston
guinea
horrek
istrip
metres
milioi
mutual
ostean
papers
patron
prejud
shadow
sphere
stabil
stable
starts
talent
thirty
throne
trends
watson
worlds
zenean
##etheless
##ismoaren
altered
annexed
anthrop
behavio
briefly
cuisine
differs
disappe
elector
enhance
ferries
frisbee
genetic
geroago
handled
healthy
indians
interim
kentish
lacking
liberty
mineral
minimal
outcome
patrick
peroxid
plastic
prairie
ranking
resurre
reverse
shepher
suicide
synthes
threats
varying
assisted
attacker
attorney
austrian
bestalde
channels
chaosium
divisors
egyptian
ekonomia
erabiliz
erakutsi
expelled
explored
extraord
fighters
forester
fragment
frankish
hectares
incomple
jokalari
liberals
monarchy
opposing
protests
reserves
resource
restored
reversed
salvador
sexuaren
situated
starring
traveled
achieving
bearshare
behaviors
believers
brazilian
childhood
emakumeak
emphasize
futbolari
hurricane
insurance
intercept
jefferson
litzateke
militarra
mythology
notorious
predicted
religions
requested
residence
societies
sustained
volunteer
abenduaren
abuztuaren
challenged
commitment
distortion
interviews
margolaria
perception
wikipedian
conscripted
definitions
demonstrate
destination
dissolution
generalized
helicopters
introducing
legislature
nonetheless
observatory
productions
broadcasting
instructions
mendebaldean
mediterranean
concentrations
correspondence
utilitarianism
##40
##ao
##ið
##tv
##yt
##agu
##aia
##dam
##eto
##fia
##hat
##iat
##inu
##iva
##tra
73
kr
xi
##acht
##alan
##alia
##aman
##bilt
##cium
##dale
##deak
##edez
##erek
##hand
##holm
##isha
##odic
bug
cec
das
dkk
dry
eco
eko
eos
eru
euk
eul
gch
hin
igo
kin
kos
lem
mcc
oak
rus
sad
tap
tok
une
##after
##amend
##atist
##elson
##emann
##iated
##ikatu
##illes
##indik
##inely
##isers
##isons
##iziko
##karia
##oking
##rator
##stone
##urred
##urses
1564
1859
1861
1864
1885
ahaz
alan
amph
anna
aren
auto
baby
benj
cock
cous
dese
deut
egok
eure
ezik
fert
fing
hair
hind
ivan
jane
kidn
kuti
lose
mira
moon
nazi
nich
oecd
pont
sher
spel
thor
tors
vend
wire
worn
zaio
zent
zuha
##aments
##aneous
##antine
##estyle
##hteous
##ilaria
##ituals
##ompson
##ondako
##ophyta
##othera
##ulsion
##unters
accum
afgan
align
apaiz
aside
barri
ceded
clock
cuban
dagok
dense
displ
embra
enact
eskub
expon
fifty
forty
grave
guang
heads
heter
infer
kazet
logar
lynch
medic
monta
orbit
overl
relay
ruler
sarko
saudi
sends
sizes
sleep
statu
unint
vapor
viola
wages
wants
widow
wings
zinem
##asuneko
##olithic
akadem
alumni
buenos
carmel
cathol
cement
correl
egoera
elabor
enters
finish
fisher
izatea
jordan
julius
liturg
machin
malays
manage
manual
mendea
metals
movies
orient
relied
retire
rodrig
samuel
tables
taylor
throop
timber
titled
torres
trades
traged
transc
venice
voices
zibila
##iliation
##oplasmic
artemis
batzuek
burning
calcium
coleman
couples
derleth
enabled
erlijio
focuses
gabriel
galileo
herbert
herriko
ikusten
indiako
israeli
keyword
mesedez
nominal
ongoing
package
partner
passion
permits
pertson
planeta
pointed
profile
ranging
reaches
recover
reduces
runners
soprano
stephen
studios
suburbs
surpris
tackled
theolog
visible
adoption
altitude
athletic
borrowed
calendar
constitu
controls
covenant
coverage
delivery
dialogue
discount
discover
discrete
drainage
elektron
examined
faithful
fisikari
franklin
freedoms
idazleak
informed
inperioa
lehendak
messages
millions
minerals
offering
pastoral
poitiers
premiere
properly
reactive
recalled
regiment
socially
stronger
teutonic
thompson
withdraw
apostolic
appearing
breakdown
canonical
cathedral
displayed
diversity
estimates
jarraipen
landscape
lurrikara
medikuntz
occurring
precisely
precision
pressures
producers
recommend
resistant
righteous
solutions
stationed
travelled
victories
administer
attempting
britainiar
censorship
compatible
compromise
constantin
emphasized
epithelium
errusiarra
geological
informazio
innovative
ministries
procedures
recognised
regulatory
reportedly
successive
therapists
thereafter
alemaniarra
cardinality
celebration
experiences
extensively
immigration
interpreter
iparraldean
journalists
philosopher
unification
acknowledged
announcement
commissioner
contributing
demonstrated
matematikari
individualism
internationally
##11
##ji
##lu
##øg
##aud
##dea
##gab
##hop
##hum
##iov
##kun
##mad
##nie
##nik
##pes
##pin
##say
##tev
##van
##vic
##vik
##zan
##zig
82
gy
js
kg
##adel
##beck
##chen
##cock
##eren
##havn
##illo
##leum
##nian
##okal
##olis
##omed
##onda
##open
##osph
##rees
##rene
##ribe
##tero
##urra
##utik
##vity
##werp
##zech
111
220
ait
alg
bag
bog
cbs
cow
duc
dup
ect
els
fib
gid
gog
laz
lek
nek
piv
pse
ras
sag
sme
vas
xia
##adays
##alean
##asten
##ateko
##burgo
##ciosa
##earen
##elese
##elius
##elong
##endum
##etery
##found
##hamdi
##hoyuk
##ologo
##oning
##print
##rezko
1842
1866
1868
1883
1886
1893
adam
answ
aven
bang
beef
bold
bowl
calc
ccbt
chen
copp
cruc
cuts
forc
forg
funt
gauz
gest
godd
karg
kone
mars
matx
nice
ratu
rear
rena
rice
rite
scul
stem
tomc
tram
vist
##aldian
##iciary
##icondu
##izkund
##mother
##nology
##ported
##rowave
##zarote
adolf
aires
apple
arius
asmat
axiom
bases
bened
cable
conce
craft
cryst
czech
decor
diego
eredu
euler
euren
flash
floor
galiz
grace
guilt
hamar
hired
innoc
iraqi
jason
kable
klima
mario
meets
molek
norms
osoan
overt
paved
pregn
presc
risks
shrop
signs
synag
synod
tonga
torah
tries
unpre
unrel
waves
wheat
woods
##abulary
##angelis
##instein
##ographs
##onments
##onsored
##ulating
alumin
arabia
arnold
banner
brasil
butter
ceased
columb
corpus
culmin
deputy
dispos
dramat
eleber
enthus
etorri
finite
fluids
fusion
gabeko
genres
ghamdi
headed
herrit
hispan
incarn
isabel
konekt
landed
layers
listen
losses
madrid
massac
merger
miller
mosaic
murray
namely
option
orokor
perpet
persec
produk
purple
repair
ronald
slowly
struck
uharte
warner
##iability
##standing
actress
antwerp
appeals
careers
castile
centers
ciphers
clement
compete
crossed
cytosol
default
degrees
desired
doctors
evangel
extends
fathers
gizakia
gizarte
guztiek
helbide
hydroly
instant
jarrait
konkist
kontrol
kontuan
lanbide
laurent
lawsuit
lithuan
mammals
maurice
midtown
multipl
nigeria
raising
reprodu
richter
satisfy
succeed
sustain
thermal
transit
vaginal
ancestry
bakearen
balanced
biologia
bordeaux
cemetery
clausius
concrete
dagokion
diameter
disaster
egondako
elevated
enriched
erromant
espainia
exercise
famously
feelings
findings
graciosa
handling
hasieran
infrared
ingelese
latitude
lifelong
machines
magnetic
migrants
monetary
nigerian
nowadays
oraindik
passages
performs
princess
prisoner
railroad
resigned
sessions
shepherd
stallman
sterling
tensions
torshavn
vangelis
wallonia
weakness
zitzaion
abilities
advocates
amendment
batzuetan
carefully
customers
cylinders
daughters
descended
divisions
emergence
encourage
explorers
imaginary
interface
lanzarote
licensing
lightning
macdonald
magnitude
microwave
peninsula
petroleum
processed
providers
provision
salvation
sebastian
semicondu
seriously
sponsored
switching
astronomia
attraction
attributes
batasuneko
catalhoyuk
confidence
engagement
federation
hegoaldean
imprisoned
incomplete
permission
privileges
professors
prohibited
questioned
reversible
separation
shropshire
surrounded
travelling
treatments
advertising
christopher
consecutive
corresponds
descendants
improvement
inheritance
interesting
politically
proceedings
restaurants
variability
civilization
commentators
congregation
corporations
environments
missionaries
observations
preservation
sufficiently
unsuccessful
configuration
consideration
substantially
##56
##99
##lb
##ni
κ
##acc
##ahi
##aph
##att
##auc
##cos
##fit
##iol
##jer
##roa
##tze
##uda
77
94
aa
dj
mk
##adak
##agoa
##angu
##asha
##ayer
##bean
##berd
##elli
##ello
##fish
##hism
##ibus
##ilst
##imil
##keko
##kien
##lako
##mend
##nels
##oids
##rise
##uena
##ylon
103
105
114
128
146
aux
avo
byz
cyp
dru
dys
fon
fsf
gif
kap
ker
lor
nuk
prc
que
sha
tum
uss
xen
xiv
zap
##aline
##annon
##ardia
##arity
##atoes
##elles
##ently
##inton
##iscop
##itegi
##itors
##opian
##oping
##rible
##tages
##zaren
1600
1783
1809
1850
1852
1860
aire
bart
batt
bear
bora
cric
desk
drag
emil
fate
fats
girl
guar
hein
hide
horm
html
ibai
insu
jard
kanp
kasu
kron
luke
mall
neph
outs
plut
rape
riga
roma
sack
scar
seas
seed
ties
tiny
tune
txek
ukra
unve
visa
wore
zire
##coming
##dinand
##garren
##illing
##imeter
##intzat
##itatea
##lectic
##opedia
##uraren
adult
alkim
antin
armst
beeth
bilbo
bones
brian
clark
cubic
dealt
debek
defer
depri
drift
duela
entre
escap
esker
eugen
exped
fairy
fears
fuels
geoff
gizak
greet
gusta
harri
hawai
hirib
hitch
illeg
jasot
jaure
jerry
jorge
kendu
kills
konex
loose
lying
metre
nabar
orain
orria
quiet
realm
reloc
repet
seeds
shops
shots
spend
stere
stood
suite
syria
tango
teeth
terry
theft
tower
turns
uncom
unlik
valle
versa
##athetic
##ections
##issance
##station
##urities
analog
arctic
assets
assume
atlant
aukera
backed
battal
bureau
convin
cortex
crimin
danced
deeper
elisha
enable
esaten
eskult
esplor
eureka
fertil
flavor
forbes
franks
garatu
gomera
happen
harbor
izanik
izaten
karlos
kasuan
labels
latest
merged
newton
oracle
palest
parody
phosph
planes
poorly
rating
rudolf
seeing
seized
shangh
silent
surviv
thrown
tissue
trains
traits
tribut
triple
troubl
trucks
upload
vocals
voters
whilst
willie
##asunaren
##isations
##ogeneous
applies
aristoc
avoided
berdint
bertako
buruzag
carries
condemn
courses
cutting
denbora
distant
egitura
emitter
entries
episcop
euskalk
filking
gilbert
invaded
lengthy
nomadic
omitted
placing
roberts
sailing
sarkozy
seasons
shannon
signing
streams
telegra
trouble
assuming
aurkeztu
bakarrik
belgians
blending
broadway
ceremony
champion
clothing
colleges
computed
connects
criteria
detector
eclectic
employee
enforced
ensemble
freezing
gambling
granting
ikertzen
kontzent
meanings
millikan
monaster
monopoly
musikari
nicholas
overcome
rainfall
realized
receives
reliable
renowned
resolved
sobietar
suburban
survival
symphony
theodore
throwing
treasury
urteetan
virginia
wagering
abdulaziz
astronaut
attacking
beethoven
behaviour
caribbean
catherine
catholics
ceasefire
competing
composite
conceived
considers
consumers
correctly
directive
documents
exploited
ezagutzen
ferdinand
frantziak
highlight
indarrean
machinery
magazines
observers
oxidative
parlament
particles
portugald
promoting
promotion
reticulum
shortened
subsidies
syllables
therapist
affiliated
amplifying
cartoonist
completion
conceptual
decreasing
deposition
easywriter
encryption
enterprise
flourished
hirugarren
inauguratu
indication
orrialdeak
petersburg
profitable
revelation
sortzailea
succession
telecommun
cartoonists
cementation
cultivation
endoplasmic
espainiarra
measurement
plantations
popularized
prohibition
resignation
subdivision
deliberately
insufficient
kopernikoren
surroundings
assassination
determination
effectiveness
extraordinary
constantinople
txirrindularia
##aa
##cd
##cs
##eu
##gl
##gs
##hn
##li
μ
ω
##aks
##any
##bao
##bec
##cla
##des
##die
##ele
##eor
##erb
##erk
##inp
##jan
##jek
##law
##lus
##orb
##pps
##rob
##rup
##teb
##tor
##uin
##uly
##xes
##yll
aj
ry
##aber
##abic
##aded
##aila
##alon
##cope
##erik
##erun
##esis
##ikus
##imal
##inel
##inus
##ioen
##izun
##left
##life
##noon
##ondu
##ourg
##peut
##rean
##riak
##tail
##uine
##wich
115
116
117
122
125
127
144
145
174
aam
ace
ana
arb
bac
bic
dug
eye
gag
gap
hez
hod
ile
ilo
ino
jar
jet
lod
lou
ltd
løg
neo
odd
ore
org
pad
pam
peg
poe
qar
shr
tus
unb
zuh
##ancer
##antes
##arese
##ariko
##astro
##ellan
##heres
##icist
##idian
##iracy
##ograp
##osing
##oured
##phone
##sters
##theon
##title
##uable
##using
1820
1833
1872
ariz
bare
bilt
blog
bros
brut
burd
cuta
dauk
drew
ecma
edge
este
fuer
gisa
haus
hizt
hond
hull
ihes
jail
kaus
kide
lana
mere
mull
nest
oral
peer
pent
pole
proc
quad
quot
rabb
rays
sart
sexu
sute
teor
thou
wear
yang
##embles
##estock
##iarrek
##icates
##idency
##peutic
abort
acted
antol
arazo
astro
atzer
avant
azpik
badly
barru
barry
behin
birds
chick
consp
crops
degra
denom
dimin
doesn
edgar
elsie
empty
enhan
euros
facto
faial
fatal
gorde
graph
happy
harsh
horse
hyper
ideia
ingen
leher
liver
lords
manch
molar
moore
negro
objek
offsh
onset
pasha
pedro
perez
phone
posit
prest
pseud
ranks
relie
robin
siege
squam
stein
talks
toler
trace
tuple
turku
txile
wells
##embourg
##onation
##redited
##terbury
amphib
antzer
ascorb
asiako
asking
azaldu
boogie
burden
burial
burutu
caught
cousin
cranes
depths
devast
elkart
enzyme
eskola
forget
fossil
grezia
guztiz
hamark
hidden
iconic
ikasle
incons
indent
itzuli
junior
lagoon
lawyer
meteor
monday
nabarm
nelson
notice
palace
picked
prints
purely
refere
refuge
relies
restor
riding
sculpt
serial
speaks
stones
supers
traded
unions
varese
verbal
##cedented
##ensional
##otherapy
admiral
admired
aesthet
alcohol
askotan
assimil
automob
berriro
betting
bretain
clients
closest
coupled
creates
creator
dancers
deposed
derives
discont
divorce
domains
earning
ekintza
emaitza
entzikl
erosion
evident
failing
filkers
flowers
flowing
frances
harvest
hearing
henrike
holiday
impacts
inverse
knights
lindsay
linking
madison
melodic
memoirs
messiah
nonline
nucleus
painted
posthum
powered
praised
regimes
soluble
specify
spectac
tragedy
updated
upgrade
uterine
vanilla
winters
adequate
advances
advisory
announce
approval
atentatu
azaltzen
benjamin
berrikus
blokeatu
bothnian
capitals
carolina
confront
copyleft
crossing
definite
detailed
dezakezu
disputes
drinking
editions
educated
einstein
enormous
exploits
eztabaid
floating
geoffrey
infantry
insisted
istripua
lawrence
molecule
montague
mutually
normandy
organism
preserve
railways
raytheon
studying
switched
uprising
victoria
##ologically
accounted
adventure
afternoon
alternate
ambiguous
belonging
byzantine
campaigns
certified
colonists
defendant
destroyer
detection
ekialdean
elisabeth
emigrated
exercised
expanding
festivals
handiagoa
hartelius
improving
judiciary
lifestyle
livestock
merchants
nutrients
preferred
premiered
radiation
teachings
touchdown
waterways
witnesses
accurately
alemaniako
attendance
canterbury
cultivated
delegation
ectocervix
emigration
evaluation
exhibition
geographic
hegoaldeko
identities
jarraitzen
legitimate
liturgical
luxembourg
navigation
occasional
pakistango
preference
presenting
presidency
preventing
prosperity
rehearsals
reservists
underwater
acquisition
collections
documentary
excavations
grandmother
musikagilea
ordenagailu
orientation
sympathetic
transported
uncertainty
arrangements
britainiarra
collectively
commemorated
investigated
architectural
magnification
optimizations
reconstructed
unprecedented
considerations
reconciliation
ø
##amm
##bet
##bly
##chn
##cht
##etu
##fra
##giz
##hau
##inn
##lyn
##net
##oma
##omy
##pik
##var
##vet
##wat
89
gm
ix
oy
vs
zo
##achi
##ader
##agai
##aldi
##apes
##card
##cese
##elon
##emen
##etus
##gada
##haus
##iboa
##igra
##ikar
##inek
##iser
##izik
##izko
##jing
##lain
##nsyl
##olin
##olon
##outs
##owed
##penh
##phis
##tica
##unks
##uzki
##wind
##yard
##ymoy
104
167
202
700
alj
als
amn
bik
cdf
dab
diz
dol
dor
etn
goi
ibn
ink
kok
lil
nfl
nsa
pis
pup
shi
tel
tig
tob
tol
uno
urt
usn
vat
yor
zhu
##abide
##amese
##amins
##apena
##athan
##azion
##boluz
##bourg
##charg
##ected
##eetan
##eries
##erxes
##grove
##hauer
##iekin
##ienne
##imore
##isioa
##nings
##omena
##orthy
##oxide
##ploys
##power
##prene
##uerto
##umber
##utatu
##vised
##zkoak
1642
1770
1800
1815
1840
1846
1858
1875
abbe
aber
adel
ados
aims
anch
balk
behe
berg
bloc
buff
bult
cras
dess
didn
dies
disb
epic
erdi
estu
fier
fles
flew
foul
frit
frog
gary
gray
hait
halt
hipp
hood
hymn
icon
jenn
judg
kans
lady
lans
laud
lime
ltcm
lyon
marx
matt
mold
nadi
pard
pars
push
ride
scri
sele
slav
suit
tony
udal
void
wang
yale
zati
zazp
zitu
##alties
##arians
##aritza
##atical
##entzat
##ertion
##ilding
##illery
##inette
##itarra
##ogenic
##rolled
##states
##steine
##tanbul
##terior
##tevent
##velope
##zearen
adams
artif
augus
barra
berak
bevin
bildu
bonba
borro
bread
cheap
choir
cites
conve
cysts
dator
deity
discs
drums
duchy
duzun
eagle
eraso
ernst
erwin
eusko
fiber
figur
fract
frost
gaste
gazte
genus
glory
haien
hamab
helps
horta
ignor
imply
invas
isles
itzul
joera
kontu
liege
maced
manip
miles
outdo
paint
paulo
penal
perip
phill
physi
ponta
ramon
rated
relax
roque
salon
scope
seals
sided
smugg
sperm
spons
syncl
teleb
tenth
threw
token
tours
tract
ubiqu
undes
urugu
utter
xviii
##arraren
##article
##atories
##bouring
##ceptive
##elihood
##embrane
##eration
##itative
##ologies
absent
aliens
arraza
asmatu
avenue
baizik
batuen
buying
cancel
cantor
cataly
copenh
corner
decent
denote
derive
distur
dollar
donald
drafts
eguzki
ekarri
encycl
endang
entran
epaile
exiled
firing
fiscal
forbid
franch
garcia
gdansk
gendar
genuke
grants
hazard
hughes
intact
irabaz
irakas
izaera
kernel
ladies
lisbon
madril
metall
micros
miners
mirror
modest
myster
paying
platon
prayer
puerto
pursue
qarase
queens
resort
saxons
sequel
shores
singap
staged
storms
subgen
vagina
acquire
affects
antagon
backing
batekin
battles
belongs
bipolar
bridges
broader
broadly
bureauc
compact
compile
confirm
delgada
denoted
drafted
driving
editing
enacted
erected
exhibit
exposed
galatia
goardia
goddess
gradual
habitat
harvard
helping
konpain
labeled
lebanon
licence
locally
materia
melanes
memphis
monarch
monitor
morocco
nicolas
novices
pennsyl
pilgrim
recruit
resembl
samples
santuak
scoring
servant
shuttle
solving
sortzea
speaker
spectre
survive
telling
totally
touring
travels
unoffic
victims
vincent
warlord
warning
whaling
zuhaitz
##teventura
abundant
academie
activist
adaptive
afrikako
arriving
auzitegi
bilakatu
combines
consumer
contamin
cornwall
discharg
dropping
earnings
efficacy
eighteen
envelope
episodes
erregina
erregist
erromako
eusebius
eventual
flexible
follower
fourteen
friendly
hispanic
holidays
homeland
humorous
ideology
inguruko
irrevers
istanbul
jarraitu
managers
managing
mudville
mugimend
phonetic
probable
promised
protagon
removing
sporting
streymoy
supervis
suppress
syllable
tackling
toxicity
uncommon
unlikely
valuable
vitamins
weakened
withdrew
additions
araberako
ascending
bitartean
comprised
concludes
convicted
desberdin
diagnosis
elaborate
electrons
empirical
employing
espainian
ethnicity
euskaldun
excellent
fitxategi
francesco
garrantzi
gathering
investors
jokalaria
naturally
navigator
numbering
ondorengo
poisoning
prevented
primitive
replacing
resembles
rodriguez
slaughter
therapies
traveling
afterwards
antoinette
candidates
colleagues
comprising
conducting
constituen
contrasted
copenhagen
corruption
dagokionez
deliberate
deployment
disappoint
enthusiast
entreprene
euskarazko
exposition
friendship
gaztelania
governance
guidelines
idatzitako
informally
instructed
kilometres
liberation
matematika
motivation
negotiated
practition
referendum
retirement
submarines
synclavier
televoting
vocabulary
attractions
circulation
commodities
enperadorea
generations
horretarako
identifying
kontzentrat
manufacture
predecessor
renaissance
therapeutic
transaction
accompanying
availability
commercially
continuation
developments
economically
governmental
manufacturer
medikuntzako
oscillations
presentation
proclamation
standardized
autobiography
distributions
fuerteventura
institutional
interventions
jurisdictions
justification
mathematician
modifications
organisations
professionals
discrimination
generalization
investigations
##xu
##xy
σ
τ
##adv
##amo
##aru
##aza
##azk
##bar
##bro
##dia
##eda
##eld
##err
##gio
##giv
##iei
##ifl
##ioc
##iza
##jes
##kia
##mus
##orr
##pag
##rel
##rio
##sta
##tis
##tol
##uru
##xia
01
04
cm
dv
hp
mp
pd
rp
ti
vl
zh
##agne
##agun
##arez
##aron
##asts
##asus
##atin
##aton
##atri
##brid
##ders
##eing
##eran
##esco
##esia
##gang
##iban
##inen
##iten
##itic
##loqu
##mail
##mate
##norm
##obal
##ocal
##oded
##onim
##osse
##ours
##pace
##phal
##phan
##phem
##tnam
##tzia
##umed
##unts
##uous
##uroy
##went
140
165
256
350
450
ala
asy
blo
buk
coc
coe
dek
dik
dud
ean
gig
gud
htt
jox
mao
meg
mps
nol
ohi
piz
sae
sto
stu
tat
tin
ups
zal
zar
zur
ælf
##abled
##aired
##amine
##arazi
##arien
##atose
##bally
##bider
##bloke
##chems
##ching
##eller
##gence
##govia
##huela
##iarik
##iatik
##keley
##merie
##mined
##night
##ocene
##omial
##oslav
##oslov
##pages
##razio
##tegat
##terik
##uably
##urako
##utory
##vania
##zebel
1500
1543
1784
1787
1790
1798
1813
1834
1836
aten
axis
badu
bent
boat
buka
bush
carr
dall
dias
diod
dion
dish
dugu
ekar
etym
evac
gail
gets
giul
goth
grey
hale
heir
hone
hors
hots
idol
jaso
kate
kiss
lava
ling
lute
maid
mine
monk
mood
mush
myst
nurs
ohio
ovid
pace
peas
peck
plug
raid
tamp
tast
thri
twin
txap
unst
viii
wals
wine
yout
zein
##aldiak
##amenco
##amendu
##asunak
##cience
##encing
##ennial
##ifiers
##iments
##inates
##ington
##irable
##ochond
##olaria
##ologoa
##ophers
##resund
##scapes
##ssalon
##vation
abuse
accus
alban
altar
ambit
angle
anime
askat
atoll
balia
bears
berre
blows
cabot
cereb
cinem
coppa
corvo
crowd
diets
doors
downs
endom
erraz
etork
ezazu
felix
filed
fluct
galdu
gifts
girls
globe
handi
hedge
hemen
jaieg
joana
jules
loads
lopez
lumen
marco
marry
minus
moody
motif
musul
mutur
opium
ovens
parte
pliny
pride
resol
ridic
rings
scuba
shack
smoke
solve
spite
theor
tones
tuned
venez
venue
wheel
wrest
zones
zuber
##achment
##achtree
##altzeko
##fulness
##iencies
##mitting
##ropical
abnorm
afrika
anatol
arrive
aurkik
aurkit
aurrer
bardic
bizitz
bundes
coasts
collar
conson
counts
dauden
dialog
disadv
dispar
divide
edited
eighth
eskatu
feared
fisika
foster
freeze
geneal
grains
greens
guilty
guztia
hawaii
hearst
hierro
hiriko
invari
jerome
jewett
joints
lacked
laguna
lapurt
legacy
liburu
lipids
margin
naboth
naming
neurom
norman
orduan
parent
postal
posted
pulled
ranges
reader
reiter
retail
reward
sailed
salary
shirts
slower
solely
speeds
spokes
steven
stores
subset
suprem
temaru
tennis
thirds
traces
tuning
unrest
venues
versus
viable
wessex
window
wishes
zirela
airline
amaiera
arizona
barruan
beatles
bilboko
binding
bombing
busiest
charlie
charter
cochems
colloqu
columns
counted
debates
decimal
deitzen
employs
erroman
eskaint
etienne
extinct
ezaguna
faction
favored
fellows
filming
formats
freight
gentile
gertatu
glucose
greziar
grouped
guardia
gutxien
harmony
hilabet
hungary
idazten
imaging
implied
iranian
jezebel
knowing
leopold
løgting
malachi
militar
nafarra
optical
outlets
painter
pizkund
polonia
predict
prefect
publish
puttnam
relates
revised
revival
revived
roberto
schopen
secured
segovia
sharply
straits
strange
strauss
synonym
tallest
thunder
tribute
virtual
virtues
vistula
volumes
weekend
winston
wounded
youtube
actively
additive
americas
artikulu
avoiding
belonged
berkeley
bornholm
cannibal
comatose
demokrat
distress
drawings
emperors
eraginez
exported
favorite
fisikako
flamenco
formulas
frantses
frantzis
hamilton
harmonic
honorary
jarraian
kattegat
laguntza
lansbury
launcher
liberius
medicine
nickname
ofiziala
packages
presided
printing
promotes
quarters
regulate
releases
servants
severity
sickness
specimen
spelling
striking
surprise
syndrome
takeover
terrible
theology
uharteak
unveiled
upgraded
watching
ambitious
arbitrary
artillery
assistant
baieztatu
baltimore
beverages
biography
cancelled
celebrate
collector
comprises
conserved
decreased
dimension
disbanded
dismissed
dominance
ecosystem
encrypted
erromatar
factories
filosofoa
finishing
fragments
geometric
ignorance
immigrant
logarithm
marriages
methodist
mortality
motivated
obtaining
organisms
pasahitza
peachtree
plaintext
platforms
practiced
prejudice
protector
remainder
scripting
sequences
signature
statutory
struggled
surveying
synagogue
syndicate
thessalon
underwent
variously
violation
adventures
aggressive
amphibious
beneficial
communists
derivative
ecological
elementary
enperadore
existitzen
facilitate
formulated
garrantzia
impression
indentured
nomination
objectives
physically
reasonable
recreation
remembered
repeatedly
spirituals
superoxide
threatened
unexpected
violations
achievement
alexandrian
biologiaren
christology
complicated
constituted
departments
dimensional
discovering
discussions
encountered
encouraging
expeditions
functioning
gendarmerie
incorporate
macroscopic
manuscripts
mediterrane
microstates
originating
permanently
reliability
republicans
restoration
superiority
zuzendariak
contributors
differential
euskaltzaind
neighbouring
optimization
philosophers
schopenhauer
southwestern
transactions
certification
consolidation
cryptographic
documentation
manufacturers
semiconductor
unibertsoaren
mathematicians
specifications
implementations
##cr
##gy
##iy
##oi
##rc
##yr
##anp
##aqu
##bas
##bsd
##ibu
##iok
##mut
##nan
##oso
##ova
##owa
##pal
##see
##ulg
##ulo
##uzu
##yin
07
92
db
eb
fr
kw
ni
pp
sr
sæ
##acco
##aian
##aino
##aire
##aked
##aloi
##aper
##arak
##argm
##arro
##bard
##bors
##dles
##dule
##empl
##ergy
##eric
##ette
##hour
##igan
##igea
##iler
##ills
##imet
##isco
##just
##like
##list
##lock
##mund
##oche
##odyn
##oges
##omal
##onds
##ongo
##ounc
##phil
##phys
##pton
##rank
##ucky
##unez
##velt
##vian
##zako
##zego
##zens
##zkoa
##ztik
123
143
340
360
914
bav
bun
cob
dok
eaj
esd
exh
fic
fla
fuz
hak
hun
inp
lcm
ler
loy
maj
mys
nad
nev
ort
poc
sib
sok
tao
tes
tid
utz
##adena
##amped
##andik
##arena
##arios
##arked
##arret
##asser
##bound
##brevi
##etext
##etxea
##force
##frame
##fried
##guard
##hardt
##haust
##ikoan
##iliar
##iller
##inian
##inois
##izoph
##lower
##mmage
##oding
##otten
##oxins
##rough
##tense
##umann
1750
1789
1799
1822
1841
1844
1845
1854
1863
1877
aitz
alab
albe
beer
berm
bild
bore
boss
bulk
byte
clay
cord
cuba
dock
dyst
echo
ehun
erra
fand
fela
fron
gand
ghan
gian
gift
glas
gott
hend
hits
hugo
insc
ipcc
itur
kiel
kifl
lant
laur
lein
liao
liga
ligh
luze
mitc
nica
nuts
osoa
pape
pays
peru
piet
radi
remn
rhin
sari
scan
shen
sind
spat
spur
stur
tekn
tens
thra
thur
tick
vass
vine
wade
wald
ward
wasn
wise
##ainted
##apping
##atarra
##atever
##change
##ellers
##enberg
##ession
##father
##gerald
##hammad
##hattan
##icious
##inaren
##ismoak
##izioak
##mented
##namese
##reratu
##sville
##terson
##ulates
##umatic
##wright
##ximity
aargm
abbey
ageri
aging
ahead
ahmed
airpl
algae
alger
allan
alleg
ambly
arena
azore
bakea
basil
burnt
cesar
chore
draws
edith
email
firef
firms
freak
frets
fritz
garde
glenn
haman
hauen
heldu
hitza
illum
irrat
irrit
ituna
kevin
legea
loren
manet
marks
marse
mazed
melan
mexik
meyer
monks
morde
nomin
obama
olgiv
oxide
paths
poles
prisc
privy
pulse
quran
races
renew
rigid
rises
roose
sagas
samba
solos
squid
sudan
surin
tunes
ugari
uigea
vagar
virtu
wives
worse
##antages
##aturiko
##etarako
##iplines
##itasuna
##itating
##yllabic
aerial
affirm
agertu
aggreg
aipatu
alegia
analys
angels
antiqu
babest
baduzu
batuek
batuko
batzor
bosnia
botere
breaks
burned
canals
casual
coptic
crafts
cripps
curric
cycles
denial
digits
dozens
dubbed
eboluz
egingo
eguner
emerge
enlist
equals
erantz
exempl
feudal
fleurs
geratu
guards
handle
hardly
hellen
horien
hornet
hydrop
iloilo
incomp
invers
islets
izenez
kansas
latvia
lehenb
madame
marble
maroni
masses
matthe
mendiz
morgan
nickel
offset
oliver
oppose
patent
poster
preval
rabbin
radius
refuel
regain
regent
render
ridges
rivals
rooted
saving
sinatu
spaces
stance
strait
summar
tastes
tended
testua
thayer
triang
tribun
truman
upheld
vested
viking
##izophren
##ographer
##ondition
abbrevi
adverse
ahaziah
alberto
amerind
antzeko
arguing
aurreko
ballads
banking
cheaper
closure
colonel
confron
conquer
cooling
cricket
desegin
direnak
discard
discour
doubled
drought
elderly
empress
enforce
erregin
erresum
eskalan
feeding
fingers
glacial
graduko
heights
herzego
identif
imagery
injured
insight
intense
jatorri
joining
lafonia
lapland
loyalty
madeira
mantent
migrate
missing
mistake
natives
neurons
noticed
osatzen
outdoor
pursued
rebuilt
recount
refuses
relying
renewed
resolve
retreat
rivalry
romance
schemes
scripts
sherman
shifted
sixteen
summers
suspect
tobacco
traders
turning
txinako
vihuela
warrant
whereby
zenbaki
zituela
##cientious
anterior
arguably
asserted
aviation
buddhism
commence
comments
competed
complain
contacts
creators
currents
declares
deferred
demanded
departed
deputies
desbloke
financed
fortress
garrison
geroztik
greziako
illinois
impacted
informal
iraultza
italiako
legality
lehenago
matching
mistakes
muhammad
musulman
narcotic
newfound
offences
offshore
parodies
pasadena
priority
radicals
remarked
reserved
schedule
shopping
simplest
societal
stafford
steadily
utilized
whatever
whenever
wolfgang
youngest
abertzale
acclaimed
acquiring
armstrong
artifacts
attending
behintzat
believing
chemicals
coastline
commanded
confusion
contested
declining
depressed
designing
deviation
displaced
egunkaria
emakumeen
episcopal
expresses
extending
fertility
figurines
frantsesa
guztietan
happiness
hitchcock
illnesses
incidents
industria
kazetaria
konstituz
legendary
listening
logistics
lysosomes
manhattan
mitochond
molecular
neolithic
nominated
nonlinear
olgivanna
parallels
phenomena
preaching
proceeded
projected
proximity
publicity
regulated
rejection
repeaters
reporting
respected
roosevelt
scholarly
scrimmage
sentenced
shortages
singapore
spreading
subjected
submitted
summation
surrender
synthesis
telebista
acquainted
addressing
afganistan
approached
argentinar
associates
asymmetric
bereizketa
castration
compensate
continuity
culturally
depressive
descending
discipline
encounters
executable
extensions
favourable
fitzgerald
frantzisko
gehienetan
generating
historiako
identifies
irlandarra
marysville
musikagile
playwright
polynomial
presumably
reasonably
relaxation
securities
separately
shackleton
sozialista
strategies
suggestion
systematic
telephones
vietnamese
withdrawal
acknowledge
associative
assumptions
calculating
catholicism
chamberlain
compromised
computation
consecrated
corinthians
derivatives
designation
examination
grammatical
hostilities
incarnation
nutritional
partnership
schizophren
surrendered
threatening
accomplished
achievements
administered
broadcasters
combinations
consistently
endomembrane
historialari
incorporates
kataluniarra
literaturako
manufactured
northeastern
overlordship
pennsylvania
resurrection
similarities
conscientious
demonstration
entziklopedia
esploratzaile
ingalaterrako
psychotherapy
qualification
transformative
interpretations
##12
##19
##ku
##lc
##vr
##vs
##xo
##ια
##ος
##asi
##bek
##ben
##bow
##dan
##eno
##fle
##fol
##fon
##gam
##hov
##iez
##ige
##isb
##itx
##kim
##kop
##obs
##occ
##ocl
##odo
##opy
##oto
##rah
##utz
##yon
##zal
03
08
79
au
fæ
md
oi
##abad
##abit
##alea
##anni
##anol
##asar
##aval
##bian
##case
##club
##cott
##cuss
##dley
##gate
##hley
##icia
##ikak
##ikal
##imir
##inak
##inas
##inos
##itis
##itur
##izag
##link
##nedy
##ocyt
##odia
##okes
##onne
##orum
##oxin
##pedo
##phia
##quez
##rari
##real
##rien
##rime
##tana
##took
##umph
##unea
##vina
##wart
##whel
##ymph
##zeak
136
169
330
390
560
900
afb
alp
apt
arr
ata
ble
dfs
dip
dos
eup
gly
hut
iec
itx
jay
jup
kab
lak
meh
osi
rim
rit
ron
sco
sic
snp
spr
sri
sul
sut
unt
viv
wer
yah
yog
zuk
##acher
##ading
##agger
##agile
##akoan
##amena
##amund
##andar
##aphor
##argoa
##arrag
##artes
##break
##child
##ensis
##esare
##ether
##etics
##gatik
##giate
##heart
##heren
##illon
##imark
##inyin
##ippus
##izioa
##kunta
##leted
##lined
##odied
##onged
##osfer
##ostic
##piece
##raged
##roads
##rooms
##stand
##track
##ucian
##uekin
##ulari
##uston
##ustra
##uting
1791
1810
1812
1821
1827
1847
1848
abdu
abok
aldi
aske
azte
beam
benz
bike
bizt
cher
coch
coex
dwar
ease
ejer
esch
etxe
euth
eyst
ezez
fare
fini
flee
frig
gido
giov
grad
gram
grat
grid
grim
gure
hole
http
inev
iowa
jers
kath
levi
lung
mais
mezu
mice
milk
muga
niel
nuen
nuke
pare
peac
perf
pian
pine
plag
prus
punk
reck
rede
reef
rhod
saio
sapp
scor
seaf
seap
shed
sier
silk
sino
spin
styl
subc
toss
touc
tuam
unil
uric
ussr
zien
zort
##antics
##azioan
##econom
##ganese
##garria
##illion
##kuntza
##mental
##person
##phical
##prises
##spring
##teries
##ulment
aaron
acres
aipag
airst
alber
alive
apule
arche
armen
arsen
artax
bombs
boost
breil
calor
camps
chest
crete
crews
debts
deitu
deont
devil
dried
egote
ekoiz
eskol
fault
fauna
feels
flesh
flock
flora
funtz
gates
godel
goose
handy
herbe
hobes
humor
hypoc
ibili
ikasi
inbad
inspe
iraun
jelly
jende
jerem
joxem
kalte
kausa
lajes
laure
libya
looks
maneu
mella
mercy
minds
mixes
mobil
moist
muddy
nikar
osatu
pedag
phant
polyp
pound
prost
proxy
remar
ruins
serge
slide
spars
spear
stack
stops
surpl
tibet
tribe
trips
trump
truso
undis
waals
whale
zazpi
##attered
##ersonal
##erunner
##holders
##ieratik
##olytica
##ouncing
##raction
##tically
##tington
adrian
albeit
aldizk
apocal
armada
athens
banatu
basins
bazter
beaver
behera
bilbot
bitart
borrok
castro
chapel
comfor
conrad
coping
corros
cyprus
dallas
diodes
dishes
dissol
doinel
driver
easter
embass
entren
erreak
esdras
eukary
fabric
famine
firmly
flores
flosse
fortun
gender
genius
habits
hacker
hedatu
heroic
honako
honour
hooker
hotels
hybrid
iragan
irakur
juries
juvent
kelvin
knight
konder
konrad
koppen
lagunt
latino
locked
mailan
mercia
modify
nevada
nicaea
openly
oxides
partek
pinyin
plates
primes
propag
provis
psycho
pushed
reagan
rebels
redist
reflex
refrig
relate
relief
reveal
robber
romani
rotiss
rounds
rowing
royale
safely
saiatu
sainte
salmon
sariak
satire
savage
shifts
shorts
soilik
static
steady
submit
syllab
tanker
tested
thabit
tomcat
topped
torrio
trophy
unfair
vector
warren
wished
wooden
##adelphia
##lections
##ocytosis
##restrial
##urations
##zigarren
abandon
absolut
andreas
andrews
anticip
aquatic
argizag
asserts
barnard
batetik
batzuen
blocked
chapman
circumc
clinton
collins
conject
convoys
crashed
declare
diddley
drivers
duchess
eginiko
egutegi
empower
enables
erabaki
errusia
estatua
euskadi
exhaust
ezkondu
factory
females
footage
gallery
genuine
guztien
hautatu
helburu
hipatia
honored
ignored
izateko
japonia
kennedy
kernels
kongres
landare
lateral
lessons
mandate
missour
modular
montana
monthly
morally
munduan
nekazar
oceania
oceanic
offense
papeete
paradig
passive
peasant
penints
percept
pirates
polizia
presley
reacted
referee
rejects
revenge
russell
sailors
sampled
saridun
sealing
sending
session
simpler
skeptic
smoking
strikes
surpass
taliban
tornado
torpedo
trinity
triumph
tunnels
ubiquit
uhartea
ukraine
unaware
undergo
usonian
utilize
viewing
yangtze
zerikus
zientif
øresund
agertzen
analyzed
appealed
archives
armendar
arrazoia
assemble
banaketa
bankrupt
barracks
batuaren
benedict
birthday
boarding
brooklyn
burghley
cerebral
chariots
clansman
columbia
commands
contexts
converge
councils
critique
danimark
direlako
dividing
dominion
emakumea
emandako
emotions
enlarged
enrolled
entities
equality
erlijios
errusiar
espazion
estatuko
favoured
giovanni
globally
highland
ikerketa
implicit
instruct
interven
japoniar
jonathan
katoliko
kristine
legebilt
lehendab
marginal
marshall
maryland
maturity
mellaart
metallic
militant
misunder
mitchell
narrator
nobility
olerkari
overwhel
oxidants
passport
peasants
pivoting
preached
preceded
prolifer
prophecy
psychiat
relating
revenues
reviewed
rhetoric
rosamund
routines
seasonal
semantic
severely
sometime
sortzeko
subgroup
suffrage
thirteen
thorough
tracking
treaties
unstable
vacuoles
ventures
warships
##scriptions
abolition
abundance
accepting
accession
accompany
affecting
aggregate
allocated
animation
annulment
anonymous
archippus
astronomo
attitudes
automatic
battalion
bereizten
bizidunak
champagne
colleague
commenced
comparing
conductor
confucian
contempor
convinced
demanding
depicting
discourse
dispersed
dissolved
economies
erakusten
esperanto
estuaries
ethnology
excessive
furniture
gaztelako
gizartean
greetings
hierarchy
icelandic
inability
instantly
intensity
intensive
liability
lithuania
manganese
nabarment
navigable
objection
ofizialki
peacetime
penalties
physician
physicist
portrayal
preceding
precursor
priscilla
proposals
reception
reinforce
routinely
sailkapen
scenarios
scientist
sediments
seemingly
supremacy
survivors
suspected
txantiloi
undertook
witnessed
workforce
accomplish
accredited
advantages
aggression
artaxerxes
assignment
austriarra
contracted
contradict
conversely
curriculum
dedication
determines
dimensions
eighteenth
endangered
euskalduna
euskararen
filmmakers
filosofoen
forerunner
indirectly
innovation
instituted
interfaces
internally
lurraldeak
miniatures
prevailing
prevention
productive
propulsion
psychology
recovering
reinforced
relegation
rhetorical
separatist
specialist
speculated
subjective
substitute
supplanted
theatrical
undertaken
centralized
challenging
constitutes
constrained
constraints
culminating
disciplines
efficiently
enterprises
fingerprint
histolytica
interactive
investments
nationality
neuromancer
occupations
polynesians
speculation
subtropical
termination
terminology
terrestrial
transmitter
westchester
whittington
authenticity
collaborated
consultation
disadvantage
implications
interpreters
irreversible
jurisdiction
partnerships
philadelphia
southeastern
strengthened
transporting
alternatively
comprehension
schizophrenia
strengthening
technological
configurations
ecclesiastical
geographically
pronunciations
##18
##24
##80
##mf
##στ
##acp
##agl
##ami
##caa
##cai
##cin
##cow
##dio
##eur
##fin
##fly
##hri
##hyl
##ilk
##irt
##kan
##oan
##omo
##oro
##ozo
##pat
##ses
##soc
##ums
##urd
##ynt
##zit
##zuz
bn
cs
fd
pv
qa
ua
ww
xv
##abas
##ados
##ager
##agon
##athe
##auss
##bada
##bald
##bath
##burn
##chem
##edia
##ener
##etra
##fran
##gent
##hire
##icus
##iena
##ieta
##iley
##inks
##irre
##jole
##lich
##lift
##mill
##obia
##oire
##oved
##pide
##post
##rect
##reet
##rows
##stan
##tees
##tegi
##tere
##umps
##wave
##ycle
##yers
107
129
133
142
325
agr
alz
ape
bax
cpc
cpu
dod
dur
erg
eun
fog
hag
hav
hes
hiz
jen
jug
kay
kwh
ley
lon
lub
luk
mcg
mul
nee
nhl
obl
omn
ond
ork
paz
sei
sek
sof
tik
urr
vil
wax
wre
zip
##agoak
##alako
##alton
##atera
##birth
##bohyd
##chang
##class
##comed
##cophe
##court
##ctive
##ensed
##eslie
##etzen
##front
##herly
##ibles
##idity
##ikari
##iketa
##inean
##ioned
##ipzig
##istry
##itian
##itted
##keria
##ktore
##lburt
##leans
##mouth
##named
##obald
##ocity
##ogens
##oline
##oling
##othes
##rogen
##ublin
##uenak
##xtrot
1400
1572
1700
1755
1759
1778
1828
1843
3000
abar
apol
atal
bail
bark
beth
blas
bort
bugs
bulg
bust
carp
cats
coel
coff
cron
erik
eten
geoc
germ
giza
gnut
gond
harp
hash
hint
hort
ikur
inch
inex
izar
jart
jung
kale
kand
kenn
kirk
kits
klux
kosm
krug
labs
legs
leib
lots
mang
nach
nept
noaa
olaf
onen
ongi
pala
palm
paus
pean
pear
pigs
pmrc
pour
pump
sard
sask
scbt
sees
shan
slam
stag
sunk
tect
teen
tert
thio
tiro
toll
trat
vain
vtol
winc
##actory
##ambigu
##atable
##blower
##culiar
##embley
##enburg
##eraren
##heries
##ingham
##iorako
##isbane
##nessee
##ointed
##ospace
##pezpik
##phemes
##philis
##ranged
##sfield
##ughlin
##urrent
##urring
adela
alcoh
amber
amino
ammun
angra
anten
baker
bakun
banan
bidai
blend
bloom
bonap
boris
brend
bultz
burua
carlo
chess
chris
coral
cream
creek
dairy
dauka
decis
denez
derek
deton
diode
dirty
discl
drast
ecole
eddie
eduki
eliza
erect
eremu
erori
euroa
faces
facts
feral
fines
flaws
forma
gains
gauge
gauza
grimm
hobby
hopes
horri
idazk
inequ
inhib
inoiz
intim
intra
irreg
judah
kidea
knows
lever
limbs
linus
loved
lucas
maila
manga
mendi
mound
mugak
naacp
newer
nodes
nurse
ordok
outla
pater
pearl
photo
pupil
quint
reass
riden
ridge
rocky
saeed
saiak
sandy
santu
sarea
schen
sinus
smart
spots
stake
steep
stick
sybil
teide
testu
thurs
truly
uniqu
unple
urtez
vanua
warri
zoram
##alities
##ativity
##culture
##edience
##garriak
##hetical
##ietatik
##ivorous
##minster
##sterdam
adoles
anomal
apache
avoids
awaken
bahitu
baitan
balkan
ballet
bilatu
bilbao
bilbon
biokim
birzuz
boards
bounds
brings
bukatu
caesar
carved
clause
clergy
comply
confer
convey
datuak
degrad
deport
diesel
digest
dinner
ditugu
dragon
draper
egitea
eleven
esater
eunuch
euthan
exiles
expand
felipe
flower
fluctu
forums
giants
graham
graves
hartan
helmet
heroes
hildak
hiztun
horses
hurbil
ionian
javier
jeanne
konple
kontra
kontze
lesion
leslie
lining
mature
mezuak
miscon
moscow
multzo
munich
nicene
ondoko
origen
orrian
osatua
panama
partid
photos
piracy
plaque
prizes
propon
pubert
rabbis
rented
rewrit
roland
sacred
santua
scales
serbia
sheets
shehri
shield
sikret
solved
stalin
stamps
stocks
stuart
tariff
tenure
tresna
turner
tuscan
unesco
videos
violin
virial
visits
warmer
weaker
whales
wilder
woogie
zabala
##cellular
##cription
##ionaleko
acidity
alfonso
alvarez
amnesty
amplify
arazoak
arrazoi
arrives
azkenik
azorean
barrier
beneath
besides
borroka
bracing
bracket
cannons
careful
chariot
chiefly
closing
clothes
coinage
collaps
compare
consort
coprime
cornish
cutaway
delayed
depicts
diaspor
disrupt
domingo
dressed
eadbald
elektro
ensuing
ensured
eternal
ezagutu
fascist
firefox
fishery
florent
foxtrot
funeral
galilei
garaiko
germans
gitarra
gizonak
gotland
grammar
gravity
hackers
harmful
hauetan
hawkins
holland
insects
inspect
invoked
iritziz
jointly
jupiter
justify
kanpoko
kitchen
kontsul
legends
leipzig
listing
mailako
marking
masters
matthew
maxwell
melanch
melting
neglect
nowhere
numeral
oakland
obscure
optimal
oraingo
orbital
orleans
pedagog
planted
polymer
promulg
proving
realize
reveals
rhythms
riemann
sabbath
savings
segment
shallow
shelter
sorrera
spelunk
spheres
staying
stevens
surplus
suscept
symbols
sympath
tackler
tactics
taldeak
terrain
textual
texture
tibetan
tickets
tocophe
torture
tremend
utility
vendors
walloon
watched
wedding
welland
wembley
aebetako
agrarian
amerikan
anatolia
armament
ascorbic
atmosfer
augustus
aurretik
averages
azkenean
baliteke
baterako
batuetan
brisbane
carbohyd
classics
clifford
comprise
coupling
cruisers
cysteine
detected
dialogic
disagree
disappro
donostia
dwelling
elementu
elizaren
enclosed
entrance
eskualde
eskuratu
eurocard
extremes
eysturoy
forcings
founders
gathered
gentiles
gnutella
gutxiago
headrick
heinrich
hercules
highways
hurlburt
implying
inbaditu
invadens
izenburu
jaieguna
juventus
kaleratu
kentucky
kimikoak
kontrako
kopernik
kristaut
landmark
laurence
lectures
leonardo
licences
madrilen
marketed
massacre
merkatar
missouri
mobility
mongolia
mordecai
murdered
parishes
patented
peaceful
peculiar
politika
prevents
prolific
promptly
protocol
remnants
requests
revision
sariaren
screened
shockley
singular
sokrates
sparsely
spawning
stanford
strained
subgenre
summoned
supermar
surfaces
targeted
theobald
velocity
websites
welcomed
zuzenean
addresses
aerospace
alexandro
ambiguity
amsterdam
assertion
astronomy
beharbada
bereizket
bilateral
britainia
chartered
condemned
container
corrosion
criminals
cristobal
crucibles
cytoplasm
decreases
defeating
descartes
directors
distances
doctorate
donostian
economist
ekarpenak
employers
enforcing
eruptions
eskoziako
exchanges
executing
exploring
fisheries
fisikaria
forbidden
franchise
fretboard
genealogy
geografia
gobernuak
gottfried
graduated
guangzhou
gutxienez
handienak
harvested
herrietan
incorrect
indicator
indonesia
infection
instances
integrate
irlandako
isolation
justified
launchers
lucrative
macedonia
mexicanus
monastery
morphemes
mugimendu
observing
offspring
orthodoxy
partition
pioneered
portraits
posturing
privately
prolonged
protokolo
prussians
refueling
relegated
repeating
responses
retrieval
ridenhour
sanctions
sensation
specially
specifies
stressors
tennessee
venerated
accordance
adierazten
ammunition
biographer
committees
companions
comparable
compliance
concluding
constraint
correction
definitive
economical
eguzkiaren
electorate
emphasizes
eraikitzen
esperantoa
expectancy
explosives
fitxategia
formations
generators
helicopter
hornblower
imperative
journalist
kataluniar
kategorian
leheneratu
manchester
maximilian
medikuntza
metabolism
minimizing
minorities
organizing
pilgrimage
pizkundeko
predicting
programmed
projection
prosperous
queensland
remarkable
repetition
rotisserie
simplified
skepticism
soundtrack
subsidiary
suspension
translates
ubiquitous
unofficial
unpleasant
vegetation
accommodate
advancement
asmatzailea
azpikategor
cannibalism
comfortable
consistency
constituent
correlation
desblokeatu
distortions
drastically
encompassed
enlargement
exceptional
expenditure
ezaugarriak
formulation
francophone
herzegovina
ingelesezko
initiatives
interaction
interceptor
interchange
lehenbiziko
lehendakari
oscillation
persecution
photographs
progression
proportions
proposition
prosecution
protestants
recruitment
suppression
technically
westminster
zibilizazio
calculations
collectivity
condemnation
conversation
counterparts
dramatically
evolutionary
experimented
exploitation
hizkuntzaren
interactions
newfoundland
northwestern
posthumously
productivity
recognizable
registration
stratosphere
supplemented
wikipediaren
accommodation
aristotelesen
complementary
confrontation
functionality
incorporating
independizatu
intentionally
literaturaren
matematikaria
neighbourhood
pronunciation
righteousness
thessalonians
txirrindulari
vulnerability
nationalisation
recommendations
##44
##aq
##db
##je
##ju
##mi
##sm
##ατ
ε
##ais
##akh
##arb
##cha
##cor
##don
##eau
##elo
##enc
##esc
##far
##glo
##goa
##gow
##igi
##igo
##ijo
##imp
##ipo
##irm
##itt
##kel
##kot
##lon
##mol
##mot
##nar
##nas
##oul
##pit
##pro
##sea
##sub
##tek
##uag
##uct
##unn
##xak
##zai
##zle
06
ae
bh
dm
dy
nc
pg
pn
pq
sf
ss
vu
yo
zf
##aban
##ablo
##acon
##agor
##agos
##ahar
##alek
##amer
##aney
##anim
##anny
##araz
##arts
##ashi
##aska
##atan
##aved
##body
##cken
##crew
##dorf
##ekoa
##enda
##este
##eton
##flow
##fort
##gyth
##heng
##hous
##iami
##iani
##iate
##idae
##igma
##ihil
##iott
##irac
##iron
##isal
##ivia
##izia
##kide
##kiko
##lies
##mart
##math
##note
##obic
##onto
##opol
##otal
##pard
##peak
##peko
##pert
##phew
##quer
##quet
##reno
##rice
##rina
##rous
##sole
##tean
##tzat
##ueva
##ules
##ulua
##undu
##utan
##vard
##zien
106
135
336
347
356
370
384
597
919
aaa
abc
abi
aho
amp
apl
ars
aub
bam
bub
cbc
cym
dal
dic
dot
ecr
edu
esa
eub
fow
gad
gay
gem
gru
hpv
iba
iee
ily
jab
kun
kyd
lov
mep
mog
nep
nin
nos
ocd
pud
rag
sap
sev
spy
sui
ted
tie
unh
wei
wra
zig
zir
zul
##abini
##adesh
##adeus
##adore
##akoak
##aquin
##arist
##arius
##asian
##athed
##atoka
##aztea
##block
##brook
##cerpt
##epers
##esian
##etzat
##fires
##flash
##garri
##icals
##icity
##icked
##igach
##igile
##illed
##ineko
##ketan
##laine
##occup
##ophys
##phrey
##range
##rider
##sover
##stext
##stock
##uchos
##ugger
##ullah
##ulous
##umnar
##uncan
##uriko
##urned
##ustin
##vance
##vason
##walda
##zalez
1570
1587
1593
1781
1782
1792
1794
1804
1814
1824
1825
1831
1832
1835
1838
1853
1857
adul
amen
ante
arid
bats
beas
beti
bohr
bone
bord
busy
cage
cake
cate
cess
chal
cite
coat
coer
damp
dawn
dean
deed
ditz
dres
fals
fart
ficz
fool
fors
gaix
garb
gart
gaut
gori
grab
guan
gune
hama
hamm
hast
helm
herb
hona
honi
hotz
ieee
intu
iriz
jade
jive
joel
krit
kurt
lanc
laod
lent
lire
lite
loos
luck
mait
maps
moll
noir
obst
okup
omen
pave
penn
pess
pest
pete
pool
pose
prag
prix
psal
punt
rack
rage
rejo
rhym
roof
rush
sank
seab
sean
sene
shri
sieg
skip
slim
slov
solv
soup
stab
stir
stup
stut
sums
trol
uhol
unco
unic
unto
uran
vita
wilk
wulf
xian
xiii
zeta
##acchar
##aitzak
##alaria
##ameral
##antzia
##azioak
##charge
##elonit
##ganatu
##giving
##heimer
##hopper
##iarren
##igated
##iliary
##ingual
##iozent
##ipping
##isible
##katzen
##ladesh
##opular
##racted
##ristol
##tutako
##uagint
##usting
##ystems
accel
adler
adren
aeros
afsoc
agert
aided
akira
alaba
alike
alsaz
altog
anger
apric
arrak
arraz
artic
askot
atera
bartz
beats
bench
bevan
blair
boast
bohem
boyle
buddy
carot
carth
cecil
congo
costa
datab
deeds
dehyd
della
devot
domen
edwin
ekint
elkar
epoch
eratu
escal
etxeb
fatig
fidel
fores
fraud
gauss
genet
gertu
giles
grade
haiti
hamaz
hello
heret
herod
huang
indif
inert
infam
inkis
ipuin
jasan
josef
kanad
kanta
karak
knock
koons
landu
laura
leaud
letra
loans
lymph
mantx
meals
mesop
miami
midst
mixer
monte
nabig
niels
nukle
oihan
opens
ordin
ought
pablo
peers
plaid
plaza
polar
porto
qurra
redox
risen
rotor
samoa
sarah
scots
secre
seeks
showc
sixty
slope
socio
soils
spare
stems
stern
subdu
suitz
swiss
taxis
tenor
tidal
ulert
uncon
unequ
urged
urrut
vaude
veter
weber
witch
zentz
zuela
##abethan
##agarria
##ascular
##enstein
##entzako
##eratzen
##imachus
##istence
##itorium
##leyball
##nologin
##osition
##redoxin
##rialder
##rically
alderd
ambass
andrea
andres
anonim
anyway
apaiza
atenas
atolls
austin
axioms
bacter
beaten
beltza
benito
boeing
bolero
bronck
canari
cauchy
cecchi
charts
cheese
chunks
conced
convoy
coupon
curved
dinast
drives
dublin
duncan
edmund
egmont
eldest
entity
erabak
eroded
errore
exotic
extant
faults
filter
fitted
folded
friday
frizer
frozen
fueled
gaming
garner
garzon
gentle
grande
gustav
guyana
hanged
harder
harlem
hasten
hatred
heated
helios
hiring
hodder
homage
honela
ignore
impose
incent
inflow
insect
interd
irrele
jacobs
jersey
jotzen
kamban
kimiko
kubako
lanean
layout
liable
loaded
locals
lorenz
magnet
margra
maroko
melody
moduan
morris
mozart
muscle
nephew
nerves
nights
novice
nowiki
orator
orphan
outfit
overlo
pascal
pearls
petrol
phased
pretty
quebec
quotes
racism
radios
reinst
restra
ritual
rubber
runoff
sacked
scholz
scored
seated
sevens
slavic
spider
spiral
statue
subjek
subord
summit
suspic
tempor
thence
thesis
thumbn
tradem
transp
tribal
troglo
turtle
txapel
unanim
unders
unjust
unpubl
update
voiced
warned
wasted
werner
wesley
wonder
yields
zeuden
##ortasuna
##pagetext
##password
##ractical
##tebrates
agarose
airways
aitzind
aldaket
alfabet
aligned
apprent
archaic
ballard
barbara
barneko
beaches
beating
berdina
bereizi
biograf
bootleg
bourges
brasses
bristol
burgund
caesare
caution
choices
cognate
coigach
combine
commune
confess
console
consume
conting
copying
croatia
definit
denotes
devised
disturb
divides
dragons
dresden
elliott
emaztea
erromat
errorea
excerpt
exclude
fleming
frogatu
funtzio
gardens
gasteiz
gauchos
geograf
glasgow
gobernu
guarant
healing
heavier
helpful
inflamm
inquest
interse
intimid
izenbur
joaquin
joxemai
jscript
kongoko
kopurua
laguntz
lawyers
lecture
leftist
legitim
logical
londres
manages
mapping
marconi
mazedon
mercury
messeng
microbi
nephite
neumann
nikolas
notions
objektu
obliged
payment
pioneer
portfol
posting
premium
pressed
preview
prisons
prozesu
puberty
pursuit
redisco
refined
refusal
regards
relieve
reorgan
replied
reputed
resumed
royalty
sektore
soldier
springs
statues
superst
sæberht
taldeko
talking
tartean
taxonom
tension
textile
tolkien
toronto
trapped
trigger
tuamotu
valleys
venture
vibrant
visions
waiting
warring
wearing
welcome
##amentally
##ibilities
##ocolumnar
##ographers
accessed
accorded
adelaide
adjusted
adopting
advocate
airframe
airplane
aldatzen
alphabet
ancestor
anglican
antinomy
anywhere
applying
azoreans
benetako
bertsioa
besterik
birzuzen
bitartez
bizkaian
calamine
canceled
carnival
circular
coherent
coincide
colossae
communal
contempl
contempt
crystall
deficits
defining
deterior
develops
diplomat
disabled
disposal
download
drafting
elkargoa
embraced
endorsed
enduring
enhanced
ensuring
estatuak
excluded
exempted
exhibits
ezberdin
ezinbest
federico
forested
francais
friedman
frontier
gangster
garfield
generous
gonzalez
grouping
helburua
innocent
interrog
invaders
invested
israelgo
jatorria
jotzaile
kaliforn
kimikari
klasikoa
kontzept
liburuan
limiting
literacy
longtime
magellan
meetings
memories
meridian
metaphor
migrated
musiclab
narrowly
neurolog
overbeck
oxidized
paradise
payments
petition
poliziak
populace
potatoes
prefixes
produktu
protects
rabbinic
randolph
reliance
resemble
retrieve
reverted
rhythmic
sanction
santiago
sarearen
scenario
settling
shanghai
skyflash
stereoty
subscrib
suddenly
supplier
suriname
survives
symbolic
taxation
tectonic
thatcher
thursday
thurston
unfortun
urteotan
validity
vicinity
##elonitrile
affection
aftermath
alcoholic
ancestors
anonymity
antiquity
apartment
ascension
asserting
astrophys
athletics
attribute
auxiliary
bakoitzak
baliabide
beharreko
benefited
bilingual
billboard
bishopric
bordering
bretwalda
butterfly
calculate
carbonate
cardinals
castilian
civilians
communism
composing
connector
contrasts
countless
declaring
denounced
designers
disagreed
dystopian
ekonomian
elevation
endurance
erabilera
erakundea
esaterako
espainiak
euroscept
excavated
exchanged
excluding
exhibited
explosive
favourite
filmmaker
francaise
fulfilled
geography
geometria
guideline
heliozent
inception
inflicted
inperioko
introduce
invasions
irabazlea
irregular
izenburua
japoniako
jatorriko
kidnapped
lexington
louisiana
manifesta
mavericks
microscop
minimizes
mountaint
musikaren
muturreko
necessity
nightclub
notoriety
oinarriak
ordezkatu
osatutako
packaging
paintings
perfectly
perimeter
peroxired
poloniako
popularly
posterior
pregnancy
prevalent
processor
prohibits
radiative
rainwater
readiness
receptive
recipient
recruited
rehearsal
releasing
relocated
rendition
revealing
saridunak
satirical
socialism
statistic
strongest
supplying
synthetic
terrorism
theorists
transfers
tributary
unusually
viewpoint
wilkerson
withdrawn
wrestling
zoramites
zuzendari
absolutely
aesthetics
altogether
applicable
artikuluak
assemblies
auditorium
authorized
bangladesh
beharrezko
bereganatu
birthplace
centennial
childbirth
ciphertext
coincident
collectors
combatants
complained
conception
constantly
convenient
conviction
coordinate
criticisms
czechoslov
delivering
destroyers
detachment
engineered
eskultorea
ethnically
everywhere
excellence
explaining
frustrated
harremanak
hildakotik
inequality
inherently
intonation
invitation
kostaldean
landscapes
logistical
louisbourg
monitoring
napoleonic
nationally
networking
organelles
passionate
peroxidase
persistent
pioneering
plaintexts
practicing
protective
protokoloa
punishable
purchasing
qualifying
reflecting
reflection
reformists
residences
responding
rockhopper
sailkatzen
septuagint
simplicity
stimulated
theologian
tocopherol
transliter
unintellig
vaudeville
victorious
volleyball
walsingham
alternating
armendaritz
automobiles
batasunaren
bertsolaria
bureaucracy
commonplace
conclusions
confederacy
conferences
contractual
convergence
convertible
declarative
devastating
elimination
elizabethan
establishes
euskaldunen
exemplified
foundations
frantziaren
historiaren
impractical
interrupted
investigate
konektatzen
lanbidearen
microscopic
nafarroakoa
nationalism
negotiation
observation
photography
possessions
practically
problematic
prominently
protokoloak
reflections
restrictive
spontaneous
substantzia
susceptible
thioredoxin
universally
unpublished
wikipediako
appreciation
archipelagos
assimilation
associations
berdintasuna
constituency
constituents
continuously
cryptosystem
demokratikoa
elektronikoa
equivalently
inscriptions
measurements
merkataritza
microsystems
northernmost
predecessors
spokesperson
subscription
civilizations
contradictory
demonstrating
entrepreneurs
errepublikako
fundamentally
historialaria
lehendabiziko
physiological
practitioners
proliferation
transcription
administrators
contemporaries
differentiable
establishments
ingalaterrakoa
mandelonitrile
squamocolumnar
undergraduates
unsuccessfully
instrumentation
vulnerabilities
##64
##rs
##sv
##tw
##ui
##uo
##uy
##yp
##yu
##æd
ν
##abi
##ava
##cke
##cuk
##eas
##ede
##elt
##gic
##iag
##iba
##ieu
##inz
##jet
##kor
##lik
##lof
##nut
##oca
##oda
##oei
##oin
##oky
##osi
##ovo
##rou
##rud
##sek
##sir
##spe
##sty
##tad
##tos
##upp
##urf
##yne
##zel
##zip
##zno
##ðoy
ef
ft
fy
lp
ow
pi
##acio
##acro
##adro
##agra
##agua
##ahan
##anez
##anth
##arck
##arde
##arel
##asek
##asis
##asso
##azko
##bone
##doms
##eban
##ebic
##emar
##eppe
##erne
##eroy
##etsi
##etto
##feld
##from
##furt
##gage
##gait
##grow
##heed
##hoff
##hyde
##iara
##idan
##iens
##ilda
##iman
##imer
##ioan
##iper
##irik
##isfa
##isio
##itze
##kell
##luks
##meas
##mess
##mons
##nese
##nett
##neum
##okia
##olen
##oler
##olly
##onal
##oner
##opes
##opia
##orig
##orus
##otam
##otza
##punt
##raid
##ratu
##riba
##ride
##rite
##rose
##roup
##stal
##step
##taho
##tlan
##tore
##urer
##utua
##uzke
##vals
##wers
##ylan
##ylum
##yman
109
131
134
207
262
305
328
335
341
343
345
355
362
430
523
604
aes
alc
amo
bau
bla
boz
bry
bvr
cds
cen
cic
dew
dlc
dul
eku
eli
erm
eti
eut
fak
fet
gow
gug
hoe
idi
inm
jia
kad
kax
kem
kre
kro
leh
lep
lok
mrs
msi
mum
nbc
neb
nes
nod
orn
pag
pog
roe
rpg
ruf
siz
sos
sys
tac
uat
unm
ura
vow
xss
yan
zed
zoo
##aceut
##agers
##alari
##alled
##anahi
##andro
##andum
##annah
##antaa
##antza
##ariat
##arium
##arrez
##asses
##burgh
##cence
##ctica
##elfth
##elope
##enary
##esity
##etian
##geois
##gizon
##helor
##hovah
##ibuie
##ichau
##icism
##ikoki
##ilari
##ilder
##ilean
##imony
##iotic
##ipena
##isika
##itism
##itory
##itsch
##ituta
##jolea
##keena
##lings
##marks
##ochee
##odont
##olini
##omson
##onaut
##ondoa
##ontzi
##oratu
##ormon
##otech
##otzat
##ounce
##owski
##plain
##recht
##retua
##ridor
##rikoa
##sburg
##tains
##tings
##ucker
##ulton
##urrak
##venth
##words
##yards
1101
1137
1473
1492
1517
1540
1546
1598
1630
1633
1707
1736
1774
1817
1837
1855
1856
1881
acad
adar
adia
adjo
agin
akin
alfr
alva
aman
amos
aral
aran
arre
azer
baha
baim
bcpl
bela
bien
biod
boul
brom
bule
cagl
camb
capp
caps
cels
chao
cong
cues
dave
dent
deny
diot
disg
dump
edus
eggs
ehak
emir
enri
etat
fisi
funk
fuse
gear
geld
gius
glor
gyps
hari
hath
herm
hust
iles
inad
isot
itxi
izug
joao
kahn
kalk
kang
kend
kids
kors
kuba
lamp
laos
laut
leiz
lena
loud
mack
mari
mask
mcla
mell
mest
mish
mith
moss
mott
myri
ncaa
nons
nose
obey
obra
ores
ospe
ovff
owed
peat
pist
pots
prsv
psik
pulp
pupp
puts
quin
ranc
rats
reed
relo
rift
rode
rope
ruth
saft
sake
sedu
shaw
sils
sins
sket
smex
soth
spru
subm
suez
sunt
surn
swim
tanz
tian
till
toni
unai
unne
ural
urre
usur
vein
veto
vila
wail
webg
whal
wiki
zerg
zine
##abella
##acious
##acroix
##ainese
##akizun
##alling
##ancing
##arcane
##boards
##depend
##entery
##esberg
##etakoa
##etzeko
##franco
##gested
##growth
##guided
##hausen
##hering
##houses
##iatzen
##ibaloi
##ickson
##igilea
##ikaren
##imedia
##inezko
##intzen
##ioaren
##ispage
##itting
##itures
##ivated
##izkion
##master
##modern
##opolis
##otasun
##rocess
##tzaint
##ustice
abder
abrog
adost
afore
aintz
aktib
alert
allen
ammon
annie
antis
arabs
argia
artiz
astur
bates
beder
begir
beltz
betty
bidal
blank
bliss
blobs
bokal
borbo
borne
brock
canso
caric
cater
chand
circa
civic
clerk
cohes
comas
crash
cymru
cyril
dakar
disin
ditut
drake
drops
drove
dylan
eleph
ellen
ellis
embro
emile
erald
errum
esate
exalt
fleur
forza
frict
fungi
gaitz
gaius
glace
goren
guerr
hakka
haven
hawks
hayes
helen
hilik
hindi
hydra
ibaia
illex
incon
irrad
irrig
izana
julio
keeps
kenya
kitty
koroa
krako
kwong
lance
lanka
lehor
liked
lions
lobos
luigi
luzea
maine
mamah
merit
mikel
modes
monos
monot
morph
neill
nouns
olinp
opted
orang
ozone
pacif
pamph
papal
paral
paras
peaks
penet
perun
pharm
plato
plots
poker
polem
porta
prose
qaeda
quart
quote
raids
raoul
reads
rearm
rebel
redes
refra
samos
scarc
schne
seism
sexes
sexua
shout
shuff
sorts
spans
spell
spher
spoof
stagg
stagn
steam
stiff
svens
titan
tomas
tooth
troop
tumor
turin
txart
unlaw
urges
vangu
villa
weigh
zamen
zelul
##amendua
##andarra
##burgoko
##cessary
##cussion
##engatik
##erakoan
##habited
##holding
##icating
##idental
##igarria
##ilitary
##inental
##inities
##itution
##itzaren
##parents
##telling
##through
##urtzeko
##ustomed
##warning
##writing
abiatu
abrupt
accent
achilt
adhere
adject
afraid
anatom
anglia
anthem
anyang
arauak
arisen
arises
arriba
attach
atzera
aztlan
baines
banion
barker
basean
berdin
berlus
bethke
blamed
blanco
breach
brewer
bright
britan
buffer
bullet
canyon
cheney
cliffs
colomb
convex
cornel
couldn
crises
criter
curtis
dabney
deacon
debian
debugg
dennis
deritz
detain
diabet
diffie
dismay
dissip
dreams
druzno
dutela
ecumen
egotea
elders
emilio
erabat
eschat
eskuin
espagn
ezagun
festal
fierce
filipe
filker
fowler
franko
funtse
galact
gloria
golkoa
grammy
guests
hailed
hansen
harvey
header
hegoaf
hiding
howlin
hydrox
imanol
induce
influx
inprim
insult
intrig
iraunk
itzult
jakind
jardun
jarrah
joshua
judged
karman
kontse
kultur
landsl
laster
levuka
lifted
lituan
lively
locate
logika
lurmut
magist
makeup
marraz
mediku
mentor
mexiko
milaka
misiol
module
mormon
muller
murphy
needle
neural
newcom
newman
nitric
obsess
occupy
oharra
orange
ordena
orduko
overth
panthe
parade
parish
parity
passer
permit
persia
pessim
pilots
plains
plaint
pluton
pocket
pollut
posits
prague
praise
prayed
presby
profes
proiek
rapper
reappe
reluct
resent
rogers
sandoy
sareko
saturn
schema
schism
scribe
selcuk
seleuc
sensor
shapes
sierra
sinple
sodium
soldad
solvay
spooky
stolen
strand
strife
suited
tactic
tenets
thames
thrace
timing
tradiz
trails
trauma
turing
unlock
upland
uplift
valens
valves
vantaa
wheels
willis
zehark
zenith
##aldehyde
##building
##economic
##iversity
##opolitan
##riptions
accepts
agustin
ahalbid
aircrew
ambient
amraams
answers
apezpik
archive
arrests
atheism
auguste
aztertu
bavaria
bearing
bending
bestela
bicycle
bizarre
blended
boarded
bombers
brendan
chances
checked
chicken
claudio
clauses
cleared
coaches
colours
combust
commons
compose
custody
dagoela
debated
demonic
desberd
diamond
dickson
diocese
ditzake
divisor
donated
donegal
dutenak
eadgyth
ejerzit
elkartu
embassy
emotion
enpresa
eragind
eraikin
eugenio
evasion
everway
exagger
examine
exerted
farther
fatigue
filling
fisikoa
fitting
fragile
futures
garaian
gautier
gelatin
genesis
grazing
halaber
handful
handiko
happens
hartuta
heating
hermann
herrira
houston
hungari
immense
immoral
incomes
izatera
jehovah
judging
jumping
kristau
laodice
leather
legumes
leonard
lesions
liburua
lighter
lineage
lithium
lurreko
madness
mamluks
marines
marklar
marques
mithrid
monopol
mozilla
mystery
nachman
nanjing
nituzke
obesity
organiz
outsour
overlap
paleont
parking
pasture
peanuts
pegasus
phantom
pianist
picking
portray
pricing
putting
quietly
ragtime
rainbow
rebuild
recited
redlich
robbery
romania
sartzen
scoping
seconds
sensors
settler
silicon
skyline
starred
stimuli
tampere
tankers
tariffs
teoriak
theodor
thomson
tightly
tuscany
twelfth
uruguay
vassals
viewers
weddell
woodrow
zaharra
zalantz
zeeland
zehaztu
zentral
zibilak
##abideetan
##iguration
##isfaction
##mentioned
##tahoochee
agreeing
aintzira
airfield
altering
aluminum
arabiako
ascended
ascribed
assessed
assigner
astrolog
averaged
bachelor
baltasar
banatzen
baptiste
barnabas
basilica
bederatz
bezalako
bilbotar
binaries
boroughs
botanika
buddhist
cagliari
catalyst
catastro
certific
citation
corridor
customer
damaging
datorren
debekatu
debugger
defended
defenses
deported
deutsche
dezakegu
divinity
domenico
elektroi
eleventh
elisabet
erreform
erregeak
eskuetan
estatist
estonian
exciting
executes
exponent
fabaceae
finances
finishes
focusing
formular
friction
geometry
ghanaian
giuseppe
goodness
guardian
helbidea
hinduism
hiriburu
hormones
humphrey
hypothes
incompet
infamous
infinity
inserted
irizpide
jennifer
josephus
journals
katalana
labelled
lapurtar
legendre
liburuak
lockheed
lortzeko
malaysia
midnight
mistaken
mistress
monastic
nafarroa
narrower
nolanahi
omission
openings
operatic
ordering
orokorra
paradigm
partidos
pasahitz
periodic
persians
philippe
phillips
planters
portable
priestly
printzip
prohibit
promises
proposes
punished
reckless
resisted
respects
reunited
salaries
sandwich
schichau
senators
sigatoka
snowfall
spectrum
statutes
stresses
surveyed
switches
syphilis
theaters
tomatoes
tribunal
trigonom
troubled
troubles
uniquely
upheaval
viennese
wildlife
winchell
wireless
zamenhof
zergatik
addiction
advocated
alemanian
alexandri
alzheimer
analogous
atentatua
augmented
aurkitzen
basically
biografia
bosgarren
botanical
bourgeois
bretainia
captivity
cessation
cognition
companion
competent
cosmology
creatures
decentral
defenders
defending
delacroix
diagnosed
differing
disappear
discontin
dispersal
distorted
dysentery
eduskunta
eliminate
emakumeek
errusiako
eskultore
extracted
fireworks
forgotten
frantzian
gainerako
gehienbat
generates
godesberg
griffiths
hazardous
hiriburua
horietako
hostility
illegally
impressed
incidence
inherited
injustice
judgments
kilometre
kimikaren
kontsulta
laugarren
legebiltz
leizarrag
linguists
listeners
localized
mesopotam
molekular
monuments
munitions
mussabini
northside
organelle
outsiders
patterson
philology
placement
planetary
pleasures
plurality
portfolio
possessed
precedent
prevailed
privilege
purported
realistic
reclaimed
recognise
recurring
retaining
retrieved
safeguard
screening
scripture
selecting
shoulders
sortutako
spherical
streetcar
substrate
sugarcane
telesaila
temperate
trademark
unpopular
unrelated
unwilling
vegetable
volcanoes
abertzalea
admiration
adrenaline
antarctica
apartments
argentines
askatasuna
associator
astronomoa
biztanleen
completing
concurrent
conscience
converting
critically
deficiency
dependence
dispersion
economists
encourages
euskalkien
exaltation
fragmented
fulfilling
gianfranco
gipuzkoako
gizakiaren
guitarists
hobespenak
improvised
indicators
indonesian
introduces
invariants
irradiance
kontinente
likelihood
mclaughlin
meaningful
medication
microstate
moderately
neighbours
neutrality
objections
occurrence
organizers
percussion
pharmaceut
portugalgo
precedence
precursors
presenters
preserving
processors
programmer
prominence
regressive
saskibaloi
scoreboard
structured
subdivided
suppressed
syndicates
transports
travellers
tremendous
txapelketa
unilateral
unreliable
wilderness
accusations
achiltibuie
approaching
arbitrageur
astronomoak
beaverbrook
celebrating
commissions
commitments
competitors
constantine
contributes
controlling
countermeas
disappeared
discouraged
discoveries
erregistroa
evangelical
facilitated
financially
frustration
groundwater
hellenistic
highlighted
homogeneous
ideological
illustrated
importantly
informazioa
innovations
instability
intelligent
interdepend
izateagatik
masterpiece
mountainous
nazionaleko
norvegiarra
oinarritzen
pedagogical
percentages
promulgated
proposamena
provisional
resolutions
respiration
secretariat
speculative
supervision
supervisory
synthesized
transmitted
troposphere
undesirable
uninhabited
unnecessary
willingness
argentinarra
astronomical
astrophysics
benzaldehyde
breakthrough
circumcision
circumstance
colloquially
commandments
commencement
consolidated
disagreement
examinations
expenditures
illustration
inconsistent
installation
interception
interference
kaliforniako
konstituzioa
manifestazio
manipulation
mediterraneo
orrialdearen
overwhelming
paramilitary
parlamentuak
philosophies
replacements
shanghainese
storytelling
thanksgiving
administrator
announcements
carbohydrates
characterised
chattahoochee
computational
controversies
disappointing
heterogeneous
instrumentals
investigating
probabilities
registrations
speleological
spontaneously
unibertsitate
archaeologists
industrialized
mathematically
peroxiredoxins
hauteskundeetan
intelligibility
standardization
transfiguration
##59
##60
##bh
##cu
##dc
##gh
##gm
##qa
##uh
##wu
##ης
##ων
##aco
##alc
##arp
##aya
##azt
##bei
##bie
##dbs
##dra
##eka
##eri
##esh
##eys
##fan
##fus
##gek
##gre
##hai
##hal
##hek
##hia
##hti
##iaz
##ibo
##idr
##iev
##ivi
##iya
##izi
##izu
##jab
##jic
##jug
##kom
##kyo
##lah
##lek
##lip
##lla
##mir
##mor
##neg
##nem
##niz
##obe
##oco
##ofi
##oia
##orf
##osh
##otx
##pec
##pey
##phi
##pot
##pup
##rax
##rua
##soe
##uat
##uei
##uet
##uga
##uil
##uso
##utx
##uve
##vio
##vol
##xel
##yes
##zus
##ður
ao
cj
cu
hc
nf
nm
oe
sv
tg
vn
wr
zy
€1
€3
##acle
##acre
##adne
##airs
##alki
##alow
##aned
##apil
##ardy
##asse
##atch
##atem
##atet
##aths
##atto
##azoo
##bahn
##bank
##bons
##care
##cini
##cive
##cked
##code
##coni
##cons
##cont
##core
##deer
##dica
##drop
##ebra
##elsh
##enzo
##eres
##erra
##fast
##foot
##gery
##gram
##gran
##hall
##hton
##icas
##icut
##idem
##idge
##iker
##ilez
##ilin
##ilva
##imaa
##imon
##imov
##into
##iros
##irts
##isee
##isia
##isto
##itat
##itek
##itia
##iton
##jian
##kind
##kita
##laim
##lett
##lyde
##melo
##mith
##mitt
##moil
##nery
##obil
##odus
##ogan
##olip
##omez
##onie
##onna
##oreb
##orph
##osid
##otti
##pool
##rass
##rats
##resa
##resk
##rill
##rips
##risk
##risy
##ritu
##roak
##rock
##rons
##sing
##span
##sson
##stra
##thon
##tter
##type
##ucci
##uffs
##ugun
##ulez
##ulli
##ulse
##umar
##undi
##uper
##upon
##ushi
##ussy
##utri
##ysen
##ytic
##yton
##zena
##zera
##ziak
101
108
124
215
260
284
313
320
322
352
387
415
589
610
616
650
750
abe
afu
agn
arl
bod
boo
chi
cos
cuc
doo
dow
dvd
enf
eve
fbi
fen
ges
gpl
gym
hos
jaw
jut
kob
kot
kou
kra
mcd
mgm
mlb
moh
nec
nie
nix
okz
ona
pes
php
pio
ppo
rai
raj
rav
rhe
ria
rif
rut
ræd
spd
sts
sue
syl
thy
ull
ume
upt
wen
wiz
wop
wto
yle
yug
zam
zat
##acles
##actor
##adier
##adura
##agram
##ahine
##akiak
##amort
##anova
##apock
##arela
##ariek
##armed
##arraf
##arrah
##arter
##aseko
##assis
##atant
##atile
##atisf
##atore
##austo
##bites
##borne
##bying
##cular
##elect
##eline
##elite
##elsat
##enson
##error
##ester
##ettle
##eurin
##facts
##faith
##fleur
##forth
##gings
##icans
##ighed
##ingen
##inski
##insky
##ioren
##istek
##loads
##niyal
##ocide
##oetan
##olako
##ontso
##otext
##otted
##ouard
##owers
##ptive
##puted
##query
##quist
##retan
##ricks
##rokes
##ronym
##taren
##tasun
##tland
##torio
##uated
##ubeck
##uerus
##ukawa
##urers
##ussen
##utzat
##venia
##worth
##yinga
##yptic
##zarri
##zenge
1046
1152
1250
1322
1531
1535
1556
1592
1601
1609
1610
1618
1643
1650
1662
1738
1766
1768
1785
1788
1793
1795
1811
1826
1829
1839
1862
5000
7000
adds
ahas
aids
ajax
alea
alor
alta
amal
amid
anta
apis
arau
argi
arke
arno
axel
ayas
bach
bale
barg
bast
berp
biak
bism
bred
bren
brug
burt
cede
chel
chin
chry
clem
cola
cole
coli
cors
crab
cros
dame
dams
dana
dian
dign
dust
edda
eich
eldr
elie
elik
ende
ered
etor
evid
exit
fits
fære
gell
glad
gren
guam
hamp
hann
hawk
ibil
igor
igot
incl
issu
jain
jing
joko
kasp
keen
kmaq
knee
knox
kold
kore
korn
kude
leap
lenn
levy
lieb
lift
loch
logs
lotu
luth
mala
mans
meos
mert
mirr
morf
naiz
nast
naum
neil
nist
node
noel
noiz
null
pact
padi
pall
pasa
pend
pied
pogo
polo
poth
pqcc
pran
psoe
rans
recy
reim
rept
rico
sear
segi
seiz
seme
shin
sill
sint
sira
sirm
slee
snap
stap
succ
swan
tabl
ting
tint
tira
topo
tril
tron
ucla
ugly
unac
unse
verd
vesp
vest
walt
wand
ware
wham
wwii
xake
yesh
ziot
æsir
##abales
##active
##agilea
##agoras
##agraph
##ailand
##anting
##apolis
##arrena
##atched
##atikoa
##calcul
##course
##deburg
##emaker
##endish
##erable
##etical
##fields
##gabeko
##gement
##gonite
##guards
##helone
##henols
##iarazi
##ichlet
##imedes
##imited
##ischer
##itives
##itzean
##keeper
##laratu
##letter
##matika
##nesday
##otechn
##ounded
##ouring
##raisal
##rified
##seatic
##stroke
##studio
##tzalea
##weight
ahale
alfar
alias
alpin
andro
angry
antib
antit
ariel
aroan
ashes
askok
aznar
baion
barak
barre
batch
beren
bills
billy
birus
bizia
blake
bloss
bobby
booth
boots
brent
brick
bride
caret
casts
cevik
charm
chase
chlor
chrom
clyde
codex
colin
dakit
desag
detox
devon
dirks
ditch
dwell
dynam
egile
eisen
eliot
elven
elvis
emory
eniac
erret
errug
ethic
evans
extin
fated
faust
flags
floss
folds
fonda
futur
gangs
garbi
geure
gomez
grows
guian
guild
gurut
gutxi
hamid
hango
hanyu
havel
heres
horeb
ibrah
inaki
inexp
inork
ipini
irten
janet
jewel
julie
kabul
karst
kartz
keith
khidr
klans
knees
komik
konig
lacks
lakua
lambs
lifes
lokal
luxen
malta
masks
medea
metaf
meter
mills
monke
motto
nahas
neopl
nokia
notre
nylon
odell
olafr
olive
onart
optic
osaba
pejor
petri
pious
pirin
plata
plaus
porro
posts
prone
quasi
raman
randy
rebre
reint
renov
reply
rhyme
riots
rites
ruben
safer
sanct
santo
saved
selen
shoes
shoul
skull
soave
socks
soinu
stric
suits
sumer
swamp
tanya
therm
tokyo
tonal
tresn
tribu
trist
trygg
turks
txanp
tycho
umbre
unfav
urrea
urter
valve
vaugh
virus
vitro
wayne
weiss
welsh
woody
wreck
xican
zeram
##akoaren
##ariaren
##atorium
##azaratu
##cession
##diocese
##enaries
##entzial
##gaituta
##gorical
##history
##igation
##ikoetan
##ilation
##illaume
##inating
##married
##ocative
##ontzeko
##palomas
##rington
##unnilin
##zaileek
aborig
adelie
advers
ahaztu
akitan
aldean
almond
alonso
anarch
anders
antrop
antzin
aquedu
aquila
askatu
asylum
atkins
attest
aubrey
babesa
backup
baldin
ballad
ballot
barley
barton
behave
beheko
berber
bilaka
blaise
bogart
brutal
buyers
calvin
cannes
casino
checks
chiang
chords
cicero
clinic
clouds
coated
colors
connot
consul
cooled
cooler
dalton
danzig
defect
delays
dement
deserv
desper
deuter
devout
dining
disein
dissem
drains
drying
ducted
egoism
egokia
egunez
ensued
entrop
eraman
eremua
esklab
esport
essays
evolve
exhort
exodus
extern
falcon
fandom
farmer
fleets
foodst
forged
framed
gandhi
geneva
gently
gerran
gertak
gilles
gizaki
glands
gomend
gothic
guatem
guides
hamlet
hamper
handik
hangar
harald
harass
hautsi
hippoc
hobbes
hobetu
honors
hopper
hunter
ikuspe
improv
inject
inline
inport
intend
iranen
izenak
jeremy
joanes
karzai
katean
keeper
kisses
konpon
kontua
lafone
leased
libano
libret
liteke
lizard
loaned
lotzen
lubeck
lurrak
maiden
makina
mantle
marion
menper
merits
minded
mitxel
modelo
moller
moreno
moritz
mosque
motifs
motive
mucous
mugitu
mutiny
nahuat
nantes
neglig
neptun
nestor
newark
nobles
nuclei
okrent
orkest
paragu
parcel
pardon
pastor
patton
pertev
phones
pierce
pietro
plague
pleist
poesia
publio
quartz
racist
ration
receip
recomb
retali
rivero
rotuma
rugged
sandra
schola
seeger
sermon
setter
sexist
sexuen
sharon
shouts
shrimp
simone
solids
sparse
splend
sticks
syrian
tabern
tambur
teresa
themed
theoph
thread
tierra
tongue
toured
tourra
trader
treats
typing
uganda
unspec
unsuit
unused
urging
urtero
usable
walked
wester
whitel
wilkes
worthy
wounds
yearly
zehatz
zhuyin
zubero
zutela
##aziorako
##breakers
##gregated
##ikoetxea
##imentary
##neumonia
##ographed
##ontinent
##ressions
aberats
acadian
acronym
alabama
aldekoa
alfredo
algeria
aljebra
amadeus
amended
analogy
aneurin
annihil
antenna
anthrax
antzerk
argital
arising
armadak
armenia
atheist
athlete
austron
babylon
baitira
baitzen
baldwin
bandera
barbary
barnean
beckman
beloved
biltzen
biotech
bizkaia
bounded
bradley
brasild
bullpup
captive
ceremon
chaired
chicana
citadel
clarify
colspan
confisc
coroner
corrupt
crosses
crushed
darkman
debussy
decolon
densely
deskrib
disband
ditugun
drummer
dwarves
earthly
egunean
emateko
emerges
eminent
emotive
erectus
erregen
erruman
escaped
essence
estazio
estuary
excited
explore
fabales
fastest
fearing
fifteen
finkatu
flooded
gaineko
gateway
gehiena
gelling
gentrif
graphic
guiding
hartako
hawking
hellman
hernand
honekin
hopkins
huahine
hubbard
hydraul
ideally
ignacio
indarts
interes
intoler
irakeko
irudiak
issuing
izenean
jartzen
jauregi
kantaut
kenneth
kentzen
kolonia
konplex
korapil
langile
leander
leibniz
leopard
lexical
liburuk
loosely
lortzen
lozenge
makesys
manchus
manners
mariano
matched
mendiak
meskita
midwest
militia
modeled
modules
modulus
musikak
navarre
nervous
neville
novelty
nursing
observe
officio
okupatu
okzitan
ordinal
ospetsu
oyapock
patents
patriot
pauling
permiss
pivotal
pleased
politic
pottery
prayers
precise
prophes
pulling
quoting
readily
reigned
remarks
removes
repatri
rudolph
rumours
runways
rædwald
sandbox
sarrera
seaport
selfish
seminal
senator
serdica
seventy
shadows
shaping
shocked
siberia
sighted
silsbee
sisters
sistine
sitting
sizable
sparked
spatial
spawned
spurred
stepney
stewart
storing
telecom
tending
terrace
testers
titulua
tomcats
tracked
treason
turmoil
txekiar
txikiak
unequal
unpaved
urrezko
urtetik
uruguai
ustezko
utterly
vesicle
viceroy
voyages
wanting
warrior
wherein
wilkins
zermelo
##etermined
##ilitation
##ologiaren
##placement
##rialderik
##vertently
afforded
aitasant
albanian
albrecht
alfontso
algebras
amerikar
amounted
analyses
anointed
answered
attained
azalduko
azkeneko
barriers
basamort
batuarra
beltline
beretzat
bertrand
bismarck
breeding
buckhead
bukaeran
buruzagi
caesarea
canadair
choosing
clearing
climates
cochrane
codified
columnar
competit
confined
constans
counties
database
decisive
deprived
designer
desserts
detained
diaspora
dimisioa
discards
dissolve
dominate
dynamics
elephant
entirety
epaiketa
eragiten
errusiak
eskoziar
eurasian
europaea
eurozone
exertion
farmland
feminine
fittings
fitxateg
flooding
flourish
forcibly
forecast
fracture
frederic
freedmen
funtzion
gehiengo
generals
genocide
gipuzkoa
giuliani
glucosid
gobernua
gradient
grandson
gregorio
habitats
hamarkad
harrison
helbider
herritar
hierarch
hilabete
honetara
horietan
idatziak
ikuspunt
ikusteko
imagined
inertial
intercon
interpol
investor
isabella
italians
jasotzen
justices
kimikako
konposit
kontserb
landlord
laureate
lebanese
lighting
lobbying
mangrove
manpower
mantxako
mediated
michigan
microbes
monument
nagusitu
naumburg
nutrient
objected
ondorioa
optional
outbreak
outlined
outlines
pantheon
particle
peripher
perspect
philippi
piedmont
planeten
platonen
plucking
pointing
polymers
precious
pregnant
presumed
probintz
proceeds
prospect
rankings
ratified
readable
realised
recounts
recruits
reformed
refugees
refusing
reigning
reindeer
relieved
rendered
residual
resonant
richards
saiakera
savannah
schengen
secretly
shifting
shooting
socrates
spectrom
sponsors
squamous
stemming
suediako
suntrust
supersed
suspects
tahitian
tanzania
thailand
totaling
treasure
trustees
undelete
unlawful
unwanted
urtearen
vanguard
venezuel
verified
veterans
vincenzo
vineyard
warlords
warrants
weaponry
workshop
yugoslav
zenbakia
zuhaitza
##aritzapean
##calculator
academics
afterward
ahasuerus
alignment
allegedly
altitudes
aluminium
amplified
ancestral
artefacts
assessing
baptismal
batteries
bibliogra
biztanler
bonaparte
capacitor
castrated
charibert
charleson
clarified
collapsed
columnist
complexes
concealed
confident
consonant
criterion
criticize
decorated
deklaratu
depiction
deposited
detective
deterrent
dirichlet
discarded
discharge
disciples
dismissal
dismisses
doctrinal
dominican
donostiar
draftsman
editorial
educators
eguneroko
enjoyable
espagnole
estranged
evaluated
evidenced
expulsion
ezgaituta
fernandez
finalists
forefront
fortified
fortunate
frankfurt
færeyinga
gaitasuna
gramatika
guillaume
guztiaren
handiaren
hanseatic
harmonica
heartland
hijacking
hypocrisy
ikasketak
inconsist
ingeniari
inventing
iteration
jeltzalea
konderria
konexioak
laguntzaz
liberated
loyalists
magdeburg
malaysian
malicious
marquesas
measuring
memorable
mendeetan
mexikarra
miniature
motorized
motorways
musharraf
mussolini
nabarmena
nafarroan
nationals
nazionala
negotiate
neoplaton
nicknamed
nikaragua
nominally
objectors
omissions
operative
ospetsuak
ovulation
palestine
paradoxes
paragraph
paramount
patagonia
persuaded
pertsonen
playhouse
plazaratu
presbyter
preserves
prophetic
pseudonym
quotation
rationale
rationing
receivers
reconcile
relatives
relevance
renewable
reproduce
resultant
retreated
rhineland
ribosomes
scattered
schooling
separates
shoemaker
somewhere
squadrons
successes
suediarra
taldearen
telegraph
testimony
translate
traumatic
unitarian
unlimited
utilizing
victorian
wednesday
wikimedia
woodstock
zerrendan
activation
adjustment
affordable
agindupean
allowances
amendments
assistants
berlusconi
berrezarri
biztanleak
capitalism
casualties
chronicles
collegiate
combustion
competitor
conforming
consonants
constructs
containers
continents
currencies
dancesport
dependency
depictions
destroying
devastated
diagnostic
discharged
discharges
displaying
disruption
distribute
dominating
ecumenical
ekonomiako
encycloped
endocervix
erabiltzea
erromantiz
eskaintzen
eskubideak
europarren
evacuation
evaluating
evaporated
excavation
exercising
externally
extinction
fellowship
foreigners
galiziarra
geochelone
gidoigilea
graduation
hamarkadan
healthcare
hydropower
implicitly
inevitable
inspection
ionisation
iparraldea
irrelevant
jakinduria
konkistatu
kopernikok
legitimacy
lithuanian
lurrikarak
lysimachus
maspalomas
melancholy
memorandum
metafisika
microorgan
mugimendua
multiplier
mysterious
nabarmendu
negatively
obligation
occidental
oinarrizko
originates
penintsula
politician
positional
postmodern
prescribed
proponents
protecting
publishers
qualifiers
rearmament
rebreather
rebuilding
recipients
recommends
repetitive
screenplay
scriptures
solutional
songwriter
specifying
standpoint
starvation
stratified
submission
tendencies
translator
tryggvason
undermined
undisputed
unemployed
unicameral
universite
urtarrilen
utterances
versailles
vocational
weaknesses
abbreviated
accumulated
aipagarriak
aitzindaria
allegorical
amblygonite
apocalyptic
appreciated
archdiocese
aristocracy
assimilated
aurkikuntza
aurkitutako
berrikuspen
brandenburg
businessman
calculation
certificate
coefficient
commemorate
conceptions
confederate
connecticut
consciously
continually
contributor
conversions
convolution
cooperative
coordinates
correctness
delegations
deprivation
differently
distributor
encompasses
engagements
eurosceptic
exponential
ezabatutako
fascination
federalists
forgiveness
gizonezkoen
grandfather
hauteskunde
illuminated
indications
inexpensive
influencing
inkisizioak
inscription
intensified
irakurtzeko
komunikazio
legislators
melanesians
methodology
mithridates
obligations
perceptions
pertevniyal
pleistocene
polyphenols
principally
promotional
psychiatric
reformation
regionalist
resemblance
romanticism
segregation
specialised
spectacular
tamburlaine
televisions
temporarily
tournaments
txantiloiak
unspecified
volunteered
zalantzarik
actionscript
alternatives
anthropology
antzeztutako
argitaratzen
arithmetical
berrikuspena
biodiversity
conditioning
confucianism
contaminated
cosmopolitan
denomination
discriminant
displacement
disturbances
efficiencies
eiffelstudio
endorsements
entertainers
erakundearen
espaziontzia
experiencing
hedabideetan
hypothetical
implementing
individually
inflammation
interpreting
mechanically
mitochondria
mountaintops
nationalists
popularizing
presidenteak
protagonists
protectorate
quantitative
romanization
southernmost
subdivisions
transitional
transmitters
abnormalities
administrazio
aesthetically
anthropogenic
architectures
bereizketarik
chronological
commemorative
compositional
confederation
denominations
garrantzitsua
gaztelaniazko
homosexuality
inadvertently
incorporation
installations
interpersonal
invertebrates
investigators
kristautasuna
lcmcalculator
manifestation
misconception
progressively
statistically
uncertainties
aforementioned
categorization
coincidentally
collectivistic
czechoslovakia
decolonisation
demonstrations
entrenatzailea
initialization
interdependent
konposatzailea
kontinentearen
multiplication
neighbourhoods
organizational
revolutionibus
systematically
unintelligible
countermeasures
differentiation
garrantzitsuena
supplementation
##32
##55
##86
##aj
##lr
##mu
##nn
##ye
##yj
##zl
##ιο
##οι
##ρα
##200
##aan
##aca
##asm
##auv
##bak
##bop
##bsp
##btn
##bug
##bus
##coy
##ctv
##dal
##daq
##dem
##dsf
##duz
##enz
##eus
##fag
##fat
##flu
##gee
##gel
##gnu
##hom
##hue
##ibi
##iis
##inh
##ipa
##ird
##irv
##ixe
##jam
##kon
##kta
##lie
##mia
##mie
##nah
##nom
##oba
##oeu
##oft
##olt
##oot
##opo
##opp
##otz
##pek
##pil
##rem
##rod
##rub
##tap
##toa
##top
##tus
##usk
##uze
##vag
##vir
##wak
##wik
##xek
##xen
##zie
##zol
##zzi
##zzo
##ιστ
02
ai
bf
hm
hr
hz
kc
lg
lj
mh
mv
qb
rc
tc
tf
vr
wl
wt
£4
κα
€9
##abea
##acor
##aeus
##afon
##ahir
##aiak
##alak
##aldo
##alid
##allo
##amel
##ampi
##ando
##aran
##athy
##atio
##ativ
##atly
##atza
##avia
##baum
##beau
##beko
##bier
##bite
##blem
##cede
##cery
##cius
##cker
##colm
##colo
##cony
##dean
##dock
##emon
##enor
##enst
##erme
##erna
##eten
##etta
##etti
##etza
##fits
##fors
##fred
##gail
##gart
##gone
##grav
##hage
##hart
##heit
##hent
##hler
##horn
##ibil
##icko
##idak
##idex
##iegi
##ieri
##ifax
##ijan
##ikes
##ileg
##ilia
##inia
##inol
##inum
##iora
##iren
##isan
##isse
##itre
##izki
##kkot
##klan
##lana
##lari
##lery
##leta
##liss
##look
##loss
##lyst
##mega
##mini
##mmet
##oder
##okan
##olue
##omus
##opsy
##orms
##oxia
##pack
##pent
##pern
##phra
##pian
##poda
##pson
##quot
##rack
##ramm
##rash
##raud
##rens
##rims
##rins
##rion
##ritt
##rode
##rual
##tafa
##tako
##toni
##uate
##uela
##ujan
##uled
##ulus
##umba
##unde
##unga
##urio
##user
##utta
##utza
##vall
##vich
##wait
##wana
##wear
##werk
##wery
##with
##ympt
##ynia
##zion
047
138
139
230
270
280
285
290
298
312
319
323
326
332
339
353
354
357
359
363
364
373
393
490
550
660
690
799
825
960
abu
anj
asw
atk
awg
baf
bew
byr
cdu
cet
cfp
chu
cig
cox
cve
dad
doh
enb
ets
exe
fai
fax
fus
gue
gum
gwh
haj
hep
hof
icc
ida
ilk
imf
iod
jod
jov
joy
jpl
kip
kmt
kod
lac
lax
mpa
ner
ngl
noz
nun
och
ong
ont
ose
pbs
pdl
pik
pix
pnv
pto
quo
roc
sah
shu
ski
sko
soy
srk
tms
toy
uko
umb
usc
vie
vme
wav
wol
##accur
##acerb
##achem
##achos
##acies
##acion
##aguna
##aires
##alach
##aldes
##aleak
##antea
##arbok
##arcer
##areth
##aried
##ascus
##ashed
##asive
##asted
##ateak
##ateyj
##atian
##atiko
##atsua
##awiki
##awlin
##aztun
##batic
##beste
##birds
##books
##chaft
##ctase
##cteau
##detik
##efani
##emony
##enatu
##encer
##ensen
##esque
##estim
##estly
##ethyl
##etika
##fagre
##ffect
##forms
##genes
##geons
##gintz
##habib
##iaria
##ideae
##ieged
##ieran
##ieres
##ietta
##ifier
##igest
##ilies
##ilius
##imala
##iosis
##iques
##iriam
##ische
##isite
##isman
##isson
##isure
##itals
##itone
##itzea
##kenaz
##kuntz
##laved
##liked
##lipse
##mming
##ocial
##ogram
##oints
##okrat
##olome
##olves
##ommun
##orika
##orish
##orman
##ormen
##orrak
##orter
##ortic
##osome
##ossip
##osure
##otage
##oween
##owitz
##oyang
##pheme
##phers
##ports
##raldo
##ronom
##scomb
##stadt
##strom
##tably
##tapen
##tegia
##toria
##tziak
##ubert
##ugain
##ulent
##undra
##ungen
##unity
##unker
##ussac
##ussle
##uteko
##uthor
##uzman
##valds
##watch
##world
##ynman
1024
1173
1189
1279
1300
1328
1496
1512
1515
1516
1521
1533
1536
1568
1571
1585
1589
1590
1594
1596
1597
1599
1603
1644
1710
1723
1727
1752
1762
1763
1764
1771
1772
1775
1796
1801
1802
1803
1806
1818
1819
1823
1851
2021
2022
abel
affl
alda
amel
apex
apur
aras
aroa
arro
artx
ater
aton
auzi
azpe
balz
bath
beld
beng
bete
bida
bira
blow
blur
bole
bota
boun
brux
bung
buoy
caff
cair
cane
carc
cern
chop
ciat
clip
cope
cran
crum
cure
dada
damn
dash
dato
dear
dedu
dell
disk
dome
dost
eden
edin
edon
ekin
esto
euda
eukl
euph
eziz
fade
feas
fins
fixt
flax
fond
forb
fsta
furt
fuze
gael
gald
gale
gill
gonz
gore
grac
graf
grav
grie
guer
hark
hate
hats
haur
hazi
heng
herr
iber
imit
inns
isil
isle
jada
josu
kaif
kard
kauk
kofi
kond
krut
lamb
lars
lend
lenz
lids
lobb
lowe
luca
lynn
mada
maiz
mara
mayn
meng
mesa
mila
mint
mons
nago
nano
naur
nbsp
ncsa
nego
nier
nork
obso
odys
ohit
osce
oval
oven
owns
pach
panc
phry
phyl
pisa
pork
porn
puls
punc
quit
ramp
refu
rent
rfmf
ribe
rolf
rosa
runa
ryan
sage
saus
scra
sige
silt
sims
sine
sink
smok
spee
spit
stig
stom
tags
tave
tent
thie
tilt
topp
toul
traf
trim
trin
tuka
tung
turt
typh
tyre
umor
vars
verb
vile
vivo
voiv
wary
wdsf
webb
xanp
xbox
xion
zald
zart
##abidea
##achron
##adimir
##agailu
##ainoko
##aksvik
##alaren
##amerik
##anteed
##anteen
##arraga
##arrega
##arreko
##artney
##astics
##asting
##atzean
##castro
##celona
##ckhoff
##ekafon
##enauer
##enekoa
##entzen
##erting
##esezko
##estium
##ferent
##groups
##henzol
##ierazi
##ionala
##iscent
##istuta
##itance
##itored
##ivable
##ktarea
##ktorea
##lessly
##letion
##linary
##liners
##mining
##nected
##nikako
##ocaust
##oeurop
##ologic
##ologna
##omatic
##onders
##ortion
##ortzen
##owners
##phalia
##ppings
##racies
##raltar
##rarily
##razioa
##redund
##regard
##rology
##roskop
##rubber
##tsdale
##utasun
##verted
##waters
##winder
##worthy
abbot
abest
acuff
acute
adjus
akats
aless
algar
allud
aloud
alpha
amara
anion
anitz
anizt
annan
antac
antic
antso
arama
arbol
arden
aroko
askea
askoz
assar
asset
atlas
auker
auzia
babes
badak
balls
balth
banjo
bauer
beast
beira
belly
benin
berry
betan
betra
bidea
blame
bortx
boxed
brody
bruno
burch
burns
burst
buruj
cabin
caled
capel
caver
clara
clash
claud
clums
comet
comte
couns
coups
covar
cries
cruel
cured
danny
dantz
datas
dauzk
depot
depre
detri
deval
difer
dinam
disgu
disob
dozen
drown
drunk
ebert
egunk
elong
erdig
espar
estag
fatty
flown
flute
flynn
fries
fring
garia
garra
geruz
ghent
gibbs
glide
golko
greba
guess
hamza
harms
hears
heats
hedon
hered
hides
higan
hilez
hilly
hoehn
homer
honey
hymns
ikert
imbal
inari
incur
indus
insec
insol
ireki
irres
istor
itzal
izand
jacqu
jaurt
jesse
joule
juice
julia
juven
klyst
koldo
kopia
laden
laman
lanen
lanes
lapur
lasts
latex
legez
lemon
lepor
lerro
linda
lined
liszt
locks
logos
lured
macau
maize
malay
malum
mambo
mango
masse
meats
menst
mezua
midex
mintz
moran
multz
nadar
nancy
napap
nasal
nixon
norba
octav
ohiko
oldid
omega
ornam
outsk
outwe
panam
panor
parap
parti
patxi
perry
petzl
pipel
piztu
plent
pluto
polis
pomes
pores
praia
prima
rails
ravel
rebuk
regen
reich
relic
remed
rents
retro
risky
ritch
rolls
rosen
russo
sacra
salam
sansk
schul
scout
screw
scrib
scrol
seder
semic
sibyl
silas
sinai
sinic
smear
sonar
stamp
stats
strav
strom
stuck
stump
subgo
sunts
swept
swift
sworn
talka
tampa
taped
tense
tiber
tiroz
tobin
traff
trams
trick
trigg
troph
trout
truce
trunk
tuber
tutor
txetx
unaff
unrec
uzbek
uzten
valer
varso
vatik
ville
vinci
visee
vogue
waist
watts
wille
wills
xetra
zaila
zaizk
zhang
zheng
zioen
zipre
##arrekin
##astrous
##atility
##berland
##centric
##changed
##ckhardt
##comings
##derantz
##elakoan
##entance
##etariko
##etasuna
##herents
##herland
##ictable
##illermo
##indberg
##inished
##ishment
##ketaren
##lerosis
##ocolate
##odeship
##ophones
##otasuna
##playing
##ratives
##rescent
##reshold
##riminal
##roduced
##ronilla
##terrand
##tevraud
##umental
##unction
##urgents
##ursions
##verness
absurd
advise
agenda
aggrav
agrees
ahozko
airway
aitken
alaska
aldera
allerg
amazon
amoeba
andoni
anglic
annals
antart
antony
apollo
apolog
apphia
applic
araban
arable
arafat
arantz
arazoa
arloan
arrant
arrunt
ascend
asimov
astray
asympt
auster
badago
barack
batuan
bayern
becket
bereko
bethen
biases
bibles
bigger
bilera
births
bomber
brooks
bruges
buddha
bulego
burdin
burgos
bypass
cables
canopy
cavity
chains
chairs
charco
chased
chirac
chival
claren
coding
colder
commut
conflu
contam
cooked
cortes
costly
cybers
dancer
datork
defore
delako
devils
dilate
dionys
dishon
dismut
disney
dispro
dituzu
drinks
edukia
egilea
egoten
elects
enigma
enrico
eormen
epigra
epitom
errend
esanda
escarp
espetx
etabar
etxean
eurite
extras
ezberd
ezkont
facial
fantas
finest
frosts
galest
garage
garaia
gaspar
gaurko
gehiag
gerald
gerard
gizart
gizona
godard
gorabe
gorput
gossip
groove
grover
gunmen
guthro
gypsum
harlan
harris
hegoal
heisen
helium
hemorr
herman
hinder
holder
hosius
ibarra
ideals
ideiak
igoera
impair
incess
inches
incred
indotx
infect
infilt
inputs
insist
intest
invite
irango
iritzi
irrati
islama
jackie
jacobi
janiss
jarrit
jendea
josefa
justin
kangxi
kanpor
kickst
koadro
konpar
kosher
kourou
kutxak
kuwait
labasa
ladder
lather
lauder
legion
leonid
lesbia
lethal
lilith
liquor
louise
lumber
magnus
malada
mallor
manchu
marcel
martyr
mascul
mehmed
mendel
mendik
merkat
metaph
metric
mexica
midway
miriam
mohist
molten
motels
multim
multin
murals
myriad
nagano
nasdaq
nasser
navies
nepeta
nested
ninety
nomine
oceans
ondoan
ontzia
ordain
ordoki
orogen
orriak
osagai
osasun
panitz
parker
parser
pavlov
pelham
pergam
pillar
poitou
poorer
porrot
prelim
priced
privat
probes
profic
punjab
quarre
racing
raises
ramsey
ravens
recept
recipe
regina
regret
renoir
rental
repris
resurg
retros
revert
revive
rhumba
robles
roegen
runway
sanity
sappho
satiri
scarce
senses
sergio
sharif
sheila
shocks
sicily
skulls
skycar
slogan
slopes
slowed
smarte
sobral
sorrer
staple
styled
subjug
subtle
subway
sukkot
superf
sustra
swamps
sweets
tenisl
thinks
thrive
tossed
tragic
trance
trench
triode
tundra
unhapp
urgent
vander
villas
vulcan
walker
warrah
wicked
woodin
xavier
xicano
yasser
youths
zarath
zeroes
zortzi
zuhait
##aldiaren
##aldietan
##artments
##aterally
##breaking
##cultural
##engandik
##hemistry
##iliaries
##odynamic
##thispage
##ynthesis
abokatu
abstrak
adelphi
adulter
advised
afrikan
agindua
aliquot
almonds
alsazia
alumnus
amanuen
amazing
ambival
ammonia
angered
antinom
antisem
apology
apricot
aquinas
argipen
argudio
aritzen
arrange
arsenal
artwork
askoren
assured
azpimar
baggage
baionan
baitzit
bananas
barrena
battery
batzeko
bayonne
bedrock
behaves
belgica
belushi
bennett
beraren
berezko
bergman
berresk
berriko
bertsio
bilduma
biologo
bizirik
blanche
blatant
blokeoa
blurred
bohemia
bologna
boterea
bougain
boycott
brothel
buildup
bukaera
burdina
burnham
cabaret
capitol
caspian
cathode
ceawlin
centred
chalced
charley
chelsea
clipped
coached
cockpit
cocteau
comfort
commens
compute
condens
cornell
corners
courtly
crowned
cruiser
crystal
cycling
deadite
dealers
decrees
defeats
deficit
deities
deposit
dessert
dezagun
diaphra
disgust
dissent
dituzun
drastic
dunning
editatu
editors
edouard
edukiak
egoitza
eguneko
embargo
embrace
empires
enlight
equated
equator
eragile
erraldo
escorts
espazio
esteban
etorkiz
eugenie
exacerb
exceeds
expatri
fairies
falcons
familia
fanduel
fencing
ferment
fertile
feynman
flateyj
flavors
frigate
furious
garapen
gardner
germain
gesture
griffin
gustave
hackett
halifax
hamahir
hamburg
handing
hazards
heisman
helmand
hendrik
herodot
hilbert
hillary
holders
homeost
hostage
hurdles
ibarret
ibrahim
iconocl
ignores
impetus
inaccur
indarra
inquiry
insular
intends
intertw
intrins
irunean
iruneko
janeiro
jewelry
jordani
jutland
kaspiar
kinetic
koloniz
lagundu
lantzen
leinuko
leisure
lengths
leterme
lifting
liquids
loading
logging
logikoa
luoyang
lyrical
madonna
malcolm
manuals
marcell
marched
marquez
martial
matilda
meiosis
metalak
midrash
miracul
mirrors
mohamed
molekul
moliere
movable
murders
mustafa
nazioen
negroes
nintzen
ondorio
osoaren
outputs
painful
partido
pathway
payable
peaches
perifer
picasso
pigment
plagiar
plagued
plaster
posttra
posture
potsdam
provoke
psyched
punched
quadrup
realism
relapse
reliant
reminds
repairs
reprise
rescued
resorts
rightly
rituals
rounded
runaway
sartzea
sealers
seismic
sellers
semitic
serbian
severed
shepard
shirley
silence
simpson
slipped
solicit
sortuko
sothoth
soviets
spelled
spencer
sponsor
squares
stabbed
stamped
stinger
stooges
stretch
strokes
summons
surgery
surreal
syntact
tarrega
taxable
teaches
teknika
telekom
temples
theklan
tissues
tongans
tossing
totaled
totient
touched
tramway
trumpet
txanpon
unarmed
unconst
uninter
updates
upright
upwards
uranium
useless
vacuole
varsity
vatican
vaughan
vicente
visitor
walcott
wallace
whalers
winding
xianbei
xiongnu
yeshiva
yorkeko
zapater
zerbait
##fficiency
##henzoller
##icultural
##itutional
##ographics
##ructuring
##tzaintzak
abdullah
abertzal
abortive
academia
adenauer
adierazi
advertis
aerosols
africans
agertuko
aireport
aireratu
airstrip
aktoreak
aldatzea
algerian
ambition
anachron
animated
antzerki
apostasy
appalach
appoints
aquarium
aragoiko
arianism
arrakast
attracts
authored
backdrop
bakoitza
banatuta
berdinak
bereziak
bernardo
besieged
bestetik
betrayed
bilaketa
bilatzen
bizitzan
brasilen
breathed
bulgaria
bulletin
bungalow
burdwood
calcutta
callahan
caroline
carotene
castillo
catalase
catching
causeway
classify
cleaning
colorful
columbus
comedian
comedies
compares
competes
conceded
conclude
conserve
converts
corporal
costumes
cracking
cristina
cutaways
damascus
deciding
defender
dementia
devotion
diabetes
dictated
differed
dilation
diogenes
diputatu
disciple
discreet
disliked
egiptoko
eleberri
elkartea
emaitzak
embodied
emirates
employer
encourag
enpresab
enslaved
epaileak
erakunde
erantzun
erredund
erregeen
erromara
eruption
eskubide
etakidea
euskarak
euskarri
examiner
exceeded
excerpts
excesses
expenses
ezkutatu
facebook
factored
failures
feminist
firmware
foremost
galileok
garnered
georgian
geotechn
gerraren
gestures
gondwana
gridiron
grounded
harbours
harfagre
headline
heavenly
hegemony
hektarea
hijacker
hindered
histoire
holdings
hollande
honetako
idazleen
improper
incarcer
incurred
inducted
ineffect
inferior
ingested
instinct
intelsat
interwar
invading
invasive
irakasle
islamiar
islander
itsasora
izenaren
izenekoa
jakintza
jartzeko
kandahar
kazetari
keywords
klaksvik
klansmen
konstant
landings
laodicea
lotutako
lurraren
mantendu
martinez
maternal
melodies
menachem
mendetik
metawiki
millimet
minimize
modeling
modelled
moroccan
morpheme
motorway
narrowed
northumb
norvegia
numbered
obsolete
occupies
offended
organize
ospetsua
outlawed
outraged
outright
painters
pamphlet
patience
pensions
pentagon
persuade
petersen
phylogen
pilaketa
pilgrims
polarity
politiko
powdered
premises
prestige
probabil
prosecut
prozesua
punitive
reacting
repealed
resented
resettle
residing
responds
revolted
revolves
ridicule
rotating
rotation
sabotage
sailkatu
sanskrit
satelite
scrubber
sculptor
seawater
securing
segments
selenium
sexually
shoulder
shuffles
sindikal
slovenia
smuggled
sulfuric
surveyor
sweeping
swimming
syllabus
symbolum
talmudic
teammate
tertiary
theatres
thinkers
tortured
torvalds
treatise
triangle
turnover
uholdeak
umbrella
unauthor
venetian
violated
violates
virtuoso
vittorio
waterway
windfall
zeelanda
zitzaien
abrogated
accidents
acquitted
additives
adherents
adiabatic
adjective
adjoining
admission
airstrips
akademian
aldatzeko
alpinista
amblypoda
analyzing
animalium
aragoikoa
aristotle
ascorbate
aurreratu
austriako
azterketa
bacterial
ballistic
barcelona
bartzelon
batasunak
batistuta
batzordea
beefheart
belcastro
bilakaera
bilaketak
biokimika
bizidunek
bruxelles
buruzagia
canarians
captaincy
caretaker
carmelite
catalogue
catalonia
cavendish
chocolate
cinematic
cockscomb
commodore
communion
compliant
confronts
conqueror
conquests
conquista
consented
constants
cornelius
corrected
cosmetics
creations
daitekeen
debugging
deficient
delegates
destefani
dictators
diplomacy
directing
disambigu
disasters
disregard
dodekafon
dominates
dominique
eboluzioa
eccentric
edinburgh
egiaztatu
elemental
emigrants
empowered
enhancing
enjoyment
erabateko
erreakzio
erreginak
etymology
examining
exceeding
exemption
exhausted
expecting
exporting
expressly
favorable
fishermen
flamebait
fractures
gasteizen
georgescu
germaniar
gernikako
gertatzen
gibraltar
gorriaren
greenwood
greziarra
guarantee
guillermo
halloween
herbehere
holocaust
hospitals
indoeurop
injection
inspiring
instagram
integrity
interfere
invariant
inverness
inversion
inverting
investing
invisible
irakaslea
itzulpena
izandakoa
josephine
kanadarra
karaktere
kerckhoff
lancaster
lankideak
latinezko
leveraged
liberties
lightfoot
limehouse
loanwords
lowercase
lutherans
makesysop
manifesto
mantentze
massively
mccartney
mendizale
messenger
militants
minimized
ministroa
mitologia
modifying
monitored
munduaren
musically
naturaren
neglected
neighbors
normative
obscurity
obstacles
obviously
occupying
olerkaria
optimized
originate
peripatet
persisted
phosphate
pilotaria
plaintiff
plausible
pneumonia
politikoa
portugesa
premature
preparing
presently
princeton
professed
proposatu
protested
quarterly
railroads
ramanujan
reductase
rejecting
rendering
resolving
restoring
reticular
satisfies
schedules
sculpture
secretory
seigarren
semantics
servicing
shorthand
shortwave
siberiako
sistemako
southerly
southward
spectacle
steinbeck
stereotyp
stockholm
strengths
stretched
stretches
surprised
surveyors
suspicion
symbolism
tablature
taiwanese
targeting
telephony
telescope
televised
testified
thumbnail
undergone
undertake
underwood
unmarried
unnatural
valuation
webgunean
westwards
zerikusia
zuzenbide
accounting
accustomed
aggravated
ahalbidetu
aitasantua
allegiance
amerindian
annexation
antithesis
appreciate
argizagien
arkitektoa
asmatzaile
astronauts
astronomer
attractive
australiar
bankruptcy
battalions
beginnings
bidaltzeko
bodyguards
broadcasts
campaigned
categorize
chronicler
coelestium
colloquial
committing
complaints
conspiracy
contingent
covariance
creativity
cyberspace
decorative
denouncing
deontology
descendant
diminished
disastrous
discounted
discussing
divination
domination
ecosystems
ejerzitoak
euthanasia
exchanging
exemptions
expressing
fatalities
fontevraud
foodstuffs
formalized
fourteenth
frameworks
guaranteed
guztietako
harassment
hartsfield
heisenberg
henceforth
humanities
hydrolyzed
ilargiaren
immigrated
infections
ingeniaria
ingredient
inguruetan
instigated
institutes
insurgents
internment
intervened
israelites
istanbulen
izenarekin
jatorrizko
kalifornia
kategorien
konponbide
limitation
litigation
lowenstein
manifested
materiaren
melanesian
mendizabal
microphone
migrations
mitterrand
narratives
nekazaritz
nierenberg
norvegiako
noticeably
omnivorous
ortografia
overlooked
overturned
paralleled
peninsular
perfection
periodikoa
permitting
persecuted
petronilla
phospholip
photograph
pilotariak
politikoak
pollutants
popularize
positively
posthumous
produkzioa
progressed
protracted
quotations
recitation
recognizes
redesigned
reductions
referenced
refuelling
remarkably
repentance
resentment
satellites
scottsdale
sequential
sidewinder
simplifies
socialists
societates
speleology
spelunking
storylines
strindberg
stronghold
succeeding
successors
superseded
supervised
supervisor
supposedly
sutherland
synonymous
terminated
transmisio
undergoing
unintended
usefulness
uzbekistan
vegetative
westphalia
wikipediak
zutelakoan
abstraction
affirmative
alemaniaren
appointment
arbitrarily
archbishops
assessments
associating
australiako
auxiliaries
backgrounds
baliogabeko
bazterkeria
bethencourt
biographers
brasildarra
capacitance
commentator
communicate
compression
compromises
confiscated
congressman
constructor
contraction
convictions
countryside
danimarkako
deportation
diversified
ekonomiaren
eliminating
endorsement
equivalents
euskaldunaa
euskaldunon
exacerbated
exhibitions
exploratory
eztabaidatu
flourishing
formularioa
frantziakoa
gainontzeko
gizonezkoak
guztietatik
herrialdeak
hippocrates
hohenzoller
hospitality
icebreakers
implication
indifferent
inperioaren
instructors
interviewed
intolerance
kantautorea
konpositore
liburukitan
literaturan
maladaptive
manifestatu
marketplace
mazedoniako
mercenaries
metabolites
ministerial
monasteries
nominations
ondorengoak
outsourcing
outstanding
philippines
portugaldar
preliminary
profesional
proposatzen
prospective
questioning
reactivated
reconstruct
reminiscent
restricting
roleplaying
salvadorren
selectively
simulations
smarteiffel
stimulation
substituted
suggestions
theologians
transcribed
transmisioa
unanimously
undermining
voivodeship
westernmost
zarathustra
zerikusirik
zerrendatik
zientifikoa
zinemagilea
advantageous
antzerkigile
aristocratic
australiarra
austronesian
catastrophic
characterize
colonization
compartments
compilations
complemented
computerized
constructive
contaminants
coordination
counterparty
demographics
demonstrates
departamendu
descriptions
discontinued
disobedience
egunkariaren
enperadoreak
enthusiastic
entrepreneur
errepublikak
flateyjarbok
generational
geotechnical
grandparents
harremanetan
heterosexual
hierarchical
identifiable
intelligible
kontinenteko
laboratories
mobilization
monosyllabic
nabigatzaile
nationalised
neurological
occupational
participates
periodically
peroxidation
perspectives
phonological
practitioner
precondition
rediscovered
refrigerated
satisfactory
shipbuilding
shortcomings
simultaneous
spectrometer
surprisingly
transmitting
accessibility
accompaniment
aristotelesek
biotechnology
collaborative
comparatively
contamination
conversations
deontological
developmental
extracellular
geometrically
gidaritzapean
headquartered
improvisation
matematikaren
multinational
personalities
posttraumatic
predetermined
preservatives
recombination
restructuring
reunification
unfortunately
adierazgarriak
anthropologist
constituencies
cryptographers
detoxification
distinguishing
erredundantzia
gentrification
groundbreaking
microorganisms
portugaldarrak
revolutionized
berdintasunaren
estatubatuarrak
inconsistencies
instrumentalist
interchangeably
pharmaceuticals
unconsciousness
##26
##58
##89
##95
##bn
##dn
##dr
##eg
##js
##km
##oz
##pi
##ql
##rf
##yv
##zh
##ør
##ις
##νο
##τε
η
##400
##afa
##afi
##ahl
##aid
##atx
##auf
##aze
##bko
##boo
##boy
##cay
##cci
##cio
##cot
##cut
##dis
##dyn
##edd
##edo
##eet
##ekk
##eme
##erm
##esy
##etz
##fel
##fet
##fil
##fri
##gad
##ggy
##gms
##got
##gud
##gun
##hao
##hea
##hin
##ici
##ija
##imo
##ims
##inj
##isi
##jal
##kud
##lak
##lay
##len
##lli
##mec
##ogs
##oks
##phs
##pol
##pso
##rac
##rez
##roe
##sch
##sum
##uki
##ulk
##umi
##uni
##upa
##upe
##upo
##vie
##von
##web
##xii
##ysc
##yun
##zin
cv
io
lx
mb
nt
qo
sz
vp
xd
xe
yh
£1
£7
æl
##abar
##acko
##acol
##adra
##agel
##agle
##agno
##agoz
##agus
##aird
##akob
##alen
##alky
##alpy
##alsa
##amat
##amon
##andu
##anza
##ardi
##arge
##arme
##arms
##aryn
##asio
##aste
##auke
##auta
##avez
##away
##azny
##base
##bble
##beat
##bent
##boat
##borg
##brun
##cade
##cans
##ceae
##chet
##chin
##cled
##coff
##comp
##conf
##dman
##dong
##edad
##egro
##elux
##emia
##encl
##ende
##endo
##erog
##erri
##essa
##esus
##etar
##etaz
##ethe
##fera
##filk
##frey
##gden
##gean
##geon
##gink
##hems
##hena
##hend
##hill
##hots
##htar
##htha
##iala
##ibai
##ibel
##icke
##icta
##ideo
##idia
##igas
##igne
##ihad
##ikag
##iklo
##ilak
##imos
##inaz
##inor
##iola
##irez
##iria
##isle
##itea
##ithe
##itsu
##iven
##iðin
##iðir
##joki
##kara
##keit
##kers
##kulu
##kzio
##lass
##lean
##leko
##lene
##lici
##liel
##lint
##loid
##loor
##lude
##mina
##muth
##myer
##nack
##nect
##nell
##neys
##nity
##ofon
##ogne
##okon
##olak
##oman
##omar
##only
##oreg
##oret
##oric
##orse
##ortu
##osto
##oter
##otov
##otte
##ovia
##pept
##pleg
##prit
##raca
##rell
##righ
##rine
##rint
##rira
##rism
##roba
##roge
##rors
##rude
##sten
##stop
##tace
##talk
##tany
##tien
##tite
##toko
##tuak
##ubst
##uche
##uego
##ueil
##ugee
##ugha
##ugia
##uins
##uita
##ulae
##unda
##unta
##unus
##urad
##uraz
##uren
##uroa
##urst
##usch
##usen
##usta
##uver
##uvre
##vial
##vski
##xing
##ypse
##zara
##zoic
102
203
224
225
239
275
296
303
307
310
311
316
317
337
338
344
358
361
365
366
367
380
385
40°
460
465
470
474
478
498
50°
570
580
590
601
602
618
625
747
907
930
936
939
976
acf
adr
aia
amu
anv
apg
bae
bix
blu
buz
caf
cah
cai
ccd
ceo
cnn
cof
cun
dcm
dcs
dee
dop
ecc
edg
eeb
elo
elv
ema
eod
erk
eud
ezt
fos
fug
fum
fær
gav
gcc
gcd
gia
gov
gsm
hcn
heb
hew
hok
huy
iir
iis
ilp
img
ioc
irv
isn
itu
itv
ius
jub
kah
kes
ket
khz
kle
ktv
kur
lcr
lio
lja
lus
lyd
maf
mdd
mea
mhz
mia
mph
nac
nba
nco
nhs
nur
oat
ons
owe
pcb
pdp
pip
psd
pvt
qum
rah
rcl
rog
roh
suk
svp
tad
tic
til
tiv
tod
tow
tys
ucl
ump
ung
urd
uus
vaz
vnf
vos
wdc
wib
wmf
xxx
yat
yer
yue
zim
εις
€30
##adequ
##aders
##adiah
##adrom
##ahren
##ailed
##alcul
##alfar
##alink
##ameau
##andem
##aneko
##anger
##anian
##anmar
##apest
##arest
##ariah
##arine
##arioa
##arita
##arost
##arrap
##arrei
##arrib
##arsat
##arths
##arthy
##artza
##ascar
##assed
##ategi
##athon
##atius
##atzat
##avail
##azuko
##backs
##bands
##berri
##bines
##cardo
##chens
##chers
##clair
##colle
##cover
##ctors
##cycle
##domin
##dress
##duart
##eling
##ellus
##elton
##enduz
##eners
##enisa
##enser
##epare
##erari
##ereus
##esium
##essie
##estag
##eston
##ettes
##ettin
##fined
##gadah
##gdale
##gener
##genst
##gilea
##ginak
##herek
##herst
##ialde
##ianos
##iator
##ibels
##iboak
##ichte
##iegel
##ieten
##ifton
##ikala
##ilion
##illas
##impse
##indar
##ineal
##inoko
##inter
##iosyn
##ioten
##ipuri
##iries
##irmed
##issen
##istur
##iteko
##itely
##itent
##itzan
##itzek
##itzia
##ivalu
##kings
##korra
##lasiz
##lerik
##leroi
##lfire
##luent
##mated
##mendi
##mount
##nance
##negie
##notes
##ocols
##odian
##odoro
##ogues
##oidal
##oires
##olded
##omako
##onews
##ongle
##onius
##ophon
##orako
##orath
##orema
##oriko
##osity
##oulli
##owell
##ozoic
##paque
##pares
##perox
##pless
##porto
##quest
##raele
##raxia
##renan
##reuth
##riber
##ritik
##ruled
##sberg
##space
##stick
##strap
##taine
##tened
##thren
##types
##ucces
##uckle
##ulled
##unted
##upiti
##urabi
##urnal
##urous
##ushed
##usive
##ussel
##utnik
##uvres
##vings
##xenes
##ymour
##zanne
##ziari
1154
1184
1204
1320
1349
1454
1497
1507
1510
1513
1519
1520
1522
1539
1547
1550
1558
1569
1580
1604
1611
1616
1621
1626
1634
1667
1685
1690
1713
1732
1760
1773
1776
1779
1780
1797
1805
1807
1808
abba
abys
acre
adhe
ahos
akus
alen
ally
alpe
alto
altx
altz
andi
andy
aure
aziz
bali
banj
baur
beir
bfbs
bhut
bila
biom
bios
bist
bode
bose
brin
bsac
cafe
calf
cary
cass
cdre
chad
chev
chia
chip
clan
cler
coca
cory
cote
craw
cree
crom
csrf
cube
cves
dahl
dart
daup
davy
deus
devi
diat
dido
ding
dirt
diru
dots
draf
dren
drey
duly
ears
eccl
egal
eleg
epik
epip
eram
eska
eslo
ethi
exek
fang
farc
fets
fidf
flir
flog
flop
flue
focz
foil
fold
fork
fost
fpso
fras
fung
fury
gaia
gase
gazt
gerd
giel
ginz
gior
glen
glyc
gnat
gobi
gorp
gort
gplv
gras
graz
grum
gull
gymn
heel
hept
hers
hila
hiva
hobe
hoff
holt
hubs
ibon
igar
ilya
impe
inka
inoc
inte
iren
iruz
isps
jama
jazo
jeep
jill
josh
joxe
juba
judy
juke
kall
kana
kauf
keck
kekk
kett
khal
khed
kins
krom
lain
lawn
leaf
leak
lean
lega
lgbt
liar
limb
lisa
lisp
loft
lomb
lows
lude
lust
malo
mate
mats
meal
mega
metz
mick
midw
mock
mona
moth
mouf
muse
naus
ncos
neok
neuk
noem
noun
nure
nurt
odds
offs
oils
olga
olof
omit
orea
otom
ours
outc
outl
oyly
paco
pads
papa
para
pctv
pena
pene
perl
pert
phag
pink
pipe
pisu
pius
plac
pled
pops
prib
qian
rale
rapp
rect
renn
reop
reus
rewa
rick
rink
rita
roth
ruby
ruin
runt
sacs
safc
salb
samu
sans
saul
scud
sein
serb
seru
sesb
shab
shak
shim
shoe
sinn
sits
sled
slew
slip
slum
smel
soap
sofa
soin
sony
sozi
spor
sted
stor
stro
subf
suiz
tann
tard
tart
tear
tenn
thal
tins
tish
tomm
tops
toys
trio
twil
unhe
vads
vale
valt
vich
vort
wadi
wain
wash
wern
wich
wink
wrap
xant
zail
zera
zert
zeuk
zhao
ziad
zite
ziur
zuaz
zulu
zuri
##acolor
##actors
##acular
##agarri
##ainian
##aketen
##alketa
##allist
##amatov
##amendi
##ancies
##aneity
##anking
##anners
##antial
##ardegi
##arones
##atists
##atoire
##aution
##auvoir
##baijan
##behera
##belief
##bulent
##cester
##chemic
##closed
##commer
##costal
##demean
##ebicum
##enment
##entejo
##entric
##erania
##ernail
##establ
##etasun
##gandik
##gester
##gizona
##gnosis
##haline
##headed
##hequer
##herner
##ianzus
##iaries
##ichiro
##ickoff
##iderik
##ighted
##igious
##iguous
##ikazio
##ikotik
##ilibus
##ilitar
##imarka
##inelli
##inguis
##intzak
##iocene
##ionage
##iplina
##iseach
##isilva
##istach
##itably
##itasun
##itschl
##ivores
##kshire
##kundea
##leader
##lielmo
##liment
##making
##martin
##matism
##museum
##ofobia
##ografo
##ometer
##onicum
##ordeko
##ostomo
##otarra
##ounder
##owered
##pieces
##points
##prints
##profit
##ptical
##racuse
##rators
##renees
##repres
##rerako
##resher
##retion
##ribing
##rikoak
##rister
##rongek
##roughs
##rusted
##sgrove
##stones
##street
##summer
##thouse
##udenak
##udence
##ulides
##umbent
##unders
##untzak
##upload
##urated
##urtzen
##uztela
##valier
##zakete
##zekoak
adhes
aditz
adjud
aenor
airea
alain
alcat
alley
altru
amort
amule
annum
ansel
anson
apert
araba
arise
armad
armor
artea
artin
asier
astoa
astra
atroc
aurki
autoc
avery
azido
aztar
aztec
banak
barro
basra
batai
batik
batzu
bazen
bazin
bebop
befri
beuel
bider
bille
bisit
bloch
blocs
blunt
bower
brahe
bravo
brien
brill
broth
bulld
byron
calip
cameo
cared
carte
cedar
chern
chile
chips
chong
cland
clues
coded
colos
cools
craze
crazy
crude
crust
curie
dario
decip
demon
denak
denis
dilig
dingo
diote
dirac
dirua
dolar
dolly
dovet
dread
drill
dugun
duval
dwarf
eager
eater
edits
eglin
ehizt
elben
elbow
elfin
encip
enoch
envis
epaph
ephem
errad
erren
eskur
estat
eston
etako
etnia
etsai
evers
exams
exner
exter
ezart
ezkio
famed
fares
feeds
feuds
filip
flies
flush
freyr
fuego
fused
gaiak
gailu
gaits
galde
gamer
getty
gloss
grape
greco
gurps
gutun
hague
haupt
heine
hemip
highs
himal
hints
hipat
hiper
hosto
humid
hustu
idols
igaro
ilkum
imesh
insom
insur
irion
irudi
islas
ivory
jakob
jardu
jihad
karel
karen
kargu
karib
karol
khmer
kinem
kolpe
kosta
krebs
kroaz
labur
laney
lange
lante
larra
laund
leech
leigh
lekua
lenin
leval
liang
libel
loire
loops
lotua
lucia
madag
mahai
mahal
maisu
maris
marko
marta
matri
mauro
mazar
mcken
medio
melet
metam
miche
misch
mlbam
motel
mouse
mouve
mundo
murad
mutin
naked
nanos
nauru
necks
neder
nehor
nekaz
nicol
nigel
notoc
noyes
oklah
onion
onold
outre
overp
ozean
palae
palat
palme
papua
pardo
paren
parma
paste
pavia
peggy
pente
pests
pills
plund
polif
polls
polys
ponce
postc
prakt
prank
primo
proud
punct
purge
purim
query
rains
reaff
reapp
reefs
rehab
reins
repay
rezat
rhein
rider
roach
ropes
rossi
rouen
rouge
sakon
sally
satan
savoy
scher
sciss
scrap
scrut
sells
semea
senes
shame
shipw
shirt
sinan
skysc
solem
soluz
somal
sonda
sonic
spani
spark
spiel
stays
steak
steal
stuff
subar
subun
sulph
sumat
suret
sweep
swine
sword
taboo
tails
tatto
teens
tempo
thank
thorn
timet
toast
toole
torto
torun
tough
trogl
troll
trots
twain
tweet
txiki
txill
txost
umami
unfit
unite
upset
urate
urrun
ustel
uzair
vasco
velas
venus
verbs
verdi
vices
vigil
vines
visas
vista
volks
vouga
warns
wedge
weird
wolpe
wrath
wyman
zahar
zaion
zaren
zendu
zhong
ziklo
zuntz
##akhstan
##aldetik
##arching
##arekiko
##ariably
##arretan
##arriage
##asunari
##atikoki
##autaire
##bardatu
##bounded
##carbons
##culosis
##estones
##forward
##icative
##ichrist
##ientzat
##ifiable
##ificant
##igraphy
##iliated
##incible
##inerant
##irators
##isition
##izazioa
##izismoa
##loading
##matches
##mingway
##ogrames
##ologous
##ontario
##onymous
##oplasts
##oslovak
##osocial
##penetan
##plastic
##racting
##ractors
##regatik
##rentzat
##results
##rigilea
##ronutri
##ructive
##tenegro
##tevideo
##ukawaqa
##ulsions
##workers
##writers
##ztatzen
abduss
achaia
agirre
agramm
ajuria
alicia
allevi
alleyn
amidst
amlici
amnist
apples
arabar
arawak
argazk
arkham
arkona
arouse
arrays
arrisk
artola
arturo
ashton
aspide
atzizk
audion
aurrez
aurriz
avowed
ayasul
azpian
badira
badugu
bakter
balutx
balzac
bamboo
barbar
bareko
barely
baruch
basalt
batman
baxter
benson
bergen
bezain
biased
bidean
blacko
bonnie
borboi
bowers
boxers
brains
braves
bubble
bungee
buruaz
bussle
butler
calais
caller
camilo
canaan
caring
catech
causal
cavern
celsus
ceylon
chabad
charac
chavez
chemin
chryso
cister
coffee
coffin
copern
copied
corrig
corwin
cracks
crimea
cubans
cyclic
darius
davido
decomm
delete
delray
denean
denser
denzel
devote
diagon
diktad
doones
doubts
downed
dussel
duvall
duzula
dwight
echoed
edible
eduard
edvard
eebbko
eginda
elitre
elizak
emails
emblem
embody
enamel
endeav
enfant
engulf
eocene
equity
eragoz
erakus
erants
estilo
euphem
fabian
faiths
fermat
fibers
fiddle
figaro
floods
frenzy
fronte
gaetan
gaizki
galder
gamble
gehieg
gehitu
genero
ghosts
gipuzk
goncal
gonorr
gorria
grades
greeks
gurutz
guzman
habeas
haitin
halted
hamabi
hamala
hamarg
harper
harrap
hearts
heitor
henrik
hibern
hindus
hiriak
hitzak
honest
horrez
hortaz
hotson
hotter
housed
hunger
hymnal
hyster
ibaiak
ikertu
immort
indiar
indoor
injure
insign
instal
intake
interm
intuit
invert
invoke
iraung
iturri
itzazu
izanda
jainko
jarrai
jensen
jimmie
joerak
jokatu
joseba
joules
kanada
kanala
kargua
kaxmir
kideek
kolonb
konbin
kontak
kosovo
kristo
kuiper
lander
larkin
lavish
lavois
legeak
leinua
lenape
lennox
lexing
libyan
ligand
lights
liners
ljajic
lokala
lonely
lovers
ludlow
luxury
machia
mahony
makers
malnut
manned
mapped
marker
massif
mayors
mcgill
menace
mendig
mestiz
mickey
mighty
migrat
milder
milton
minnes
minnie
mintza
missal
missed
mobius
modulo
mollus
monark
monroe
morals
morley
motors
mounds
mucosa
multiv
mutiko
myself
nanina
naples
natura
nazism
neatly
neguko
netbsd
norton
nosuch
octave
olivia
omenez
orbita
orbium
ordura
organs
ornate
ospatu
overhe
paints
paired
palais
pallad
palmer
pebble
penned
pepper
planck
please
poliki
polite
portos
poured
powder
pranks
prerog
prewar
proofs
prover
proves
prusia
psalms
pupils
purity
qumran
raided
rancid
rancon
ransom
recite
refuse
relent
replen
repudi
rhymes
richer
rigged
robust
rococo
rumors
safari
saline
sarale
sareak
sarras
sarrer
scenic
schwar
scorer
scroll
seabed
sealed
sebald
semeno
sensit
sewers
shells
shoots
shrine
shrink
silted
silvio
sincer
sirera
skiing
snorri
sortze
spares
spruce
stairs
stefan
steril
streak
strive
subdue
subter
suffix
sunken
suomen
superp
surely
sussex
sutean
symmet
tandem
taoism
tasked
tasman
tatars
tecomp
teller
tender
terrae
tetley
tokens
tongan
topatu
tropes
tumult
turkia
tussac
txikia
txinat
ulertu
ulrich
uphold
upward
utzita
valent
vanity
vashti
vassal
velvet
verify
versed
volund
vowels
wastes
weston
willed
yongle
zatiez
zelula
zenbat
zoritx
##activity
##adequate
##adromous
##aindarra
##amations
##anteenak
##attering
##atzearen
##boarding
##children
##classmen
##disabled
##enarekin
##entziala
##genstern
##historic
##igestion
##illation
##iningrad
##izioaren
##occupied
##othermal
##rational
##ropylene
##terozoic
##ynthetic
##zeagatik
##zerakoan
abolish
aborted
acclaim
acquies
adhered
admirer
adviser
advisor
aginduz
alberdi
alemana
algarve
alvares
amherst
anonimo
apostol
appease
approve
apraxia
apuleio
arabian
arabiar
aramaic
arbella
arcueil
armored
aroused
artista
assumes
assures
astaire
augusto
badaude
balcony
balizko
ballets
banning
banquet
bardeen
bargain
barkatu
beasain
beavers
beharra
benelux
bentham
berdeak
berezia
berrets
berrian
berrien
bestera
betiere
bilayer
biochem
bisibil
bizantz
blinded
boiling
bolivia
bombard
bonding
brenton
brevity
brewery
bridget
britann
brontze
bubbles
buffalo
builder
bultzat
burials
butcher
bygdale
cadigan
caloric
campers
camping
cantile
cardiac
cardiov
carlton
cascade
casimir
casinos
casting
catania
catches
catulli
ceiling
ceramic
chameau
cheques
chester
chicamo
chinijo
chooses
chorath
cigaret
cinemat
circass
clapton
cleaned
clemens
clifton
coaling
coeffic
collier
colored
compost
conifer
connery
contral
costume
courage
credits
croesus
crowded
culprit
damasus
dangers
debuted
decreed
defends
deleted
demobil
deserts
dialing
dignity
dilbert
dislike
dituela
drained
dreyfus
drifted
drogden
duddell
eduardo
edwards
egitean
egitera
eklipse
ekoizle
elkarri
endless
endowed
energia
enlarge
enraged
enrique
ensures
entails
epenisa
eragina
eremuak
ernesto
errebel
erreget
errepik
etiopia
eunuchs
euskera
evolves
falsett
fascism
fenomen
figured
finnair
fitzroy
folding
forbade
foreman
forging
francia
frankie
freddie
funnels
furnace
gambier
garbage
gehiegi
geophys
gerrate
gerriko
gielgud
glimpse
goldman
goodhue
goodman
grandda
granite
grezian
gurutze
hamaika
handler
harnack
hartzea
hearths
hengist
hepburn
herbehe
heretic
hilketa
hitting
hittite
homoous
horatio
hormone
horrors
hosting
hotspot
hunters
idiosyn
illegit
illiter
imitate
indiana
indoren
inorgan
insults
ionians
iragana
iristen
irlanda
israele
jendets
jeneral
jesuita
jimenez
jurchen
kaifeng
kamerun
kapital
karrera
katrina
kaukaso
kentzea
kettner
kickoff
kidnapp
knocked
kolokan
konexio
kontzil
krugman
krutwig
lanetan
latinez
latvian
lautoka
literal
lizards
lottery
lowered
luciano
lucifer
ludecke
magical
mankind
margins
markers
maroons
martxan
masovia
mastery
maupiti
mexikon
miletus
mistral
modesty
molotov
mongols
monkees
motaren
moulton
mullins
multics
muscles
myanmar
nahikoa
nahuatl
naphtha
nasaren
nascent
nausori
needing
niccolo
nomencl
nominee
obadiah
offside
ohitura
onboard
oneself
oranges
ousting
outflow
outlook
outrage
pairing
palomar
parisen
parsing
payload
penguin
pillars
pirinio
pitched
plotted
plucked
pockets
polygal
praises
preempt
prefers
pretend
priorit
procons
procure
profits
propens
prostit
pumpkin
pushing
quartet
raiatea
raleigh
ramirez
receipt
refrain
refugee
regener
regroup
relativ
reloads
replica
residue
resting
reunion
revered
revital
rewrite
ritchie
ritschl
rockets
runtime
rushing
salting
santana
sawmill
schemas
schloss
scribal
scrolls
seafood
seizure
senegal
seymour
shining
shipped
shrines
singles
skelton
slender
sloping
smiling
societe
solaris
soldadu
soledad
soloing
sorgink
spanned
spirits
spotted
spreads
sputnik
squared
steiner
stephan
sticker
stirred
stomach
strains
striker
subrack
subserv
subsidy
succumb
suppose
surname
surveys
swiftly
taberna
tabloid
talents
taveuni
telefon
teorema
thieves
torroba
touches
traject
travers
tribune
trilogy
trivial
trusted
tsarist
tubular
tunings
turtles
twitter
txapeld
txartel
txetxen
txileko
typhoon
umberto
unblock
unhappy
utopian
valiant
vicious
viipuri
vitoria
warship
wasmuth
wayampi
weighed
winslow
wizards
wonders
wrapped
zelarik
zelazny
zionist
zituena
zubieta
##accharide
##ahrenheit
##anguinity
##gesterone
##ikagarren
##itatearen
##ontinente
##peroxides
##ronomicon
##standings
abducted
abiarazi
abokatua
acadians
acentric
achduart
achieves
acquaint
activism
adapting
advocacy
aeronaut
affirmed
affluent
airspace
aktiboen
alentejo
aljerian
alkaline
alphonse
amaieran
ambassad
ambushed
analogue
analysed
androids
antacids
aparteko
apuleiok
arabiera
arrantza
austriar
baliozko
balloons
baptised
bayreuth
beatrice
beauvoir
behaketa
beldurra
betrayal
billings
bitterly
blocking
bombings
bordered
bradbury
brasilgo
brethren
brittany
budapest
burutzen
bytecode
calculus
camerons
careless
carlisle
carnegie
carthage
catalyze
ceramics
charcoal
charging
checking
chickens
clandest
clarence
climatic
climbing
clipping
collagen
colonise
compress
conforms
consular
convened
convicts
convince
copyrigh
cortical
councill
cremated
crescent
crickets
cybernet
cytology
datalink
daukaten
daylight
deadline
dealings
deceased
decibels
defences
depleted
diagnose
diamonds
direnean
displays
diverged
dokument
doubling
doubtful
drenched
droplets
drowning
dungeons
eastside
electors
elkarren
elveskud
emeritus
emission
encoding
enforces
enpresak
enthalpy
equating
erlijioa
espezien
estandar
estrogen
etxepare
eusebian
excommun
exploded
ezagutza
factbook
factions
farewell
fathered
fitzmyer
flemings
flounder
formatua
formigas
fostered
frigates
frontend
galatian
galiziar
germania
gertrude
gizakiak
glorious
gracious
guanches
gudarost
guianese
habsburg
hamazazp
hamazort
hampered
handbook
hangzhou
hardwood
hartzeko
hastapen
hegaldia
hellfire
heroismo
herriald
hijacked
homework
honfleur
hormonal
horrekin
husbands
hydroxyl
ibilbide
idazleek
idazteko
ignatius
ikuspegi
illusion
imperium
improves
inducing
industri
initiate
inmarsat
interpro
interred
intimate
inverted
irakurri
irenaeus
ischemic
italiera
itsasoak
japonian
jaroslav
jarraiki
jasotako
jauregia
jeremiah
johnston
karlista
karoling
kartagon
kekkonen
keyboard
kirolari
koadroan
kontseil
labeling
landared
launches
lawsuits
legalism
leonhard
lifespan
lingered
linguist
literate
locality
lodgings
lorrenan
lurmutur
lysosome
madrilgo
mandated
mandates
manually
marathon
markedly
markings
marrying
matchbox
mccarthy
mellitus
metaphys
mexicans
michelle
microsof
miracles
modifies
moisture
momentum
monarchs
monsters
montreal
motivate
mushabib
mutation
mythical
nabarmen
nacional
nagusiki
narcosis
naturala
negation
nephites
nikaragu
notables
notified
novelist
nurember
oliveira
operands
optimism
ordained
ordinals
ordnance
ordurako
oriental
orriaren
osaturik
osatzeko
outlying
overhead
oversees
passover
paternal
penguins
pentsatu
pergamon
peterson
pilotari
plastics
plateaus
pleasing
poisoned
polished
polypept
portland
predicts
prepares
procured
proiektu
provider
pulitzer
pursuing
pyrenees
readings
realizes
recalcul
reciting
recycled
reestabl
refining
renaming
renounce
reptiles
residues
reverber
reverend
riccardo
richmond
rigorous
rivieres
rosewood
rotonews
russians
salaketa
salaried
samoskoa
sanitary
sardinia
saunders
scanning
scarcely
scathing
scudetto
seafloor
seaports
searches
selekzio
semester
shortage
sinclair
sinister
sistemak
sketches
slamraam
sleeping
smoothly
sociable
societas
solitude
spanning
sparrows
stephens
steroids
stressed
stricter
stripped
suebicum
suntsitu
syracuse
tabletop
talented
teleskop
televote
terminus
thematic
thriving
timesios
tishbite
toulouse
trailing
trapping
trillion
turbines
twilight
ulertzen
umorista
unambigu
underpin
underway
unguided
unmistak
unreason
unrecogn
unsatisf
unusable
upcoming
utilizes
vascular
vatikano
ventured
vietname
villebon
virtuous
viscount
vladimir
vocalist
watermel
weekends
wernicke
westward
wherever
woodland
woodwind
workable
zapatero
zehazten
##accharides
##artunnilin
##atzerakoan
##bideratzen
##collegiate
##commercial
##identified
##occupation
activated
adherence
admiralty
adostasun
aggressor
akademiak
alderdiak
alemaniak
algebraic
allowance
ambitions
anchorage
anomalies
appealing
appraisal
aqueducts
arranging
arresting
artikulua
assurance
atonement
attackers
aurreikus
autonomia
balancing
baldintza
barbarian
barrister
bernoulli
berriaren
beveridge
bigarrena
biologist
biosphere
bootstrap
brainstem
branching
brilliant
broadacre
broadband
budgetary
bundestag
burroughs
cancerous
charleroi
charlotte
chevalier
chivalric
christine
chronicon
clearance
coincided
commodity
compelled
compiling
conducive
confusing
consulate
consuming
cooperate
crackdown
crossover
crucified
crusaders
customary
dancehall
danimarka
debatable
densities
desirable
detention
detonated
discusses
disrupted
dissolves
diversify
diziplina
doctrines
dominions
downloads
eguzkitik
ekonomial
embroider
entropies
eormenric
equitable
erlijioak
erreginen
escorting
eskaintza
esperient
espionage
esportatu
estaturik
eubulides
everybody
exchequer
ezagunena
ezkerreko
fairchild
falsehood
familiako
fantasies
farinelli
feminista
finlandia
flowering
formulary
funtsezko
gaitskell
galactose
galleries
gangsters
gilmartin
gordetako
gratitude
groupings
guangdong
guatemala
guerrilla
guglielmo
hammurabi
hampshire
headlines
healthier
hegaldiak
hegoafrik
hemingway
heptarchy
hernandez
hitlerrek
hondarrib
hydraulic
ibarretxe
idealized
ikuspuntu
imitation
imperfect
incentive
incumbent
induction
inference
ingelesez
ingurumen
innocence
innsmouth
inperioak
inscribed
introduct
intuition
inventors
inversely
istripuan
itinerant
izatearen
jarraituz
jotzailea
justifies
katharine
katherine
kilometro
kondenatu
konkretua
landmarks
landslide
legalized
lehergail
leinukoak
linearity
litekeena
liverpool
lurraldea
lurreratu
macarones
magnesium
maneuvers
margarita
marseille
martitzen
masculine
medallist
mendikate
metabolic
metrotako
midsummer
mikroskop
mintzaira
misdemean
miserable
missileer
moderated
modernist
modernity
monopulse
mouvement
muchachos
mushrooms
nabothian
nazianzus
nazioaren
nederland
neoklasiz
nestorius
newcomers
nonprofit
norbaitek
normalean
northerly
northward
notations
numerical
obedience
obsessive
occupants
oinordeko
oppressed
organikoa
originals
otomandar
ourselves
outskirts
overnight
overruled
overthrow
oxidizing
pakistani
passports
pathogens
patronage
peneplain
pentsaera
pessimism
pitagoras
plundered
poisonous
politicos
politikak
polynesie
pomerania
prescribe
prescript
prompting
proposing
prosecute
protocols
prozesuak
psychosis
publishes
purchases
quadratic
quadruple
realities
reasoning
refresher
regulator
reluctant
reputedly
resistors
resonator
retention
reunified
rewritten
rivalries
salatzeko
sanctuary
satirized
satisfied
saxophone
schneider
semicolon
sentiment
shadowrun
shallower
shattered
sightings
skeptical
smuggling
solicitor
sorturiko
sortzaile
southside
specialty
spielberg
strangers
struggles
subgenres
subjektib
supporter
surpassed
surrounds
svensmark
syntactic
taoiseach
terminate
thickness
threatens
travelers
treasurer
triggered
turbulent
undesired
unpowered
unwitting
uprisings
violinist
wainimala
warehouse
watchlist
watterson
weakening
whereupon
whiteness
zenbakiak
zuzentzen
##nologintext
##ronutrients
absorption
accidental
accumulate
activating
adjustable
adolescent
afroamerik
allocation
amanuensis
ambassador
ambivalent
analytical
announcing
antagonist
antartikan
antichrist
apocalypse
apprentice
arabiarrak
arrazional
artikuluan
artikuluen
assertions
atlantikoa
atrocities
attachment
aurrerapen
automobile
azerbaijan
bakoitzean
bakoitzeko
bandleader
banishment
batasunean
bearsharev
befriended
berpizkund
biografiak
bonbardatu
bromsgrove
burckhardt
bussleiðin
carmelites
ceasefires
chemically
circumvent
coalitions
commanding
commenting
competence
compliment
compounded
compressed
compulsive
condemning
confluence
conformity
confronted
connectors
consulting
contextual
contiguous
credential
criticised
crossroads
cyberpunks
debekatzen
decriminal
defamation
definitzen
deliveries
derivation
detonating
detractors
deuteronom
directions
dissolving
distantzia
distinguis
disyllabic
divergence
doonesbury
draftkings
dreamlands
dusseldorf
emphasises
enormously
enpresaren
erregearen
erretorika
estatuaren
etnografia
eukaryotes
eukaryotic
europarrak
expansions
ezabatzeko
ezberdinak
fabricated
fertilizer
fingernail
fisiologia
franchises
friendlies
futuristic
gainbehera
gehigarria
ghostrider
gorabehera
gordetzeko
gracilaria
hardliners
helbiderik
hemorrhage
hereditary
herrietako
hipatiaren
homologous
horregatik
horretatik
huntington
hydrolysis
icelanders
idazlearen
illustrate
impairment
impedances
impersonal
inadequate
incentives
incredible
inevitably
infogrames
informatik
infringing
inhibition
institutua
intentions
interprets
invariably
inventions
invertible
invincible
ironically
irrigation
itsasgizon
itsasontzi
jakinarazi
jarraitzea
katolikoek
kazakhstan
kidnapping
kilometers
lauderdale
laurentiis
laurisilva
lehenagoko
lehenengoz
leporatuta
liburuaren
lighthouse
livelihood
lurraldean
maximizing
methodists
microscope
millimeter
miraculous
moderation
monolithic
monopolies
montenegro
montevideo
monumental
multiverse
musulmanak
negligible
newsletter
nominating
optimizing
ordezkatuz
orokorrean
orrialdeen
overgrowth
pakistanek
peacefully
pentsatzen
permissive
pertsonala
phoenician
physicians
plagiarism
plasticity
positioned
postulated
practising
precaution
prediction
preferring
prejudices
presidents
programmes
progresses
propaganda
proposamen
prosecuted
prototypes
publicized
rabukawaqa
randomized
rebellious
regulating
reinstated
resurgence
salinities
salutation
sanctioned
scandalous
showcasing
signifying
sinusoidal
sistemaren
smartphone
solidarity
sortzearen
southerner
spacecraft
speltering
sportsline
stepfather
stravinsky
subculture
subscribed
subscriber
subsidized
summarized
superstars
surrealist
synagogues
syndicated
synthesize
terrorista
terrorists
thailandia
thirteenth
thunderbol
transgress
triangular
txinatarra
unaffected
unfinished
unibertsoa
unsuitable
validation
vernacular
visibility
wealthiest
weathering
wickedness
witchcraft
abandonment
accelerated
adjustments
adventurers
affiliation
allegations
anticipated
apprentices
aquitainian
arantzazuko
argentinako
argitaratua
aristocrats
armstrongek
articulated
assignments
atmospheres
bakoitzaren
baliabideak
battlefield
battleships
bereizketak
bygdaleiðir
calligraphy
capitalized
categorised
classifiers
classifying
collectible
comparative
comparisons
conflicting
conjectured
contestants
convenience
convulsions
coordinated
credibility
cylindrical
degradation
desberdinak
destructive
detrimental
dialectical
disapproval
dissipation
documenting
egalitarian
eguneratuta
ekintzailea
encystation
enthusiasts
erabiltzeko
erregistrat
ertzaintzak
euskaltzain
euskaltzale
evaluations
expatriates
explanatory
ezinbesteko
fashionable
festivities
filkontario
footballers
gizartearen
gobernadore
hautatutako
herrialdean
homeostasia
incompetent
incorrectly
incremental
informatika
integrating
intentional
interacting
intervening
introvision
intuitively
iraultzaile
kaliningrad
kickstarter
kinemacolor
konpainiako
leizarragak
magistrates
maneuvering
medications
mesopotamia
michelangel
microscopes
modernoaren
molekularra
morgenstern
nashwaaksis
naturalized
objectively
ofizialtzat
oinarrituta
orrialderik
overarching
overlapping
partekatzen
pentecostal
peroxidases
perpetrator
playstation
polynomials
positioning
practicable
predictable
preferences
prehistoric
preparatory
probintziak
processions
professions
proficiency
protagonist
provocative
psychedelic
realization
recentchang
referencing
reinsertion
sedimentary
seventeenth
situational
spontaneity
subscribers
sufficiency
supermarket
sustainable
technicians
tributaries
troglobites
txekoslovak
txillardegi
uharteetako
understands
undisclosed
ventilation
wakefulness
zerbitzaria
zientziaren
zinemaldian
zoritxarrez
abbreviation
abdussamatov
accidentally
acknowledges
acquisitions
affiliations
afganistango
antagonistic
appropriated
approximated
argitaratuko
assassinated
automatikoki
baitzituzten
berreskuratu
biographical
bougainville
celebrations
chloroplasts
coefficients
collectivist
concurrently
connotations
conspirators
constructing
contractions
declarations
decommission
dictatorship
distinctions
domestically
domesticated
emakumezkoen
encyclopedia
espainiarrak
estatistikak
explanations
faithfulness
fallingwater
fluctuations
frantziskoko
hohenzollern
hydrocarbons
hydroponicum
iconoclastic
inauguration
independente
interdiction
interruption
intersection
investigates
iparraldetik
iraultzailea
irrespective
kategorietan
katolizismoa
komunikazioa
komunistaren
konpainiaren
kontrolatzen
lovecraftian
malnutrition
manufactures
metropolitar
mythological
nabarmentzen
necronomicon
nomenclature
peacekeepers
perpetrators
photographer
principality
printzipioak
[...]
