[PAD]
[UNK]
[CLS]
[SEP]
[MASK]
[UNUSED_0]
[UNUSED_1]
[UNUSED_2]
[UNUSED_3]
[UNUSED_4]
[UNUSED_5]
[UNUSED_6]
[UNUSED_7]
[UNUSED_8]
[UNUSED_9]
[UNUSED_10]
[UNUSED_11]
[UNUSED_12]
[UNUSED_13]
[UNUSED_14]
[UNUSED_15]
[UNUSED_16]
[UNUSED_17]
[UNUSED_18]
[UNUSED_19]
[UNUSED_20]
[UNUSED_21]
[UNUSED_22]
[UNUSED_23]
[UNUSED_24]
[UNUSED_25]
[UNUSED_26]
[UNUSED_27]
[UNUSED_28]
[UNUSED_29]
[UNUSED_30]
[UNUSED_31]
[UNUSED_32]
[UNUSED_33]
[UNUSED_34]
[UNUSED_35]
[UNUSED_36]
[UNUSED_37]
[UNUSED_38]
[UNUSED_39]
[UNUSED_40]
[UNUSED_41]
[UNUSED_42]
[UNUSED_43]
[UNUSED_44]
[UNUSED_45]
[UNUSED_46]
[UNUSED_47]
[UNUSED_48]
[UNUSED_49]
[UNUSED_50]
[UNUSED_51]
[UNUSED_52]
[UNUSED_53]
[UNUSED_54]
[UNUSED_55]
[UNUSED_56]
[UNUSED_57]
[UNUSED_58]
[UNUSED_59]
[UNUSED_60]
[UNUSED_61]
[UNUSED_62]
[UNUSED_63]
[UNUSED_64]
[UNUSED_65]
[UNUSED_66]
[UNUSED_67]
[UNUSED_68]
[UNUSED_69]
[UNUSED_70]
[UNUSED_71]
[UNUSED_72]
[UNUSED_73]
[UNUSED_74]
[UNUSED_75]
[UNUSED_76]
[UNUSED_77]
[UNUSED_78]
[UNUSED_79]
[UNUSED_80]
[UNUSED_81]
[UNUSED_82]
[UNUSED_83]
[UNUSED_84]
[UNUSED_85]
[UNUSED_86]
[UNUSED_87]
[UNUSED_88]
[UNUSED_89]
[UNUSED_90]
[UNUSED_91]
[UNUSED_92]
[UNUSED_93]
[UNUSED_94]
[UNUSED_95]
[UNUSED_96]
[UNUSED_97]
[UNUSED_98]
[UNUSED_99]
[UNUSED_100]
[UNUSED_101]
[UNUSED_102]
[UNUSED_103]
[UNUSED_104]
[UNUSED_105]
[UNUSED_106]
[UNUSED_107]
[UNUSED_108]
[UNUSED_109]
[UNUSED_110]
[UNUSED_111]
[UNUSED_112]
[UNUSED_113]
[UNUSED_114]
[UNUSED_115]
[UNUSED_116]
[UNUSED_117]
[UNUSED_118]
[UNUSED_119]
[UNUSED_120]
[UNUSED_121]
[UNUSED_122]
[UNUSED_123]
[UNUSED_124]
[UNUSED_125]
[UNUSED_126]
[UNUSED_127]
[UNUSED_128]
[UNUSED_129]
[UNUSED_130]
[UNUSED_131]
[UNUSED_132]
[UNUSED_133]
[UNUSED_134]
[UNUSED_135]
[UNUSED_136]
[UNUSED_137]
[UNUSED_138]
[UNUSED_139]
[UNUSED_140]
[UNUSED_141]
[UNUSED_142]
[UNUSED_143]
[UNUSED_144]
[UNUSED_145]
[UNUSED_146]
[UNUSED_147]
[UNUSED_148]
[UNUSED_149]
[UNUSED_150]
[UNUSED_151]
[UNUSED_152]
[UNUSED_153]
[UNUSED_154]
[UNUSED_155]
[UNUSED_156]
[UNUSED_157]
[UNUSED_158]
[UNUSED_159]
[UNUSED_160]
[UNUSED_161]
[UNUSED_162]
[UNUSED_163]
[UNUSED_164]
[UNUSED_165]
[UNUSED_166]
[UNUSED_167]
[UNUSED_168]
[UNUSED_169]
[UNUSED_170]
[UNUSED_171]
[UNUSED_172]
[UNUSED_173]
[UNUSED_174]
[UNUSED_175]
[UNUSED_176]
[UNUSED_177]
[UNUSED_178]
[UNUSED_179]
[UNUSED_180]
[UNUSED_181]
[UNUSED_182]
[UNUSED_183]
[UNUSED_184]
[UNUSED_185]
[UNUSED_186]
[UNUSED_187]
[UNUSED_188]
[UNUSED_189]
[UNUSED_190]
[UNUSED_191]
[UNUSED_192]
[UNUSED_193]
[UNUSED_194]
[UNUSED_195]
[UNUSED_196]
[UNUSED_197]
[UNUSED_198]
[UNUSED_199]
[UNUSED_200]
[UNUSED_201]
[UNUSED_202]
[UNUSED_203]
[UNUSED_204]
[UNUSED_205]
[UNUSED_206]
[UNUSED_207]
[UNUSED_208]
[UNUSED_209]
[UNUSED_210]
[UNUSED_211]
[UNUSED_212]
[UNUSED_213]
[UNUSED_214]
[UNUSED_215]
[UNUSED_216]
[UNUSED_217]
[UNUSED_218]
[UNUSED_219]
[UNUSED_220]
[UNUSED_221]
[UNUSED_222]
[UNUSED_223]
[UNUSED_224]
[UNUSED_225]
[UNUSED_226]
[UNUSED_227]
[UNUSED_228]
[UNUSED_229]
[UNUSED_230]
[UNUSED_231]
[UNUSED_232]
[UNUSED_233]
[UNUSED_234]
[UNUSED_235]
[UNUSED_236]
[UNUSED_237]
[UNUSED_238]
[UNUSED_239]
[UNUSED_240]
[UNUSED_241]
[UNUSED_242]
[UNUSED_243]
[UNUSED_244]
[UNUSED_245]
[UNUSED_246]
[UNUSED_247]
[UNUSED_248]
[UNUSED_249]
[UNUSED_250]
[UNUSED_251]
[UNUSED_252]
[UNUSED_253]
[UNUSED_254]
[UNUSED_255]
[UNUSED_256]
[UNUSED_257]
[UNUSED_258]
[UNUSED_259]
[UNUSED_260]
[UNUSED_261]
[UNUSED_262]
[UNUSED_263]
[UNUSED_264]
[UNUSED_265]
[UNUSED_266]
[UNUSED_267]
[UNUSED_268]
[UNUSED_269]
[UNUSED_270]
[UNUSED_271]
[UNUSED_272]
[UNUSED_273]
[UNUSED_274]
[UNUSED_275]
[UNUSED_276]
[UNUSED_277]
[UNUSED_278]
[UNUSED_279]
[UNUSED_280]
[UNUSED_281]
[UNUSED_282]
[UNUSED_283]
[UNUSED_284]
[UNUSED_285]
[UNUSED_286]
[UNUSED_287]
[UNUSED_288]
[UNUSED_289]
[UNUSED_290]
[UNUSED_291]
[UNUSED_292]
[UNUSED_293]
[UNUSED_294]
[UNUSED_295]
[UNUSED_296]
[UNUSED_297]
[UNUSED_298]
[UNUSED_299]
[UNUSED_300]
[UNUSED_301]
[UNUSED_302]
[UNUSED_303]
[UNUSED_304]
[UNUSED_305]
[UNUSED_306]
[UNUSED_307]
[UNUSED_308]
[UNUSED_309]
[UNUSED_310]
[UNUSED_311]
[UNUSED_312]
[UNUSED_313]
[UNUSED_314]
[UNUSED_315]
[UNUSED_316]
[UNUSED_317]
[UNUSED_318]
[UNUSED_319]
[UNUSED_320]
[UNUSED_321]
[UNUSED_322]
[UNUSED_323]
[UNUSED_324]
[UNUSED_325]
[UNUSED_326]
[UNUSED_327]
[UNUSED_328]
[UNUSED_329]
[UNUSED_330]
[UNUSED_331]
[UNUSED_332]
[UNUSED_333]
[UNUSED_334]
[UNUSED_335]
[UNUSED_336]
[UNUSED_337]
[UNUSED_338]
[UNUSED_339]
[UNUSED_340]
[UNUSED_341]
[UNUSED_342]
[UNUSED_343]
[UNUSED_344]
[UNUSED_345]
[UNUSED_346]
[UNUSED_347]
[UNUSED_348]
[UNUSED_349]
[UNUSED_350]
[UNUSED_351]
[UNUSED_352]
[UNUSED_353]
[UNUSED_354]
[UNUSED_355]
[UNUSED_356]
[UNUSED_357]
[UNUSED_358]
[UNUSED_359]
[UNUSED_360]
[UNUSED_361]
[UNUSED_362]
[UNUSED_363]
[UNUSED_364]
[UNUSED_365]
[UNUSED_366]
[UNUSED_367]
[UNUSED_368]
[UNUSED_369]
[UNUSED_370]
[UNUSED_371]
[UNUSED_372]
[UNUSED_373]
[UNUSED_374]
[UNUSED_375]
[UNUSED_376]
[UNUSED_377]
[UNUSED_378]
[UNUSED_379]
[UNUSED_380]
[UNUSED_381]
[UNUSED_382]
[UNUSED_383]
[UNUSED_384]
[UNUSED_385]
[UNUSED_386]
[UNUSED_387]
[UNUSED_388]
[UNUSED_389]
[UNUSED_390]
[UNUSED_391]
[UNUSED_392]
[UNUSED_393]
[UNUSED_394]
[UNUSED_395]
[UNUSED_396]
[UNUSED_397]
[UNUSED_398]
[UNUSED_399]
[UNUSED_400]
[UNUSED_401]
[UNUSED_402]
[UNUSED_403]
[UNUSED_404]
[UNUSED_405]
[UNUSED_406]
[UNUSED_407]
[UNUSED_408]
[UNUSED_409]
[UNUSED_410]
[UNUSED_411]
[UNUSED_412]
[UNUSED_413]
[UNUSED_414]
[UNUSED_415]
[UNUSED_416]
[UNUSED_417]
[UNUSED_418]
[UNUSED_419]
[UNUSED_420]
[UNUSED_421]
[UNUSED_422]
[UNUSED_423]
[UNUSED_424]
[UNUSED_425]
[UNUSED_426]
[UNUSED_427]
[UNUSED_428]
[UNUSED_429]
[UNUSED_430]
[UNUSED_431]
[UNUSED_432]
[UNUSED_433]
[UNUSED_434]
[UNUSED_435]
[UNUSED_436]
[UNUSED_437]
[UNUSED_438]
[UNUSED_439]
[UNUSED_440]
[UNUSED_441]
[UNUSED_442]
[UNUSED_443]
[UNUSED_444]
[UNUSED_445]
[UNUSED_446]
[UNUSED_447]
[UNUSED_448]
[UNUSED_449]
[UNUSED_450]
[UNUSED_451]
[UNUSED_452]
[UNUSED_453]
[UNUSED_454]
[UNUSED_455]
[UNUSED_456]
[UNUSED_457]
[UNUSED_458]
[UNUSED_459]
[UNUSED_460]
[UNUSED_461]
[UNUSED_462]
[UNUSED_463]
[UNUSED_464]
[UNUSED_465]
[UNUSED_466]
[UNUSED_467]
[UNUSED_468]
[UNUSED_469]
[UNUSED_470]
[UNUSED_471]
[UNUSED_472]
[UNUSED_473]
[UNUSED_474]
[UNUSED_475]
[UNUSED_476]
[UNUSED_477]
[UNUSED_478]
[UNUSED_479]
[UNUSED_480]
[UNUSED_481]
[UNUSED_482]
[UNUSED_483]
[UNUSED_484]
[UNUSED_485]
[UNUSED_486]
[UNUSED_487]
[UNUSED_488]
[UNUSED_489]
[UNUSED_490]
[UNUSED_491]
[UNUSED_492]
[UNUSED_493]
[UNUSED_494]
[UNUSED_495]
[UNUSED_496]
[UNUSED_497]
[UNUSED_498]
[UNUSED_499]
[UNUSED_500]
[UNUSED_501]
[UNUSED_502]
[UNUSED_503]
[UNUSED_504]
[UNUSED_505]
[UNUSED_506]
[UNUSED_507]
[UNUSED_508]
[UNUSED_509]
[UNUSED_510]
[UNUSED_511]
[UNUSED_512]
[UNUSED_513]
[UNUSED_514]
[UNUSED_515]
[UNUSED_516]
[UNUSED_517]
[UNUSED_518]
[UNUSED_519]
[UNUSED_520]
[UNUSED_521]
[UNUSED_522]
[UNUSED_523]
[UNUSED_524]
[UNUSED_525]
[UNUSED_526]
[UNUSED_527]
[UNUSED_528]
[UNUSED_529]
[UNUSED_530]
[UNUSED_531]
[UNUSED_532]
[UNUSED_533]
[UNUSED_534]
[UNUSED_535]
[UNUSED_536]
[UNUSED_537]
[UNUSED_538]
[UNUSED_539]
[UNUSED_540]
[UNUSED_541]
[UNUSED_542]
[UNUSED_543]
[UNUSED_544]
[UNUSED_545]
[UNUSED_546]
[UNUSED_547]
[UNUSED_548]
[UNUSED_549]
[UNUSED_550]
[UNUSED_551]
[UNUSED_552]
[UNUSED_553]
[UNUSED_554]
[UNUSED_555]
[UNUSED_556]
[UNUSED_557]
[UNUSED_558]
[UNUSED_559]
[UNUSED_560]
[UNUSED_561]
[UNUSED_562]
[UNUSED_563]
[UNUSED_564]
[UNUSED_565]
[UNUSED_566]
[UNUSED_567]
[UNUSED_568]
[UNUSED_569]
[UNUSED_570]
[UNUSED_571]
[UNUSED_572]
[UNUSED_573]
[UNUSED_574]
[UNUSED_575]
[UNUSED_576]
[UNUSED_577]
[UNUSED_578]
[UNUSED_579]
[UNUSED_580]
[UNUSED_581]
[UNUSED_582]
[UNUSED_583]
[UNUSED_584]
[UNUSED_585]
[UNUSED_586]
[UNUSED_587]
[UNUSED_588]
[UNUSED_589]
[UNUSED_590]
[UNUSED_591]
[UNUSED_592]
[UNUSED_593]
[UNUSED_594]
[UNUSED_595]
[UNUSED_596]
[UNUSED_597]
[UNUSED_598]
[UNUSED_599]
[UNUSED_600]
[UNUSED_601]
[UNUSED_602]
[UNUSED_603]
[UNUSED_604]
[UNUSED_605]
[UNUSED_606]
[UNUSED_607]
[UNUSED_608]
[UNUSED_609]
[UNUSED_610]
[UNUSED_611]
[UNUSED_612]
[UNUSED_613]
[UNUSED_614]
[UNUSED_615]
[UNUSED_616]
[UNUSED_617]
[UNUSED_618]
[UNUSED_619]
[UNUSED_620]
[UNUSED_621]
[UNUSED_622]
[UNUSED_623]
[UNUSED_624]
[UNUSED_625]
[UNUSED_626]
[UNUSED_627]
[UNUSED_628]
[UNUSED_629]
[UNUSED_630]
[UNUSED_631]
[UNUSED_632]
[UNUSED_633]
[UNUSED_634]
[UNUSED_635]
[UNUSED_636]
[UNUSED_637]
[UNUSED_638]
[UNUSED_639]
[UNUSED_640]
[UNUSED_641]
[UNUSED_642]
[UNUSED_643]
[UNUSED_644]
[UNUSED_645]
[UNUSED_646]
[UNUSED_647]
[UNUSED_648]
[UNUSED_649]
[UNUSED_650]
[UNUSED_651]
[UNUSED_652]
[UNUSED_653]
[UNUSED_654]
[UNUSED_655]
[UNUSED_656]
[UNUSED_657]
[UNUSED_658]
[UNUSED_659]
[UNUSED_660]
[UNUSED_661]
[UNUSED_662]
[UNUSED_663]
[UNUSED_664]
[UNUSED_665]
[UNUSED_666]
[UNUSED_667]
[UNUSED_668]
[UNUSED_669]
[UNUSED_670]
[UNUSED_671]
[UNUSED_672]
[UNUSED_673]
[UNUSED_674]
[UNUSED_675]
[UNUSED_676]
[UNUSED_677]
[UNUSED_678]
[UNUSED_679]
[UNUSED_680]
[UNUSED_681]
[UNUSED_682]
[UNUSED_683]
[UNUSED_684]
[UNUSED_685]
[UNUSED_686]
[UNUSED_687]
[UNUSED_688]
[UNUSED_689]
[UNUSED_690]
[UNUSED_691]
[UNUSED_692]
[UNUSED_693]
[UNUSED_694]
[UNUSED_695]
[UNUSED_696]
[UNUSED_697]
[UNUSED_698]
[UNUSED_699]
[UNUSED_700]
[UNUSED_701]
[UNUSED_702]
[UNUSED_703]
[UNUSED_704]
[UNUSED_705]
[UNUSED_706]
[UNUSED_707]
[UNUSED_708]
[UNUSED_709]
[UNUSED_710]
[UNUSED_711]
[UNUSED_712]
[UNUSED_713]
[UNUSED_714]
[UNUSED_715]
[UNUSED_716]
[UNUSED_717]
[UNUSED_718]
[UNUSED_719]
[UNUSED_720]
[UNUSED_721]
[UNUSED_722]
[UNUSED_723]
[UNUSED_724]
[UNUSED_725]
[UNUSED_726]
[UNUSED_727]
[UNUSED_728]
[UNUSED_729]
[UNUSED_730]
[UNUSED_731]
[UNUSED_732]
[UNUSED_733]
[UNUSED_734]
[UNUSED_735]
[UNUSED_736]
[UNUSED_737]
[UNUSED_738]
[UNUSED_739]
[UNUSED_740]
[UNUSED_741]
[UNUSED_742]
[UNUSED_743]
[UNUSED_744]
[UNUSED_745]
[UNUSED_746]
[UNUSED_747]
[UNUSED_748]
[UNUSED_749]
[UNUSED_750]
[UNUSED_751]
[UNUSED_752]
[UNUSED_753]
[UNUSED_754]
[UNUSED_755]
[UNUSED_756]
[UNUSED_757]
[UNUSED_758]
[UNUSED_759]
[UNUSED_760]
[UNUSED_761]
[UNUSED_762]
[UNUSED_763]
[UNUSED_764]
[UNUSED_765]
[UNUSED_766]
[UNUSED_767]
[UNUSED_768]
[UNUSED_769]
[UNUSED_770]
[UNUSED_771]
[UNUSED_772]
[UNUSED_773]
[UNUSED_774]
[UNUSED_775]
[UNUSED_776]
[UNUSED_777]
[UNUSED_778]
[UNUSED_779]
[UNUSED_780]
[UNUSED_781]
[UNUSED_782]
[UNUSED_783]
[UNUSED_784]
[UNUSED_785]
[UNUSED_786]
[UNUSED_787]
[UNUSED_788]
[UNUSED_789]
[UNUSED_790]
[UNUSED_791]
[UNUSED_792]
[UNUSED_793]
[UNUSED_794]
[UNUSED_795]
[UNUSED_796]
[UNUSED_797]
[UNUSED_798]
[UNUSED_799]
[UNUSED_800]
[UNUSED_801]
[UNUSED_802]
[UNUSED_803]
[UNUSED_804]
[UNUSED_805]
[UNUSED_806]
[UNUSED_807]
[UNUSED_808]
[UNUSED_809]
[UNUSED_810]
[UNUSED_811]
[UNUSED_812]
[UNUSED_813]
[UNUSED_814]
[UNUSED_815]
[UNUSED_816]
[UNUSED_817]
[UNUSED_818]
[UNUSED_819]
[UNUSED_820]
[UNUSED_821]
[UNUSED_822]
[UNUSED_823]
[UNUSED_824]
[UNUSED_825]
[UNUSED_826]
[UNUSED_827]
[UNUSED_828]
[UNUSED_829]
[UNUSED_830]
[UNUSED_831]
[UNUSED_832]
[UNUSED_833]
[UNUSED_834]
[UNUSED_835]
[UNUSED_836]
[UNUSED_837]
[UNUSED_838]
[UNUSED_839]
[UNUSED_840]
[UNUSED_841]
[UNUSED_842]
[UNUSED_843]
[UNUSED_844]
[UNUSED_845]
[UNUSED_846]
[UNUSED_847]
[UNUSED_848]
[UNUSED_849]
[UNUSED_850]
[UNUSED_851]
[UNUSED_852]
[UNUSED_853]
[UNUSED_854]
[UNUSED_855]
[UNUSED_856]
[UNUSED_857]
[UNUSED_858]
[UNUSED_859]
[UNUSED_860]
[UNUSED_861]
[UNUSED_862]
[UNUSED_863]
[UNUSED_864]
[UNUSED_865]
[UNUSED_866]
[UNUSED_867]
[UNUSED_868]
[UNUSED_869]
[UNUSED_870]
[UNUSED_871]
[UNUSED_872]
[UNUSED_873]
[UNUSED_874]
[UNUSED_875]
[UNUSED_876]
[UNUSED_877]
[UNUSED_878]
[UNUSED_879]
[UNUSED_880]
[UNUSED_881]
[UNUSED_882]
[UNUSED_883]
[UNUSED_884]
[UNUSED_885]
[UNUSED_886]
[UNUSED_887]
[UNUSED_888]
[UNUSED_889]
[UNUSED_890]
[UNUSED_891]
[UNUSED_892]
[UNUSED_893]
[UNUSED_894]
[UNUSED_895]
[UNUSED_896]
[UNUSED_897]
[UNUSED_898]
[UNUSED_899]
[UNUSED_900]
[UNUSED_901]
[UNUSED_902]
[UNUSED_903]
[UNUSED_904]
[UNUSED_905]
[UNUSED_906]
[UNUSED_907]
[UNUSED_908]
[UNUSED_909]
[UNUSED_910]
[UNUSED_911]
[UNUSED_912]
[UNUSED_913]
[UNUSED_914]
[UNUSED_915]
[UNUSED_916]
[UNUSED_917]
[UNUSED_918]
[UNUSED_919]
[UNUSED_920]
[UNUSED_921]
[UNUSED_922]
[UNUSED_923]
[UNUSED_924]
[UNUSED_925]
[UNUSED_926]
[UNUSED_927]
[UNUSED_928]
[UNUSED_929]
[UNUSED_930]
[UNUSED_931]
[UNUSED_932]
[UNUSED_933]
[UNUSED_934]
[UNUSED_935]
[UNUSED_936]
[UNUSED_937]
[UNUSED_938]
[UNUSED_939]
[UNUSED_940]
[UNUSED_941]
[UNUSED_942]
[UNUSED_943]
[UNUSED_944]
[UNUSED_945]
[UNUSED_946]
[UNUSED_947]
[UNUSED_948]
[UNUSED_949]
[UNUSED_950]
[UNUSED_951]
[UNUSED_952]
[UNUSED_953]
[UNUSED_954]
[UNUSED_955]
[UNUSED_956]
[UNUSED_957]
[UNUSED_958]
[UNUSED_959]
[UNUSED_960]
[UNUSED_961]
[UNUSED_962]
[UNUSED_963]
[UNUSED_964]
[UNUSED_965]
[UNUSED_966]
[UNUSED_967]
[UNUSED_968]
[UNUSED_969]
[UNUSED_970]
[UNUSED_971]
[UNUSED_972]
[UNUSED_973]
[UNUSED_974]
[UNUSED_975]
[UNUSED_976]
[UNUSED_977]
[UNUSED_978]
[UNUSED_979]
[UNUSED_980]
[UNUSED_981]
[UNUSED_982]
[UNUSED_983]
[UNUSED_984]
[UNUSED_985]
@
`
¢
£
¤
¥
¦
§
¨
©
ª
¬
®
±
²
³
´
µ
¶
¹
º
¼
½
¾
¿
ß
æ
ð
÷
ø
þ
đ
ħ
ı
ŋ
œ
ƒ
ɐ
ɑ
ɒ
ɔ
ɕ
ə
ɛ
ɡ
ɣ
ɨ
ɪ
ɫ
ɬ
ɯ
ɲ
ɴ
ɹ
ɾ
ʀ
ʁ
ʂ
ʃ
ʉ
ʊ
ʋ
ʌ
ʎ
ʐ
ʑ
ʒ
ʔ
ʰ
ʲ
ʳ
ʷ
ʸ
ʻ
ʼ
ʾ
ʿ
ˈ
ː
ˡ
ˢ
ˣ
ˤ
γ
ζ
η
θ
ι
λ
ν
ξ
ο
ρ
ς
υ
φ
χ
ψ
ω
а
б
г
д
е
ж
з
и
л
н
о
п
р
т
у
ф
х
ц
ч
ш
щ
ъ
ы
ь
э
ю
я
ђ
є
і
ј
љ
њ
ћ
ӏ
ա
բ
գ
դ
ե
թ
ի
լ
կ
հ
մ
յ
ն
ո
պ
ս
վ
տ
ր
ւ
ք
־
א
ב
ג
ד
ה
ו
ז
ח
ט
י
ך
כ
ל
ם
מ
ן
נ
ס
ע
ף
פ
ץ
צ
ק
ר
ש
ת
،
ء
ة
ت
ث
ج
ح
خ
د
ذ
ر
ز
س
ش
ص
ض
ط
ظ
ع
غ
ـ
ف
ق
ك
ل
م
ن
ه
و
ى
ي
ٹ
پ
چ
ک
گ
ں
ھ
ہ
ی
ے
अ
आ
उ
ए
क
ख
ग
च
ज
ट
ड
ण
त
थ
द
ध
न
प
ब
भ
म
य
र
ल
व
श
ष
स
ह
ा
ि
ी
ो
।
॥
ং
অ
আ
ই
উ
এ
ও
ক
খ
গ
চ
ছ
জ
ট
ড
ণ
ত
থ
দ
ধ
ন
প
ব
ভ
ম
য
র
ল
শ
ষ
স
হ
া
ি
ী
ে
க
ச
ட
த
ந
ன
ப
ம
ய
ர
ல
ள
வ
ா
ி
ு
ே
ை
ನ
ರ
ಾ
ක
ය
ර
ල
ව
ා
ก
ง
ต
ท
น
พ
ม
ย
ร
ล
ว
ส
อ
า
เ
་
།
ག
ང
ད
ན
པ
བ
མ
འ
ར
ལ
ས
မ
ა
ბ
გ
დ
ე
ვ
თ
ი
კ
ლ
მ
ნ
ო
რ
ს
ტ
უ
ᄀ
ᄂ
ᄃ
ᄅ
ᄆ
ᄇ
ᄉ
ᄊ
ᄋ
ᄌ
ᄎ
ᄏ
ᄐ
ᄑ
ᄒ
ᅡ
ᅢ
ᅥ
ᅦ
ᅧ
ᅩ
ᅪ
ᅭ
ᅮ
ᅯ
ᅲ
ᅳ
ᅴ
ᅵ
ᆨ
ᆫ
ᆯ
ᆷ
ᆸ
ᆼ
ᴬ
ᴮ
ᴰ
ᴵ
ᴺ
ᵀ
ᵃ
ᵇ
ᵈ
ᵉ
ᵍ
ᵏ
ᵐ
ᵒ
ᵖ
ᵗ
ᵘ
ᵢ
ᵣ
ᵤ
ᵥ
ᶜ
ᶠ
‐
‒
―
‖
‚
„
‡
‰
′
″
›
‿
⁄
⁰
ⁱ
⁴
⁵
⁶
⁷
⁸
⁹
⁺
⁻
ⁿ
₀
₁
₂
₃
₄
₅
₆
₇
₈
₉
₊
₍
₎
ₐ
ₑ
ₒ
ₓ
ₕ
ₖ
ₗ
ₘ
ₙ
ₚ
ₛ
ₜ
₤
₩
€
₱
₹
ℓ
№
ℝ
™
⅓
⅔
←
↑
↓
↔
↦
⇄
⇌
⇒
∂
∅
∆
∇
∈
−
∗
∘
√
∞
∧
∨
∩
∪
≈
≡
≤
≥
⊂
⊆
⊕
⊗
⋅
─
│
■
▪
●
★
☆
☉
♠
♣
♥
♦
♭
♯
⟨
⟩
ⱼ
⺩
⺼
⽥
、
。
〈
〉
《
》
「
」
『
』
〜
あ
い
う
え
お
か
き
く
け
こ
さ
し
す
せ
そ
た
ち
っ
つ
て
と
な
に
ぬ
ね
の
は
ひ
ふ
へ
ほ
ま
み
む
め
も
や
ゆ
よ
ら
り
る
れ
ろ
を
ん
ァ
ア
ィ
イ
ウ
ェ
エ
オ
カ
キ
ク
ケ
コ
サ
シ
ス
セ
タ
チ
ッ
ツ
テ
ト
ナ
ニ
ノ
ハ
ヒ
フ
ヘ
ホ
マ
ミ
ム
メ
モ
ャ
ュ
ョ
ラ
リ
ル
レ
ロ
ワ
ン
・
ー
一
三
上
下
不
世
中
主
久
之
也
事
二
五
井
京
人
亻
仁
介
代
仮
伊
会
佐
侍
保
信
健
元
光
八
公
内
出
分
前
劉
力
加
勝
北
十
千
南
博
原
口
古
史
司
合
吉
同
名
和
囗
四
国
國
土
地
坂
城
堂
場
士
夏
外
天
太
夫
奈
女
子
学
宀
宇
安
宗
定
宣
宮
家
宿
寺
將
小
尚
山
岡
島
崎
川
州
巿
帝
平
年
幸
广
弘
張
彳
後
御
德
心
忄
志
忠
愛
成
我
戦
戸
手
扌
政
文
新
方
日
明
星
春
昭
智
曲
書
月
有
朝
木
本
李
村
東
松
林
森
楊
樹
橋
歌
止
正
武
比
氏
民
水
氵
氷
永
江
沢
河
治
法
海
清
漢
瀬
火
版
犬
王
生
田
男
疒
発
白
的
皇
目
相
省
真
石
示
社
神
福
禾
秀
秋
空
立
章
竹
糹
美
義
耳
良
艹
花
英
華
葉
藤
行
街
西
見
訁
語
谷
貝
貴
車
軍
辶
道
郎
郡
部
都
里
野
金
鈴
镇
長
門
間
阝
阿
陳
陽
雄
青
面
風
食
香
馬
高
龍
龸
ﬁ
ﬂ
！
（
）
，
－
．
／
：
？
##<s>
##</s>
##[PAD]
##[CLS]
##[SEP]
##[MASK]
##en
e
##an
##ar
##ko
b
.
z
##ta
d
##er
,
"
##ak
##at
##it
##in
h
##ur
##ik
##al
##or
##ir
##ia
##iz
eta
g
##il
1
/
=
##on
a
##te
##tz
##id
##re
p
##le
s
m
2
da
##ud
##arr
##ek
-
##iren
l
##go
ziren
##aren
t
do
w
##itu
er
##iki
>
<
f
##un
c
##tan
wiki
doc
##atu
##is
##ten
##ro
##ab
##io
##us
bat
ze
##err
zen
##tu
n
##az
ur
##ako
##as
##de
##itz
ko
k
20
##tx
:
zu
##am
(
)
j
ar
##ib
##es
es
##ian
o
##iko
or
##uden
##ain
##ts
##ed
##eko
biz
##el
iz
zeuden
##eta
al
##ez
etx
##era
id
##res
##iak
3
##ag
200
##ps
zitu
##tt
##du
in
##me
eu
##edia
org
##urid
?
##tik
wikip
tit
wikipedia
htt
https
url
##ail
title
curid
eg
ber
##ean
en
##atz
##au
du
##ol
4
6
5
19
biztan
izan
enp
enpres
##zten
ud
##ien
zuen
##ad
##atuta
##os
udal
##ea
le
per
##ig
udalerr
an
dago
##etan
ez
##ita
ditu
##itza
8
##tson
pertson
##amil
##ul
kon
hor
##im
##tean
famil
den
lan
##ibo
##tzen
##alde
biztanle
##ari
##ku
##eh
em
##iako
os
##etatik
##akt
se
zuten
zituzten
##uz
##and
7
##ena
##tr
az
bes
dir
etxek
##do
ere
##ero
bak
##aktibo
de
##atur
##ip
bere
beste
##et
zituen
enpresak
ad
on
##eg
##men
hau
##la
##atzen
ir
##ok
pro
##uru
##ra
##ch
2009
##eb
##azio
hir
##ekin
pertsona
2007
##ai
herr
##aturik
##arre
##antz
##tal
erre
hon
v
bain
giz
sail
##untz
##iaren
##atutako
dira
##ut
sailk
##ina
##aku
ib
201
barr
ik
##ap
##tro
leh
##om
##ela
emaku
##etako
##teko
##tatu
nag
##entz
har
aur
9
##dor
nagus
par
##uk
egit
##ter
emakume
egin
##eak
##ala
##op
##ion
##arren
etxeb
##arra
as
erro
18
etxebiz
##end
fr
##ub
etxebizitza
artean
seme
gizon
##ua
##ic
##ara
edo
alab
bi
##kal
##ilo
zego
zer
;
udalerrian
eur
ag
inaktibo
mar
12
zegoen
ondor
arr
esku
##mer
familiak
enpresa
erab
##aldean
##ld
r
##ug
##ma
##ler
##ti
ibil
tx
lehen
bizi
10
##ial
arab
ab
bil
ba
ap
##ailu
errold
##oa
ald
gen
ger
geh
beh
##uko
##ida
zerb
##ing
##itzu
##ki
kok
era
##tako
##aritza
##ortu
17
##og
##iago
##gailu
##ide
16
hand
estatu
ban
zerbitzu
##ah
##iar
##tze
##arrik
ibilgailu
##ioa
11
batz
##oan
##ier
##ura
erabil
el
##uan
##atua
##arta
ondoren
##sun
15
13
##ob
##urr
##em
esp
baino
##metro
genero
biztanler
men
##alia
##erako
##tor
kilo
horien
##tzeko
mo
anim
##lako
##endu
bakarrik
##ubl
##oko
ing
##ude
te
##arreko
kilometro
##ka
##artamen
##talde
aktibo
##ald
##aso
##idae
biztanleak
dituzten
##untza
animalia
un
##arik
ikas
eus
erroldatutako
##abe
etxetan
##ate
pl
14
barruko
fis
##aur
generoko
familian
##itate
it
udalerri
##aria
##to
mende
##da
##00
berr
koad
urtean
koadro
frantz
bakarreko
##ost
##intz
##derr
ch
arg
big
alabak
##arekin
konp
ind
u
has
eraik
x
i
bestelako
fiskal
nor
ager
lag
baina
##idea
kan
bigarren
tr
##ateg
##kar
urte
##atik
konderr
herri
##bor
talde
##duan
erak
##tar
azal
egun
udalerria
gar
horre
##tasun
##ikoa
eskualdean
##isa
gehiago
lau
sal
nek
br
hiru
publ
##urg
azp
##entzia
nekaz
##ram
no
san
##lo
honek
##arri
##itar
gain
us
##raf
##ata
ek
esk
##th
publiko
komer
komertz
nagusia
at
##air
egiten
hori
bo
erres
##ber
##teak
##min
he
dute
denbor
ne
##har
##ac
##ton
##aza
guz
##aka
##zio
esko
gisa
##ie
ro
banatuta
nekazaritza
##ba
##aldeko
frantziako
##ezk
egiteko
##ne
##tir
##itzen
lo
la
gor
prop
hain
hu
##xu
dep
pol
##iburu
##ern
euren
##ikoan
##itzeko
##aten
##rik
nah
gab
##inc
##if
##ada
erabiltzen
bar
ibilgailuen
##mo
nagusi
izen
lang
hil
##keta
batzuk
park
ip
dauden
##eran
##di
199
##usten
konpon
mug
##orm
inguru
arabera
departamen
zuz
##tuak
##txe
##atzeko
22
##iag
##inaren
aurk
##man
##tuen
pir
gu
bost
urteko
ondorengo
sortu
##qu
##tin
med
bako
##bat
ele
##les
err
27
##ustr
##istr
28
##din
gabeko
th
##ista
24
jabe
##ge
go
biko
mon
##ika
##izk
lanean
bez
y
so
biztanleria
jate
##ore
gur
##rama
##ken
##ategi
##orr
eraikuntza
euskal
sarr
behar
des
huts
##ban
sexu
ah
198
fil
erakusten
##um
jar
herriak
2013
departamenduan
kal
##per
barrut
arrain
kokatuta
##kup
jo
##36
plaza
21
##arrak
##lan
##ilek
hartu
##ultz
##kin
sar
dagoena
##50
ageri
okup
2000
graf
mus
familiaren
diag
erretir
azpian
##ile
##azte
##tur
dis
gela
##ph
##38
##37
bid
oh
araberako
pertsonak
##iana
##gi
emakumeak
bilaka
alok
##itan
bizilek
piram
ezag
alabarik
duen
admin
alokair
administr
ikasten
bilakaera
##koa
ig
32
adina
##ei
aktiboak
arte
##abez
propioa
denboran
##34
alde
##39
##32
bizilekua
sailkatzen
##incl
batean
diagrama
##ich
sain
gertuen
su
bikoteak
##31
biztanleriak
piramidea
grafikoan
adinaren
asko
##include
noinclude
jabearen
parking
langabez
nagusietatik
inaktiboak
aurre
inaktiboetatik
bakarrekoak
ham
##ill
erretiraturik
sailkaturik
alokairuan
197
okupaturik
hasi
hainbat
##identzia
diru
##60
doan
hutsik
hego
##ren
langabezian
##30
##una
aktiboetatik
ta
bur
baten
fran
pertsonek
erresidentzia
arrainen
eman
##58
mun
##52
eskola
am
##itek
##zte
oso
##inen
unitate
##its
usti
gizonak
kar
31
##aile
##land
##57
##67
##51
dagoen
ma
##ioetatik
##ys
is
sarrera
##las
##59
2010
0
##62
komertzioetatik
batu
azken
##54
##tza
bal
sor
ustiategi
gal
##oak
mend
##61
hezk
##ilaren
konderrian
'
gara
##64
fin
espain
euro
lagata
##68
saint
koadroko
kom
##duk
bakoitzeko
guraso
##goa
##inak
##entzako
##etik
hig
##banako
norbanako
amer
fab
ego
izena
diren
##69
bezala
na
gerr
osaturik
bu
29
jatetxe
##co
erag
##tua
ikus
##iez
##tzi
etxeak
##kon
kokatua
pr
hauek
mediana
fiskalaren
his
gr
industr
##tes
ha
bel
##ira
##pen
errep
fabrik
mat
gero
kr
man
##imendu
30
62
##ast
##azioko
##ine
##ula
prob
mil
denda
estatuan
antz
koadrotan
40
gazte
##ieraz
##tea
##iv
gutx
##oaren
##ark
##bol
buru
##ariak
amerik
po
##ce
multz
»
its
«
##eman
be
##engo
garr
ja
##untzako
re
##ital
##uak
bor
fabrikazioko
oin
bertan
##na
##40
60
##deg
lurr
##48
saltze
konpontze
##42
daude
##ikoak
azaleran
##uen
69
duten
##itik
idatz
jardu
##41
##ist
hel
gaur
produk
guzt
aip
##49
##iber
##pe
hezkuntzako
##47
##olog
##zko
higiez
##iste
higiezinen
publikoetatik
apartamen
##tok
barrutian
aleman
min
apartamentuak
##den
batera
hala
hiri
87
esta
##ezko
##se
km
pres
probintz
##ino
the
##12
mendeb
lortu
##azi
##unde
##dak
##ille
urt
inf
mundu
arteko
50
aut
bakarra
hek
##iteke
sin
jarduera
bitar
mail
##atibo
hektar
gehien
49
##abal
margo
hektarea
bas
me
luz
##ck
jok
52
sailkatuta
##od
##amendu
##ola
25
##izko
##yl
ostal
##ago
liburu
42
komun
batez
##ional
met
del
##18
gob
ostalaritza
produktu
administrazio
tres
##dako
apain
jan
##17
##ix
##tzea
garrantz
48
ok
##ard
kol
ac
##ii
industrial
##19
sa
jarra
lur
zehar
erem
handia
idaz
zion
##ioz
##35
38
zela
##ismo
26
##ens
histor
itz
fut
est
itsas
joan
bule
izend
leku
co
garra
37
##bait
ital
heg
klas
##10
batzu
her
buruz
baita
##etar
sailkatutako
bih
dela
##tura
##ora
00
pos
multzoan
##ano
pen
honako
egon
aurr
futbol
mer
esan
ka
of
kanp
elkar
ho
hizk
##lez
##ire
garraio
##katu
alder
23
industrialen
europ
ge
##aketa
eki
naf
car
39
daiteke
ak
##kor
##itzak
##72
orde
hiriburu
parte
72
ipar
##ri
gre
##ana
gobern
lor
arm
form
and
192
##lin
##aki
dituzte
zabal
elek
don
##bide
##ke
igel
urr
##tasuna
##56
sen
dio
auz
iparr
##ale
##arte
bai
izat
pas
ug
##antzia
##dar
ant
ameriketako
##ikoaren
errege
##82
margol
igelts
apaindeg
erreg
jaso
##iberts
aurkitu
##atorr
sh
##urginak
##ans
##bo
##berdin
komertzial
inguruko
dendak
##oph
uhar
igeltsero
ga
berez
##pa
zuzen
zenbait
oinarr
errepubl
honen
##arrek
36
sol
siste
ondorioz
ii
uniberts
inform
publikoko
##70
ob
zien
ama
lu
garai
et
urtarr
ahal
##89
##tzia
##80
%
##yn
##azioa
new
ten
metro
##une
azalera
##oren
zir
##est
estab
ezagu
000
batek
establez
establezimendu
##ats
##akas
##aul
irab
for
eragin
##ga
59
##gu
dena
aurrera
bihur
aldiz
eliz
agin
kas
##79
##apen
##ville
hegaz
##opter
baz
ed
##ot
##uaren
##ioak
41
lab
nafarr
nab
espainiako
to
muga
##itako
erdi
nahi
##ers
izango
sur
itzul
guzti
##ov
##ona
janari
jos
##urgina
gel
##buru
##atuz
##tatzen
izeneko
hamark
tresn
##tzat
##gatik
2014
berriz
batuetako
120
hartzen
hitz
##txeak
##apel
##garr
##ec
adieraz
af
##amen
##iro
jatorr
##65
kor
##ikazio
##44
inter
##all
bera
haren
##bil
txiki
ile
##tero
zat
##ell
erd
tek
##eria
uz
qu
zuzend
lehenengo
##che
urtarrilaren
##irik
##tak
##ein
il
eko
leg
honetan
hasier
35
##orn
okz
ematen
garrantzits
okzitan
##atuak
##imen
##atzea
##iket
osp
##inako
##ailaren
polit
hurr
argitar
naz
horren
##st
##45
harr
##iek
konpontzeko
##33
##dur
##gia
adib
bidez
bada
##iss
horretan
bab
##87
##lek
##ikoko
##oz
gerra
##mat
67
gai
rh
argiket
lantok
##izio
euskar
##itasun
ekon
##tel
##itezk
##ice
##orre
ekonom
tresnetako
##asun
tekn
##etara
##ork
kat
##dun
kul
##ikako
##ido
##itezke
##ond
##ake
51
bulegoa
##46
##ygi
herrialde
##ang
bitartean
haur
dituen
##lu
nahiz
70
##ha
##mentu
##iena
iker
konderria
les
narr
lagun
bad
irud
##ent
##ont
##li
konts
##ila
finantzia
txapel
bet
57
eraiki
mad
##opterygi
finantziazio
zah
actin
##20
zio
kontr
klasean
jaur
mas
##opterygii
##ct
gau
han
actinopterygii
mendean
kir
informazio
ben
##tuaren
val
orden
con
zor
##aldi
atz
gas
orain
##aro
##eren
gainera
behin
itx
##66
##ih
mag
##ca
xv
akt
lurralde
auk
gabe
irland
##earen
com
bihurtu
##ideak
inguruan
71
espez
okin
jose
##son
##be
jak
190
##sa
hiriburua
##apon
88
ari
##55
##amp
##nes
jaio
tur
alemaniako
pun
##eratu
##lor
administratibo
68
erroldaren
kos
##90
bir
eskualde
daitezke
elektr
izaten
utzi
##ism
##aman
sartu
##92
33
martx
antol
##atzaile
nabar
##ere
lit
osatutako
##63
buk
##azo
##of
astero
##rog
##ias
47
ezin
44
##urre
las
##tika
erau
nazio
##ailea
kop
##aia
##lea
##agatik
80
##tez
col
##one
babes
##intza
ren
##atus
kanton
58
mor
japon
eh
34
film
ph
modu
##dura
##ipuz
kantonamendu
]
def
hegazt
hauekin
por
##alat
##entzat
irabazi
[
sailkatua
tok
##idez
|
##ius
##itatea
herriko
##por
ohi
zein
mater
64
##for
##van
musika
##dik
mai
##ve
guztiak
komunikazio
italiako
##tuan
##isten
arren
abes
ordez
##53
##tek
proz
##los
ark
erabili
probintzian
aita
egindako
gipuz
erauzte
borro
berean
##gan
##itx
onar
cr
sc
##va
gud
sistema
##fer
hal
##ux
66
##tuko
pa
##itua
##goak
art
osatzen
zur
##onom
##adan
lat
##itutako
hegaztien
##11
##yp
berria
##elako
barn
##erik
##itsi
alb
zitza
##eles
jokatu
##atuen
esat
ondo
##tzaile
##aga
##tzak
zeh
##ensis
##iarrak
##astien
zel
fun
ol
##ketak
berri
ku
cas
mendebaldeko
##garri
katal
tra
##egi
hiria
##atuko
zioten
pre
adibidez
##no
##egia
jen
duena
##ioen
errus
narrastien
“
cor
##ariaren
gutxiago
”
##oako
euskaraz
##arteko
ibai
op
56
##ama
##bes
filma
izendatu
##eo
hur
material
hizkuntza
100
bete
prozes
inper
formula
##ioaren
##78
##wa
bre
54
##unak
horiek
##iaz
agertzen
uzta
##ente
##arrei
ex
##berr
maiatz
mota
seg
erakunde
york
##ica
##ft
harre
ep
idatzi
non
alderdi
zine
bizka
nafarroako
irakas
ingeles
##batu
55
hed
za
soz
etor
aurka
##ilgo
##erro
##elarik
##taz
##tsu
##yr
##erak
##ign
ter
ezaguna
##kunde
sortzen
ekain
##tif
##eraz
hasieran
ra
##kul
##98
##arraren
##he
portu
batzuetan
norm
##etarako
##des
##pu
plan
ots
txik
taldea
##uv
##14
joh
zena
azter
##ito
ezberdin
dez
herrian
hob
2017
##uel
##rin
sch
##ong
beraz
##log
##uma
##ekiko
##alak
##orde
esaterako
##atura
##ioi
##ologia
ezkon
##okor
bras
abuz
##ima
##97
_
grez
jarri
##erre
sp
hurrengo
aber
posta
##rat
paris
ezau
##arako
tele
bildu
63
apaindegiak
##ibil
apir
##oma
asteroide
lig
okzitaniako
horrek
horrela
##rom
##br
igeltseroak
herriekin
##eztu
kap
43
##arrean
buruzko
ekoiz
##16
cle
argitaratu
indar
mugimendu
abendu
orokor
maria
kl
hurbil
zurginak
handi
madr
besteak
##teg
bol
##oria
bilak
##eri
##ya
##pena
##up
##enak
kirol
helburu
nabarmen
donost
##arria
meta
munduko
##alean
82
##iarekin
ca
45
##uratu
barruan
bide
90
barne
musik
##15
uharte
omen
##erra
mal
##tus
##ite
##ros
ospe
errepublikako
##za
##atze
iturginak
##erb
eskoz
azar
antzinako
osasun
##tsi
##ateko
jain
esker
##esko
eguz
dagok
harreman
##urt
apaindegia
elk
dauk
kide
tar
##ioko
mu
irun
84
ekialdeko
zub
oz
tes
##ons
ofiz
cl
nola
2008
##xo
eremu
erromat
##ff
##tzean
##kat
pin
berts
estatubatu
horietatik
##eder
65
ang
##aina
egungo
jatetxeak
arraza
##illa
ordu
eskain
igeltseroa
##aino
st
##iel
pal
86
jarraitu
udalerriaren
##eno
##29
##27
##28
mak
der
kateg
aurkako
##olo
kokatzen
burua
iritsi
eliza
ugari
zents
##pi
frants
2011
egoera
liz
##yc
sek
nazional
##13
frantses
##pend
ia
hautes
moduan
tro
zenean
ps
##43
##dua
funtz
desberdin
pe
ikasle
##bidea
pat
53
##ue
##uri
##onia
##ismoa
joko
mac
distan
idazle
martin
amai
bertako
band
eraso
inde
zurgina
ingalat
gutxi
##ex
85
##stitu
austr
unibertsita
##ven
kalif
izateko
anf
gog
##ath
liter
gl
lehend
##ant
zuena
zenb
dan
batetik
##ym
arkitek
mex
iturgina
gutxiagoko
saria
botika
ekialdean
mendebaldean
jas
irailaren
margolaria
familia
–
super
margolariak
##hes
geor
##orian
barrei
eusk
##und
hartan
urriaren
barrutia
##itain
haien
europako
##99
46
aurretik
sozial
john
nagusiak
independ
##ikoen
aktore
banku
juan
pet
##tuta
##iii
milioi
##lua
lin
ul
di
##degi
ord
balio
maiatzaren
hisp
gorpu
txek
zinema
##kide
##urra
mich
kopuru
natur
##tain
##akoa
##tsua
##ipena
itzuli
erli
clear
pop
zati
61
karr
grand
aurreko
mel
ide
cal
lantokiak
zuela
##are
mendearen
##tag
sai
hirug
##antza
77
tal
haz
##tzaren
disko
top
mik
manten
##ron
idatzia
handiena
barreiatutako
jainko
##ung
##aileak
ven
jakin
##88
geroago
##urri
ezagutzen
left
##ver
abuztuaren
##iagoa
##kari
anfib
##ja
lore
aldi
igo
##ios
ezk
bereiz
uztailaren
bis
max
##izun
zin
##iari
brasilgo
eleberr
##lar
disein
##ho
argiketaria
79
##tatik
##que
gipuzko
180
mes
gertatu
hauteskunde
kim
ekainaren
xx
zuzendu
alp
##22
kanpo
abenduaren
##uc
auto
##ograf
larr
edota
##tutako
##ies
kontro
martxoaren
politik
bereziki
##vo
##atiboak
garaian
74
santa
83
##tira
75
eremuan
##tra
##ionala
urteetan
aren
mol
##ick
galdu
##pean
apirilaren
##ley
can
mod
lanak
espezie
ordea
kasu
##osa
89
trans
##katzen
uste
britain
kaliforn
##ns
prog
gainean
##lari
aipamen
lap
atera
goi
##ori
bio
hip
gizarte
erresuma
iparraldean
datuen
##zen
bestalde
geld
##leku
azaroaren
hasiera
##don
handiak
##tsa
txekiar
luze
##iatu
##ly
lep
nazioarteko
berak
mont
laguntz
hegoaldean
78
tre
##77
##ismoaren
##oc
antzeko
barnean
askotan
##iten
presid
188
bultz
##itale
92
orb
argiketariak
esle
tren
##berg
##ime
herria
iraul
bon
ordenan
erabaki
##tarako
mailako
mit
iparraldeko
denbora
boter
maila
mendeko
##kan
hirugarren
##aldia
proiek
guztira
pan
erlij
mut
##ind
aritu
##iala
irak
tex
bald
ener
##kia
##oen
##kr
##itur
zitzaion
amaitu
arrakas
anfibioen
irek
##ise
##ilik
lib
atx
##ekoa
agertu
anton
pap
orduan
kategorian
ezarri
lana
zirela
kultur
##len
##ash
##ith
189
zap
ingur
##goko
beg
zabaldu
grab
##dare
afrik
kantonamendua
ingalaterr
ira
aldeko
##sen
hizkuntz
eraikin
gra
bilakatu
aintz
din
##tazio
##beh
##tzel
igaro
hez
73
##bert
ver
##ichth
oraindik
estilo
ura
##tegi
natiboak
elektro
iii
eb
kris
aeb
lantokia
ikaste
##orik
##itzaren
hegoaldeko
##burg
##aldea
neg
##etaren
aldaketa
estatubatuar
katalun
##tikul
sus
##alis
##ioan
##oi
##alaren
##uth
geltok
alf
sam
nob
##tiko
##itzea
im
dagokion
ostean
okindeg
##tera
ait
oro
xix
pse
texas
eraman
alderd
##tun
bilb
taldearen
##der
##aldera
otsailaren
##apena
egip
txapelketa
##ctyl
##ardo
##71
##reko
batekin
heldu
##tore
zerr
anura
sob
##atza
##bur
jarr
ins
gehienak
duela
taldeak
##arekiko
okindegi
##ator
mendi
trad
berriro
arrakasta
ofizial
ezagun
hauen
##ipen
lehena
etxe
magn
ste
##agarr
##itzat
##tasunaren
##istak
sun
99
##bid
ser
ped
matx
##etxeak
—
##ado
gune
##sis
japoniako
sortutako
##ington
prof
asm
beren
jende
esleitutako
##tara
miss
##chus
##rak
erroldak
eskoziako
##gin
##jek
##rean
hamar
##anda
los
hamarkadan
fo
hiriko
sub
char
ezaugarri
##iano
fre
pu
##pl
150
bidal
##eratzen
aukera
izatea
ibaiaren
##atx
##atan
zehaz
elektrikoaren
filos
berdin
##gen
dem
luis
##itzako
osoan
camp
franc
##turik
flor
neur
##tuz
##itze
bro
teleb
hai
##je
tam
minis
##76
tor
##itasuna
hy
filosof
##imo
##jo
france
##aera
hen
geratu
76
zi
kultura
batzuen
##ry
urre
##wn
##aturiko
2006
historia
dauka
##sh
##igu
##entziak
##orako
altu
propos
##odo
##74
kolon
egitura
##tela
##orea
##ager
##biz
##ham
##lak
##ango
##stan
part
##iidae
##eraren
hol
bik
mic
##ikoki
agindu
guru
osoa
##car
##izazio
##mon
ekin
altz
##edr
dezake
gizak
taldetan
fal
autonom
##iera
nahas
gol
##eto
dar
##iarren
irlandako
kontze
##aldian
##ania
herio
2005
1990
##ato
direla
berriak
##zioa
dip
tresna
uk
aire
##etasun
iraun
##21
langile
98
kostalde
gran
beti
dorre
ox
irakasle
ken
##75
##let
ihes
1980
##ico
##del
gon
armad
gaz
pseud
die
zaio
konderri
##erri
ibaia
gertatzen
abs
ram
onartu
izanik
esaten
merkat
familiako
jean
ikasketak
mos
##lov
##omys
madril
erl
ill
##fek
popul
kontra
##ides
handiko
##iarrek
aldatu
konk
aurrean
lond
pents
konpos
bulegoak
ema
##alen
hirian
##urus
##zk
jul
zibil
nes
2012
ezkondu
##trop
##lav
170
estr
##iara
iba
ozean
energia
ikusi
##mena
txir
kontrol
##terik
kalifornia
##cus
okindegiak
asmo
##andu
polon
##opa
portug
##iam
sako
egok
batuetan
dents
poliz
zentro
zerrend
adierazten
entz
gir
##inae
gaixo
##bi
txin
##81
##alako
##dem
##tamen
hem
alaba
horregatik
kaz
gorr
500
gora
##metr
krista
##etx
##arrena
zaz
metroko
##etakoa
zig
jac
##iza
marr
elementu
##iarra
sei
##izioa
##24
##eke
##ukle
vo
##dactyl
##uss
##tis
##25
desager
ekip
lurra
##zo
##igh
leon
eusko
##ane
handik
chr
gogor
##ella
jatorrizko
teles
jud
unibertsitatean
ardur
##kur
sil
##73
estal
kontz
pon
maxim
gil
irag
##toko
itsaso
##pos
hamarkada
hauts
errom
bizitza
egoitza
handien
laur
guztiz
edu
azkenik
cam
##ran
bati
politiko
##unea
orbita
##ichthys
##dina
arre
muse
bitartez
##bul
air
probintzia
laster
rhone
##ylvan
semea
gerta
matxin
sant
##iet
mis
##94
rock
eten
milit
gorde
##ota
andre
vill
pis
##icus
abia
loire
gerran
solair
##atok
ton
izate
##cia
paz
batzuek
pilo
bos
nukle
##garriak
ehun
modern
ikastetxe
haw
interes
130
espainiar
vir
will
##ass
bereko
##84
hid
erromatar
##uke
iv
ezta
penns
baterako
aurkeztu
##merkatu
2003
##ev
deitzen
tenper
garrantzitsu
pennsylvan
##ij
##bu
alpeak
##ierre
##umen
liber
##ey
pel
ond
##abil
##ty
fern
ikasi
tin
##tari
##inois
bateko
##gos
96
erantz
##atzailea
##ilea
garaiko
##85
##agai
ros
##91
soilik
illinois
giza
mig
##arien
##26
zain
##erador
sir
arrazo
gertu
jasotzen
##itzan
mir
behera
##ater
##uis
##aila
##eil
hezkuntza
io
arazo
erakus
mendil
81
lehendak
geroz
##anth
finland
##bon
##ity
pla
hamarkad
eguzki
defin
errepublik
zuzendari
vic
eros
argipena
2004
solda
garaia
eskuratu
artikul
##ae
##amena
paul
ikusp
ekipamendu
hilabe
##iald
auv
honetako
##95
##tatzeko
erabak
##ando
profes
mark
##ust
dugu
abesti
sak
##ikatzen
baitzu
londres
azpif
av
1970
honela
buruzag
##oge
abest
gaztelan
##tzain
carol
mendilerro
##atea
azpifamil
armada
##dea
industria
2001
plaz
og
##86
puntu
emazte
ministro
lege
printz
##ernia
teoria
eskualdeko
elemen
organ
##onen
od
ditzak
##ize
handiagoa
dagokionez
irabaz
##ietan
zald
##garria
##azioak
ikusk
arropa
hura
##azk
edoz
antzer
##alek
astr
##art
110
agentziak
alegia
##96
bata
bartzel
norbanakoentzat
arris
##alus
##aba
##aster
jai
angel
140
okzitania
sistem
##erren
antonio
baitz
##pol
##elle
##inu
eragina
##til
baitzen
##ituta
argi
##aldo
112
denean
sunts
futbolaria
azkenean
mari
izandako
##use
jes
##cc
ru
gaste
tol
titu
##ints
medik
zizk
arrun
eskul
alex
cap
unibertsitate
##istan
##omb
gauz
##andako
sul
dav
##etak
##egin
##uren
##azko
apl
prozesu
##arg
##93
aldizk
konpain
auzo
olin
zituela
enperador
2015
garrantzitsua
##23
egitea
azpifamilia
jotzen
95
97
agentzia
tratamen
nafarroa
##tre
landare
auvernia
##ole
matem
##ele
##ish
sakon
bilboko
sag
##ask
van
##tearen
esper
irrat
##krib
##unean
arrisku
##aug
gan
##ny
##ni
onen
91
##arrez
araz
harateg
ospitale
garatu
fa
##aber
ekarri
##83
badu
hiz
zientif
##ebec
##var
olinp
edozein
##onako
institu
1960
##abide
aho
objek
fe
penints
##eral
ekonomia
altx
ohia
##ames
160
##iller
comte
hawai
sari
##court
katol
##izen
my
1991
quebec
ikerketa
beltzak
108
##ienez
errefer
##bas
ard
##ini
bait
##dactylus
##tzako
mah
dituena
zal
amerikar
##ituz
bizkaiko
ingalaterrako
##heim
94
##aine
##romis
berres
garapen
gaztelua
##ou
##ze
##tasunak
300
##araz
##amerik
liga
gehiagotan
##the
jatorria
bilbo
hemen
estatuko
dor
frank
errepublika
aldarrik
104
ondoan
##toak
1999
probintziako
jokatzen
##gor
isl
2002
asteroidearen
franche
autoesko
##inus
##wo
distantzi
lar
dentsitatea
zab
##goz
bakar
karl
afro
bretain
jon
doku
##ilak
arau
##aleko
erabat
##karien
zentr
##pre
bitx
antzeztu
93
##tzera
maximoa
1992
bezalako
tan
##duko
##ceph
##tibo
uh
##bek
102
harrap
ordain
jokal
geroztik
pirin
gipuzkoako
##garren
##pik
##erria
maiz
multzo
##lovak
##ilus
zientz
distantziara
fas
gobernuak
2016
baiz
##aldetik
mur
drog
eram
normand
cer
1995
##azioaren
sab
itu
gobernu
ezagutu
##xka
##itzaile
##rindu
akitan
##tzailea
tom
hispan
feder
errad
aurkez
egingo
zerbitz
delako
irau
aldean
kontzep
laguntza
atlan
str
##een
kontuan
##isc
deritz
##bus
##letako
erroman
##aux
termin
horretarako
demok
kolore
deskrib
supermerkatu
##iztu
##ilean
##ky
zuenean
pedro
##dek
107
kanta
ohiko
##ins
zazpi
ikusten
cen
##han
fl
mexikoko
##andik
##yo
sim
hond
erdialdeko
landa
gure
guztien
##ario
bul
##igo
1996
cyp
katedr
hiriaren
biak
jend
##koak
wil
##entin
##ikatu
lekua
berre
eginez
bidai
zinem
hawaii
behatok
eragiten
latino
##abeh
lehenago
1997
##tom
##oreak
##igny
hom
eredu
lortzen
101
osatu
##oka
##gar
garrantzitsuen
##tren
##xe
##ord
##ologiko
cro
##arrekin
##duz
##apartamen
##apartamentu
xvi
zuha
1994
obra
garrai
berandu
txirrindu
mailan
bereh
mez
lerro
gelditu
wash
testu
deitu
burdin
cre
datu
um
wal
biltzen
erkide
gid
bl
122
misso
jer
riv
##penak
##vi
erraz
##ketan
txikia
!
##ogeita
louis
baizik
109
uler
erabilera
forma
program
tratamendu
aztar
##ekan
##adura
##ael
1998
aldetik
1993
##yko
dom
##ford
##ess
ezik
ontz
##ple
donostiako
##pis
halaber
##udi
neb
arago
taldeko
##mar
fel
murr
##tas
zenbak
zib
ana
urtez
1989
anbul
##uch
dia
##itzean
2018
herrit
gipuzkoa
##mont
bazter
eskatu
nol
animal
132
itxura
tir
amaieran
fos
direnak
washington
som
aten
urtekoa
##otz
##usen
kalte
azaltzen
##deko
##po
700
nahiko
horietako
##arazi
william
##aris
sartzen
kataluniako
besterik
##fa
kanpoko
lis
pasa
parke
erreal
q
erdiko
urtero
kur
zelarik
pennsylvania
hautatu
kale
##bia
karg
badira
autob
anbulantzia
sorr
nazionala
##urik
##ietako
##iola
elik
horn
karlos
bakoitzak
xviii
##alo
pertsonaia
batzorde
##ardia
119
gata
##iba
kong
eslovak
dok
116
ezar
pierre
bukatzeko
##ann
##iere
jardun
gorabeh
lortzeko
##tso
eztaba
bra
atxilo
log
##tern
pazif
adierazi
soldadu
apa
rich
##ges
luzera
banaketa
nap
euskara
##ingo
tartean
##bideak
##iok
##kuntza
tradiz
##ieg
beharko
##con
hitzak
poloniako
astronom
baso
txur
micro
##bin
bestetik
##asko
dion
latin
##lab
missouri
eraku
##ieta
liburua
##emin
sat
gehienetan
103
1979
##ivo
##lah
105
##urrak
normalean
lehiak
##korra
##egu
zil
francis
je
erabiliz
distantzia
##turiko
donostia
denez
##aban
tenperatura
##katua
lapur
1984
##adi
mul
##istaren
##ikor
antolatu
kristau
izar
zientzia
ino
jada
espazio
kalkul
##mos
##fon
afroamerik
##tetan
ume
botere
metodo
frantzia
111
azk
ozeano
##ci
##ugh
124
jasan
dinast
zenbaki
##dro
106
##ieres
##zioak
hilo
1987
borgo
urter
##kes
##ariek
lanetan
funer
1986
128
emakum
##ipe
drogeria
zik
##meria
##ling
sta
##akter
cha
ple
##peko
atal
haute
banatzen
utz
izendapen
118
aitz
pazifikoko
jarraitzen
ustez
##can
##esia
konderriak
frantziar
##usa
alk
parr
hispano
literatura
##igarren
kam
hos
anaia
metal
##urren
jauregia
urtetik
lotura
##rek
##beste
balia
aurkitutako
##dia
itxur
borroka
##ule
bitarteko
1982
boto
rio
etxea
zutela
kopurua
beranduago
aipamena
ata
cyprin
konstitu
web
istor
##ual
baitu
ekintza
izenak
##asa
karras
114
epa
bidali
jartzen
erregea
##cel
##age
horretako
##iteko
gail
diote
alexand
labur
erdialdean
##dio
117
dr
##gandik
urrezko
taldean
##ner
toki
presidente
##tzan
kontseil
##bach
garrantzi
frog
matematik
##entea
askok
antzez
europan
zai
teor
abertz
mekan
moz
##kak
##lamen
bida
literatur
aka
berehala
##ileak
west
hitza
1981
bidea
james
gorputz
##eth
olinpiar
politika
kendu
david
asiarrak
115
plat
robert
zentsuaren
fon
1978
ditzake
##iatik
segur
1977
batasun
pertsonetatik
eskaintzen
irletako
zentsoan
1985
txuriak
gotor
beregan
virgin
##esc
ask
bandera
afroamerikarrak
##mun
113
267
##tres
121
##ibar
wh
belg
kopa
eginiko
##portu
hasierako
hispanoak
herriaren
carolina
##form
##igen
helburua
harategi
mais
beraien
##ney
eratu
minnes
##iers
ibili
zez
eguzk
##ailean
1983
jendar
##uta
##yph
1950
telebista
mugak
asmoz
129
absol
futbolari
beher
##ium
##obat
defend
##osh
136
eduki
##arriz
erlijio
##orra
koro
##atzean
parlamen
venez
zeharkatzen
1988
long
1936
herbeh
eskuin
euskaldun
134
britainiar
ingen
zuta
harres
##atr
kontzer
125
eslovakiako
172
ale
baitzuen
itsason
##irako
gaind
pirinio
##val
##itald
guztia
ezku
erresum
sent
idazlea
akitania
aste
bern
hobe
akadem
##so
bazen
agir
intern
ingelesez
##oki
dutenak
##ior
ziur
etxerako
kre
sendo
##cy
karraskarien
##02
sortzeko
atom
suitzako
##ation
xvii
munduan
gerraren
##ield
harategiak
kro
ke
##izatu
ideia
##cha
kontrako
arn
##tegia
litzat
uhartea
##dr
##ongo
aireportu
1976
##ituak
177
altzari
##erriko
idatzizko
emakumezko
##odon
horietan
saiatu
135
##korpor
santu
aska
azaldu
inkorpor
nig
irakur
idatzitako
hasten
iturr
zuzendariaren
zorro
cla
##tsuak
erregearen
##ituen
iturri
zuzendutako
##onek
krit
kazet
oscar
len
horrez
burutu
144
168
inkorporatutako
haran
lotzen
123
##esa
##abiz
litzateke
sobi
eremua
penintsul
eskubide
cyprinidae
buka
honi
+
dator
oler
ala
##tagon
##arena
kub
##kariak
aipatu
merkataritza
##af
dur
##xua
##isko
##chy
etn
espainia
##iketa
meh
profesional
lehenbiz
aurkitzen
bota
molek
hab
mintz
##ikus
meg
##vel
bah
dauz
1975
europa
##tris
publikoaren
ireki
##icol
1968
send
##bar
sm
##itude
city
##eros
voivo
gus
klima
hartako
lehendabiz
##igan
fatx
##duna
arku
##ikola
hilabete
teknikoko
##pir
zehatz
kidea
voivoderr
eraikina
gotorleku
##eago
aroko
osoko
guztietan
eku
##ilia
jendarmeria
ekar
hamab
ea
##tikoa
hauetan
historian
normandia
137
fus
joera
ekitald
konstan
ibilbide
gainerako
##uil
##tsuen
prib
hitzar
thom
kaleratu
line
interpre
##ves
##iburua
inoiz
dat
tintor
aug
maz
eduk
mexiko
eskualdea
eszen
pom
##karia
##ifer
126
##adore
##erantz
kontin
mc
##ezkoa
##ches
sortua
gro
pau
pil
korron
sobietar
mikro
lagundu
##ye
palat
club
far
##umentu
167
landu
##agn
vol
152
iritz
##detan
gehiagoko
aktoreek
##txo
dako
elektrotres
gauza
##07
##izki
elektrotresna
##iei
une
borgoina
148
sainte
izaera
emaitza
ly
lim
##chromis
##ahi
##eka
127
lam
gram
protes
ospatu
bela
manuel
oinarrizko
182
ikuskaritza
hes
##ster
dig
etxeko
155
izenburu
##ques
galiz
##ings
800
ezberdinak
##09
##ger
##fe
##abea
hung
egitur
##onte
142
1973
rhin
askoz
bakter
131
ix
estre
ohio
400
138
##istek
irudi
178
1969
aberats
##agarria
##chen
##ontzeko
##eda
hurren
##hy
##abr
zegoela
##ondo
geltokia
##graf
petro
txikiak
##ande
pi
kontak
##hol
florida
bukatu
dak
mendia
bero
##inatua
vi
zortzi
benetako
udalerriko
##aska
kasuan
##ema
wo
parrok
133
##azki
##taren
erren
sev
filme
rad
garaipen
1974
tran
aztarn
pilota
gainontzeko
412
##gun
greziar
##cephalus
##esen
##uridae
horri
konf
kritik
aipatzen
139
oih
izug
1972
##cho
norv
saiak
autonomia
behe
charen
zaharra
renania
zabala
tron
##opus
hortik
gorabehera
fund
ekonomiko
##azia
independentzia
abiadura
##eriak
deitua
##tzearen
##08
erregeak
handiago
delarik
dol
mary
184
ahos
adibide
##cion
erdig
elkarte
##ep
##rim
zara
tamaina
hauteskundeetan
##agarri
##by
iruneko
siz
funts
##01
behineko
galesko
##tzaileak
emateko
##ante
##besteko
##diko
son
##olis
izatera
maur
bizkaia
garb
arl
dokumen
sare
zuzendaria
marne
kanpor
179
labor
gurutz
konple
aipagarr
luc
suk
austral
156
beharra
##iterr
##top
alemaniar
izenarekin
##dorf
169
##erakoan
##ls
zubia
ospatzen
##fo
##etxe
##ador
187
##gabe
1967
debek
erakutsi
mantendu
zerrenda
erreak
charles
heriotza
virginia
jaz
geo
tenp
urtera
eskur
erdian
##adak
neurri
komunitate
##kizun
auzoa
hildako
##uten
karbon
teknika
betetzen
francisco
##triko
kate
##txa
asp
gam
aro
##vis
##toa
este
kans
##omat
orokorrean
poten
arraz
##yth
bilduma
all
merkatu
##txea
171
fernando
herriburua
ater
ugar
oinorde
gaztel
sco
lurraldea
141
##yk
bla
1930
hartzeko
inp
672
lop
guztiek
monte
lotuta
##tana
gaineko
erreferentzia
gut
145
##illy
entren
##itura
ezker
ogasun
argentin
domin
aintzira
##gob
##ris
osatua
lizeo
oklah
##etariko
egunero
##ws
##goan
militar
var
##iakoa
foru
erraldo
##bel
iristen
636
174
neu
147
##ene
diskoa
arazoak
##uin
behatokitik
fer
638
palatinatua
lip
ondorio
##lem
nan
etorri
jaureg
geruz
650
pix
desberdinak
##unen
##ophis
##elo
txinako
##algo
151
##auz
166
##agu
##gai
##lio
##itarra
##urreko
europar
##ward
iber
land
oinarri
##iho
##urrean
isra
herrixka
mem
##aratu
##itibo
ibilbidea
##alea
##tia
sao
##ifik
paral
ertzean
errepidea
##utatu
miguel
mediterr
protagon
##atzaileak
bib
##agailu
mitolog
idazten
terr
kantonamenduan
641
##aztun
selek
zapata
garrantzia
emandako
onenaren
voivoderriko
oper
##aldiak
##yan
kontserb
odol
##pil
aroan
si
230
hondar
##ops
##lean
146
##idura
neurr
castel
zelula
##adur
auker
garrantzitsuena
##04
##ingen
gaztelaniaz
lik
1964
arke
aurki
psiko
##fr
zar
funtzion
##urn
auzoan
##tem
##utu
arras
##iltz
158
geratzen
fakt
defen
##retan
egiptoko
pers
orr
apaiz
##05
1971
##ikar
zizkion
fc
abar
##atzera
##itzera
sailkapen
arlo
horm
##ialdera
##illo
637
##tsio
burg
partid
##ay
badaude
iris
176
cu
##iang
##arriak
1920
175
vas
haus
korn
luzea
tarte
712
864
aub
ju
##pan
etab
elementuen
##via
lac
832
dub
funtzio
porro
irte
##orekin
aus
arkitektura
639
##field
1940
##entziako
zelako
berezia
elkartea
837
867
##mus
gun
borrokatu
181
omenez
monaster
ekintz
esparr
157
149
##ientzia
desagertu
##aros
##si
zaur
##ikuntza
lehenbiziko
836
tradizional
##ienak
##uki
madrilgo
proiektu
zelul
tontor
gaixotasun
kolor
##lus
egu
sued
zahar
zuzenean
##oia
hiriak
hortaz
##ight
unibertsitateko
##ker
161
preso
##06
##leak
362
goiko
musul
seine
christ
##ismoak
esped
kokaturik
ohikoa
eraginez
konderriko
191
itun
errepide
##erson
##ezpik
##ikul
hots
artikulu
##my
664
harri
irten
errusiako
##mor
aukeratu
goiz
185
##ridae
efek
143
dek
zeuk
882
689
##berto
nafar
kab
macro
magnitude
alemania
jun
errusiar
esate
hirur
##ikolaje
##egon
brikolaje
kron
649
##her
861
paper
##nath
##ografia
154
ezez
trop
164
bien
train
862
cent
zail
##tzu
##way
nad
victor
ikaslekin
anai
patr
662
cote
alba
159
gaztelako
duk
##tim
857
##jar
##cidae
masa
politikaria
##udela
##arrezko
##hen
dakota
##inn
wisc
abi
kob
ona
##lidae
beau
##laria
dantz
162
lehendabiziko
wiscons
musulman
arabako
##kop
338
cos
##ider
grabatu
parisko
iowa
##ikoetan
ospetsu
arra
##inek
bitxi
azpim
natural
##logia
##errian
xiii
zirkul
iraultza
##arn
1962
1966
libre
up
gizonezko
dun
aldera
sinatu
##eres
vien
##itatearen
##amo
motako
ofiziala
politikoa
237
legeb
1945
sinbol
hegazkin
##ure
600
amaiera
##agun
frantzian
legebiltz
gerrikoan
1965
##uman
irlandar
estatua
oinarritzen
polizia
##uh
831
860
wisconsin
##leko
196
zientifikoa
##wood
ordena
634
gido
carlos
doa
##tib
gym
gizar
##tos
hona
##we
programa
bila
irunea
ev
1963
phil
inperioaren
are
zeraman
altuera
espainian
658
para
atlant
george
orduko
xii
komunik
izenekoa
honekin
153
ville
indarra
italia
afrikako
##errek
iden
bertsol
hogeita
inperio
erresisten
##town
186
##udio
vil
##akoak
dauzka
##omus
trib
##ison
aurp
etxean
beder
centre
ondasun
##ste
165
173
jack
jarrera
361
ate
fol
##imena
apur
bultzatu
jaun
absolut
zuhaitz
pic
bederatz
##otus
858
objektu
antolatzen
##pin
##etaz
ados
gald
640
gataz
gudaros
igarotzen
##abet
linea
##letan
trin
eratzen
prak
erantzun
motor
gerora
fitx
identif
1958
aztertu
bereizten
ontzi
richard
##sey
##anen
german
egina
kalea
plata
izenez
monumentu
##uj
##orh
##eten
hus
##forma
ateratzen
##uda
kargu
murriz
zutenean
##well
##arretan
lehendakari
##orus
makur
bron
##okoa
1961
egunean
autoeskola
##izazioa
##untzak
280
350
##ive
dagoela
kontatzen
azido
gudua
##etiko
taldek
het
akor
lurraren
gobernuaren
##agon
1937
urrun
egipto
zenez
194
jokoetan
islam
##ekoak
herritar
ordezkatu
egile
margolan
##phis
zaldi
michael
##tzar
ukr
berg
##iri
##leg
##ume
reg
suedia
360
ferr
italiar
##deak
blan
astur
thomas
##adako
landar
nagusiki
minnesota
syn
trainer
bisita
##ketaren
badago
##etxea
historial
##phus
619
##pus
250
jesus
amerikako
##itazio
uzten
##ogon
dib
sein
abestia
hartuta
ahalbide
##iac
isur
laugarren
ce
##vier
legea
##xa
feno
hurbilketa
call
titulua
giro
zirku
askoren
##aleak
nerb
txikiago
##yd
##see
sum
fru
bider
240
1957
##ados
bidean
esklab
##tiz
trip
##alki
garraiorako
alkate
bukaeran
ni
arkitekto
funeraria
##ush
618
##tatua
fam
##untze
239
erromako
1939
kuts
ederr
##arentzat
antzerki
bihurtzen
karta
##iga
vel
bertsio
atxilotu
dam
oinarritua
informazioa
##atar
##tegr
hero
arrantz
xab
argazk
##eraino
tel
##onne
printzip
##mann
##tad
##ulo
xiv
jener
proposatu
##idge
aritzen
##ette
269
dik
israel
##ieten
argia
##rad
osagai
we
ses
##03
lake
beldur
klub
prim
luke
fenomen
nebr
630
emakumeen
nabarmena
fron
163
834
eskatzen
filosofia
##gobius
##burgo
bezain
island
&
617
##sk
1948
lomb
saldu
gertak
##atsu
aran
eskaini
ekoizpen
rub
##turak
barruti
aldatzen
herrialdeko
treb
##untzaren
eguzkiaren
##ose
183
##larik
pul
ezagunak
##iensis
##ryn
baldintz
rom
ditugu
##inua
1959
kontu
parisen
##izkio
##itea
mikel
##antis
mendeetan
irrati
##ikan
museoa
oinarrituta
uko
beheko
hazi
sozio
##uf
195
##ational
estu
##untzan
ondoko
erkidegoko
prist
##irekin
areago
zenbat
esperimen
tun
georg
hondak
demokrat
tip
dome
nabarmendu
##ware
222
que
serr
atzera
konkis
zo
ves
carr
bali
dutela
flu
ts
##terus
solairu
harremanak
ame
sem
banatu
orokorreko
bizk
beltz
eguna
presidentea
##ieu
##ble
##fal
elektron
hamarkadaren
##adun
gradu
##akuntza
urterekin
nav
##rekin
aurrez
petr
eme
irakaslea
##torea
sing
gutxira
##zioaren
belaun
bizirik
##orrak
korronte
tradizio
estan
maine
ats
deritzo
sas
##atuaren
horrekin
baitira
batzuekin
star
##vin
izaki
miner
aldizkari
oc
dal
ospetsua
begir
##urs
zam
##tzial
manif
##kiz
193
341
ondare
bidaia
##isto
##ones
piztu
scinc
dra
baldintza
asteroideak
etorr
boterea
gez
##ierazko
buruzagi
liburuan
339
sig
sarritan
ilun
hedatu
zituena
ebol
zuelarik
inperioa
va
##akor
##ortz
ibaiak
artista
aireportua
##asti
##ough
1931
eskutik
kilometr
sortzaile
##izp
##chel
238
’
ofizialki
bereganatu
##ilen
berlin
##dy
erosi
geometr
besteko
estrateg
ub
##atiko
tu
##abeko
##idun
204
berreskur
abiatu
baitan
##nam
##anus
##tuck
cast
soinu
garcia
##iev
hipo
kontsum
prozesua
albo
cich
ezaugarriak
##anta
348
kude
##bera
albait
trenbide
##mes
##ustin
arro
gasteiz
1956
stan
zirenak
##istiko
kapital
220
hein
xi
cm
bertatik
ehiz
##orri
vii
real
zirenean
bakoitzean
konkistatu
661
838
##tald
##azioan
ongi
historiko
nobel
##war
202
224
eraikitzen
multzoa
ais
1947
lurrak
ugal
marit
##ulus
wol
abeslari
##iden
##untu
ign
parta
eszentriko
##asen
##ualles
##wer
660
gib
mantentzen
lok
deus
bake
hartuz
balioa
aintzir
kornualles
arkans
asmatu
makurdura
##artasun
georgia
bretainiako
##ulu
orbitak
##lon
sel
high
sortuz
santiago
suntsitu
eror
baditu
642
hark
just
auzit
erlijios
museo
zuelako
politikari
##iente
kant
onartzen
may
##idean
inaug
jokalari
frantsesez
352
zinego
bakoitza
##yg
##bak
egia
kilometroko
##entr
vit
matxinada
jantz
kentuck
ner
##ileko
##etasuna
##mend
beltza
adis
kristal
##loss
arb
berm
satel
emaztea
ezkerre
##izia
sindik
kontzen
metropol
##idel
norveg
halere
joseph
##alez
pays
228
gehitu
espezial
beharreko
##fel
momentu
ets
baldin
uhartean
##ati
batuak
kontzentr
sph
##azion
frantzisko
jol
hedatzen
chir
villa
eztabaid
von
##tziak
1934
michigan
orbitala
##eae
272
410
merk
euskararen
erbes
exist
udako
eder
aebetako
##aluz
indiana
au
##izon
north
franco
zieten
bay
mam
ohar
egongo
##ait
gern
daitekeen
eguzkiarekiko
bud
garaitu
albaitaria
##edo
guduan
elkarrekin
##undo
tut
##engatik
##zi
357
##ulatus
kokatu
eleberri
1952
melan
aztertzen
irudikatzen
##osc
##amend
diseinatu
bag
kilometrora
##ars
##hire
##ibal
1954
mila
berezi
uharteak
soft
estrein
musikag
kh
349
armen
atmos
eragile
##karian
…
##rea
hyl
liteke
zuzena
kin
lir
blok
etorkizun
jarraituz
henrik
##ºkoa
##errak
azkar
ardatz
autoeskolak
354
berezko
##thal
##ologo
ezer
color
grande
batezbeste
##bad
##ben
ange
hitu
txapeldun
katalan
boz
1941
haiek
michel
##aldiaren
sizil
aben
##erry
##omor
659
erakar
handitu
359
hazkunde
##kov
270
adar
##mit
bidezko
eng
uako
210
kil
oklahoma
##reg
absolutoa
aipatutako
##doa
351
zuzendariak
batasuna
##oni
arrazoi
##uro
##odont
estim
neska
betiko
baliabide
232
##ailak
1932
1938
hurruntze
##alais
1918
fik
##tol
aktib
##chi
##oth
sug
esc
dantza
osatuta
sed
arma
zaie
agintari
baiez
nagusien
garona
iberiar
direnean
358
1949
gehienbat
planeta
diputatu
ann
##ju
ran
hartzea
657
fres
disol
oinarritutako
alj
garaiera
erabiltzaile
##lia
sous
zaila
jaurlar
1951
saltok
kode
aktorea
stre
##mis
sakr
hiper
ordutik
342
ziz
##lis
1946
##aldiko
saone
##onan
##bentz
1917
antzerk
win
227
1955
cham
urtea
azpimarr
651
eras
scincidae
631
raf
metr
supermerkatuak
serb
jarraipen
##iff
##tala
##shire
zulo
tim
kantu
##itariak
izenaz
konposatu
##tic
igor
final
zutabe
231
glob
gehienek
hegazti
aipatzeko
203
1942
moselle
zientzial
dro
udalerriak
irlanderaz
biho
##izkion
ukrain
herbehere
##uy
das
ramon
sw
sud
mold
union
segurtasun
205
elizaren
bestea
gatazka
liv
jauregi
bazuen
elkarren
spr
##raren
manifes
wor
brun
aplikazio
erregimen
ec
##ines
ordezkari
277
ahoskatua
dorrea
istr
bigarrena
bartzelonako
208
##iceps
zalantz
hap
##iop
268
ahol
279
tak
green
zuri
##ert
fara
lurrin
integr
##kako
##aburu
berro
bikain
deitur
iraupen
##itia
heb
garatzen
phyl
martxan
kostaldean
vall
##ogen
berresk
##rus
emanez
°
piz
1935
aldarrikatu
zitzaien
port
zuria
##mut
kansas
madrilen
selekzio
proiektua
1953
##imantis
gutxienez
##aztea
gael
gaztea
teknik
212
pra
orkes
##ioren
prote
eskolan
danim
jatorri
##arritako
nekazar
ardura
itzultz
txan
urteen
hit
##takoa
sand
pab
veg
##cher
##lepis
yo
##alax
225
bois
urak
presio
eaj
dirud
282
pristimantis
##itas
320
##dan
##leta
##rako
##atib
##ctus
nar
roy
eran
kongres
gertaera
gobiidae
cichlidae
bederatzi
onena
##osten
errug
datuak
napole
berreskuratu
632
buz
izotz
##port
1944
dikta
tennes
ekialdera
##ment
1929
departamenduko
236
1933
##izioak
garag
edizio
mugimendua
##cer
nit
set
zibila
##orax
koor
zon
##ibe
##delo
antzin
res
champ
hosto
fro
buel
nabarmentzen
##ilis
bus
##olako
abertzale
##oper
jauz
##intzan
femin
legez
prin
apezpik
lanaren
ern
augus
dabil
egonkor
##arro
errek
erakundeak
##idoa
880
map
gonz
post
ahala
itxi
dezak
angeles
albaitariak
##unt
aberas
irudik
denboraldi
euskarazko
falta
horma
teknologia
gizaki
##bidean
li
##opol
aitaren
indiako
arrak
konpainia
##ax
221
432
ath
seb
229
estatuaren
##osus
epe
baitziren
431
ezp
##ikoek
hazten
exek
izana
halako
berrera
332
859
sines
arloan
##ani
zuenez
prestatu
gasteizko
##gus
##iros
##ces
278
isol
posib
eskal
hidro
gitarra
liburuak
##kera
##ks
wood
henry
erregul
ali
hop
lopez
maritime
##ilio
kontzeptu
hyp
irudia
armadak
##cio
peter
##itzari
zeram
bea
porta
hauta
javier
##arrezkoa
##tto
##tiar
musikari
ax
makina
berarekin
ilarg
erregina
gobernua
basel
barneko
eraikia
ikuspegi
572
massa
autobus
gaztelu
ingurune
##kalek
1919
##kun
##andez
begi
alfon
ezagunena
izendatzeko
mendebaldera
abel
xabier
ariz
bort
mendiak
##bro
##tazioa
lepor
langileen
cir
##idoak
bavar
266
##uzko
869
laku
kokatutako
##etikoa
geograf
##izial
##ariidae
bizimo
##ideko
haiz
domina
hiriburuan
##yren
proba
blu
espek
fan
urdin
irudiak
idazlearen
aditu
konplexu
orokorra
##lop
milaka
620
analis
hitzarmen
##tatus
##bio
216
adiera
arkansas
##par
txer
550
pob
eure
colum
handiaren
barb
antzekoa
eraikitzeko
##tuna
mala
gorria
indian
jarraian
marx
lombardia
##och
aske
egunkari
saio
zituzte
##emus
##trak
lub
##izena
henrike
eramaten
##urako
generoa
babesa
zubi
eraikitako
mi
batena
garrantzitsuak
gales
minas
mississ
katedrala
joaten
ordezk
militarra
##yx
ass
##agaiak
instal
537
texasko
##arrarekin
elkartu
espedizio
##eus
##iter
filmak
zehazki
elkarriz
##eba
mid
orn
##mendi
ekoizten
teknologiko
##low
539
nu
234
vie
ospea
534
mississip
##xi
##itis
##amendua
##tte
pair
mendetik
eskubidea
txikiagoa
erakusketa
beharrezkoa
espezi
310
britainia
tour
poeta
zaharren
sau
piez
##goen
pare
##hi
ces
ziklo
fikzio
##entziaren
##ycon
konkista
zes
ezartzen
847
diz
fen
kostaldeko
##ross
udab
dublin
iragan
desegin
##tah
##illon
erraza
viii
##alderantz
##ji
##hem
opera
aitzind
207
##orro
gene
azterketa
proven
kontsul
##iti
##mak
begira
eskand
##tapen
prefek
mineral
##rib
kem
guad
tokiko
bakterio
##icola
##tzeari
edizioa
eztabaida
asmoa
proto
ekimen
bakoitzaren
512
540
mugan
##orren
##istako
##teria
hama
atzetik
zabaltzen
260
##illers
223
vinc
filip
##enteak
leher
tolos
1922
##ono
560
joa
laz
hern
zeukan
alabama
elkarteak
##etts
adin
jor
##agako
goren
geruza
bizantz
tennessee
##ifor
kritika
alc
soc
wes
orri
##abel
##ales
salv
nord
poesia
molekul
dezakete
##abor
654
zentral
hauetako
zeharkatu
noiz
##els
536
llan
ordo
hog
ahalegin
gera
gregor
##aire
sah
natura
txinera
gainetik
berriaren
eski
jatorriz
ohor
black
##ostoma
erbester
dituztenak
##rez
oph
arth
pale
batik
hidrog
nerbio
beherea
donostian
bok
harlan
242
fes
zutenak
##fera
##ites
ful
##iturik
lux
lehiaketa
276
jaioa
trich
idazkari
gainaz
kideak
gainbeh
lantzen
eskultura
##lops
ahul
##izkunde
pasatzen
elis
kons
219
##erari
sask
taula
##ui
gunea
batuko
lasterketa
udalerritik
206
erori
emango
honakoak
tintoreria
biztanleriaren
##ow
##rid
430
fatxada
hegoaldera
sistemaren
##hel
gin
zatia
##oek
ler
murg
erabilitako
209
1943
marc
gaztelania
kn
547
red
##ornis
piem
gaiak
infek
gaitasun
##gur
hirig
226
erref
arraun
gordetzen
##gana
##ynchus
istrip
tenplu
sartzeko
aldaketak
muin
irits
zabalera
##onim
241
ahots
gailu
ilustr
izanda
probabil
312
567
##toren
oliv
south
sozialista
gorri
burgos
berroge
510
itzulia
armadaren
542
##andar
##itara
herrialdea
214
538
espir
lurraz
ekialde
substan
1928
eguneroko
561
568
dim
ints
babesteko
558
tenpl
##berdina
ain
buruan
denboraldian
cour
udan
##lina
txak
##idan
218
dirua
kalean
monark
zuzendaritza
552
him
274
##ilari
##urraren
gutxien
maisu
nahian
ordenagailu
##loa
alm
##alari
##teren
batuen
horretatik
diseinu
##tikoak
arduratzen
211
hamarka
kanadan
konda
atzean
garaiak
saiakera
baitzuten
eragindako
rol
gizater
wa
nego
arrunta
beraren
217
papera
ordaindu
##txako
negoz
antzok
ezizen
mugikor
##teen
271
aitor
massachus
ingalaterra
235
parrokia
daitezkeen
281
erald
bavariako
erabiltzeko
##onso
praktik
bartzelona
##iph
287
tem
eser
##apelle
biolog
##fre
##iceko
esplor
gehieg
##tino
amb
lez
komiki
ordur
kargua
sebast
doktore
izendatua
252
gorp
uhin
##aletan
faktore
maryland
banaturik
publikoak
##lat
308
entzun
horrelako
411
xen
kontzertu
548
arabiar
alfontso
##elak
##itor
borough
570
690
chara
##tion
559
##tekin
senide
##cako
692
etapa
hipotes
burutzen
gizakiaren
mendilerroa
##alu
848
goz
psiki
gizateriaren
##old
##isen
##otan
txapelketan
massachusetts
##iat
harag
erroma
zubero
##ike
##pon
275
##ezen
736
espor
estud
aldaera
laguntzen
partida
charente
322
1921
flav
zaharrena
fra
eboluz
bestela
557
chic
gom
1925
##yi
##tig
326
551
ore
pont
569
sto
noble
nolaba
partik
##azen
zatik
zerikus
##ophus
ziteke
##nis
egite
karbono
teknolog
##gune
lon
bideo
euskad
##imin
postuan
molekula
ikuspuntu
zuzenbide
bav
ote
ric
##iforme
562
bilba
336
##iazio
1926
kore
ipuin
smith
eraztun
hiritik
##iarik
artx
truk
alkat
direlako
inauguratu
nagusiaren
berdina
##gio
dos
mau
scott
acanth
borrok
##tle
ail
dial
jarraitzaile
309
dipl
protagonista
##win
aski
sorrera
244
old
legeak
erreakzio
estreinatu
##kiak
donos
julio
berriko
duenean
gizakiak
alboan
##aca
gek
datza
ligako
itzulpen
historikoa
##nan
mm
cad
1912
eska
loir
eleberrian
existitzen
##telako
altern
852
##ister
bana
roman
##esek
flo
ezinbesteko
215
##idako
azur
##iagatik
rod
bilbon
dioten
propieta
##ket
##aran
egitera
argitale
gogo
basam
ekonomikoa
##ox
cten
##erarekin
zerbitzuak
marie
eskubideak
629
baden
nebraska
gatz
menpe
asiako
provence
adierazpen
hauteskundeak
648
1923
paus
marka
##cal
##igne
nas
##ituko
gudu
ron
##oniako
347
dram
turki
##ski
bit
##tzeaz
marko
##arazten
altuena
batasunaren
argitaratutako
cyr
bizitzera
finlandiako
sinpl
harremana
251
868
king
lurper
719
itxar
demokr
esanahi
##atiboa
##arrizko
213
##tzeak
urtetan
publikoa
mediterrane
564
kud
muino
##dioa
##itak
hill
koal
bezero
telesail
##bete
##eron
##abeak
1927
lurmut
gaitasuna
325
eka
afrikan
folk
##ikaren
valentziako
xeh
zurr
zerbait
kazetari
##iaga
cop
war
pisu
##erekin
hamabi
##nathus
profesionala
zapal
##lad
afrika
##moa
##agan
rec
ekid
araba
itsasoa
direlarik
errepublikaren
608
elur
altua
dioen
##azional
hetero
kontrola
##psis
##keten
alko
erlo
espetx
gogorra
unibertsitatea
549
tokia
historiako
ti
klase
jaitsi
jainkoaren
sortzailea
##ryne
##ede
1914
oise
dugun
poema
daniel
##oro
##atsua
argital
eleberria
izateagatik
nin
minutu
nagusietako
tintoreriak
ut
aud
leiho
suediako
820
##erazko
sirak
##ef
princ
gauzak
joateko
dezakegu
##bal
anat
golko
##etarikoa
banda
##itta
##rich
##ilidae
filipe
positibo
bizitzaren
##doko
849
##ulako
554
842
ertz
##gabeko
##tasunean
konbentz
beharrean
##bre
1924
kontinen
laguntzaile
580
inbad
jolas
valle
##opterus
andaluz
##cr
bereziak
##ehun
737
bater
alpes
erresistentzia
##mel
bek
fland
horretaz
piemonte
basamortu
quebeceko
belar
nagusian
partaide
337
kantabr
erlazion
##adia
topatu
##iloba
##tario
komand
lotutako
##inger
corn
modelo
squ
bell
tokian
eskuetan
maitasun
pur
east
##untzen
gurutze
posible
319
dic
berde
eugen
zigorra
292
628
734
mill
giltz
##atzearen
kentucky
##col
##main
sax
diametro
gymn
buruj
##ack
256
pren
antar
defentsa
illinoiseko
egoten
tenperatur
##gol
##lep
##tip
248
danimark
saihes
##atzat
iparraldera
##jan
##akul
cra
##atuan
marin
718
2019
##tziaren
adierazteko
870
abok
zigor
egokia
arrantza
##non
aginp
oinarria
baxua
##itmo
##ailua
mendea
##oh
##pez
##sch
311
##oveko
prus
batzar
dituela
itsasontzi
aul
denak
konbin
jasaten
dokumentu
317
cur
hari
saltoki
582
##tatzea
kimiko
##iarraren
627
garaik
babestu
1910
apro
igar
687
1900
zerg
##hausen
##tarren
frogatu
emakumea
##ame
747
bira
maroko
667
668
erail
alorre
postua
herbeher
##agua
esn
fri
anal
eratorr
itsasoaren
##inda
sierra
partikul
283
udalak
duelarik
273
montana
itur
mosku
erakundea
##ild
##acio
anth
kapita
lehenik
##ican
baxu
hend
galax
margar
zituenean
##iod
##pec
##sin
garbi
aux
mete
biribil
teil
haietan
lurraldeak
717
biek
artif
urrian
lortutako
##ares
249
264
automat
377
nau
karga
lepto
oztop
torre
kolabor
erabateko
607
zak
nova
esparru
285
kle
##astor
aldakor
alemanian
##ituan
cruz
estatis
enperadore
##ange
erretr
330
abenduan
##tti
egiaz
bikote
martinez
garagardo
ll
om
birj
paisa
garaipena
##tolo
inongo
santua
mailara
gainditu
aldizkaria
##piko
pip
kontzej
##zon
jazo
biltz
haize
taber
kartago
##ria
##duak
368
chem
inte
##iantza
inaki
baserr
hiztun
297
nov
lein
minbiz
sistemak
ondorengoa
arrau
##laritza
organo
fernandez
izateaz
biztanleen
uretan
izendapena
##ois
tole
salbu
garapena
beharrezko
##agarriak
##olit
850
labe
postu
fisiko
amo
lot
erron
kau
adam
ezab
ikur
funtsezko
antza
ezberdinetan
##ace
##ifr
##med
liola
azpies
konstituzio
taldearekin
##aduna
cyn
harrizko
##enos
duke
esangur
heltzen
zenetik
borrokan
##paus
esz
##otako
##inguru
diska
##ketetan
barbus
##int
##atsa
334
calais
fase
savo
donib
##habil
apar
bilbao
asturias
kategoria
pertsonen
##wako
479
##lekua
hungar
lekuko
finkatu
heriotzaren
324
paulo
ekainean
##chn
jus
chat
hamarkadetan
etengabe
merkatar
##tone
louisiana
oinordeko
martxoan
490
cat
##ismoan
bizia
zerbitzua
##umo
##itou
518
652
bob
nabig
alderdia
bizkaitar
euskaltzain
##ili
##azten
##uneko
arin
688
1916
ekoizle
gipuzkoar
ahalbidetzen
318
askatu
ahalmen
ezkerreko
margolari
##uela
340
sinple
finantz
aztarnak
colorado
233
antzera
##wan
259
##ioten
viet
kolonia
sorturiko
eraikinaren
txirrindulari
pit
sime
hilob
hartuko
kontinente
berp
datoz
orien
ero
you
aitak
unesc
eduardo
gazteak
estatuak
portugalgo
done
gatazk
italian
246
752
antso
perez
ikusle
errepres
errehabil
##ingu
ematea
baititu
gehiena
istorio
kaliforniako
data
otom
utah
meatz
konpar
handirik
highland
##aden
731
politikoak
290
742
754
londresko
eskubideen
lotu
rodr
##goaren
eskol
arroka
aurkezten
turk
urrut
jendea
amerikan
greziako
mugitzen
hasieratik
argitaratzen
lanen
eskail
gerais
eguneko
ohitura
irailean
nagusitu
##alar
245
estrop
duelako
mendiaren
lurraldean
truke
##ostomus
255
284
##kanaka
ituna
portua
album
pablo
sortzea
inperioko
partikula
##ress
257
aileg
poitou
480
jeff
kudeak
sektore
taldeen
kontzeptua
840
urd
738
liberal
protestan
##pel
243
general
monumen
animalien
zinegotzi
herrialdearen
258
yam
##aiaren
kolek
parkea
georges
yorkeko
azkeneko
##obil
##quin
alderantz
##yin
699
##atzak
##korrak
komedia
##oe
##aleen
laburre
##ularis
##etakoak
lankide
hiriburuko
408
697
glas
niko
erromatarren
hag
geltoki
##cas
##artean
funerariak
errehabilitazio
##ife
##ivers
artea
deskribatu
434
669
##aketak
alban
moduko
txarte
kartzel
finantza
##iol
##tral
##atika
jokoak
bertara
517
gris
tiro
chrys
ic
atzerr
naturala
tik
banandu
software
elektriko
ilar
konde
amaren
esanah
fenomeno
proportz
##zor
jota
##tolome
murgil
guztian
zek
asia
##azioen
gonbid
herrig
##isio
sec
##elles
traf
depor
hartz
uraren
fu
##pia
mait
urteak
amaitzen
testuinguru
zirelako
ordenaren
##nik
##uka
ve
klan
sobiet
##irostris
jabetza
elkartzen
##elli
bail
term
plaka
kimikoa
itsasoan
sof
hotel
inbas
rodrigu
ezkontza
plazaratu
##burgh
world
zirelarik
##ses
argazki
kalitate
##utik
247
740
larre
zebil
filmean
erabilia
hizkuntzaren
##cht
mendiz
kanpaina
telesaila
##dt
banak
freder
##ova
batasuneko
franko
colle
ohitur
independente
296
jackson
gonzalez
hun
tub
instr
jaten
jacques
santuaren
lak
thr
ezagunen
gregorio
##chth
409
funtzioa
sav
##hardu
##ikari
egur
##cheilus
auzoak
etxera
pennsylvaniako
##hou
367
artz
sex
debu
##adaren
zutab
azkarra
edward
315
316
cher
cons
batzen
berrien
sailkatu
##lie
##istro
ross
itsasoko
askatasuna
iraultzaren
##agh
##tter
bitan
somme
segundo
dinastia
##atzailearen
inguratzen
739
sinplifik
blo
alfre
felix
fikziozko
emakumezkoen
babesten
ry
but
human
auzoko
koordin
elkarlan
bin
dendro
belgikako
1913
uharteko
##ophryne
aragoiko
294
##atikoa
minister
356
etik
##temberg
##rh
lee
lamp
modura
nahikoa
zerrendan
##giz
cab
dinam
jauna
647
tig
arreta
erruman
chapelle
eraikinak
elkarrizketa
jup
judu
aplik
errio
sekre
supos
mundua
agindua
jainkoa
charentes
bizitzan
alderdiaren
##bako
hogei
gerrak
mendik
sukald
dagokienez
##ilu
fid
erdia
medio
gizona
handiz
berdinak
euskadiko
##duta
##itud
leuc
drama
zentz
bavaria
laburra
##fen
261
##izuna
urtarrilean
##amako
##arriko
che
pian
detek
##igarria
mediku
zaragoz
##itsu
877
ara
lod
one
ildo
arnas
berme
hezur
kuan
gekkon
herritarren
879
ezagutza
gekkonidae
254
##turaren
argitara
##abidea
ligan
harategia
402
lad
trik
johnson
aipagarriak
fig
mald
lurreko
bretainieraz
263
602
onak
chate
##garrien
ezkerr
zaldun
zuriak
emaitzak
terminoa
gertakari
bakea
hango
penintsula
##omo
##tegiak
kolpe
national
bertsolari
ri
##ther
sap
1911
zerga
brasil
abiadur
itxurako
ruf
loric
nolan
steph
ahalmena
rev
uda
hard
brook
erreta
253
344
##eratik
jersey
turing
maiatzean
comp
opos
wurt
derr
mand
definitzen
xurg
enpresaren
erabiltzea
##ute
265
berber
brev
##lariak
antrop
ikusita
intelek
##ault
541
nep
##igile
aldund
ingelesa
ikastetxeetan
698
kokalek
ministroa
##mas
288
antig
##itatean
psikiatr
321
komen
salmen
polonia
elementuak
##uga
##wen
450
##arrari
colub
hilobi
##erodactylus
##ric
##tena
##akizun
craug
oregon
baseliza
##fin
##wick
331
lekuak
hamaika
zitzaizkion
gos
ibn
##ogram
satur
baitzituen
wurttemberg
cel
cob
haplo
314
viv
##osaur
basil
pixkanaka
craugastor
prefektura
typh
##etta
##ateke
aret
azpieg
kanpain
salaman
alokairu
kontxako
giron
hiruko
alderdiko
##nem
262
##zkero
salb
ekolog
##hai
##erna
amaz
konden
pinyin
ospetsuen
##plan
bloke
japonieraz
alts
cryp
##toreak
donosti
donibane
uhartearen
##oy
##zan
900
##arrib
1905
itzal
zuzeneko
calv
chal
ezezag
inolako
bru
tox
alberto
##ates
420
429
579
bulego
filmaren
francois
kontakizun
##enia
298
estua
andres
##san
##uve
730
##itiko
lehenen
##tzeagatik
380
##istikoa
aurren
iowako
adiskide
hyps
sirakus
narrasti
frantsesa
intelektu
harrezkero
295
839
##arretik
rafael
##hun
851
##grafia
austria
handienak
mitologian
zentsoaren
gizartearen
##erg
##aroa
##metan
pata
##tsuena
zintz
gizakien
##cos
488
esklabo
latinez
univers
##igr
urg
abuztuan
mediterran
##itakoa
##atzeari
##opteraren
eres
eskas
gorputza
idazleak
medikuntza
##lossus
ptero
meteor
errusia
gobernatu
pentsamendu
base
##ms
kla
antze
lizentz
732
nac
##itateak
philip
##tzez
323
sac
gurasoak
omentzeko
akats
boliv
jatorriko
ezarritako
##omyc
##peta
gabri
characidae
##ser
caud
klasiko
muturrean
##lac
##odor
espan
pales
tropik
chiropteraren
herbehereetako
##enz
konek
bikaina
indarrean
##fort
##viako
diego
dialek
denboraldia
by
##atia
hum
zaion
lortuz
portugal
iragarri
ohorezko
291
gio
gis
lew
puy
sten
urtearen
mississippi
##dont
##eras
aisne
hobek
bilatzen
herritik
solairuan
norvegiako
##pek
##olde
499
now
##burua
deritzon
hurrenez
##iboa
cul
edin
astronomo
wy
1908
##tarrak
bertso
guardia
itsasor
jur
mina
herrira
##nar
prez
tasa
##yer
750
##azken
espero
sardin
baziren
bereizi
##dam
##tei
nem
zezake
gainbehera
##pha
anitz
zibilaren
##nos
##retik
holly
balitz
ohioko
arizona
txileko
ikasketa
grezieraz
lem
azuk
##aut
##elen
691
buenos
elkartearen
hans
uztar
##telarik
agirre
laurent
##ienne
indus
gauzatu
uztailean
293
301
388
ardo
haitz
athlet
efektu
idazlan
pintura
auzitegi
departamendu
##yidae
salatu
galtzen
penintsulan
##ialdi
dips
hiltzen
aroa
soziala
##dal
##ianus
migr
santo
eginda
azaroan
apirilean
##anak
seguru
antzina
satelite
potentzia
azpi
intsek
tamain
germain
debekatu
327
422
zih
napol
espetxe
traineru
##dul
inten
jaiotza
abestiak
nolanahi
populazio
probintziaren
nom
##ovice
atze
nicol
ugaztun
aurkikuntza
##elek
##idium
1906
etorkin
ty
soin
misio
mendilerroan
671
aginte
baiona
lurrean
berrogeita
##rian
##uzio
872
sarri
mariaren
orkestra
##iso
hin
1907
eskandina
##aw
##urak
cric
ospets
cac
fle
sep
##tegian
oblas
unescok
substantzia
doh
astro
catal
erlazio
sebastian
kulturaren
##ult
##pidae
##ibaloi
drago
galera
berrian
negozio
harremanetan
irr
bosn
doub
zorion
zehaztu
hartutako
jarraipena
deskribatzen
492
522
##ignac
1909
egotea
bestera
saskibaloi
##andro
energ
498
zit
aliatu
herrix
defents
espektro
haietako
laguntzaz
laguntzarekin
egitas
parean
trants
barroko
hizkuntzak
489
fink
mister
zaharberr
maite
ingeni
ignacio
##iru
##durik
bran
difer
irizp
duenez
japoniar
marrazki
psikolog
##bra
328
matr
prest
porrot
aldizkarian
##phy
644
fakul
anolis
##odontidae
lehendakaria
kentz
igoera
pizkunde
erreforma
329
407
ash
##ikara
iruz
kors
##itzailea
fakulta
marrazk
antzekoak
galiziako
364
tald
bizidun
perpaus
seinale
zurezko
abeslaria
##bada
ober
hondarrib
interpretazio
##kien
635
##igarri
lurzor
##tegiaren
sinplifikatuz
751
alta
brand
##idearen
ordura
pasatu
semeak
telefon
zirkuitu
poz
croc
muskul
konstantin
edon
aldea
jaiot
radio
heidel
saiatzen
•
ker
kum
##iekin
##lezko
sekula
eskolak
materia
plataforma
mediterraneo
741
##komun
puer
barrena
gelditzen
##tzun
lut
aman
immun
istil
##ihar
428
##afrik
altzair
ohikoak
komunista
poliziaren
lurraldearen
##akh
##amer
gaiz
errend
302
got
sym
##iarazi
erreka
okupatu
##ikon
##arius
##lanis
1890
abanta
nukleo
haserre
hegoafrik
hondartza
##arki
baitute
baserri
ekarpen
dec
batua
albert
solido
urtebete
nev
hilketa
##ferentzia
##krip
kata
orto
##iarako
patro
bateria
erretiratu
dre
oli
##gunean
bilaketa
palestin
##sek
ean
jel
rib
pase
seti
beroa
##urrezko
izenaren
gaia
##eratua
inpor
melano
txosten
dirudienez
##ska
##igin
335
720
lanik
herrien
egunetan
##chez
##iran
petri
titul
atxiki
##erriaren
enperadorearen
##nay
##agne
##rach
seku
badir
##ary
alda
prem
froga
alkohol
errugbi
lorateg
pod
inber
erromatarrek
kup
greba
hier
zarau
##ophorus
sk
313
bed
kolp
krom
daram
oreka
existen
ezizena
##timetro
##unc
624
russ
agian
bertik
disolb
daudela
jeneral
baztertu
berdineko
zituztela
##jel
##asuna
##egiak
##ordea
lehor
pisua
aba
aldak
kroaz
titulu
armadako
##idad
agr
taul
giroa
athletic
proposamen
ekonomiaren
##anov
1903
letra
egokitu
hazkuntza
440
701
arist
##tasunez
inprim
otsailean
##olak
##keria
autor
garaile
ingurumen
286
nema
angelu
arrazoia
hitzetik
justizia
bosgarren
427
eryth
simon
##itarren
alkatea
kokapen
txikiko
ikusteko
isurtzen
dagoenean
eraginkor
zum
dizkio
##tatutako
itxarop
lirateke
alexandro
erregistro
presentzia
pac
poec
tarn
##etidae
arreba
lekuan
luzeak
zutelako
##tiboa
##enidae
##taldian
plazan
hungariako
gorputzaren
##ase
##odus
##espen
lizarr
aldagai
kontser
istorioa
honetatik
##hu
##iy
##ull
##intzat
inspir
likido
handian
vietnam
ibiltzen
sv
##arrera
iritzi
ekitaldi
##ikak
royal
erradik
ci
##udun
gard
scor
muridae
erraldoi
matematika
1915
hall
tomas
##izioaren
daukate
herrietako
pinyineraz
ingeniaritza
304
pros
interne
elikagai
hedabide
##ball
lun
syl
dimen
altsas
zutena
##ologikoa
hedapen
erregeen
poliziak
aurreikus
colubridae
##itsua
kapera
398
406
436
841
lud
##taine
mars
zeel
birus
##entzian
zauritu
##kir
sustr
erreform
306
##iform
fosil
behartu
##izazioaren
laguntzeko
ech
##onimo
##terako
phryn
delakoa
##atzaileen
elkarteko
harrapatu
prozesuan
##uze
bale
lineak
tenplua
zehazten
rodriguez
nazionalak
##lec
##adol
ipu
jorr
utziz
benetan
chicago
ditzakete
zituelarik
kontzentrazio
1000
zioen
center
chateau
iturria
liolaemus
ezagunenak
minnesotako
##eden
##txeb
ras
tas
gang
mall
agerian
estiloa
alderdiak
historikoki
mugimenduaren
305
355
nos
##alitate
##ami
##elu
##wor
##darra
##okrat
hyper
param
neguko
ingelesezko
##okr
lum
##istura
hautsi
erresumako
##edro
854
##abeth
terror
baimena
beharbada
##hin
##arch
kaleko
kontur
oxigen
osoaren
zeudela
maitemin
erresumaren
##tiv
fot
1904
eibar
egilea
gotorlekua
##mako
1902
klin
saso
seri
##anthus
itsasar
legearen
udaletxea
289
507
zul
finala
euskadi
menpeko
##vie
##amin
##ello
##enen
##thorax
eskolako
petrolio
##ds
##agus
405
714
legeg
onddo
zentzu
igotzen
##orhynchus
##pid
##acion
##atzeak
peters
desberdinetan
lob
borde
eutsi
askotako
hamabost
marraz
paralel
bap
##adidae
chaet
iluna
sakaban
gizartean
argitalpen
konpainiak
##ideen
1901
anne
nano
obrak
klasikoa
osaturiko
ay
502
519
fur
brus
hemis
jasotako
abeltzain
londresen
1889
lasa
henri
erradio
##tta
##ctic
##gues
##illan
agur
##izunak
prezio
zeinak
zihoan
##dus
##mond
doug
errez
prozed
arrakast
calvados
norabide
lehenengoa
366
520
pes
megal
river
datorr
nazionalaren
##cin
##loven
dakar
garaiena
lizentzia
604
oto
##tunak
##araino
parad
zezen
derrig
##dactylidae
ezinezkoa
414
497
##tatuz
galde
sortuko
turingia
produkzio
missourieko
##ych
antzezlan
artifizial
544
berari
pentsatzen
quin
gutun
jazar
talka
ahotsa
normal
musikaren
ezberdinen
zentimetro
ion
uran
mendek
gipuzkoan
hod
##kidea
valley
karrera
osatzeko
handiagoak
##mi
##apa
nam
zale
berau
greko
soric
ideiak
digital
horizon
ingeniar
##arioa
amph
lurs
izendatzen
509
ela
kontsid
udazken
ateratzeko
telebistan
presidenteak
##cl
deko
anark
errib
guztietako
jazz
klor
##izatzen
georgiako
prestatzen
##com
main
yosh
gilen
eleuth
##artasuna
zibilean
aurreneko
tos
zun
##burgoko
betiere
elektrikoa
##gow
307
333
381
##alekua
##chester
##akue
##taro
390
528
aku
##etari
hobeto
areagotu
##ardi
bun
vos
alpe
bill
cara
dizip
protoko
zizkioten
##aski
365
##atuena
hasiko
txapelduna
hills
loturik
maurice
christoph
ingalaterran
##ashi
376
##gintza
allen
triang
neurtzen
mugimenduak
##ters
890
idah
leiz
poem
##ologian
baimen
kimika
mugitu
##ologiaren
mugatzen
animaliak
okindegia
##yz
pag
##atean
carl
ertain
law
1898
##illako
abere
ordurako
liburuaren
psikiatriko
erakundearen
##obr
387
krist
alabaina
ny
sl
421
694
jim
##egina
lewis
datork
neguan
##ipo
##lax
##orum
##uria
tang
dadin
azkena
hautaga
irauten
pentsatu
aztertzeko
748
##tatuak
campo
newton
agindupean
esperientzia
hipermerkatu
##yle
##akin
##ieux
404
xxi
##andia
indo
mendiko
##itzaileak
##iger
tyr
bres
sedimen
baionako
matxinatu
##ope
sinte
sanchez
emakumeek
kontrolatzen
##feld
etb
##teetan
enbor
zehatza
indartsua
##hat
##rel
670
zan
gabriel
ekintzak
trichomyc
##rop
504
1848
sara
txina
adimen
marcel
printze
senarra
handitzen
muturreko
erbesteratu
1870
ikusgai
mugakide
##bora
##ique
378
##oming
plak
wilhel
haplochromis
##opo
##ical
##uang
pia
borond
zitekeen
##toi
arch
gaitz
aitortu
saltzen
organismo
299
##egatik
brown
mutil
alboko
centro
artekoa
harekin
hylidae
lantegi
arkitektoak
card
badirudi
murriztu
portugald
ezagunagoa
produktuak
##oso
oxid
oihan
arrunt
korrik
filosofo
jartzeko
alt
##arrut
etxalde
tarteko
601
lil
krisi
zatiak
##karen
##ulata
hara
##odidae
algor
anaiak
laguna
bertsioa
kanadako
cho
##osoma
eskala
bizitzen
##ebe
363
glen
lotua
apogon
baitze
gorriak
katoliko
345
tum
barak
crist
zetor
hartua
heriotz
303
##uriko
hode
353
etap
barre
nekazari
zenbakia
eskuineko
aipatzekoa
##riako
ustel
eredua
savoia
altxatu
artzain
cricetidae
propietate
##fan
##illus
argent
esloven
askatasun
dinastiako
##kie
cass
stal
clark
mazed
bolumen
##dela
665
negu
ateak
eginak
buruzagia
loricariidae
##str
##erara
sher
plast
artearen
##itt
##rac
396
vik
grac
leih
ibaien
subjek
nicolas
ye
kid
jura
rekin
britan
napoleon
##aingo
##ialak
pena
castro
honakoa
pseudo
##lenn
gerrako
##esi
589
pio
rat
##denak
##tsioa
burgosko
stor
##termin
lengoa
hiririk
##eki
##imus
dei
meur
berrez
santuak
508
##atzeaz
##ophilus
nafarroan
##tum
arta
ikar
irad
suer
barru
ester
botoen
magnet
##intzaren
agustin
tentsio
ikerketak
##eng
vin
torn
gusta
zortz
diskoaren
erm
lid
pak
rep
mach
ereser
aztarna
sentimendu
##ors
369
871
##unetik
autom
perio
##itarrak
franklin
musikagile
zientifiko
##bl
lev
erloj
jurid
alaska
arabieraz
trenbidea
penintsulako
424
rud
kolorea
bihurtuz
##kid
##asia
##tzio
426
pieza
larriak
moderno
hitzarmena
liburutegi
##tac
errenta
mantentzeko
343
384
527
605
rem
baze
ziho
##bestez
sents
tribu
museoan
hainbeste
##amon
digu
fair
##tatuta
alber
johan
jones
gizakia
pirinioetako
##amn
##gua
887
ink
zazp
publiz
gazteen
##asek
##txean
1880
urez
irlanda
bakarrak
etxearen
valladol
kontseilu
##undi
loh
etsai
arantz
estazio
memoria
iraultzaile
##anek
##tzetik
domingo
oinarriak
##zu
##ips
ebro
hodi
ekonomikoak
enperadoreak
372
##itoak
esne
arrok
meuse
aqu
bast
gros
hauei
eramateko
##asi
##pes
areto
orobat
oinordekoa
argentinako
##adr
fort
klim
norte
elisabet
elkarrek
enperadorea
##olf
jerus
badute
neurriak
zuzentzen
rob
vern
gaurko
olerki
vienne
##liz
##elus
##gile
##oiak
##tius
413
##isioa
urban
bihotz
##any
435
511
##maren
vers
plano
erasoa
estaltzen
administratiboa
##irak
370
487
brad
atala
borbo
ahalik
##arretako
baitago
epaile
sarbide
frantziak
##dale
##vill
monta
politikan
zutelarik
656
##doras
##jarvi
##ostom
euri
entre
pribatu
lurretan
estatubatuarra
##azu
##onak
##tarra
gand
itsasad
espiritu
##garritasun
identifik
kantitate
##fis
##net
##ony
##idus
##more
##amendi
beach
oparo
water
gehiag
hiribil
victoria
nazioartean
##wig
##txoa
ase
##ather
##ilako
##rique
hotz
sufr
harry
zezan
salvador
erreferendu
batezbesteko
goku
rein
erago
tolosa
##olin
1892
1897
##turako
dordo
ibaian
joango
amaitzeko
hamarkadako
##esten
##ezina
haut
##izatua
##ulidae
julia
mendietan
konderriaren
enba
osorik
bizkaian
transmit
urteotan
denboraren
bibl
chap
dutena
ans
lex
pozo
##iagoak
haurdun
hoberen
kontutan
txikiena
zerikusia
printzipio
##agoak
nire
atomo
hamarr
hasita
douglas
hondakin
internet
artistiko
##utro
625
fac
##orreko
babil
milio
espezif
bizimodu
alemaniarrak
##hyla
hub
suz
morr
mendig
sakona
aholkul
jainkoak
501
626
fax
karratu
pp
pala
##urteko
corre
lapurdiko
lizeoetan
fir
stock
batuan
sartzea
konplexua
##ited
zim
formako
zitezke
##ezka
##zion
491
621
rab
piano
##tzerakoan
militarrak
729
cin
##ariar
sarea
lanbide
##arko
badia
##itateko
ikertu
kideek
heinean
##bis
equ
clin
jord
kenn
chris
##tazioak
arbaso
vicente
##atzaileek
iraupena
zeelanda
dagoeneko
jaurlaritzak
did
cambr
lauta
saioa
indark
edinburgh
##tov
##atro
amin
egotzi
utzita
jainkosa
itzultzen
346
577
mys
##ights
##talis
belle
wilhelm
egunkaria
##rezko
etsa
##teridae
datorkio
modernoa
403
dut
dekor
jaurt
ideologia
##try
##eroa
pik
mora
zaizkio
##ueva
aleg
harik
zientzi
erabakia
zaharrak
laburretarako
gh
##alau
sup
ahiz
##zional
lorategi
siziliako
monasterio
nolabaiteko
errepidearen
##nil
##uto
496
535
gehi
harana
kardin
handikoa
##dec
888
1899
oker
pomac
orratz
international
bax
hay
##ester
##vision
doubs
gymno
lehia
arazoa
konputa
jokalaria
1860
giovan
kooper
prezip
haurrak
sakonera
herritarrek
##ance
##real
fall
test
sumendi
gehiengoa
munduaren
##otr
sn
494
yor
amor
boul
guda
spin
yonne
metroa
##mys
##uck
nik
bola
fruitu
gorena
munich
urrats
anderson
araberakoa
##leri
behi
jane
pedago
arriskuan
##irau
460
indre
urriak
argitaratua
622
inc
akzio
enbax
azpiko
taldeek
ikertzen
mendebalde
historiaren
##iler
roc
atzeko
ontzia
zinemag
menderatu
##000
##etro
##tina
pad
brig
##goslav
argiz
darama
johann
parana
ekuazio
oinarritu
izugarrizko
##itore
elorr
harka
deklar
formak
aldekoa
lortuko
ekoizpena
##zy
latinezko
dipsadidae
##lic
##atxo
##ortzi
iren
orne
tayl
india
memor
ortodo
##itzarako
gironda
nahastu
wyoming
alexander
bestearen
diametroa
ibilbidean
##icia
##opota
dutelako
idazteko
defendatzen
errepublikan
conne
konta
alorrean
buruzkoa
baldintzak
hep
##stein
amak
bath
enkar
santan
glasgow
beherako
##osen
874
tib
ahaz
apol
##edrich
dolar
aurkik
ederra
fantas
hautag
lurrun
arduradun
ondorengoak
382
##ainen
##adanik
zedin
hondor
joanes
*
atea
bour
kudeatzen
zilarrezko
##ols
##ugu
397
529
wat
##etarik
##olles
abian
valde
plante
jadanik
iraunkor
395
vau
gomend
irunean
meurthe
oak
##engan
amets
haurren
apezpiku
##diak
ples
niger
kolonb
springs
nahasten
christian
gobernuko
##uruz
dev
mih
morf
eskozia
##bs
##idg
##tata
482
ita
wolf
jabea
jorge
betebeh
eguzkia
wikiped
hartzaile
langileak
ondorioak
finlandia
375
##iorik
##adorea
joseba
lehorr
haurtzar
495
zip
##eretan
isere
brachy
manche
##sta
##obran
1888
pall
##ciatus
denis
istripu
posizio
roberto
behintzat
eskailera
izp
anti
cuen
pueb
eztan
robin
white
egunez
aberatsa
izugarri
nagusiko
ulertzeko
##nen
armak
serie
burges
erriox
frantziaren
##met
486
525
oiar
sulf
##tariak
kanpoaldean
##atxu
atmosfer
##oklas
alan
neutro
schistura
udalerrien
konputagailu
sho
##oides
eban
hamil
hebre
arrats
dihardu
gizaban
hemisfer
dentsitate
aldizkariaren
##kina
865
##turan
1893
atlet
mendian
mailatik
internazional
459
hex
kai
olio
##ketako
chlor
##ibr
##iva
bao
##turen
1879
kordo
##cen
##ilan
383
leio
kutxa
model
txand
azpitik
austriako
kudeaketa
zaragozako
love
presioa
vincent
teleskop
xaf
##tidae
pais
hobetu
izenean
erlijioso
inork
panta
fisika
aurpegi
berrikuntza
hamarkadatik
historialari
##hl
##hr
##talak
dragoi
zegoena
entrenatzaile
##ilog
gim
rand
bizik
koroa
senar
gehiengo
jugoslav
etengabeko
hondakinak
##amb
##hor
##omon
kun
pus
##mouth
sold
##iarrean
luzatu
harrera
##lay
##ezin
stu
well
zera
montan
gehitzen
errusieraz
##ego
##aira
ever
minu
kanad
agintea
berrehun
ezezaguna
ingeniari
385
sid
##atiba
##askako
puerto
erakuts
bizitzako
##cu
##iven
##resio
##trina
##uteko
cott
aprobe
boltxeb
txanpon
esanahia
ezberdina
##511
##oshi
ehiza
albuma
garden
##arazteko
hizkera
nikolas
oinplan
bidaiari
##elor
##apean
1882
1896
gose
shin
##izkien
bideg
##atearen
errota
eremuak
erregistr
estropada
hidrogeno
laborateg
maiztasun
gehiegizko
iparraldetik
##izu
##iton
374
clo
izoz
arthur
burdina
irteera
##atzerakoan
ikertzaile
cy
fisio
kapitu
street
abokatu
friedrich
artikuluak
##oll
##usse
isa
jab
coun
batere
nahasketa
australiako
##aze
##kins
##magn
856
cyc
net
ruiz
ditzakegu
bultzatzen
##haus
poni
harria
amerika
sekulako
392
tierra
belarri
joaquin
erroldan
1891
diaz
ikurra
simetr
mendera
azaltzeko
apaintzeko
##kh
##rey
##uts
464
tera
ipini
spring
ugariak
zigortu
zonalde
bidaltzen
errespeta
jarritako
neurtzeko
antolatutako
##tein
386
lav
aniz
isil
lisk
tetr
pelik
eusten
deporti
zineman
errealitate
##cor
##ezia
##idur
##ipenak
vasco
nowiki
intents
##ige
##kim
##ibid
##mina
##agaien
##daketa
aldian
iritziz
inbaditu
ukrainako
zaharrean
konposizio
##opolis
unean
##idactyl
kondea
ganbera
iristeko
zibilizazio
##txu
deabr
diete
printzea
zaharreko
##ozo
394
maj
##linen
##kariko
barra
ahizpa
distir
jantzi
##tikoaren
kanpora
aprobetx
atzerriko
ingurukoa
pertsonaiak
##ega
##ting
1857
mezu
oste
etienne
american
bisitatu
erabakitzen
##obal
##rata
##urgia
gazta
rober
ontziak
egiturak
islatzen
azpiespez
zientzialari
aldarrikatzen
##umin
1894
aurpeg
bilatu
dioenez
esanetan
egurrezko
kanporatu
##hac
##zah
##then
417
sky
1850
trag
txikien
ulertzen
definizio
ekitaldia
belaunaldi
bartzelonan
##gon
##doak
438
ardi
whit
uzteko
gogorrak
lehengus
##366
##544
##rys
##wal
1861
cory
valen
ezizenez
kalearen
herrialdeetan
##cop
##ions
gers
kosm
platy
roger
aristo
merinda
komunikabide
##alem
##utus
##iriko
chan
umor
asian
dagozk
##idactylus
alarg
dezan
ikasteko
fitxategi
berreraiki
aipagarrienak
1895
asir
linc
noth
jaiak
bideratu
524
last
vlad
bourg
bitarte
konstel
dordoina
carolinako
ا
kv
##ague
##otis
389
##icourt
arauak
aintziraren
##urua
##elatu
##otyph
gaix
costa
azukre
eskaera
sizilia
aurrekon
##eca
##ynch
592
623
myr
tab
fuen
soci
brian
bilera
irekia
lagunak
paretak
termino
definitu
kataluniar
hirurogeita
##355
##356
470
612
cav
1830
zeren
kansasko
transmis
parrokian
konpainiaren
acc
jam
##omako
beir
##resion
loren
##ieraren
petrol
##ognathus
monarkia
plataform
zenbaitetan
##mad
416
##cistr
thor
##cistrus
##ituzten
deusez
egitean
##nu
##522
##bias
##ichi
oax
##icolor
basat
maita
##penaren
norber
walter
jendeak
argiaren
666
off
##izkie
zutik
alonso
united
zirkulu
gizartea
ikuskizun
##kas
##igon
spha
iloba
errein
felipe
nitrog
abentura
barakaldo
##edad
##idio
633
##detako
aldia
beran
mount
ponte
jakina
komuna
kristo
txarra
litoria
diseinua
indarrak
##cis
468
556
1876
diez
hyperol
paisaia
##irre
##aleku
formul
biltzar
partidu
aktoreak
##osi
693
##tzien
amen
chau
emit
soil
##tarrek
leton
migel
osatuz
kontzertuak
ezinbestekoa
##kl
##cty
##ikia
end
1887
bizil
zatiketa
seigarren
aipagarria
enpresaburu
dj
##laren
ebak
##ikoari
infan
ptolome
giovanni
hautagai
jefferson
kostaldea
##hof
kg
day
occ
plo
beld
txori
agente
emaitz
horiei
mehatx
veneto
haranean
gaixotasuna
literaturan
monasterioa
##399
gaizk
abestu
jaisten
suediar
mintzatzen
##tob
609
gem
direnez
irakurri
kultural
aipaturiko
481
dud
trim
##ingham
aljer
senat
lituan
bazuten
gaztela
israelgo
bizantziar
gobernadore
##577
##588
598
mess
gasko
larri
osaba
bonbar
erreser
##tier
462
abr
orio
##untain
hamaz
isuri
estatus
zizkien
hipotesi
zorrotza
agintaldian
##oln
##vice
371
546
dekre
hamps
zatian
zibilak
konfeder
connectic
mitologiako
cd
##itus
suitz
##ologikoak
aliantza
protesta
itzultzeko
ges
##iatus
punk
##ikaria
honetaz
tresnak
##yon
399
423
anto
hong
ivan
kutx
erasoak
daudenak
nacional
bilakatzen
##alon
##gunea
1840
aube
hera
##edi
727
##ialde
##igarr
cross
##mea
565
603
jartzea
pauloko
abiatzen
##599
415
##uther
topo
##arioak
bened
erans
hegal
mehatxu
erlazioa
interesa
xehetasun
danimarkako
##mia
##roc
sop
argudi
vosges
lortzea
espeziea
burutzeko
erabiliko
##322
gener
uztea
##obrycon
sariak
##izatzeko
eraberr
ezagutzeko
sailkapena
telebistako
##uge
##aton
##inoa
kafe
leongo
berretsi
datorren
burdinbide
hizkuntzal
gertatutako
##taria
reich
antolak
arriskua
berlingo
nagusitasuna
departamendua
##320
##388
516
rip
bang
xede
bortx
baztan
harrob
katolikoa
mitologia
arraindegi
ekialdetik
hirugarrena
##394
##iper
##ipes
##istu
##zano
##izkoa
##zabal
balko
artzap
##318
##itro
##terr
379
##worth
1868
doaz
yoko
hamalau
hobetzeko
##jin
koa
vid
##incus
##lekin
fred
hirib
bideak
micros
aebetan
bikoitza
heziketa
##eur
##atum
418
poes
atenas
izanez
egileak
estudio
toponim
merkatur
modernoaren
##elia
##pson
401
aero
kezk
##icauda
etnia
gomez
##igintza
autore
dirudi
behereko
ekonomian
materialak
##368
##bury
##ular
566
azpe
zero
espar
farao
borrokal
katalunia
##oli
##imir
ach
##iscus
ball
##chthys
aparte
iragar
batzuetara
##vic
##yes
ou
448
kno
##igeno
hobea
julian
armadan
eserleku
jaiotako
mikrobio
australia
erretaula
inguruetan
proposamena
##jer
##yama
bow
##andon
ford
##obates
gorte
sorgin
handika
metrora
filmetan
##todactylus
entrenatzailea
##hal
dv
##osia
##ondik
1872
loch
helen
roche
siber
dohain
ehunka
esaldi
sektor
vermont
zatitan
alemanez
elizabeth
##377
##380
##aroan
##ichla
##turus
aires
artur
pachy
elizak
gotiko
wilson
dituztela
zenbakian
ef
gw
nork
##ismoari
akordio
lapurdi
abiatuta
elektroi
sisteman
##ee
##581
456
pec
way
gluko
laran
gaueko
##aziorako
dagokio
mendekoa
had
##idoen
inor
larru
elektriz
portaera
euskalduna
##nus
451
abiap
hamah
jokoa
mahai
##aritzan
abstrak
trantsizio
##398
##574
##gue
##jon
loph
paras
elezah
argentina
berreskuratzeko
##374
##itoa
cork
ident
##enburgo
bakearen
inperial
##atzeagatik
eraikitzea
##323
##329
##362
fed
scar
arina
armatu
nobela
sindro
itsaser
txinatar
deituriko
oklahomako
elkarlanean
nazionaleko
##306
##527
##uso
izo
ganb
mats
haurr
ezpata
santos
zorrotz
misterio
##344
##ieri
728
1842
daud
artis
kopia
txinan
estandar
indianako
izatearen
maitasuna
eskualdeak
##370
##mol
##qua
##inco
foot
krip
merc
sorta
sintes
##316
##yro
425
545
aude
both
poly
bohem
ondar
eragoz
scorpa
jenerala
kapitain
kolektibo
442
597
plas
##ituriko
brontz
perfek
indartsu
otomandar
##585
##lam
##igma
439
663
##ketek
azko
helm
apost
hirira
ziurren
crocidura
zaharraren
proposatzen
##311
##azpi
505
eston
house
kasua
symph
aukeratzen
##528
433
444
arc
kit
milan
tourra
abesten
hostoak
lehengo
punturik
gaztelaniazko
##pr
##310
##387
##518
##525
##aph
##oga
##tola
506
555
876
##bator
1841
1859
vera
izurr
carmen
##oglossus
hilobia
aitzindari
erradiazio
estrategia
##529
biel
mate
rosa
xake
##tropis
disney
landak
ulertu
harresi
hitzetan
garatzeko
arduraduna
nabarmenak
cyrtodactylus
##347
##381
##383
##540
##583
643
cub
arde
baliatu
filipin
irakurle
jotzaile
baieztatu
eskaintza
##523
##526
##586
##zkoa
lie
she
izarra
bizirau
paragua
villers
akademia
demokrazia
##hn
ded
1864
##uensis
kareh
##ifikazio
mendirik
##570
##575
##bard
##ibel
##quez
arak
baro
##azteko
##chelys
##ialder
leinu
noblez
##517
kax
niz
##eginak
kodea
jabetu
indibid
omenezko
jeneralak
pertsonal
erregeorde
673
agu
lle
##kizuna
bonba
adarra
##kortasun
zentroa
deustuko
koalizio
txikiagoak
##372
##504
##510
##coc
##loph
455
div
kel
1869
mito
izpir
gaizki
legend
record
mendien
baserria
kazetaria
##502
ear
rug
tob
##anzko
1886
oxigeno
harturik
ohikoena
kongelatu
ziurrenik
##376
##593
##enne
##truk
iza
pim
usad
gorro
moral
moztu
##tzearekin
hamilton
kontrolatzeko
##573
##tio
##tran
odo
torr
##dutako
aditz
indartu
zituztenak
nazionalean
programazio
##326
##340
##508
##alan
obr
arroz
esanez
dutenez
hizkuntzen
##wald
801
rap
##ellus
bulg
conf
ibar
##alidae
kostu
##kariaren
##teagatik
aginduz
egutegi
indones
betetzeko
lurrikara
sentitzen
literaturaren
##512
##542
##igl
ue
##kara
ray
##erena
prov
helio
daukan
jarriz
julien
vienako
aldizkariak
estatistika
##312
##521
bei
fede
alfab
bathy
night
konstituzioa
##389
##572
##587
tul
alor
emil
habe
##istango
ederre
zilind
pomacentr
artzapezpik
##302
##378
##397
##omer
441
521
plana
ricardo
ustezko
ailegatu
atentatu
eskoziar
oraingoan
craugastoridae
##509
503
587
bau
##bourg
##ropol
gorako
origin
ekoiztu
arduratu
ondorioa
ordenako
kilometroan
595
ginea
neskat
ikastol
militan
garailea
altxamendu
emakumearen
independent
##524
##541
##595
##sel
##ione
##tten
mcc
erup
four
txim
hutsa
inigo
kobaz
bernard
mexikon
zabalak
desberdina
erregealdian
##304
##342
##343
##392
##395
##546
##597
##sky
##uneak
atra
gold
##ainoko
alvar
kausa
mario
thamn
banatua
errepidean
##365
##503
##506
##chan
875
cum
dukea
ehung
modua
##ophthal
katedral
amaierako
frantziara
##369
##590
##591
##arax
kaw
##olito
down
galtz
buruko
probabilitate
##363
##382
##548
##576
##logo
##dunak
##innis
##imetro
lampro
zenaren
osagaiak
##328
##348
##353
##cey
##iem
bb
419
599
ola
##aztuna
emigr
koldo
alfred
debuta
mender
sultan
vesper
metabol
williams
##384
##549
##579
##nie
wr
sic
hotza
oligo
nahita
orrialde
piramide
##mu
##391
744
833
kiss
fusil
ahozko
serran
lengoaia
ezartzeko
erdigunean
##314
##390
##589
##oto
gi
373
fuj
##ithec
##tzela
1881
vaud
zeto
##tatuko
eslav
etiop
calabr
columb
montes
##iarekiko
enrique
stephen
mekanika
izenburua
jauregian
horrenbestez
##364
##385
##393
##atra
##idak
##yron
exp
lug
akus
mesk
scho
##iparis
##unaren
sumend
frances
prozedura
‑
##360
526
576
##arias
1871
deba
mass
little
##aldietan
analisi
ebanjel
mugatik
zuzentz
baliatuz
kontsumo
gasteizen
##301
##327
##367
##515
##596
1820
endo
good
isabel
fabrika
##arengatik
eskandinav
kontserbator
##571
##oaz
tw
##lesen
gord
rhac
biluz
##garrena
esanda
egoeran
infekzio
irizpide
euskaldunak
##516
##toma
pez
dame
nigr
berna
larria
tropid
yorken
dagoenez
aurrerago
zientzien
aurrerapen
eskualdearen
##373
1885
##imenez
izandakoa
ospetsuak
##345
##501
514
als
molde
hantxe
sintom
hitzaren
batasunak
jerusalem
populazioa
##592
##uno
##osem
time
##larien
##tegiko
joana
neder
jesusen
hauetatik
landareak
##309
##361
##hon
##ness
469
590
724
azala
koron
amphis
ardenak
azalpen
lapurre
abantaila
ospakizun
programak
laurogeita
##308
##321
##513
##566
##nas
##enay
##inga
biarr
idaho
ulster
##396
##ctr
##isi
##erdi
naiz
creek
baliteke
argazkiak
oinarrian
etorritako
elektromagn
##547
##594
##omia
476
makin
marsh
nebul
txoko
##ogramma
mailak
##ketarako
itxuraz
jatorrian
##303
##386
##507
##514
##520
##itr
##edra
##vern
596
hat
hoz
kra
##angel
adre
ikurr
elizako
ekialdea
liburutegia
salamancako
##305
##lip
##goza
393
722
euzko
festa
saila
trach
kretaz
praktika
inperioak
veneziako
autonomoan
##313
##317
##isek
454
821
wit
##iloen
bikt
##izkrib
jakue
lider
pleth
habita
txakur
##tasunari
diskoan
saileko
saleros
##vy
##324
##arka
##ebra
##enean
##orrek
1789
kell
pier
young
lincoln
zeregin
gutxitan
mendebaldea
identifikatu
##325
##505
##hama
1878
txil
##ategiak
##unearen
aditua
ekaitz
lurrera
zaragoza
aldatzeko
probintzietako
##ος
##598
##610
##ege
##sko
##cker
##holm
civ
sua
herak
esteban
burujabe
bizitzeko
antolaketa
##erio
1867
abad
ander
epait
txinat
sartuta
sindikatu
brontzezko
##005
##sec
##vers
513
##oridae
emeak
zaind
gunean
saturn
##igarriak
apostol
komentu
objektuak
vespertil
eskuizkrib
sekuentzia
zerbitzari
##beko
##ectes
##elari
beso
estat
heste
ibarra
hirurehun
ij
##agen
##idos
445
##baren
##illas
iman
mata
sarthe
teresa
irailak
##abigarren
defendatu
garaietan
udaberrian
##543
449
##rurus
sute
txor
berbera
jaurtik
##cheilidae
sociedad
musikagilea
trichomycterus
##319
##545
##584
##tha
447
452
472
made
plut
wall
botan
gastr
allier
turismo
bidaiatu
nebraskako
potentzial
467
ethe
home
##inidae
banan
brach
luzez
campos
claude
loreak
##omorphus
soldata
alderdien
geografia
hampshire
jendearen
aipatzekoak
##371
##519
##580
##611
##ali
nak
##eland
##illes
piet
##iatzen
##ylidae
metod
sabin
hirien
##ainville
hasteko
moldatu
##622
391
nel
##zkoak
1847
oaxaca
erritmo
prestak
lurretik
helburuak
##379
##mere
bord
rose
shar
stra
tail
intel
kanal
polem
##entzial
gogoko
mugatu
caudata
errepik
testuak
bateratu
erreserba
gudaroste
gazteluaren
##ics
##raul
tona
arana
polim
montag
urdina
zelaia
patrick
corydoras
nederland
batzordeak
α
##341
##fas
##igilea
fronte
morgan
puntua
nahiago
irabaziz
euskotren
germaniako
gizabanako
teknologikoetan
##346
##349
##375
##arin
##akzio
##otris
1884
beta
orle
buruaz
lanari
dutenean
idatzita
handietan
taldekide
etheostoma
erreginaren
##uzen
610
725
app
cau
hea
deseg
goraip
irratia
amphisba
ikasleak
##pt
jacob
erromes
gertuko
##001
##582
##oman
##arrag
bahitu
katean
zaldia
teknikak
kontrolpean
katolikoaren
##699
588
eza
deux
irakats
luzeena
jarduten
eleberriak
zabaltzeko
vespertilion
##nak
##irus
674
ave
##taldi
konex
##inensis
galdera
esperien
mountain
litekeena
herrialdeak
##578
zh
465
chev
##onotus
hamas
hirietan
ikasleen
autonomoa
bihurtzeko
jauregiaren
konstantinop
·
##asco
pri
##tekoa
laud
proteina
##iae
##ysa
##petu
##zako
1874
##ilaria
howard
##ichthyidae
aitzindaria
457
530
655
844
deg
alto
anna
notre
orban
point
adostu
berdea
batzuei
taberna
egitasmo
erabakiak
helburuarekin
##rix
##iloi
##stro
dum
bolun
artist
brycon
krimen
##iengatik
hiltzeko
jakintza
pelikula
portugale
zalantzan
lurraldeetan
616
ciud
##ionatu
##mendia
lepido
bukaera
aginpidea
##563
##ici
mr
##etus
##tadt
461
iso
##kuntz
glor
oihar
kideen
urteaz
batuetara
hiriburutik
luzeetarako
##315
##kol
##emon
##iman
##rino
ado
aha
sys
##atera
louv
pere
barcel
pairatu
bizimodua
horretara
ilargiaren
iparraldea
uharteetako
##002
##602
##iario
##tella
musc
##lerrek
aralar
norops
lekuald
moskuko
jaiotzen
zetorren
itzulpena
margarita
dituelarik
herrialdeen
ordezkatzen
##008
##tikan
##itidae
birik
suitza
etorkizunean
nemacheilidae
##abean
deia
##itaren
umore
sendoa
gidaritza
burututako
denborarekin
##307
##atem
leial
punta
termo
windo
galeria
izarrak
luzatzen
aurreratu
kontratua
materiala
prozesuak
uharteetan
##565
485
##optera
harro
pelikul
##akon
tax
lyco
sphen
gastro
tartea
artelan
ophichth
katolikoak
kilometrotara
##004
##677
493
##amoto
##tzian
robo
zing
cesar
finko
ekoitz
zuzenbidea
azpiegitura
tradizionala
##333
##606
##644
##682
##vas
##aiak
##edun
##onau
##opodo
agam
mapa
##itarrek
askapen
estadio
floridako
manifestazio
kontsideratzen
##umena
carn
from
irreg
garest
zitezkeen
agintariek
dinastiaren
eskuratzeko
##este
##kete
##mani
##atsuak
egoki
hanka
kosta
tolosako
italieraz
teoriaren
eraginkorra
##borg
##undu
##aspis
saur
aizko
enpar
lepid
odola
zelai
kanpoan
stanley
campania
dezakeen
hegoaldea
handienetako
##604
##idem
735
sci
1800
1877
emir
ents
##ophrys
assoc
pobre
##adoreak
estruk
hitzen
aintzat
gaztetan
espezieak
transform
##ceae
##ores
##tatze
##iletik
jeltz
##tasunik
daraman
korrika
mesopota
daitekeena
eskainitako
##jas
##woo
721
ande
##toaren
##eriaren
erritu
sinfon
albiste
botatzen
japonian
ofizialak
luk
1854
bita
izak
jesu
askea
hondo
horia
zeina
zergak
aparatu
oraingo
txarrak
mekanismo
##ese
##lig
##yen
dna
##antol
nazi
krime
doazen
ezagut
federal
japonia
sevilla
sustatu
armarria
ezezagun
elikatzen
independentea
##695
##otik
our
pty
1836
1862
bufon
tebas
london
izugarria
biztanleek
egunkarian
##ml
##nost
##iratu
alek
cren
isot
diskoak
jainkos
oroitza
kristalak
hegoaldetik
##688
##ory
##tora
702
pyr
##agile
##uille
etan
sego
grezia
menper
neoklas
arrazional
heidelberg
politikoen
kalkulatzen
##006
##607
##rag
upn
##ateak
##ianok
##iboak
genet
satan
amster
leopol
kontzil
nabaria
jarduerak
##007
##601
##697
##aix
##unez
##vako
##ction
asty
##ifrons
lagin
belgika
egipton
ekartzen
kondaira
toledoko
urteetako
mugakideak
##681
##yra
amn
##siste
afgan
jauzi
zoritx
ministroak
##626
##pas
##dium
458
lou
##lossa
##elaren
prakt
castle
##etaraino
navarra
saxonia
basilika
##garritasuna
##680
dog
##ercus
1858
jako
amodio
bisigo
botoak
prents
viktor
aktiboa
euskarri
apaingarri
##sc
##toia
466
835
laua
##onidae
obran
zuntz
bertar
compan
guatem
##itzearen
artisau
izateak
estatuen
typhlops
protokolo
pilotalekua
politikoaren
##lyn
##into
##mery
##illac
iran
iron
txal
##eneuve
hortz
madag
osoak
##alditik
##obranch
aldake
aragoi
adituek
tolkien
konpondu
instrumen
##683
##ezi
##usio
484
usur
petit
pixka
##atuetan
##ieratik
ospita
guadala
##ikoarekin
oposizio
konturatu
metrotako
asturiasko
esperimentu
##pp
##674
##678
##ding
##elio
dif
etr
pem
##atzan
akab
hann
joxe
khan
##barrut
##roskop
buruak
dionis
kanada
errebel
guztiei
arruntak
jarraitzeko
##615
##nea
##iens
523
855
urk
1883
cler
maran
mobil
progres
errusian
aldarrikapen
##603
##608
##685
##teo
if
##iops
645
god
##sburg
1812
1851
amon
apal
brit
##ailles
##degiak
##izabal
ainger
famatua
gehiegi
village
herrietan
funtzionatzen
nabarmentzeko
##676
##684
678
rho
vul
##tonek
##igango
eratuz
indiar
sintag
lagunek
konpromis
magnetiko
triangelu
baitzegoen
literaturako
##621
##mac
543
##ategia
igande
##aletasun
atseden
fisikoa
hierark
teoriak
askatzen
igotzeko
dimentsio
baliabideak
zazpigarren
##612
##617
##gal
##ret
##anax
##iota
##orno
lus
##ainak
##tzari
##ophryn
kaler
tetra
##ogaster
alditan
altsasu
zituelako
beldurrezko
##673
##teri
cup
lodi
##erarik
##urekin
txile
laukiz
college
irabazten
sevillako
solairuko
##642
##675
863
pago
punc
batuek
loturak
zelulak
ekosiste
erakarri
estiloko
telefono
erdigunea
jasotzeko
azpiespezie
mendebaldetik
##mal
##moko
ent
sha
##ignan
gernika
idazkera
nortasun
prozesuaren
##614
##toni
437
443
neo
1839
nilo
bizid
josef
maris
pista
##aziorik
##tikaren
persiar
##ocephalus
kontzejua
metalezko
mineralaren
##640
##inia
ando
blas
play
kanon
garbia
bernardo
biltzeko
gainazal
tontorra
nagusiena
##613
##679
##lik
##elan
553
##fonia
with
eskuz
music
elizan
emilia
ordoki
bertoko
gizonen
agerpena
football
honetara
##616
##648
##sov
##eler
##enoa
##olen
##weil
533
vis
hart
mara
estad
lanpos
negatibo
urterako
erantzuna
zuberoako
industriak
michigango
unibertsitar
##624
##629
##die
##toen
892
deb
mix
##agaia
goog
more
pter
blues
monts
sagar
##odontis
lawren
muskulu
zutenez
bizileku
hiriekin
##erta
ble
##aridae
##ikotik
mutur
markes
taylor
astyanax
diziplina
geometria
##609
##689
bac
argo
##atikan
agiri
katea
milia
parap
araban
eskein
guneak
heights
ateratako
egindakoa
funtzioak
abestiaren
##009
##ort
##lano
##nell
474
cook
iban
##iolako
eneko
silva
##osaurus
zehark
abentur
fitxatu
diplomat
udalaren
funtzional
zientziaren
proiektuaren
##618
##693
##698
##erd
ya
##enda
573
abd
##eroak
1808
conc
stern
nekazal
jarraiki
nolabait
soldaduak
arrantzale
astronomia
##gn
##687
##aco
##ote
##agna
##elis
##aceae
cong
emaz
gall
tern
##willer
patxi
phyll
polar
zefal
##aziaren
##tzarako
hitzaldi
turkiako
zalantzarik
##641
##643
##655
446
pig
dend
ather
andrea
golkoa
joatea
gustuko
izatetik
kontratu
operazio
sinesmen
harresiak
asmoarekin
kontzientzia
##605
##say
##gizon
1849
bearn
gabea
santur
margotu
hamahiru
unitatea
baliatzen
gordetzeko
lurraldeko
##003
##696
##fri
##lex
##lot
591
alv
##agrus
diox
orek
osaka
absolu
gauean
haurra
ikuspeg
erlijioa
fantasia
ondasunak
ikastetxea
##646
##692
##eli
##alda
jub
sad
una
anab
inau
ideal
susta
tuber
argiak
galile
iradok
teorian
zezaten
##arrentzat
kolonial
katalanez
planetaren
873
guy
tap
jurg
##entoko
ukatu
xanth
ilargi
efektua
elkarri
bazituen
udaletxe
espainiak
kontrolatu
herritarrak
##620
##645
aj
##ctor
##exek
##oven
515
maf
##erriak
castan
ciudad
alfabet
erregai
egiptoar
##623
##boro
##kion
##olfo
##osin
##xual
1834
phys
##itsuak
##tziala
##urrena
aholku
aitona
aurrer
aukerak
eztanda
gotzain
nazioen
pomeran
bufonidae
proiektuak
andaluziako
paraliparis
##ll
##690
##eza
##ovo
##ury
679
##manni
amil
##aileko
arpil
della
aberde
gorpua
neurtu
pribil
aparteko
ekoizteko
indarkeria
onartutako
##647
##649
##fran
abra
apus
pris
##tarien
plang
rhino
arrosa
marina
single
soinua
aebtako
anthony
hasitako
hoberena
##670
##zik
##ovce
478
##inoen
1500
wind
bakark
hormak
samuel
barbara
agertuko
bakoitzari
salbuespen
##628
dy
ال
hud
buck
pist
balor
dirau
gorago
plater
onartua
jaiotzez
johannes
ohiturak
gobernuan
antolatzeko
argitaletxe
xe
##ioph
##anger
##iteak
##okoak
1865
1873
tras
batai
zango
emilio
onenak
testua
zurich
izateari
alabamako
kritikatu
##iku
##ray
##akar
##amar
483
aca
##ander
pott
monro
##ifikatu
social
##arrerako
anfibio
egokiak
herriari
diktadura
kontzertua
##gr
##pg
##691
##eti
##osp
##tsk
##soni
##ulua
583
nat
##ionym
cres
elong
fermin
hartze
berritu
kartzelan
bereizteko
elikagaiak
instituzio
##625
##iec
768
rus
pass
hydro
parek
estand
murinae
ortodox
altueran
espetxean
taldeetan
aurkezteko
desberdinen
espainiaren
sortzaileetako
##627
##cott
##line
##quer
iger
##ialdia
##ologoa
dauzk
lingu
eskumen
katalunian
musulmanen
zerbitzuen
irakaskuntza
##ixka
475
878
put
1852
##dukzio
apolo
minim
bizkai
sareak
zirkun
giltzurr
igortzen
zuzendar
jakinarazi
villeneuve
aztarnategi
##ape
##issa
##ungo
rif
##ilius
soul
adams
benito
jordan
bitartekoak
matematikari
594
726
##adoko
##atore
1814
##inchus
##olaren
basko
justin
market
softwar
kentzeko
hypostomus
askatasunaren
##619
##midae
1863
cand
sozieta
euskaltz
gehienen
katalina
sistemat
institutu
arkeologia
industrian
atlantikoak
##hao
##utx
##enas
715
joe
kaf
fosf
##tiarra
hindu
deskon
madrid
tyrann
ondotik
turismoa
borrokatzen
euskaldunen
metropolitan
##466
##jea
hipp
opar
norab
##ibarren
arekin
orleans
laurehun
triploph
nafarroakoa
##ibia
##ture
oil
beas
mans
moko
tropa
mesnil
aristote
atractus
hemendik
hurbildu
hazkundea
orokorrak
arrakastatsua
##694
##ezur
##obius
franz
glazi
kings
floren
estadioa
hiriburuaren
##686
##dez
##edy
##uco
##iles
477
life
polo
komis
tower
ustek
eszena
sexual
jakitea
laburrak
sozialak
dutelarik
guztiaren
milurteko
aplikatzen
erkidegoan
##tila
##doren
angu
hugo
saul
##takoak
broad
cotes
jupit
societ
prentsa
graduatu
callionym
ezagutuko
prezipita
erdialdera
hurbiltzen
triplophysa
##kii
##moc
##uff
##eram
1815
hyph
karp
palm
motel
stein
##ipinnis
altuen
interf
berebiz
lursail
mendeen
jaialdia
##671
##672
##aume
corr
farm
trig
barik
front
kluba
ziona
montre
urriko
autobio
bidetik
russell
heltzeko
vladimir
baliogabe
bihurtuko
erakundeko
udazkenean
ekipamenduak
‘
##hid
##sia
##ains
##cell
##morf
##rops
kev
##eriko
pean
xume
kopako
gastronom
kalitatea
terminoak
existentzia
kokatutakoa
barrutietako
cn
##bell
##orex
578
bari
abesb
aldir
marra
##anthias
peruko
aritzeko
zergatik
garapenean
ospetsuena
probintziak
##ikoz
##kian
##ctylo
##itzek
1790
hila
##baitek
alumin
grezian
emazteak
errioxako
dagoelarik
kentuckyko
sz
##kario
##uetan
##ostero
bonap
shang
##villers
atmosf
franca
juduen
batzordeko
desberdintasun
##411
tv
##arak
##otip
dug
##agune
##emont
leke
##ganako
##iodakt
##kideak
bisit
toles
##atikoak
ditugun
hamasei
erromara
soziolog
artiodakt
derrigorre
garatutako
demokratikoa
##lock
463
770
##airik
anom
shak
infin
langu
poliki
eraitsi
hormigo
beharrak
iparralde
serranidae
britainiarrek
##yu
##igi
##hard
##hill
##kiko
755
judut
banako
monter
propio
deritze
teilatu
valentz
jakiteko
erabilita
gonbidatu
kapitaina
australian
dramatikoa
beharrezkoak
##410
##pro
##estr
##iora
##ogne
##yrus
pow
rene
zuhai
##erraren
bizkar
torres
tropak
jarrita
harlandu
poloniar
bakarkako
gernikako
arrakastarik
##rei
##vus
##tona
##tton
586
mitx
agerr
ambly
kateak
luzeko
aldendu
balizko
windows
guadalaj
koroaren
eginkizun
##wi
##sor
##imac
##izar
##rera
711
erra
##ikeria
aster
##osemion
tronua
askotar
metodoa
salmenta
merkatari
parametro
txikietan
institutuan
##gy
py
##abia
473
ito
1875
onur
zeuz
catar
parab
republ
zatitu
lorenzo
parisera
partehar
yokohama
##esta
eul
cnem
krat
##ientea
##lingen
droga
natal
ariege
bizkor
##etarekin
##torearen
brontze
koreako
siriako
fontaine
##itasunaren
idazkaria
militarren
connecticut
##king
chen
##arraga
gauez
academ
akordioa
solairua
frederiko
merkatuan
##kre
##ceus
##usek
cit
##ineko
atel
comm
hauxe
solid
ziola
##gailuak
deskar
harmon
irakurtzen
herrialdean
erabakitzeko
frantsesezko
##ech
##atek
##iloa
##oste
##tiak
532
yun
##arran
##untua
ultr
hyphess
gatazkak
irlandan
kokapena
deritzona
elizbarrut
hyphessobrycon
##kada
##leen
680
tod
##igraf
##uluak
cald
feud
shim
##bideko
anglo
arbol
gorak
izatez
hilaire
porrota
columbia
pairatzen
aktibitate
##tsia
puz
laga
shel
berrik
eugene
mugatua
intsektu
akademiako
nekazarien
gizonezkoen
populatuena
penintsularen
##ofis
alg
boy
cec
##ignon
##iloak
herm
sole
##taldia
##uville
labar
amazon
etxetik
ikaslea
auzoaren
kimikoak
lizentzi
saiatuko
hizkuntzan
komandante
##sex
563
hib
nog
vig
##naren
bass
chel
habs
harm
vega
zelu
gantz
izengo
villan
irteten
diktadur
handikoak
berezitasun
garraiatzen
##umb
##eton
##vant
471
homo
ille
nich
##espena
urria
##iformes
goizeko
karratuko
kutsadura
jarraituko
##fet
780
out
##adunak
ferro
lanek
seneg
##cephala
homose
saioak
hiztegi
sinbolo
txartel
determin
jainkoen
sarrerako
inguratuta
komunikazioa
##477
##oss
##linus
1866
coul
moul
sean
##iziala
groen
ikatz
catarina
txineraz
berreraik
synodontis
historikoak
##ebo
710
889
##della
##txoak
kora
basur
abadia
apurtu
krimin
markak
pentsa
alfonso
errefux
formatu
herault
zirenez
eratzeko
hedadura
ospatzeko
ikuspuntutik
oinarriturik
##422
##als
##fil
##nice
##quet
686
gua
spe
cyan
##iraino
imita
ispil
steve
propag
ardatza
fundatu
huskako
izarren
bolumena
ezagutua
birjinaren
erromatarrak
##653
##oba
fox
via
eric
##idanik
croix
adrian
ostera
primate
utzitako
erakartzen
intelektual
sarietarako
##tap
682
berd
ezen
pake
abade
##intzako
buztin
jarriko
laurden
ekialder
hastapen
labridae
zaintzen
algoritmo
eratorria
##agak
##cens
ene
lyn
wel
lago
idazk
basque
bridge
balioak
records
itunaren
berebiziko
hyperolius
kantabriako
##420
##499
##amia
##joki
bare
hank
lord
song
stur
##arreta
heren
merkur
microh
montgo
abandon
bezalaxe
borrokak
doktorea
eraginda
garaieran
langileek
zintzilik
bilakatuko
finlandiar
azpimarratu
##ents
##erok
##lers
##rena
453
##antea
##maten
dien
txap
##iarrei
ammon
bietan
euroko
aminoaz
janaria
santuko
batzutan
idatziak
sorreran
daitekeela
##hua
##vard
eva
josu
lope
uefa
vende
buztan
psitta
galaxia
lehenak
hegoalde
kartzela
minerala
zeukaten
dituelako
geltokiak
ordezkaria
##hs
##erek
615
kak
doinu
nahia
ongiz
usain
aitzak
bolkan
jasoko
hausnar
lautada
zaldiak
alboetan
handituz
murrizten
aurkitzeko
batzuetako
egunkariaren
ordezkaritza
04
##astes
1837
sofia
egunak
presta
lurpeko
marshall
zentroak
familiakoa
nazionalista
##ulak
760
wild
##weiler
antib
armor
kezka
lokal
zurto
##neville
gurtza
##izkieten
egoerak
ipuinak
miranda
zebilen
arrautza
fruituak
gurasoen
sardinia
banatutako
irakasleak
espainiarra
jal
kyo
lekeit
trinko
aroaren
ugalketa
erresumak
txapelketak
sphenomorphus
##wil
##usta
1792
1832
asan
##erarako
gidari
eremuaren
##atre
##wich
tup
##ievre
aldez
tekton
gutxitu
zetozen
diktador
feminista
egunkariak
alderantziz
##414
##ilin
585
675
##jiang
ebalu
emate
fluxu
leize
mongo
##enetako
delitu
lurren
ardeche
markatu
epaiketa
irakasten
konstante
alemaniarrek
jr
##elop
##uchi
745
abu
##azale
##iozko
##letik
1831
dasy
ming
##iarena
kopen
##enshire
##iliidae
charlo
dorreak
egoteko
aplikatu
estiloan
itsaslas
iturburu
zinemaldian
##404
##yll
571
anb
cus
mair
zikl
hegan
zatirik
anitzeko
metrokoa
partzial
naturalak
dokumental
lurmuturra
pilotaleku
itzultzaile
hemidactylus
artiodaktiloen
##496
593
sib
##dinam
##gaitz
atez
erta
peru
piaui
bareko
mongol
monten
oparoa
leporatu
aldakorra
mendebaleko
handienetakoa
##efiz
##tano
584
open
sans
sele
duran
tirok
gogoan
zeruko
##izazioak
gizonek
ingurua
##ologikoki
deportivo
kazetaritza
##gl
##hib
ov
866
fay
##iarte
##torio
alej
coll
otto
sylv
saras
##iarreko
argitu
bosnia
diaman
durango
gurasoek
irakatsi
kalkulatu
atlantikoko
nothobranch
##iria
sinp
bruce
caste
eskar
guard
melod
ganber
paragu
plazar
antzokian
ekiditeko
erraldoia
irekitzen
zeharkako
interneten
mantentzea
suposatzen
##188
##421
##asso
##atoa
##chia
hug
lom
kein
laba
##tsioak
desbid
nikola
hiritar
zostero
entzuten
koloreak
pilotari
deitutako
gorputzak
hiribildu
printzesa
##413
##485
##487
##488
##cke
##azar
##ampus
##orria
anas
tari
txar
paten
ustia
zeinek
antoine
errenaz
bukatzen
baliokidea
eurovision
atlantikoan
ezaugarrien
##199
##475
##497
##iao
##vey
##joko
##txob
##ontzi
mann
biktim
lawrence
maiatzak
eratutako
exekutatu
etorkizuneko
##405
##orrus
1845
sino
konpu
miren
sosten
txistu
arraina
pirinioak
azpiegitur
##122
##429
##474
##ras
##opel
920
ceph
coch
arran
kantz
ostro
##tsuaren
madison
bultzada
metroaren
santander
txapelketaren
##pide
nub
vor
yan
##ariko
##estes
aless
astean
jateko
phyllo
bikotea
agintzen
dimisioa
harkaitz
metamorf
zeramika
landareen
zaharrenak
##424
##ery
##ijar
##ylus
##ypto
756
##gaiak
1838
isla
ling
##escens
##ezkoak
ahula
kabuz
txeko
erlieb
nazien
sartuz
castell
hungari
zuzenak
aitzitik
etapatan
zehatzak
frantsesak
microhylidae
##482
##allus
##athan
##umean
peta
zuma
atxik
##olophus
etaren
kupula
tekniko
venezia
enpresen
elikadura
gymnothorax
erabiltzaileak
##484
##492
##our
##unb
##yak
##doen
##tula
tai
##katal
mons
scot
##erakoa
extre
minor
rovan
##omorpha
##ografiko
bazkide
monopol
beaumont
dakotako
europara
kargutik
teologia
erasotzen
gauzatzen
irakurketa
##418
##tam
vr
##amus
##ceko
##tenak
cala
##itzeak
##tiboak
gabon
laino
biloba
hauexek
austriar
microsof
zuhaitza
zailtasun
oinarrituz
##486
##apia
##inan
746
891
##icaud
1200
blue
perc
plur
##aineko
polin
aitzin
elkarr
atalean
kalkulu
maitale
ekarriko
funtsean
bihotzeko
bizilagun
boltxebik
ezagutzera
gertakizun
kontserbadore
selekzioarekin
##ru
##470
##483
##ete
##inos
653
716
ome
rin
was
##iones
aven
hare
lituz
parac
somal
jaurti
aldatuz
behaketa
barrutiko
gorriaren
ingelesak
ospitalea
ahaleginak
kontseiluko
familiarekin
##419
##boa
##jak
##nac
##pea
##tho
suge
##rachus
derib
malda
tunis
izanak
osteko
prezioa
eremuetan
alderatuta
sustatzeko
##412
##428
##thus
bog
##erian
guan
accip
freku
hustu
linux
sebas
deituak
salbatu
bueltatu
amsterdam
kontrakoa
bultzatuta
jeneralaren
##402
##426
##dis
##usi
##icap
574
611
##kuntzan
coelor
augusto
kasutan
agamidae
espazioa
oiartzun
telesailean
coelorinchus
ezberdinetako
probabilitatea
##416
##423
##480
##ree
##tie
##yrh
##thes
884
##arana
1810
asald
ahaztu
hernan
irregul
jotzeko
koorden
magalean
francoren
granadako
sistemako
ahalbidetu
##tn
##490
##agi
##zel
##berri
beat
etak
marg
##intzak
##kripzio
##orraren
ezegon
sailak
sevres
calabria
ikerlari
arrazoiak
christopher
gidaritzapean
##478
##481
##jos
01
##emia
##pina
646
nec
##leren
kume
aubin
errit
great
klaus
alvarez
igotzea
kontras
vilaine
apirilak
fisikoak
osagarri
errepideko
aberastasun
egutegiaren
##omi
606
845
rik
aseg
benj
eriz
kask
morro
altuko
diplom
koefiz
oztopo
toledo
irakeko
hartatik
irabazlea
senidetuta
ordezkariak
##orpu
nil
1817
1856
linf
##tarazi
inpos
ponia
trena
kazakh
malays
turkiar
aliatuen
izenekoak
monumentua
herrialdetan
##495
##agor
##andi
##tell
##europ
aphy
dait
lanc
ston
##etetan
apala
renfe
urrea
harata
maketa
aritutako
hondamend
ustiatzen
##fi
##471
hi
##fast
##urne
##zeko
mim
##aurus
##degia
##kiaren
##roctus
albor
epine
merid
udala
espana
graham
nondik
ohartu
erantsi
ikusiko
osasuna
setiatu
beteriko
ptolomeo
dagoelako
hilabetez
zefalopodo
gobernatzen
unibertsala
##427
##493
blog
caer
dias
izpi
vari
##learen
akord
aleks
latza
lucas
sigmo
apaiza
kopenh
logika
kretaze
gorputzeko
produktuen
##mm
##498
##bri
peg
##gabea
bala
moda
##koaren
harris
antzoki
birjina
jaialdi
orkestr
antzokia
ezartzea
inportan
##473
##abo
hav
##idens
gren
##emidae
##ianako
arroa
rugby
troch
miller
##iformeen
datozen
artistak
martxoak
zezakeen
gobernari
paraguaiko
elektrikoak
hegoalderantz
##408
##dle
##lit
##pak
##ues
##igur
##kura
##obar
##turi
isid
morm
mura
nabe
oria
##hattan
##iakoak
arros
asper
arloko
karlis
uholde
azaleko
bozeram
inaugur
dantzari
sarbidea
abiaduran
gorputzean
psikologia
##415
05
eco
##berge
##bidez
euzk
blenn
ezean
stone
balore
dortok
musikal
sailean
txirrindular
##472
##bet
##inas
mog
rog
nasa
grove
lakua
motak
antena
martxa
western
abuztuak
aurkakoa
gazteler
hedapena
karlista
gramatika
ikuspegia
jotzailea
mikroskop
zitzaizkien
itsasoratzen
##406
##476
##494
##burn
##typh
684
810
gul
##organ
delta
google
guadal
eragilea
haraneko
merkatal
alemaniak
bielorrus
antzerkian
energiaren
eraginpean
kontratatu
zabalkunde
antolakuntza
##hir
##omy
##tax
pav
xer
##anako
##cheil
##antzan
adiskid
filmatu
aldekoak
buruaren
heinrich
ondasuna
erabilpen
errotazio
irudikatu
nagusietan
herbehereak
##iata
##osko
##autus
fish
schw
drome
bitxia
hilabet
pakistan
antzerkia
praktikan
diferentzia
pomeraniako
##oke
##usk
08
##cock
elg
gat
chil
amore
erako
giroan
errekon
aurpegia
harresia
olerkari
talderik
elkarrizk
iraunkorra
manchester
gudarosteak
etxebizitzak
unibertsoaren
531
886
get
fris
tara
##alista
betea
birtu
gobio
osora
irango
mallor
school
harriak
mariano
norvegia
##ismoarekin
eraikitze
hiltzaile
parkearen
estatubatuarrak
##tii
##idis
##iete
##itxo
anc
clu
lyc
gius
isle
nesk
balkan
justif
kubako
setioa
bozkatu
nuklear
riviere
erortzen
fisikari
ikastola
kasuetan
koloreko
behatokia
kulturala
ekarritako
kontseilua
saihesteko
†
##407
##425
##gok
##idi
##udo
bapt
kair
vald
##iazioa
##tomias
kapit
lande
aragon
galdek
orange
aldamen
alfabeto
errusiak
positiboa
pertsonala
ekialderantz
frantziarrak
##abak
##gawa
##keen
##ugua
sis
ebaz
goit
##aldien
##diaren
oihal
kalteak
kantuak
egokitza
organiko
eraikuntz
argentinan
bakterioak
flandriako
arkeologiko
bultzatzeko
##489
##491
##kos
##sten
fat
lov
##ogeno
1819
crom
gako
andra
karol
diskur
gutxiko
judizial
merkatua
venezuel
atlantiko
atmosfera
aukeratua
gaixotasunak
presidentearen
##409
##adas
##omin
##view
881
bod
##asaki
ipin
##enburg
danub
diona
moore
serra
tenis
gurpil
konkre
kritiko
eramango
erkidego
sariaren
taldeari
biografia
eskultore
ezkertiar
australiar
kongresuan
musulmanak
iparralderantz
##120
raj
##alera
##opsis
bear
##arrita
##uraren
ahizp
amorr
goias
zesar
larruaz
mozorro
sarrask
ezaugarr
eustomias
jokalariak
##479
##555
##asc
##gov
##set
##tul
##harus
1822
shog
toku
##landia
auzia
jeitsi
gerretan
plastiko
antigorpu
irabazteko
unibertsitateak
##198
##agr
##ral
##uli
ww
581
brie
road
spec
bikoiz
crypto
trachy
aliatuek
kokaleku
alderatuz
erromantz
naturaren
adierazpena
##181
##mir
libr
##adurak
lazio
marco
orduz
##istekin
##urretik
abango
kaleak
luzean
neptun
azkenengo
ekintzaile
kopuruaren
barnealdean
gregoriotar
##kala
arz
##tonen
inpl
##charax
##uelako
kevin
mezua
titan
andrew
haiekin
izpiritu
valentin
##obatrachus
gertaerak
ordezkatuz
deskribapen
baitzituzten
garraiatzeko
ondorioztatu
^
##553
esf
ian
rim
##bridge
falls
molda
tirab
fasean
kantua
trikuh
herriek
kentzen
debutatu
harrapak
##cephalidae
lanarekin
operazioa
parlamentuak
##178
##rol
##vet
##ulazio
zelta
eskura
txekos
adarrak
desados
klinika
orbital
gehienez
bretainia
komunistak
kontzeptuak
##now
##vik
bh
##arium
##estio
##oplas
latz
rain
astun
dibis
sesta
begiak
deform
ilunak
martir
kulturan
neurketa
sarearen
zuzendua
aipagarri
montgomery
barrutiaren
##403
##jen
##enac
pie
esfer
##ezkuntza
##nathidae
ustetan
gracilis
lurrikar
otsailak
bartolome
germaniar
merindade
espainiara
espainiarrak
legebiltzark
konderrietako
09
##char
##lins
##oder
zuh
##itoen
1352
1809
mero
roth
barna
miliz
##atarren
famatu
johnny
urugua
tranbia
abiarazi
loturiko
metodoak
bermatzen
alemaniaren
tenperaturak
##py
##417
##443
##espe
##quel
til
##ietsi
1835
##celles
diplo
paler
kolpea
makinak
erdigune
diskoetxe
stockholm
ehungintza
erromantiz
##463
733
##tique
bara
enbr
erik
kirk
raym
##hammad
amate
seman
atalak
ezkero
sarean
dezaten
erlatib
antzeman
delakoan
mankomun
zituenak
lagunduta
zenbakiak
aurrerantz
##ous
##umi
##inoak
##istia
curr
kiev
mist
pear
sorg
scien
teore
lorpen
utziko
agerpen
kantari
laranja
meskita
kanpotik
oxigenoa
sintomak
elementua
##enik
713
kut
ort
roz
1818
kill
modul
korpor
nievre
ondarr
zelulen
##hezkuntza
ikasleek
oinplano
tentsioa
instalazio
itxaropena
guztietatik
segurtasuna
~
##deb
##ink
##arez
##cken
ota
run
##errik
##itzaz
tony
billy
lotur
barand
estalia
pintore
horiekin
suertatu
barrutiak
manhattan
zuzenduta
erantzuten
##401
02
leo
basa
susm
urda
ardoa
herze
media
queen
berpiz
durang
horixe
atzeman
kazetar
##kuntzaren
erantzuk
herritan
pasabide
portuges
hurbileko
berpizkunde
geltokiaren
##iu
##444
07
##isse
##nica
yvel
##onaren
distr
##ikorako
aireko
erloju
ernest
loiret
udaleko
laburbil
neuville
salaketa
uniforme
zubiaren
erabiliak
espezieen
jokatzeko
sorkuntza
arkitektoa
bidalitako
baliogabeko
elektroniko
azpimarratzeko
konstituzioaren
##lei
##gaia
##omak
##tzioa
arka
lots
mesa
meza
##iketak
cirrh
etena
igles
manip
aveyron
kaserna
sortuak
domeinua
uztailak
kroaziako
argudiatuz
ederretako
kalkulatzeko
##180
##196
##nom
06
cuc
nim
ezoh
lerr
pino
txab
##atsuen
gogoa
sasoi
ramses
zerren
##atutakoa
baionan
ezabatu
neutral
sarrerak
automobil
segundoko
bereizketa
immunitate
brandenburgo
03
1700
ahoa
bark
tekl
badak
colom
fasea
heroi
porto
hotela
kuarte
ekainak
jendaur
turingo
bikainak
epaileak
zabalean
jorratzen
zegoenean
zientziak
okzitanieraz
##176
##185
##186
##455
##rod
##dell
695
und
alac
dian
iner
##aletik
##itudea
##tzatik
carep
chang
ihesi
orein
thail
cantal
ostatu
catalun
aldatzea
izenpetu
sinfonia
sozialde
ateratzea
espazioan
hamazazpi
careproctus
ospetsuaren
prestatzeko
aldizkarietan
populazioaren
##egun
##olia
kus
##amoko
##verde
beka
##pierre
magnes
nevada
pobrez
##aduraren
abraham
bihotza
entzule
erasotu
ikastur
##odactylus
baimendu
doktrina
erlatibo
ezkutuan
zutabeak
erreginak
sozialdem
berehalako
kolonbiako
informatika
errendimendu
zefalopodoen
valladolideko
##175
##183
##zes
753
792
bou
ete
psn
http
syng
##itikoa
airea
diario
azalean
gotortu
sekretu
ammonite
atzealdean
errepideak
##104
##184
##197
##eze
##pres
##uter
846
dul
muz
pha
1844
gaua
##ikunde
carlo
umeak
arabar
basoak
ibidem
varsov
edonola
gerlari
musikan
patriar
sagardo
barrokoa
zegoenez
banatzeko
##fu
##uo
##ets
##isy
677
ria
##ontek
1813
fior
mato
##azquez
##icaria
edari
##ikoekin
kirola
central
puntuko
kaleetan
erdialdea
emaztearen
izanagatik
##108
##194
##sac
##uek
##alla
##ibur
##olph
##aldun
1793
##aririk
##bergen
##entzen
laura
##ophidae
foruak
teodor
theodor
ikusirik
erregeari
negatiboa
abeslariak
buruzagiak
gainditzen
venezuelako
##126
##192
##cast
##mund
##itala
kita
nora
taen
arena
atari
botoa
viena
zizur
biblio
afrikar
ezarriz
ertzetan
hobekuntza
nagusitzen
kanpoaldeko
##key
##agar
769
910
960
cun
##txeko
clay
erla
hylo
terra
gaztar
kometa
gurutzea
lekuetan
nekropol
zegokion
dorrearen
pertsonai
politikaren
ingalaterrara
##edon
##itch
##kinak
amar
flag
sesb
##iation
argud
azien
davis
inkis
adreil
alfredo
egunera
ilargia
lehorra
dialekto
esparruan
inbertsio
erakusteko
zehaztasun
garrantzizko
##123
##lema
##okan
##okon
mom
eins
amaia
bruns
elast
serge
##ologiak
anaiek
gaitza
hemere
eskubal
lehorre
##abetasuna
philippe
semearen
alejandro
museoaren
##129
##445
##ach
##nat
##head
##itte
##ukoa
not
oka
xan
##iritz
##upeko
pleur
poder
betean
cardiff
milango
puntuak
antzezle
beharrik
egiteari
fisikako
erretratu
eskubaloi
greziarrek
##102
##174
##akov
##ckey
##cula
nic
##urrek
silv
stro
##azabal
bisur
ernal
batura
frankf
leinua
askorik
barieta
diagnost
dukerria
hirigune
kritikak
literalki
tolkienen
zizkieten
pertsonaren
abertzalearen
ky
bug
jih
urib
lapon
moren
pilar
##orearen
itzela
kamera
maileg
babilon
naturan
obraren
pasarte
surreal
tratatu
eragileak
lehendabizikoz
mendebalderantz
gy
##ston
##vens
erot
##iderik
bains
mitch
biokim
mahats
mertzen
oblasta
sebastes
yvelines
australis
batzordea
ertaineko
ikerketen
nabarmenena
##179
##abar
##andr
##mare
muk
rey
six
www
##uzioa
##ycter
1846
buff
erie
vila
zura
aldar
oldar
silik
##lopidae
aldeak
austro
juduak
monroe
sareko
bestean
biktima
kondair
ordezko
ugarien
haratago
maranhao
marokoko
aldundiak
beltzaren
interesak
ordaintzen
tyrannidae
funtzionamendu
##124
##171
##189
iw
##lash
##sonek
1802
irla
thal
anber
cabal
isats
labeo
tiber
beraiek
granada
teorema
batuaren
gazteena
lizentziatu
##wel
ish
1833
orre
baile
goian
jerse
badugu
idazte
##itzarekin
benjamin
barneratu
berrantol
hornitzen
korsikako
argentinar
erreaktibo
honetarako
parlamentuko
departamentuan
##101
##cep
757
aiz
##azial
##ieren
1821
1855
kaus
laus
trog
josep
karib
chatel
parado
poemak
ikustea
society
##ostomidae
paralelo
istorioak
norabidea
napoleonen
amphisbaena
konstituzional
##106
##iron
772
ano
viz
gott
mare
antip
chama
grant
hilda
barren
elebid
adituen
norbait
bidearen
minbizia
minutuko
bildutako
ezkonduta
gertatuko
txapelketako
##127
##446
##asse
##ikov
##urch
685
cly
lah
haem
infl
kiro
##tekari
##oglossa
helsin
supern
dactylo
##izatutako
biologia
daitezen
bertsioak
aholkulari
batengatik
printzipioa
##453
##cay
##his
##utz
##zep
##egro
##guer
885
950
##anova
fuku
gian
neol
sina
##terygi
albis
jupiter
periodo
betirako
hautatua
irratian
urruneko
zeinetan
zorrotzak
hondarribia
informazioaren
##125
##190
eth
mutr
##otidae
alian
conde
ramph
myotis
tortur
transe
zikloa
romagna
webgune
gailurra
ingurura
eragiketa
habsburgo
klasikoak
zehazteko
errusiaren
britainiarren
##191
##apo
##hil
##ioc
##orta
##tens
dama
vaux
alice
catan
guill
lauko
phoen
bulgar
logron
sutsua
teruel
arrazak
modeloa
gehiagok
nagusiek
lanagatik
konstantea
santutegia
urtarrilak
ibilbidearen
##177
##666
##mid
##evel
762
vys
##mente
guar
leun
nick
erpin
etekin
forest
global
asmotan
ederren
arrastoak
urgentzia
baieztatzen
mediterraneoko
##onto
761
ayr
arit
cern
foto
furn
kart
show
arkua
siria
urteg
idazki
denaren
errepar
ignazio
kongoko
raymond
emititzen
ikertzeko
lurperatu
metropoli
erreakzion
lehenengoz
##128
##ilok
##itok
##losa
##muth
##ophy
749
936
##ikiak
glau
goya
moch
##gailua
camil
huesc
insec
##taldeko
lerroa
nabari
bahiako
bikingo
oinezko
eramatea
partidak
pribatua
cnemaspis
##182
##663
##ody
##obia
767
952
wan
cabr
chia
gari
lind
##arrian
larra
xafla
jauzia
oliver
pastor
ugarik
baseliz
neurria
linearen
sarreran
ugariren
arrautzak
saiakerak
industriaren
mississippiko
##195
##kil
##roy
##yris
681
oxy
##ideek
auch
cros
hous
stom
etako
kurba
praga
champs
sarras
warren
gotikoa
leonard
diotenez
erdialde
ordezkar
pribileg
akademian
aurrerako
betidanik
ereserkia
antolatuta
itsasartea
arriskutsua
klasikoaren
prestakuntza
##109
##121
##lob
##anes
##lores
1794
godo
kaps
nass
odon
##cartes
##tapena
ocean
oinez
times
biolin
gidatu
berriek
esateko
kaltetu
estalita
ibarrean
rovaniem
musikaria
espedizioa
printzearen
##172
##far
##neum
##odun
##zhou
723
pyc
##artek
1780
ango
##mantis
##sville
ernst
erruz
guang
tesia
wayne
##ithecus
auzune
cather
katalo
krisia
dionisio
landarea
lantzeko
murgildu
senatari
zuhaitzak
jupiterren
defendatzeko
##173
##193
##att
##izea
num
toy
zag
##centr
##ibide
##manen
hatz
lady
antis
march
olioa
##ietatik
faraoi
gorpuz
nerabe
zeintz
company
darabil
lekutan
normala
sendotu
jokabide
doktoretza
eleberriaren
##187
##iot
##iya
##orf
##wns
##gram
##tzaz
575
loz
##ainek
buss
##agirre
##ikorik
##phthal
artiz
deser
mendo
##urretan
arthro
beteta
entzik
formal
neolit
otomand
nebulosa
itxaropen
mesopotam
batasunean
txikitatik
naturalaren
errealitatea
ey
##amps
git
##chnij
pang
town
##tivora
bataz
clara
field
mires
vista
zenak
infern
jaunak
##bergetik
bonbard
golkoan
paraiba
erreserb
etorbide
leonardo
nauchnij
ingelesen
ingurukoak
produkzioa
dactyloidae
aipagarriena
itsasontziak
nekazaritzan
zortzigarren
##bit
##best
##ulia
696
802
bec
pog
tri
##ellan
##erbai
##kurik
etim
moto
zere
bihar
rosen
thrau
zilar
##ianoren
azerbai
ahoskera
vietnamgo
uhartediko
ekonomikoaren
##722
##izi
##alto
##icho
##udia
juv
##asian
orth
pand
##cidium
##iketan
mundo
##psophus
dakigu
haritz
sergio
kontatu
azpiesku
ezkutuko
errepikatu
txekoslovak
##107
##xkak
764
arts
isaac
donald
konfer
telmat
valles
zubiak
correze
gabekoa
multzoak
aurkituko
ekonomial
genetikoa
itzultzea
negoziazio
insectivora
jaurlaritzako
sphaerodactylus
##fl
##170
##rip
##kana
853
apo
pine
shir
wald
arter
desin
ganga
julen
lertx
ostir
##ogobius
figura
gaitze
villar
ekoizte
parkean
arrasate
haustura
pseudoph
zentrala
egokitzen
kromosoma
zegoelako
ospitalean
mugimenduan
erabilgarria
##105
##kel
pc
##emak
##ueta
932
dil
rut
1828
roch
##taenia
pello
vieux
##abideak
segida
##abetasun
lappiko
menpean
berlinen
ctenotus
gailendu
indarrez
irabazle
tuberkul
elikagaien
batzuetatik
callionymus
soricomorpha
tradizionalak
mg
##wski
amu
xah
##arian
##manek
baix
lyon
##amentu
##iteria
arima
comun
marse
metan
##otyphla
gordon
helena
itxita
liskar
puebla
bidaiak
biltegi
emankor
idazleen
erromaren
klasikoan
hilabeteko
kantitatea
##143
##eoa
##tat
##amph
##ific
##seko
##imend
##lesek
guen
##erreko
astin
bolit
herts
luisa
odont
tokyo
##eranzko
edukia
oroimen
astronau
ziuraski
bakarrean
eskuratzen
university
erdigunetik
komunistaren
heidelbergetik
jaurlaritzaren
##820
##877
##892
##otx
##imah
##inax
##itib
968
amp
mux
1798
born
##araziz
larun
zendu
ribera
azaroak
mazedon
nukleoa
txandak
zarautz
genetiko
paraguai
gurutzatu
ohikoenak
alemaniarra
erdialdetik
ot
##ence
##erei
##indo
nie
mese
zeru
azoka
bakan
calam
##biderik
##izatuak
librea
##tzarekin
eusteko
konspir
autonomo
iristean
jerseyko
mailaren
scottish
inperioan
iraganean
lipotyphla
association
kontinental
##rra
jap
##udien
baig
casa
jama
mike
##urrera
imper
jaime
giroko
harain
justiz
eraketa
hartara
iritzia
indarren
iturriak
zihoazen
markatzen
egiteagatik
txapeldunen
elkarrizketak
kontsumitzaile
##799
##822
##ages
777
bub
##torik
anch
cata
kitz
maha
morb
##tikako
cordo
erdib
garia
tunel
##azioari
##lennius
absten
arrano
berdeak
daukaten
gramatik
sarraskia
bideratzen
erakundeen
gorabeherak
nagusitasun
identifikatzen
plethodontidae
}
##day
843
erg
gig
##house
##onema
saba
sena
adolf
angus
beira
disco
sikul
##enchelys
america
jaunaren
daudelarik
ezaugarria
##701
ae
hr
##lach
##atara
##hinus
##tzara
##ioetan
desor
gorka
palma
perts
sabel
aretoa
hessen
scelop
system
besteen
kronika
biarritz
kritikoa
aparkalek
aurkitzea
iturburua
kontsumoa
liparidae
nortasuna
eskulturak
sceloporus
kontseiluak
macrouridae
bolitoglossa
{
##796
##nek
##yte
ai
xa
##abes
782
kad
mea
##estre
##terre
nikar
salto
torne
eskema
hirosh
letrak
museum
nelson
##lariaren
erdietsi
blenniidae
erlijiosoa
##alli
##astr
##dino
##hail
surf
##ismoko
ukitu
erants
marian
buruari
country
phyllos
aginduak
banakako
pasealek
frantsesek
gudarostea
ikusgarria
kazakhstan
portugalen
tenpluaren
harrapatzen
itsasontzia
alemaniarren
parlamentuan
hauteskundeen
herrialdeetako
##898
ih
##idor
##txin
rac
##finis
##tural
boxe
kras
adige
bildum
goitik
herman
mezuak
##iventris
aljebra
helbide
aurrekoa
errazten
urteroko
generoaren
indarraren
jarraitzea
norberaren
eskuragarri
frantziakoa
haurrentzako
##795
##amm
##rov
##agio
##idon
##tins
759
emo
##lizeo
##water
##alakoa
gohan
##tsuenak
baskon
zorian
egiazko
dublingo
guduaren
hollywoo
hungaria
mendatea
altxatzen
bigarrenak
institutua
partikulak
sirakusako
sozialaren
##erodactylidae
independiente
##enk
##isk
##nau
##mark
##plaz
##icana
1550
host
pinu
##ondoko
uzkur
zaien
bilteg
carter
cephal
glypto
vendee
##tzearren
fotosin
galizia
landako
sintoma
beldurra
denborak
egondako
eragingo
herriald
jazotako
errekorra
gazteluan
gutxiengo
ikaskuntza
konplexuak
laborategi
errepublikar
trenbidearen
##103
##723
##729
##entu
##imak
##tine
704
imm
koh
##sonne
1750
ares
vent
schiz
sexua
badian
electr
eskasa
period
artxibo
domeinu
hegaldi
kanadar
urteren
espanola
higidura
poderioz
artikulua
deklaratu
irunerriko
liburuetan
matxinadak
##705
##805
##mei
##olk
yu
##olan
muj
sos
##arraz
getx
hues
miam
jasok
ballet
bizkon
etapan
marion
constan
diagnos
haizeak
udaletx
urtegia
erregeek
estalkia
propioak
aberatsak
laburrean
leinuaren
sigmodont
frantsesen
garapenaren
sozialistak
pomacentridae
##cro
##uza
##atis
##imar
mang
mart
olib
urma
wats
##tikoan
arkup
enter
fidel
lasai
solas
##erakada
biziak
fonten
holand
hotzak
imanol
master
##tzaileen
belfast
bilketa
chromis
gazteek
kolorez
muhammad
suposatu
##atzearekin
brunswick
militante
artistikoa
soziologia
abertzaleak
programaren
##802
##809
##liv
##idek
##ihan
##ises
##ypha
816
yas
##eroen
##iurus
##tetik
muss
ther
ebatz
ichth
macul
azeler
cortes
naziek
pareko
tarrag
arazorik
bisitari
bonbardak
catalunya
erradikal
liskarrak
soldaduek
unitateak
eraikuntzan
borrokatzeko
##806
##pur
##ibus
##ople
784
boc
##atriz
ames
grim
tant
futbo
potas
##ineatus
predik
saioan
arraroa
errepro
mayenne
onarpen
eraginak
iritsiko
shakespe
mendekoak
unibertso
egituraren
elektroiak
##abi
##tich
gug
ich
ioi
1740
1768
3000
arbu
jari
kred
##errera
##ophila
lappi
perre
##ekoaren
hudson
zapore
occiden
txikian
zelaian
##ografikoa
atenasko
bazegoen
dukearen
plazaren
hegaztiak
publikoan
audientzia
coloradoko
estandarra
##709
##itra
box
ikon
shan
sond
umea
##amolde
negua
##ologoak
creuse
giusep
norman
scinax
bidaian
desplaz
erronka
hidraul
klaseak
tokitan
artisten
batetara
delaware
eraginik
huescako
teniente
kantatzen
senarraren
ikuspegitik
hegoafrikako
lehendakariak
mendilerroaren
##827
##ipa
##uba
##etek
ade
cist
traz
grisa
txiro
geldiar
haragia
lehiatu
beltzeko
brooklyn
ekuatore
errenter
kopuruak
francesco
ibiltzeko
jasokunde
ordurarte
zabaltzea
oinarritzat
interpretatu
##dad
##mod
##uca
##yne
##zin
##ebus
##iche
940
ogi
##beren
katu
kond
stew
##osfera
bouch
heavy
altuak
babesle
santuen
aristokr
enpresek
ezkutatu
frankoen
kondents
napoliko
sintetiz
subjektu
transgen
alexandre
daudenean
errealismo
lehiaketan
norabidean
errepublikak
diseinatzaile
##ebr
##dian
##mers
1797
hoff
neop
stud
bison
hilko
mateo
ptych
zigil
##fordeko
gudari
##igintzan
ederrak
epaimah
eskuald
fosilak
handiek
estatusa
posizioa
hildakoen
##tasunagatik
aphyosemion
erregealdia
tradizionalki
kontzentrazioa
π
##788
##oir
##zar
930
fem
sio
##acter
1770
1795
1804
flota
kutsu
trilo
##etikoak
cooper
bergara
beteran
matrize
presoak
barandiar
bideojoko
abertzalea
informatik
zailtasunak
aukeratutako
nagusietakoa
##alta
##teka
lea
nue
loup
putz
##plemen
azpib
feniz
jaits
makro
tiran
##arrekoa
##onville
hippos
kalera
morris
salmon
##villiers
ikastar
artekoak
asteburu
cristina
detektib
herzegov
ugaztuna
eraikinen
kondenatu
kristauak
zehatzago
errepresen
##792
##874
##896
ml
##anne
##phia
788
970
##polis
##ulatu
itsu
jais
mono
gallo
denera
espele
karrik
zitzak
##aketaren
clinton
etiketa
inauter
lotzeko
entitate
milioika
indoeurop
lizarrako
ospetsuan
rivulidae
boterearen
irudikapen
erromanikoa
sigmodontinae
txirrindularia
##izo
##off
##ning
778
yus
1801
lich
musa
nago
sang
inkes
haizea
mitxel
multip
zapaldu
fisiolog
gorakada
harrison
hartzera
hautatzen
itsaspeko
portugaldar
espainiarrek
ordezkatzeko
##821
##824
##871
##890
##cyc
##zow
##ław
##iona
##rigo
798
819
kis
##daren
##tepec
biol
eleg
labr
pach
##antzak
##mentua
abruz
atlas
bertr
kable
kotxe
sport
##eratzea
##omyscus
arturo
epaitu
gaston
jabeak
kostua
marine
erreinu
lerista
sentiko
transfer
haizearen
kristauen
geometrian
handiarekin
publizitate
laguntzailea
azpimarratzen
erlazionatuta
abertzaletasun
##794
##798
##826
##873
##pio
##uer
##aron
774
1512
cole
gerb
perr
topa
##iculus
##ketari
##mendeb
jakob
tocan
urruna
##obatrach
editore
entzute
aginpide
itzuliko
latindar
reinmuth
aurrelari
champagne
egoeraren
filosofoa
margolana
soricidae
erraldoiak
sortutakoa
funtzionario
alderantzizko
##703
##878
##894
##ube
##uti
##zac
959
##uriar
nann
untz
##aldeak
##atzail
##tziako
##ycteris
analog
aritme
extrem
bektore
navarro
ataletan
liburuen
topatzen
dorretxea
zaletasun
bermatzeko
garagardoa
konfiantza
mendizabal
egiterakoan
eskandinaviar
legebiltzarreko
ł
##114
##725
##823
##nais
613
894
och
##gobio
##itisa
1799
golf
mosa
sund
cerro
colon
denek
juris
nefer
semin
danbor
inbert
ludwig
macrop
prince
##arriaren
gorantz
lizarra
aurkezle
gidatzen
apezpikua
egonkorra
kolorekoa
sustatzen
garaipenak
lehendakar
militarrek
partekatzen
jugoslaviako
##828
##vez
ji
##lana
683
830
otx
teh
kemi
pail
lazka
leger
yamag
estali
hockey
medina
nichol
tutera
sinplea
sustrai
aldatuko
amatasun
giuseppe
komentua
batentzat
egiaztatu
gehigarri
lapurreta
madrilera
microsoft
burdinazko
thraupidae
formakuntza
grezieratik
abeltzaintza
glyptothorax
ezberdintasun
##807
##iog
##pic
##jing
614
931
jin
##iento
1829
edit
jaia
clair
erauz
globo
lenin
major
alvaro
boston
corpus
turkia
erliebe
jimenez
entziklop
langabezia
plangintza
bisurteetan
erlijioaren
##790
##808
##moak
##yako
ago
cic
gay
pax
birr
bozk
byte
cord
ezus
parv
zizel
zaindu
aretoan
berriki
gortean
kapitul
arrainak
federico
liberala
uharteen
guztiekin
barnealdeko
zoritxarrez
espezializatu
transmititzen
##116
##804
##icum
##omar
972
dob
sik
xin
##desen
##iatan
##rinus
1827
ilea
pell
bally
honor
kanoi
ibaiko
meatze
##eleotris
partean
atzeratu
trentino
denborald
etorbidea
jaialdian
zitekeela
erakusgarri
grezierazko
elektronikoa
##707
##825
##876
##kom
##nia
##iras
##trof
##ures
##azkoa
##etika
##ioari
cinc
zifr
##ezinak
coron
lehoi
zantz
andoni
ezkutu
gondor
multim
eremuko
kantatu
aireratu
jazarpen
enpresako
hirietako
ekitaldiak
dendropsophus
##720
##721
##abek
##atak
##troa
1767
cond
cune
spen
taku
yang
##agidae
elena
grina
inhib
estrat
etniko
hutsune
emanaldi
eritasun
inguratu
eskalaren
kokalekua
eraldaketa
zaletasuna
zentimetroko
##726
##891
##jok
##artz
##ians
##tebe
bam
who
2020
conn
plac
tako
##enzako
marti
##incourt
istilu
onenen
oxford
auguste
iristea
eraikiko
krimeako
dezaketen
hondarrak
kristoren
zinemaren
bidaiarien
enbaxadore
geografiko
horizontal
izendapenak
iraultzailea
##wy
##ping
glo
groß
idei
lima
math
mazov
viper
zapat
beteko
ibaiek
pietro
atsegin
beltzen
distira
gorenak
haurrek
##arretatik
##istarekin
atelopus
tituluak
aukerarik
jaitsiera
desagertzen
pertsonaien
historialaria
txapelketetan
##727
##801
##etz
##zil
##foro
##ioke
##jord
##ulan
758
912
958
uci
##anges
##tsuan
1762
1823
1853
ezka
remy
scia
##arrain
hodei
ophid
sumer
##itearen
airean
jakitu
lacert
masibo
lasarte
museoak
notropis
adibideak
fundazioa
hipotesia
aragoieraz
etorkizuna
materialen
antolamendu
printzipioak
kristautasuna
##km
##724
##875
sy
##omac
ars
zis
##agabe
##ialis
##imetr
##toria
##undar
birm
puru
apist
aulki
hareh
sodio
enpleg
filman
jokoen
zeharo
basilik
chester
sartuko
etortzen
hobetzen
alderdiek
askatzeko
leporinus
ustelkeria
psittacidae
##pat
ki
##chin
##ioek
##trig
743
atr
rum
sink
that
agint
euria
saguz
##tantzia
lautad
charlie
taldera
betetako
ehiztari
gehiegik
tokugawa
egitasmoa
eskuetara
delakoaren
barneratzen
dokumentala
esanguratsu
matematikan
plataformak
poeciliidae
##899
##ibai
##lans
708
883
hra
llu
syd
##embel
1825
spor
##entzio
##eratze
##matiko
bruno
domein
exekut
holmes
korrid
##ologiako
arrasto
auziteg
ibaitik
kontuak
##ophoridae
eskuarki
konfigur
goialdean
iraultzan
antzematen
lehenagoko
bigarrenean
$
##113
##793
##803
##829
##auts
##biko
##born
##ishi
##tale
cog
eld
##aleek
##copus
elgo
pila
abiar
alkal
guerr
kaltz
phill
##idoaren
espres
galakt
infrag
maisua
asterix
fernand
gerrill
zitezen
lapurtar
arthrolep
askorekin
ebakuntza
kontsulta
liberalak
akitaniako
gauzatzeko
kokaturiko
kretazeoan
bereizgarri
argitaletxeak
##704
##lau
##lero
765
nai
##xeago
cris
dark
derm
gala
gior
raim
rall
##ations
##dalena
astig
kelly
perth
grosso
cyprino
suitzar
usurbil
erosteko
finalean
bitartekoa
hamarkadak
berdintasun
##708
##kee
##sar
##agin
##anga
##ifas
##lips
##olus
676
824
gav
lepo
virg
alain
corun
polis
primo
tener
##hamphus
esfera
entzima
erreala
hiriari
legezko
sakonak
teoriko
ukraina
##amerikako
dinosaur
guneetan
buruzkoak
ditzakeen
erresuman
gidoigile
etxeberria
faraoiaren
aukeratzeko
##895
##inka
##ving
705
799
980
say
##urrik
1764
1772
1782
bust
##ibarko
promo
mastac
produz
##eratzeko
gorteko
atzelari
baptiste
brasilen
federala
ikastera
indarrek
israelek
izanaren
tuterako
estudioan
finkatzen
institutuko
konferentzia
##791
##jabe
##neko
##onio
##ostr
812
947
ako
1748
1811
chas
cinn
rhab
sala
soph
##viller
kyoto
barazk
steven
aragoin
gogoeta
litezke
matxino
mikhail
munstro
elapidae
finister
galiziar
hilobiak
frederick
ingelesek
uhartedia
errepikatzen
zientzialariek
##thy
##zyn
828
rup
##ifera
##uente
erit
fren
##darren
enpir
ferre
varen
foruen
fresko
##lepharus
faraoia
hiltzean
motatako
chaetodon
generotan
saltokiak
metrorekin
demokratiko
tratamendua
ezkerraldean
##dok
##eau
##loc
##pers
951
##ciata
##durak
ainh
beng
cerv
fitz
sign
bidas
evans
liver
zunda
##ismotik
gutuna
haziak
kanala
itsasora
zosterops
kostaldetik
guadalajarako
##784
##elin
nez
##ionen
##teari
##uzena
kaia
nota
zeta
zure
##aziora
kopan
leuna
volta
##agailua
crenic
galway
hankak
##terakoan
enontek
errioxa
estalki
ondarea
errazago
gaizkile
larunbat
zilindro
ikerketek
autoritate
hezkuntzan
kontaktuan
maitemindu
politikoki
##imil
924
##aille
##quier
ileg
jenn
##ijarvi
canal
estil
femen
jules
maule
##alensis
armatua
biograf
epineph
indigen
lagunen
gizakiek
zuriaren
atzerrian
eskolaren
modalitate
hilabeteetan
##eu
##gs
##702
##728
##797
##897
##desh
##iska
##artak
1720
alar
batx
mund
arrop
berea
budap
hezea
tigre
under
iraung
arantza
aterako
elkarlo
gehituz
kirolak
luxuzko
zaizkie
agintean
atomikoa
campbell
fatxadan
adieraziz
erakutsiz
handitzea
harlanduz
hurrengoa
valentzia
arkitekton
gobernuari
lacertidae
zeharkatuz
eskualdekoa
konstantino
laborategian
##jun
##pei
##kopa
709
##lerik
foix
carta
genov
putzu
ramir
ridge
##amensis
abizen
blanco
kirurg
susper
abizena
hektare
hirurak
lanbidez
pisatzen
sistemen
villiers
azkarrago
enpresari
galdutako
higikunde
korrontea
magnetikoa
alternatibo
dituztelako
erakusketak
interneteko
voivoderria
bultzatzaile
sailkapenaren
##fle
##kua
##icas
##rana
bia
##itatu
hell
hezi
hunt
kurdu
revol
garatua
masaren
medikua
simpson
lantegia
sindrome
dagozkion
inpresion
mazoviako
tradizioaren
herrialdetako
unibertsitatera
##ка
##ов
##red
uc
##enek
##inio
795
978
992
##tista
1600
jara
osak
osko
soka
wern
your
##lerren
indig
monje
yemen
##matikoa
##ocercus
patroi
##garriena
erretor
ertzain
izenetik
martzial
altsasuko
amaitzean
fenomenoa
oihartzun
funtsezkoa
epinephelus
zerrendetan
espainiarren
historikoaren
##fra
##hia
785
bom
ovi
ibarr
jurgi
pneum
venus
basaur
butler
hradec
parisa
tropek
##lossidae
aurkari
ranidae
##kortasuna
adibidea
baitaude
hiztunen
koloniak
tenpluak
estudioko
gaztearen
inguratua
primitibo
sciuridae
viperidae
apogonidae
musikariak
nagusienak
baliogabetu
ikastetxean
adierazgarri
aurkeztutako
902
ral
mohs
osoz
tian
##erodon
gaien
medic
neutr
ferdin
hileta
latzak
misioa
bilbora
borders
vatikan
zibilen
##ifikazioa
berrikus
morbihan
umorezko
absolutua
chicagoko
ibaizabal
mantenduz
islandiako
indonesiako
iradokitzen
mastacembel
trochilidae
filosofiaren
florentziako
ministerioak
##ng
##706
##ulg
929
hot
nym
yuc
1807
bach
chin
desf
kola
lain
okta
poli
equus
jakit
opist
##agintza
##hinchus
abando
egurra
##azionala
beldurg
centrop
fruitua
itxaron
kennedy
zertxob
alkateak
bortitza
etorriko
margaret
nuklearra
xurgatzen
mendeetako
crenicichla
berdintasuna
historiaurreko
##893
##bay
sd
##teaz
ris
##ioiak
sorb
##icidae
atsek
atzem
chern
flora
gidoi
istan
tratu
umeen
estuak
gailur
jokoan
ehuneko
ezizenaz
goreneko
istiluak
biltzarra
eragozten
zertxobait
##cat
ht
771
776
969
sok
##tzail
##zioan
acro
bore
clar
kobr
##istari
##talean
##tzenta
##yzomys
kongo
letre
econom
hitzez
segitu
tarifa
arkeologo
barcelona
bizitzari
charlotte
itsasontz
jasandako
organikoa
produktua
instrumentu
hamarraldian
frankismoaren
##anc
##cko
##edoc
##hero
818
els
geb
##iotik
##irano
##terra
##umurr
huel
porn
trap
vire
##gosoma
##iorako
haiei
hemez
mondr
nueva
ordiz
sarko
##icollis
bihurg
emaria
armarri
irekita
partido
patogen
egutegia
islamiar
danimarka
descartes
sindromea
aspalditik
etxebarria
hitzaldiak
kudeatzeko
ordaintzeko
sozialisten
arkitekturan
prezipitazioak
##ipr
##tep
##adus
##ctro
1806
egub
leth
loth
marm
olym
zoar
##aktore
caban
chann
eskua
kamer
robus
##anensis
##errekin
biziko
eskuak
faktor
kantak
##omatidae
antibio
badiaren
hiztunak
inplemen
kobazulo
geltokian
hurrengoak
lehendabizi
parlamentua
antzeztutako
μ
##auk
##tang
707
954
990
fau
##iella
1350
eskr
gaul
heze
mayo
mika
ember
eskor
jason
monok
testa
corpor
desego
ekidin
eroale
golden
itsats
neskak
pilotu
sakrif
guztiko
ingurug
matemat
artiller
baitzion
eskatuta
fisikaria
ikerketan
magdalena
modernoak
molekulak
ekoiztutako
esloveniako
gurutzatzen
##115
##783
##jov
##ygo
aa
##osek
##osto
822
957
964
bov
izu
1788
1843
graz
luma
unai
verr
##darrak
##eroren
##tarioa
aduan
esfor
kript
squal
udalb
##obarbus
##taturik
biziki
pycnon
ugaria
atxilok
essonne
itzulera
izengoit
egilearen
filologia
gizarteak
kordobako
tocantins
trainerua
zelularen
baitituzte
sortzaileak
administrazioa
arkitekturaren
##111
##lene
##eroko
shet
zeud
##ignano
derry
espin
hirit
zorno
##phiidae
apollo
kasuak
prefet
esperan
hidalgo
zaintza
bilduman
thailand
zarauzko
zuenetik
zuhaixka
adierazle
bergarako
frogatzen
iraultzak
ontziaren
suntsitua
laborantza
tontorrean
zerbitzuan
erantzuteko
jendaurrean
medikuntzan
##fc
##786
##wyn
##ento
##esan
##esio
##esis
805
918
##agnac
edan
fila
guin
gwyn
leho
lith
sagu
##ushima
arang
berun
diruz
moham
sauve
zeinu
aurora
finean
petrog
##queville
abruzzo
ariketa
batekoa
grafiko
quentin
azalduko
aztertuz
ekoizlea
istripua
simetria
bizkarrez
eraikinean
marrazkiak
trenbideak
kontserbatzen
##cul
##ees
##xen
##okal
miy
##iosus
##tikak
dors
dres
izok
zink
autoa
galle
##igarrena
bitxiak
erremin
ligaren
gunearen
thriller
abenturak
aljeriako
gaitzetsi
jarraitua
ikerkuntza
lekualdatu
zuzenbidean
eskualdeetan
##781
##beg
##ifa
##pop
##erne
781
kuk
##abrus
##andre
##iforn
andu
auzi
saga
zama
##ophaga
death
geldi
oxido
zabor
arroza
gordin
maskul
modulu
zorroz
golkoko
habitat
metafis
altzairu
berrogei
bildumak
borondat
kontabil
uhartera
atxikimen
erabakiko
federazio
haranaren
mineralak
zurrumurr
formakuntzako
oinarrituriko
##ezo
##tty
##elas
804
807
825
bip
1779
cath
jent
ster
barth
blanc
epela
hasia
olatu
roque
bonbak
gertur
partzu
irudien
itsasoz
lapurtu
popular
familien
luzaroan
topatuko
aspaldiko
finistere
indargabe
kantabria
kondearen
petrolioa
estreinako
filosofian
lurraldeen
porrotaren
merkaturatu
zerikusirik
aurrerantzean
britainiarrak
desberdinetako
##lla
##nab
979
euf
baut
bole
rick
tito
artoa
emanda
estral
junior
karibe
testig
ekaitza
etsaiak
goizean
intelig
lerroak
stadium
lanpostu
urratsak
apaindura
hungariar
italiarra
erreakzioa
fotosintes
apistogramma
kontsumitzen
##288
##org
##ense
##eter
##icae
817
laf
mob
##eseko
##igram
##logoa
1736
antx
bank
epel
lurg
uhol
unam
aguil
etxeg
miami
murra
strig
urtar
zaigu
##ikusten
asanbl
ermita
igorri
trenak
umezur
avilako
lodiera
mailegu
paradis
berberak
bideguru
italiara
olerkiak
bezalakoa
islamaren
ahalegindu
christophe
enpresenak
mendikatea
musulmanek
teleskopio
heidelbergeko
##icul
##tron
##uelo
905
928
xar
##istis
##tuago
1741
irur
ryan
vida
boiss
dario
stand
##borough
##illidae
diberts
kaltzio
stewart
argazkil
garaitik
konkretu
lleidako
berdinean
venezuela
azpialdean
columbidae
identitate
trebetasun
aurrealdean
zaharberritu
##988
##qui
787
790
tud
1759
1791
gasa
kand
##ismora
elias
emile
gastu
genev
intxa
izkin
##adiaren
anders
arraro
ontzio
segura
urruti
beranti
bilduta
ekuazioa
kalkulua
partzuer
shetland
txikitan
aintzirak
catherine
edukitzea
gizarteko
gizonaren
menditsua
nekazariak
protagonistak
bederatzigarren
##tex
##loak
##ztea
adr
##lehen
1754
fundu
fusio
lepoa
baxuko
church
compos
gabeak
ichthy
jasota
kartel
madele
matthe
oinean
urtaro
bizkarr
eskaria
galduta
zionean
analisia
depresio
geratuko
izenpean
ziurtatu
deskonpos
lehenbizi
mendikate
segoviako
greziarren
frantziarra
harlangaitz
aurreikusten
fi
##pool
773
806
939
rig
##azkia
##myzon
1667
bios
bonn
fama
flan
hopl
joao
klon
over
tram
##agunea
andor
apple
barbo
boris
fauna
##tarekin
summer
batailo
pseudob
##aritzaren
gobernub
jantziak
kardinal
aitortzen
erretiroa
enparantza
ibilbideak
nagusitzat
propaganda
furnariidae
sozialistaren
euskaltzaindiak
##kok
##zale
nun
whe
##ostic
##ution
alfa
area
brah
filo
gill
mira
oreg
sera
##amphus
##erente
amara
power
europe
herriz
karakt
marcos
erraztu
eukario
madagas
kantauri
kongresu
aitarekin
aurkezpen
bakarlari
dionisiok
partiduak
barrutitan
handitzeko
lankidetza
kanporaketa
##wr
##delf
##odia
##wice
ork
sea
wen
##logus
atur
back
mena
esnea
kobre
mezul
##ochilus
kateko
larran
nieder
aingeru
argumen
hirikoa
klaseko
##aletasuna
##arentzako
bazeuden
edizioan
micrurus
subirano
abangoard
atentatua
erabilpena
gaztelakoa
ibaiadarra
nukleoaren
oroitzapen
tontorrera
erretratuak
eratorritako
izenburupean
##toki
##ulen
##vent
917
##icako
drum
lego
live
urki
##psidae
emana
limer
sobre
##araztea
atleta
buelta
dizkie
irungo
kontua
muinoa
dukerri
ekoitzi
ereduak
erreson
norvegi
pedagog
sexuala
digestio
oligodon
sinboloa
zeinaren
bartzelon
jauregiak
proteinak
protestak
matematiko
multzoaren
garraiobide
gogortasunaren
##924
##dii
ux
##ferr
##hima
##lace
##onis
##riko
tif
##iboas
1758
basoa
gatib
junta
aldare
ezingo
haragi
karlom
tabern
lohizun
osatuak
dagokien
tropikal
zamorako
hildakoak
hypsiboas
italiarrak
antzekotasun
aberdeenshire
##su
##922
##baz
##cle
##ykh
jox
voy
##lette
1349
gary
head
hers
inoz
muru
qing
rhip
trev
ultz
aranz
barde
barry
chong
oskar
prion
##gintzan
barean
ezkont
hebrid
horiez
itunak
kaukas
basoetan
bautista
eragotzi
existitu
ibaiadar
inbasioa
kapitulu
hondoratu
##785
##buco
775
919
vac
##agerr
##inata
##tures
1749
burr
clas
dard
wars
##emonia
##kovice
craig
hariz
igorr
nahig
plzen
gaizto
piezak
shogun
zertan
dutenen
kobazul
maximil
##phthalmus
kristaua
normalki
zeregina
bizikleta
dituenean
ekarpenak
deiturikoa
estalitako
margolanak
pizkundeko
##fs
##mb
##fid
##ted
##bers
##erag
##gatu
##qing
##tita
982
how
lal
##isson
##vouko
1752
1816
maia
pasc
##itario
marmo
atzizk
eviota
bueltan
likidoa
rasbora
arautzen
seinalea
zelakoan
arrazaren
bilakatuz
kristobal
kritikari
milimetro
erretratua
montenegro
erreferentz
fakultatean
elkarrekintza
gaixotasunaren
##nett
##ygon
703
789
911
988
##arten
##eburg
##ender
1769
gotz
neba
ogia
##itzeaz
##ixalus
legit
optim
place
ubide
##rentzat
biblia
fribur
jarrai
otoitz
temple
tripul
##iarrekin
coregon
elegans
hernani
isotopo
jorratu
trafiko
##iloglanis
segmentu
errazteko
askotariko
bidaltzeko
eskualdetan
estimazioen
gainditzeko
trachylepis
rhacophoridae
##gas
##ped
##pont
##trum
glu
1824
abis
beras
autode
gibral
gidoia
yunnan
##obatidae
artetik
ganbara
halicho
hormona
salomon
dauzkate
edukiera
noranzko
sakratua
zesarren
bilatzeko
karaktere
historiari
berreskuratzen
##eix
##fir
##rie
##von
##idia
948
ceb
eve
pep
##adena
##ezake
##inoko
1787
anpl
hote
natr
ohol
ring
tank
##atzako
burts
dukes
irain
liban
pernam
zahark
zekien
euzkadi
harvard
muturra
roberts
telebis
atletico
galestar
geologia
israelen
monmouth
paleolit
prezioak
ugaritan
grabitate
legegintz
liberalen
boluntario
ezkontzeko
katolikoen
sendatzeko
villanueva
komandantea
metodologia
hezkuntzaren
katedralaren
##277
##asu
##has
##zak
##ideo
##rela
##tail
922
999
##unera
myct
roos
soto
pyren
aurres
gorriz
marroi
egokian
eibarko
txikitu
altuagoa
anaiaren
estetika
gironako
hautagaia
ingurunea
modernoan
alternatiba
erlijiosoak
halichoeres
esanguratsua
militarraren
##928
##edd
##zig
706
ole
##atoak
##ibalo
##istei
1560
1572
kono
nino
##agaren
##trigla
aretx
garen
jordi
rouss
bikoitz
edukiak
osatuko
herririk
hylarana
arnasketa
coregonus
estadioan
satelitea
harlanduzko
pirinioetan
batzordearen
##jor
##lao
##anto
##igor
945
elb
##ierak
1680
duzu
saza
##izkigu
##vantes
foret
miloi
noski
anatom
arerio
eskori
gibson
koroak
protek
zirrib
helduak
luzapen
pseudoc
sentitu
generoak
problema
zeintzuk
abiapuntu
eraikinik
heriotzak
ezkutatzen
giltzurrun
pasealekua
testuinguruan
##sd
##emy
##adek
##auko
##less
##vois
811
ast
pam
saw
##media
1742
anjo
arto
beis
borg
bren
eske
greg
olor
ptil
rath
##idgeko
kanab
##tarioak
huesca
kalifa
league
txomin
gonzalo
noizbeh
zuberoa
galtzeko
jantzita
loiolako
letoniako
saskibalo
atmosferan
azterketak
versailles
berritzaile
orokorraren
osotasunean
β
##976
##brook
##ortua
1668
1672
1803
aing
dana
prat
roll
gatza
olerk
##kirchen
##reville
adolfo
kroazi
kromos
planak
erupzio
hedatua
amaituta
operador
disoluzio
languedoc
definizioa
wellington
frekuentzia
garapenerako
zerbitzatzen
eraikuntzaren
udalerrietako
metropolitanoan
##902
##974
##984
##deo
##jec
##ader
##drom
##unda
##work
815
arv
pub
1530
1717
1778
asen
kent
suiz
team
##lebias
aleak
emoia
gelak
hered
lisbo
manga
##oglanis
##tropodo
gaelta
pontev
akatsak
bordele
carroll
inoizko
iritsiz
lurzoru
sauveur
abokatua
autobide
berrezar
muscicap
zaizkion
edertasun
aritutakoa
nabaritzen
industriala
aprobetxatuz
estrategikoa
matxinadaren
petrolioaren
zientifikoak
##gra
##jac
##jal
##azon
766
921
aix
kip
##leton
##ondoa
1761
beck
kurt
sanc
zdar
##veland
dieta
elite
ohore
sagan
shann
siles
##tenberg
degrad
himala
ibanez
lehian
marmor
queens
##ophrynus
futbola
klaudio
tolosan
banatuak
jonathan
leopoldo
teknikoa
antzezten
egitearen
topologia
arabiarrek
baimentzen
harremanen
desagertutako
dh
##jole
##mons
##ryas
896
##andra
##aziar
emma
remo
roub
vale
##doaren
donej
lanei
laval
munoz
##ienteak
cannes
guruin
sabino
bakarka
katoliz
kondeak
princip
serbiar
latitude
areagotzen
erromaniko
jaurtiketa
murrizteko
komertziala
erregimenaren
##bn
##205
##ahn
##aua
##icio
808
941
eol
rid
brez
fina
krem
tach
##okrata
akron
txime
bideok
fraide
hobeak
lotuak
pimelo
ponien
urtebe
diaphus
hiltzea
kentzea
mexikar
argitzen
biraketa
chamaele
kirolari
rhinella
sintagma
bukaerako
eraztunen
geologiko
tradizioa
erasotzeko
guztietara
pimelodella
rhinolophus
deskribatzeko
ezagunenetako
##286
##roa
##wic
##chax
##cruz
dod
taj
##daino
##stoma
1730
dean
emoz
letr
abdul
etxez
justu
komed
turku
txill
##aztunak
jabetz
leizea
asmorik
madarik
bitamina
emaitzen
eskainiz
hurbilen
montagne
pantaila
baserrian
bihurtzea
politikoan
protestante
ophichthidae
phrynobatrachus
##txak
##ycea
901
955
aun
sip
##iseko
##itegi
##oneko
##tzear
pour
##arioen
alter
arrap
drain
munta
ortiz
agiria
ahaide
heuren
jaietan
markesa
meategi
mendate
sendoak
suitzan
hiztegia
homosexu
marxista
pasaiako
babestuta
behartzen
durangoko
errenditu
abiapuntua
egokitzeko
pernambuco
ustekabean
irudikatzeko
margolaritza
##202
##207
##208
##908
##986
##eni
##erno
##gang
caz
tec
1826
book
cana
cele
epit
gira
intr
kros
zita
arrek
habia
nigro
powys
arteak
egonik
lanark
eugenio
herbert
puntuan
birritan
herrikoi
ikurrina
afganistan
atzerritar
batzarrean
gaztetatik
errefuxiatu
meatzaritza
zientzietan
##977
##983
##emb
##nov
ee
##azzo
##cice
##pere
899
914
976
sit
##ikoei
##janus
##undia
bond
dead
konb
sami
skye
word
##esteko
baion
itxia
lucio
sever
##iatzeko
aterpe
biderk
nolako
purple
teatro
erizain
fontain
frontea
ikusmen
leinuko
liderra
##izatzaile
kimikako
sozialen
alkatetza
indusketa
erlojupeko
definitzeko
gymnophthal
arratsaldeko
muscicapidae
##276
##zer
##iver
##obus
llo
oda
oss
brno
fest
leip
##burgon
gihar
prole
anaien
anatol
apurka
bermeo
esango
harriz
morala
probak
pueblo
dutenek
modukoa
limerick
zituenez
mendietako
bertsolaria
ikusgarriak
propietateak
pertsonaiaren
##206
##gae
ss
##brun
##vaux
906
hut
##stedt
hies
ipur
ribe
argen
beeth
donez
endem
inari
ohiak
onura
pabil
alaves
higien
ibaira
##anthidae
##fontaine
galdaka
gordeta
trukean
bibliako
ereserki
sekretua
hernandez
pedagogia
printzeak
telekomun
uztartzen
zabalagoa
zaintzeko
gogoratzen
napoleonek
eraikuntzak
rhacophorus
matematikaria
##203
##bko
##eck
##ioia
##onus
##wall
794
826
##ineus
aral
aram
dipu
ehor
mode
onik
sulp
anten
arest
asier
detro
juras
lengo
sufre
urola
verde
##orhinus
commun
flores
schwar
dabilen
kiribil
presoen
##otyphlops
##untzarako
castillo
eboluzio
epaitegi
narrazio
txartela
zinemako
garmendia
irlandera
zoarcidae
atlantikoa
elkarrekiko
konposatuak
lehentasuna
erabileraren
##923
##box
##arai
897
898
942
##ercis
anex
krus
midi
noto
##ataren
##errira
##gabeak
##ikoren
##osaura
binak
corac
motza
pyrrh
zerua
gerren
latina
libera
merezi
platon
txanda
##americus
ordokia
aditzera
badakigu
berpiztu
californ
emigratu
ibarreko
pentagon
aurretiko
belaunald
formulako
irabaziak
tropikala
erakundeek
eskultorea
ibaiarekin
kooperatib
laugarrena
autobiograf
gomendatzen
hitzarmenak
zituztenean
hizkuntzalar
medikuntzako
wikipediaren
bryconamericus
##sha
##artu
##iani
##iken
##leyi
783
ein
zut
##orena
beth
gine
raul
ruth
adjek
bertu
erand
moenk
pauso
rhode
tours
arroan
astuna
august
colomb
falcon
hughes
suther
turdus
animali
errauts
eskatuz
garaien
irudian
ospital
chernykh
eskozian
finalera
garraioa
luzeagoa
prusiako
santurtz
moenkhaus
santutegi
symphurus
atlantique
naturalean
sailkatzeko
erabakigarria
mb
##ansk
##idas
##loch
gih
job
voz
##iraun
1669
1719
1734
1738
1776
ditz
kuba
kurb
##oraino
betta
didel
hazia
tafal
urugu
bainue
beroak
humbol
kanari
zarata
##aldearen
affinis
irratsa
katedra
mendeak
##tazioaren
biltegir
bizitzak
eranskin
sailaren
gazteluko
maculatus
sozietate
gazteleraz
hamargarren
potentziala
louisianaeko
leptodactylus
##dom
##nel
##agny
##bata
779
tke
1739
duss
novo
tosc
wick
basea
euseb
kartu
nancy
##tekaria
galduz
bataila
ekuador
muguruz
batxiler
batzarra
lurrazal
sizilian
badituzte
ekonomiak
eskoletan
lagunduko
laguntzak
larrialdi
madeleine
softwarea
geldiarazi
lituaniako
urteurrena
babestutako
praktikatzen
telebistarako
##tv
##975
##emi
##vio
989
bbc
emp
##atlan
##igues
dizd
guer
kaka
klad
lubl
otso
sauv
bahia
estro
korea
lurre
##ipterus
gerard
malkar
##arioaren
cobitis
inbasio
rodrigo
stevens
zaldien
airearen
arantzaz
dituenak
prostitu
tokietan
zalantza
aurrekari
elkartean
itxurazko
jauregiko
misiolari
basamortua
behealdean
elkartasun
hidrogenoa
ophichthus
federazioak
moenkhausia
populazioak
emaztearekin
##zia
##ogei
##uroa
829
935
fib
ist
poe
vez
##ialen
##olari
##phryn
grad
puig
zona
##destin
later
ligak
montp
ametsa
balkoi
estere
palest
patata
biluzik
silesia
##locheilus
aldizkar
babestua
cuencako
fidagarr
mariskal
serbiako
aurkezlea
hiroshima
krisialdi
pasabidea
arkansasko
finlandian
maiztasuna
dokumentuak
komunistako
denboraldiko
filipinetako
identifikatzeko
##209
##bot
##tru
##assa
##atin
##igun
##orio
904
908
944
lec
miz
##estro
##iboki
##ikawa
1569
1805
adel
curt
faro
game
gour
ines
lorr
umbr
ixten
marte
woods
##enoides
diagon
##urretako
gartzea
irekiko
taxonom
teheran
aliatuak
ayrshire
azpeitia
berriari
betearaz
deitzeko
formazio
kontzeju
trentoko
bertsioan
espresion
golkoaren
mekanikoa
politikak
bulgariako
doktoregoa
daitezkeela
erreferendum
##274
##926
##dei
ow
##eata
iru
rna
1682
1757
abbe
ahoz
duna
phal
shah
verm
arama
begiz
borne
edgar
getxo
irish
libur
perry
vasca
##arrieta
##leville
##omantis
##txearen
alaben
helmug
hormon
malcol
marcus
napoli
ahalbid
argovia
inguruk
jokaera
kenduta
bertikal
iglesias
zatitzen
garaiaren
itsasotik
jazarpena
leherketa
soldaduen
landaredia
baliagarria
garaipenaren
institutuaren
merkataritzan
##ht
##907
##hus
##icos
erp
ilo
two
wag
1718
fago
zurg
griff
susan
gustav
pembro
ekimena
folklor
gustavo
perifer
##atzearren
ekintzen
##itzeagatik
faktoreak
garbiketa
ondasunen
arabiarren
erregional
parapercis
sinatutako
transmisio
desberdineko
eskuinaldean
harrapatzeko
syngnathidae
ε
##299
##985
##zek
##yang
791
1712
bull
kaxa
mire
onez
rena
spir
camar
celes
##hynchus
ataria
erdiak
roland
##typhlops
##tzaileek
barazki
diagram
egiteaz
esaldia
kategor
motorra
munster
paleont
aldeetan
beretzat
bertrand
formalki
friburgo
mekaniko
munduari
amodiozko
ekoizleak
gustatzen
karlisten
lagunekin
errenteria
itzultzean
proiektuan
aldizkariko
buruzagitza
gotorlekuak
lehorreratu
zituztelako
antropologia
britainiarra
hizkuntzetan
nabarmenenak
interesgarria
nekazaritzaren
merkataritzaren
##agra
##aniz
##umea
925
938
etz
lla
taf
tic
1670
abdo
agor
aipa
aloe
esto
fein
maus
perk
quer
suff
yuki
##cottus
##krimin
total
altxor
arinak
estres
ezinik
hidrox
pianoa
romain
##unctatus
karguan
maiatza
egunaren
filadelf
hilketak
ikastaro
migrazio
robinson
argumentu
ferdinand
hollywood
irtenbide
zezaketen
indibidual
itsasgizon
laukizuzen
zerbitzura
##284
##905
##909
##921
##hik
##apur
##hola
##lata
iko
1640
soko
vuel
##karako
berke
boles
gustu
horni
leuco
luzio
polig
pulch
story
takah
##enoaren
##orretan
erraus
gisako
hondur
leonor
##istikoak
beretik
gerrari
gurtzen
toscana
zeuzkan
eraldatu
eskultur
babespean
lantegiak
momentuan
zabalduta
##tasunarekin
artzapezpiku
bereganatzeko
jarraitzaileak
##973
##ump
##yre
##ards
##erov
##ingi
fuk
##amina
##bilis
##cheid
##uduna
1737
1777
aizp
best
moon
zier
##arenak
##astiak
erruk
jiang
##izatzea
aburuz
alcala
ebatzi
ideien
tutore
##engandik
bortizk
deitura
gorpuak
lituzke
desagerr
gorenean
langilea
veracruz
fasciatus
kondairak
mugitzeko
naturalen
igarotzeko
virginiako
berriarekin
konpositore
typhlopidae
antzerkigile
telesailaren
esanguratsuen
txirrindularik
##904
##927
##reb
##ubi
sr
##chon
##itos
##izak
leb
xak
##astro
##goien
##ieran
##osfer
1332
1358
1650
cell
hosp
lour
pamp
pose
shaw
##omaren
banco
ocell
olive
##araziko
##itarioa
##itzeari
##kuntzak
##taldera
alacan
arnold
herens
herrik
horrex
iragaz
itziar
ugarte
atomoak
errekur
hilerri
leihoak
varanus
juridiko
montigny
okupazio
trafikoa
margotzen
portzenta
bazterrean
greziarrak
mikroorgan
sutherland
merkatuaren
portugalete
kontserbazio
arkitektoaren
tradizionalez
funtzionamendua
975
eud
##aktib
euts
jost
musk
rous
saxo
stef
walt
##arotik
##ciones
eskut
haban
marta
mines
##aucourt
sekzio
transl
cameron
haragij
idatziz
arpilatu
berekoak
teruelgo
barazkiak
erkidegoa
irabaztea
objektuen
infanteria
zuzentzeko
frantziarrek
zientifikoaren
##ια
##929
##971
##tec
##vou
##eoen
##idar
##para
##shan
##trol
##uana
814
cah
gif
##aines
1710
motz
atzer
betez
ceara
dimit
direk
keinu
litro
peron
##tapenak
county
egoitz
eklips
emaile
palmar
serbia
uhinak
seleuko
animazio
ikustean
karibeko
zabaleko
baliokide
erlazioak
hebreeraz
karlistek
stomiidae
zebiltzan
diagnostik
entzunezko
jaioterrian
kooperatiba
liolaemidae
desagertzeko
intentsitate
partehartzea
esploratzaile
komunikatzeko
##204
##296
##noy
##aktu
##chio
##core
##fiel
cow
tru
##itlan
##onger
dick
tris
##coccus
##tzerik
aspek
journ
koral
common
hiruki
schles
##tasunera
galdetu
galerak
gutunak
kanpand
larrian
behatoki
esandako
fatxadak
hezurrak
kirurgia
kulturak
eszenatok
arriskutsu
jatorrikoa
ekonomikoki
funtzioaren
irakurtzeko
konbentzitu
monarkiaren
arraindegiak
fundazioaren
lizentziatua
nazionalismo
lehendakaritza
telekomunikazio
##ely
##fus
cs
##cara
786
797
907
967
alz
tag
##iroko
azku
eajk
shun
tosh
##arteak
andro
birib
deuts
dorts
kirch
paren
saudi
##ketatik
apulia
basati
berreg
campus
caprim
harold
ispilu
vegeta
irakurr
izatean
newport
yucatan
abenduak
belgikan
ctenomys
igandean
pyrenees
zehaztea
cervantes
publikoen
taldeekin
hirigintza
herrialdeek
aberastasuna
finlandieraz
hemisferioan
区
ng
##dade
##icek
##uard
040
937
dvd
zac
##ulina
1580
cair
carm
fire
ouen
##agabea
##ierrek
##ularen
balea
cacer
figur
genoz
pasai
pelop
sound
##akizuna
##istetan
dallas
eskari
alargun
angeluz
atomoen
filmeko
girotua
rikardo
samarra
digitala
eguraldi
fusilatu
irudimen
artropodo
bizidunen
lancaster
landutako
lehengusu
municheko
zenbaitek
ezberdinek
indartsuak
transferentzia
с
##ovi
##tot
##able
763
909
nud
nur
##board
##idore
##illos
##thers
balu
free
izur
korr
neil
almir
eajko
espon
henda
oster
txalu
krater
mendez
arteria
hermann
karpato
bertsoak
eraztuna
jokoaren
txertatu
moldatzen
emaitzarik
gehiagoren
hondamendi
reinmuthek
termodinam
unibertsal
zirriborro
aplikazioak
konposizioa
frantsesaren
margolariaren
lehendakariaren
##903
##lee
##mur
##oco
dix
##ypris
1732
1751
burd
epea
ezpe
obsc
piar
##ariren
emeek
garaz
presa
zapuz
##toralis
anaero
flamen
funtsa
kitzik
komite
semeen
vincen
##ikoetako
herrera
kantaut
mendeku
osorako
puntako
idazketa
ahalegina
astelehen
bihotzean
erbestean
hegazkina
herrikoia
hornidura
iraganeko
portuaren
selekzioa
bakterioen
florentzia
errenazimen
pomacentrus
##led
##arde
##chis
##leyk
793
809
895
977
994
atp
cou
klo
led
1747
antr
goen
lign
##tikoen
baker
bolak
crass
merce
pitts
angles
argyll
askoan
bakart
cuenca
gimnas
molina
efektuak
egokiena
hilerria
intermed
kawasaki
pariseko
planetak
hemeretzi
literario
erabilerak
erabiliena
frogatzeko
ingeniaria
parlamentu
erradioaktibo
pseudochromis
komunitatearen
##981
##guz
##mek
##amol
##arum
##ible
796
803
933
lio
ska
zol
baud
buch
cont
cran
hobi
juda
neob
sinn
untx
xeno
zaku
burgo
cadiz
child
fring
irail
press
lapurt
alemana
erosten
libreko
palomar
zihardu
astroble
berrizta
gaeleraz
iragarki
jurisdik
medikuak
noblezia
objektua
sarraski
sekundar
silikato
udaberri
zeudenak
antolatua
cambridge
geralekua
hautaketa
lorategia
agintarien
arkitektur
berrezarri
egunkariko
eragozteko
esportazio
estiloaren
aldaketaren
baliabideen
cambridgeko
katedraduna
bonbardaketa
daitezkeenak
##201
##kod
##nio
##ules
##voir
cis
jom
lek
1679
1731
kobe
kuku
lygo
pyth
##ampton
almer
jimmy
kromo
malgu
pazko
sarah
##ategian
carbon
frogak
garazi
helbur
islatu
izpien
kolono
middle
murray
wright
batzeko
bideari
corypha
hantura
hauetaz
txapela
eskolara
karakter
kilogram
zibileko
abesbatza
bideoklip
botatzeko
donejakue
henderson
pribatuak
zenbaiten
ekosistema
hegazkinak
partikulen
altxamendua
askapenerako
defentsarako
lamprophiidae
erabiltzaileen
##291
##cea
uj
##berd
##inok
##jeak
813
abo
ced
ley
mia
noy
arer
jess
neuv
penn
##arioan
##ideros
ernes
numen
ultra
##berland
faltsu
izpiak
kanpai
lozere
lukete
merkea
txokol
zailak
##alderako
argudio
bortitz
konklab
lekurik
matthew
obretan
pragako
rolling
asetzeko
clermont
kontaktu
lutjanus
urrutiko
autobidea
biologiko
diskrimin
kulturako
aurreikusi
baztertzen
fatxadaren
itzulpenak
konbinazio
proportzio
sciaenidae
kontinentala
gudarostearen
burujabetasuna
kw
##asal
##bron
926
971
987
##arion
##letak
adri
asun
kais
tell
trau
wins
##urinae
erram
getar
kanto
manio
ponpe
sorex
hitler
ultram
ematera
federak
irekiak
korapil
orratza
perspek
ramirez
aurrezki
gizonena
haserrea
joandako
sevillan
zabaldua
aretxabal
eragiteko
laponiako
artikuluan
aurrekontu
egindakoak
gutxieneko
tratatzeko
zegoelarik
erromantiko
errumaniako
grabatutako
tarragonako
##kt
##906
##jet
##kek
##arus
##isch
##keri
##ylli
981
bem
duz
1131
1796
bena
gray
lata
pita
palan
ralph
taren
tokio
errebo
errore
fontan
gobies
motela
protoi
rattus
sormen
beisbol
liguria
enpresan
istanbul
luzerako
patogeno
atxilotua
hitlerrek
nazioaren
seinaleak
organikoak
mazedoniako
argitaratutakoa
#
##tox
##xus
vl
wi
##bian
##imon
##inez
##tado
gok
kod
urs
zad
aden
alle
finn
neuf
opis
seat
vigo
##ekonom
##yridae
adela
aebko
ecole
faila
lilur
paolo
perse
##zionala
darwin
dukeak
galdua
harrib
ikatza
karmel
arroila
benedik
giorgio
komunak
livings
marguer
parkeak
perpend
zihoala
argazkia
indibidu
kolonbia
polemika
sintesia
sumendia
demokrata
nitrogeno
taldekako
indartzeko
kolaboratu
murrizketa
agintaritza
espazioaren
ondorengotza
zientzietako
##gb
##275
##901
##bec
##arda
008
893
abc
aig
1554
koko
luna
orno
verg
##martin
##peneus
##tikoko
arbor
gamma
karen
kuadr
##agrutus
##obacter
cerezo
chatea
elurra
gilles
schmid
silver
trimma
villas
bermatu
british
helduen
houston
biratzen
diruaren
euskarak
oxidazio
pilatzen
roosevel
##idochromis
aztertzea
hezetasun
ameriketan
aniztasuna
antzinatik
banderaren
creagrutus
diputatuen
hautatzeko
hemezortzi
hondakinen
abstentzioa
katedralean
publikoetan
jarraitzaileek
##fos
##tai
##uet
##egie
##emys
##hain
##itec
##kale
##ynes
boo
kex
mei
wer
##iasen
##imoto
##leria
1300
bros
byth
cabo
glos
merr
mini
mutu
quir
antik
apter
bridg
casas
esplo
gaitu
haven
kapil
korin
magma
oneko
arotik
behatu
braban
goizti
isotop
banatan
dibisio
espanol
hexagon
eramanez
anarkista
behartuta
eguzkitik
erregetza
espazioko
publikoki
borgoinako
deuseztatu
diseinatua
aurrekoaren
lanarkshire
hipposideros
##sp
##erie
##ilda
923
996
elf
gad
kae
##ihara
##ition
acut
craw
daki
hrad
jedi
llob
nico
##atidae
##laveko
##metria
##nieres
diola
influ
##ostigma
ainhoa
salgai
taulan
##iketaren
didelph
farmako
neurona
roubaix
trilogia
zirudien
dolarreko
ehizatzen
eskatzeko
arrasateko
haurtzaroa
pentsalari
valladolid
banaketaren
errusiarrak
perpendikul
independentz
prezipitazio
mendilerroari
##ον
##vol
##chet
##ctes
##leps
zif
##adian
##oetan
##tarik
1760
axio
dell
emis
fras
##aketen
##kinson
amona
diber
ennea
garun
penal
##izatuta
##minster
harbor
katamo
mesede
preson
##akizunak
caceres
getxoko
gilbert
lorentz
nafarra
eguzkiak
igogailu
salatzen
sherlock
zabalduz
jainkoari
laburdura
turistiko
artistaren
aurrekaria
kartagotar
lorategiak
suntsitzen
gaztelakoak
haurtzaroan
legendarium
dokumentazio
eboluzioaren
erregistratu
maitasunaren
occidentalis
aldarrikapena
teknologiaren
berreskuratzea
##ao
##ird
##uld
##chek
965
fic
rex
##isuke
##katuz
##pekoa
##rates
1347
1400
1552
1561
nyct
pota
taka
dream
patag
pekin
youtu
##erville
gogora
kuartz
nahasi
passer
ramiro
tunela
zurrun
abereak
erditik
libiako
portuko
sakratu
erretzen
flandria
mauritan
mitchell
babesleku
desintegr
eboluzioa
harribitx
zerrendak
bezalakoak
ziurtatzen
historikoan
kontakizuna
##294
##cil
##dra
##gro
ua
##endi
##tive
##umia
##usto
991
##aluze
##dalen
##theri
##tinus
1660
abus
epip
kral
nuen
snow
clupe
democ
dieza
magal
oblig
schon
tirol
##ilautus
eskuan
warner
zundak
anglosa
basatia
egozten
esleitu
glukosa
motaren
soluzio
zurtoin
gutierre
igerilek
oregongo
tantilla
sazavouko
emanaldiak
intsektuak
artifiziala
eskaintzeko
itzultzailea
lizentziaduna
proposatutako
elektrizitatea
pseudophilautus
##281
##283
##cir
##geh
##amak
##bula
##ersi
##koan
##mith
823
943
956
963
973
alo
buc
coc
dys
arim
bend
elor
lane
plum
rico
arrat
benat
boiko
maltz
polik
angelo
arregi
campan
ekingo
linfoz
mugako
amaituz
bakoitz
errebol
lehiako
izurrite
odolaren
animaliek
betebehar
aminoazido
eginkizuna
itsasoratu
unibertsoa
ezagutarazi
kanporatzen
ordezkariek
udalerritan
arrakastatsu
elektromagnet
ingalaterrakoa
##ан
##273
##tog
##otte
916
daw
ess
gaa
vio
##fries
##tinen
1781
azet
bute
ejer
eukl
kole
lock
turn
##arkara
##idaren
##radeko
basog
campe
desku
hizki
luigi
gloria
potter
sanskr
ubidea
vienan
zaletu
zeritz
karguak
muinoan
singlea
bosniako
generoan
haitzulo
onarpena
antzerako
argitasun
chatillon
elongatus
euskarari
grabatzen
jarduteko
kontsider
lehiatzen
onartzeko
sustraiak
alabarekin
boltxebike
eskuizkribu
eztabaidatu
ikaragarria
##dos
##ift
##wat
##yar
##tsoa
##zito
dag
gnu
hok
nir
rag
##aguna
##igran
1562
1785
gurp
hats
hugh
kara
##anchax
lakes
ruper
xedea
zikin
amaier
egonda
montev
pizten
##tarazten
andalus
guiller
bikoiztu
krisiald
aldaketen
anglosaxo
armeniako
cleveland
ezagutzea
herentzia
irudiaren
koalizioa
handieneko
ikastaroak
lurperatua
udalerrietan
##285
nb
##gain
##odos
984
niv
##theca
rouv
taur
zeus
##arrien
antio
bainu
bentr
entzu
kosov
mason
##ilariak
behiak
fosfor
halaxe
plaken
suzuki
abiatuz
accipit
aipatua
granito
portuan
problem
zentzua
esparrua
handitan
klemente
montreal
pteropus
ancistrus
bordeleko
groenland
muinoaren
agintariak
debekatuta
kontseilari
demokraziaren
eraginkortasuna
##chw
##uji
##uni
##inge
001
827
duc
##berry
##chten
##inari
##irena
7000
baid
bede
mult
uren
##aziako
##ografo
##ostern
danny
hilik
kuban
psych
retic
txern
##oscopus
bolada
editor
lisboa
##agintzan
antioko
dortoka
errolda
haitzul
helmuga
nafarro
oihartz
piarres
sulpice
tabakoa
urtebet
amarekin
capensis
industri
karratua
alboetako
caceresko
zutenetik
alemaniara
inskripzio
elkargunean
kalifornian
zuzenduriko
cf
##raja
050
995
bpg
chi
dry
shu
suf
##inski
##iondo
##tagne
akro
proc
timo
##chilus
##olepis
airez
banke
kafea
pagan
pleas
sudur
anomal
barbar
begona
concep
dactyl
daniar
entrop
kolaps
lukeen
xavier
##entziala
aisiald
dekretu
eszenak
fosfato
fukuoka
gaixoak
getaria
idahoko
isolatu
komando
dibortzi
galarazi
iheslari
katalana
borrokaren
extremadur
finkatzeko
herbeheret
independen
palestinar
seguruenik
bideratzeko
espainiakoa
espetxeratu
fantasiazko
izendaturik
kanpandorre
gehiagorekin
historialariak
oj
ibm
roh
tus
##anoen
1368
1707
1722
arno
beno
esap
flin
frag
kang
kost
olab
urtu
##araren
##inctus
##strong
anime
pozik
##iazioak
matrik
mustel
prusia
sailka
watson
##dontidae
marinel
plazako
puntius
simmons
txalupa
urdinak
vianako
jakindur
paziente
klasikoen
begiratzen
goikoetxea
komunisten
londresera
ofizialean
zinegotzia
accipitridae
entrenamendu
ramphotyphlops
##300
##alb
##wak
ms
##bina
boe
cay
lup
##istik
##tival
1510
1664
amal
giac
gida
goni
hesi
html
mell
bloom
build
clyde
ellio
fruta
gasak
monto
patio
sanga
three
##othorax
gogorr
herena
ezkerti
galtzea
lehertu
marrusk
ontzien
anatomia
karoling
cristobal
errekonoz
pasatzeko
aktorearen
donostiara
elkartzeko
fundazioak
haraindiko
lurrikarak
harresiaren
palentziako
ziurtatzeko
diseinatutako
nekazaritzako
coryphaenoides
historialariek
##tae
##agro
##bran
##tium
##tzei
##ystr
arp
##otara
allo
andr
glad
lecc
mout
opor
ortu
oton
aldap
antif
kerry
panor
produ
tranb
cottus
edaten
metala
sulliv
tabako
azienda
biltzea
collins
etsaien
jantzia
konexio
onatiko
patroia
steinda
terapia
yorkera
##ologikoen
atenasen
burgesia
lanerako
paperean
sinpleak
antartika
bertaratu
omenaldia
perimetro
superhero
zuhaitzen
azpibarrut
bidaiatzen
grabitazio
herritarrei
lehenengoak
txapeldunak
egonkortasuna
nagusienetako
legebiltzarrean
nagusienetariko
##vs
##inp
ei
##muin
##ozen
##riar
##term
024
inn
mek
##aroko
##merik
##ogene
1570
derb
doin
joka
kaio
moja
moss
sine
allan
bazek
court
dunde
klein
nekez
txotx
balioz
depres
trikit
##enetakoa
dolores
egoteak
suedian
trinita
vazquez
berriztu
duenaren
higitzen
itsasoak
kontrata
musikala
nahasmen
sailburu
azpimultz
bortitzak
daudelako
protokoloa
aldaketarik
autodetermin
belaunaldiko
esperimental
herbeheretar
erreferenduma
interpretazioa
lizeoabigarren
profesionalean
##293
##295
##ief
##vitx
913
974
dop
sri
##issac
##omorf
1220
1360
1361
1370
1379
1774
intx
kepa
lion
stir
utop
##amprus
##gizona
bonne
buena
domen
doneg
sankt
##batidae
balmas
belgik
gatibu
montal
moreno
mozamb
online
suaren
zimmer
janzten
minbizi
motakoa
tortura
zutabea
galloway
malagako
ordenatu
gaeltacht
haurraren
honegatik
mondragon
errepresio
ibilitakoa
##cyclocheilus
fitxategiak
hartzaileak
militarrean
##ør
##271
##jap
##indi
##posa
##tock
915
946
966
ted
##champ
1784
chav
gond
lieb
nove
spil
trun
##ailuak
##apenak
psamm
squam
##ailetik
##ginatus
##imendua
dennis
fuente
##inarekin
##ologiari
bilduko
edukiko
kreditu
portuak
uztaila
amazonas
inguruak
lurmutur
planeten
scotland
senatuak
##eloricaria
batzarrak
diputatua
emakumeei
itsasarte
urterarte
bihotzaren
inspirazio
onenetakoa
horrenbeste
komunitatea
michelangel
platymantis
bereganatzen
komunitateak
lehenbizikoz
mastacembelus
independenteak
independentista
\
##noc
##fago
##goph
962
jug
mao
##bergi
##uilly
##urrez
1536
kogn
ondu
this
wies
cerat
hohen
karel
nbako
pimel
ahuldu
artxib
filmen
heptap
jaungo
kromat
bikotek
parekoa
serrano
cottidae
erregela
gazteluak
ofizialen
uhartetik
honengatik
negatiboak
ophidiidae
wikipedien
zirkulazio
elkartasuna
orokorretan
automatikoki
sukaldaritza
##ehr
##enc
##feo
##pet
dz
##bius
##ming
koz
low
##mosis
##sonen
1492
1568
1648
5000
abor
bism
boys
como
drak
fuji
##optero
facto
hypop
karab
lauki
morta
seven
soila
##ikazioa
antoni
bidera
doctor
ertzak
igarob
bicolor
errefor
hutsean
malcolm
trinkoa
troiako
vitoria
begirada
garaitua
hidrokar
liburuko
microtus
aniztasun
antzezlea
dinastiak
donostiar
guillaume
hedatzeko
herrigune
hilerrian
indartzen
partaidea
tresneria
beherakada
diktaduraren
eleberrigile
kaltegarriak
adiskidetasun
interpretatzen
fk
##dema
##lish
##oten
kib
ryo
##eleko
##iduna
ante
bray
fife
gale
hunk
kard
quar
##iagako
##inoren
##toratu
##uriako
ehund
grall
irene
lucia
nomin
papua
##bestera
aldiko
balira
square
ziburu
beterik
birusak
hartuak
iradoki
konpart
legitim
lycodes
paperak
tarteka
armatuak
babestea
hemigram
ongizate
senarrak
sustapen
zaldunak
##emacheilus
barietate
bergamoko
norbaitek
punctatus
sozioling
trebiceko
zeremonia
aurrealdea
gertatzeko
hektareako
aldundiaren
erabilgarri
salerosketa
opistognathus
probintzietan
##925
##abu
##hos
##rex
##icip
##vais
guk
loc
##cluse
##ifero
##monte
1775
jaul
rome
sche
sens
tonu
urri
vasc
##intzea
##izidae
##korren
##ularra
baran
fanta
janzk
lotuz
mills
oinaz
tiroz
uzbek
##lington
##olebias
duenak
klasiz
##arretara
anestes
perretx
##enburgoko
madagask
ortodoxo
##itzerakoan
hidroelek
erakundean
erdiguneko
gertakariak
stenocercus
rineloricaria
¡
##but
##tow
##adri
##elay
##erte
##rrak
ank
xed
##ienen
##ussac
1521
1688
elip
grup
herz
lutx
mean
reyn
tesi
##cincus
first
lauak
oszil
sudan
##untzari
blanca
hippoc
laneko
pribat
armenia
deskubr
gaietan
zilarra
amaitzea
arabiako
erritmoa
estiloak
harmonia
konpeten
lakuaren
original
calamaria
gidoilari
ikusgarri
mitxelena
eztabaidak
iritsitako
zinemarako
erakartzeko
erromatarra
estrategiko
pertsonalak
taldekideak
westminster
arrakastaren
argitaratzeko
antzezteagatik
legebiltzarrak
##fay
tc
##nois
##over
##tori
##zikl
986
pso
rah
tuc
##arden
1520
1783
bibr
glan
gozo
luth
mast
nouv
sicy
txip
unix
##arantz
##icanus
birak
eroso
espio
gnath
honez
ibero
lored
obses
pareg
prezi
##espenak
belatz
gauzen
larrua
ronald
atenast
buffalo
ernesto
jauziak
kontraj
magistr
zeharka
berkeley
gertuago
iritziak
kimikoen
saihestu
tourrean
ugaltzen
umorista
##tzailearen
doktoreak
emankorra
nagusitan
schleswig
ugaztunen
errealista
gidatutako
marguerite
materiaren
##obatrachidae
petersburgo
zituztelarik
elektrizitate
##epe
##eso
##asta
##nako
##quen
993
eit
jef
wah
##aziak
##ikora
1728
alam
andy
erle
hide
hind
kubo
male
malg
poin
renf
vand
gigan
mozko
##taraino
armiar
daitek
erdira
falang
haurtz
hector
latind
leptop
mangan
pasaia
romero
trebea
valenc
villal
##itoridae
apaizak
belarra
besteek
clement
jauntxo
mendira
spencer
tokioko
amnistia
armeniar
eraikita
erorketa
armstrong
erbestera
pertsonei
beharrekoa
garbitzeko
akademiaren
balitoridae
cynoglossus
japoniarrek
ospetsuenak
palestinako
horrexegatik
mitologiaren
inteligentzia
##tzep
998
ozen
sasi
##metroa
alepo
benes
ehuko
ellen
enper
kamen
salam
##podidae
aizkor
geroko
krokod
stuart
atezain
eusebio
gordina
hiribur
hirutan
monotip
shimizu
sinkron
soriako
abestien
barrutik
geraleku
hizkeran
katearen
lublingo
taldekoa
uhartedi
kanpainan
kristauek
mesedetan
siberiako
azaleraren
gatazkaren
konpromisoa
myctophidae
##999
##oux
##aret
##ctis
##dore
cov
ezt
fag
iss
jat
sey
##arrok
##xalus
1351
braz
kofu
prze
##degian
##ecilia
##guneak
##udiere
denen
freez
kapaz
mames
trois
unter
zuriz
alegre
baltim
cercop
eginik
herodo
izurri
manier
nassau
pasibo
beasain
datorre
debekua
diments
express
gunerik
katalog
ploceus
setioan
transis
alabaren
banatzea
dumfries
ehundaka
epeletan
erradioa
etxeetan
gaztelar
itzulita
phillips
urtetako
zentsura
##iarrarekin
cobitidae
europatik
zentzumen
corporation
eraikiarazi
indartsuena
sentimenduak
hitzarmenaren
instituzional
internazionala
zirkunferentzia
##886
##may
wu
##emat
##ogra
hak
raz
rue
##ignes
##lands
alea
almo
kofr
levi
nere
##iennes
errej
eskif
hilak
piper
state
urgaz
bonnet
cuneoko
idazkun
journal
judutar
ordizia
polinom
basatiak
egituran
ekarpena
hormetan
kimikari
saltzeko
tutmosis
aurrekoak
anaiarekin
izugarriak
klandestin
luxenburgo
sistemetan
diseinuaren
gainazalean
inguraturik
mugimenduko
κ
##ixe
##lim
##odi
010
903
ake
amy
ens
jic
swe
vog
##aroak
##ceras
##fried
bush
esek
hamp
kalk
neot
ping
psoe
tsar
auzok
galar
group
salab
sinis
##atuenak
##posizio
horiak
iraken
meliph
mikrob
nantes
tasman
vernon
alsazia
galduko
garbitu
hazteko
kenneth
korsika
maltako
serieko
turista
wallace
aldekoek
crawford
elezahar
fisikoki
frederic
grabazio
planetar
solidoak
##ophthalmus
almirante
moldaketa
aurreratua
bonbardatu
ezezagunak
garaikidea
hilketaren
ikaragarri
barakaldoko
euskaldunek
hausnarketa
jainkosaren
lycenchelys
rhinogobius
suntsitzeko
erantzukizun
hollywoodeko
pilotalekuan
pseudanthias
schizothorax
erlazionatzen
nothobranchius
estatubatuarrek
##100
##lal
##ceps
##ikos
##iteg
bic
eph
hac
vad
anis
euph
kurd
orok
serv
##anteak
##oriala
hiruk
jasoz
judua
lesio
molus
pardo
etsaia
maison
wester
brusela
donetsk
ezezkoa
fisikan
osagaia
prestig
sintesi
barearen
errealak
poliedro
termikoa
uholdeak
zesarrek
antzezpen
errumania
eskakizun
gutierrez
indietako
pelopones
primateen
federazioa
konparatuz
matxinadan
salbatzeko
abenturazko
gainerakoak
hidrokarbur
azpiegiturak
lygodactylus
konstituzioak
σ
##884
##aziz
##carr
##caren
##iceph
##igata
##toire
1340
darw
holo
oman
ostr
plag
sanz
gokuk
gurdi
iruna
jerry
kultu
nuevo
##kizunak
##pterygi
bilkur
koppen
moloss
orland
pirata
beraria
bulgari
dezagun
franken
gabezia
holanda
plectro
zumalak
alessand
beirazko
bellmare
bukatuta
corunako
ekimenez
hegaztia
hiltzera
hotzaren
##linikoaren
britaniar
bruselako
zenbatuta
asmatutako
hiltzailea
kapitainak
koordenatu
natricidae
ordainketa
partaideak
telesaileko
bereizgarria
latinoamerik
##cz
##336
##lyp
##vre
##horn
##iain
##poro
##timo
##tosa
048
983
adn
hul
osa
zeg
##gaien
bott
brom
flam
knox
lamb
##ciurus
##ioides
##joveko
##ogenys
canta
etika
mugen
quinc
verdy
##oncourt
bergen
puente
##tellidae
almiran
llobreg
metalak
orbitan
betetzea
deskarga
merkurio
sinonimo
vaucluse
beldurrez
hitlerren
kemijarvi
urteurren
zirkuitua
gailurrean
egokitutako
espeziearen
mugimenduen
zabaldutako
zumalakarre
zaharberritze
frantziakoaren
δ
##yss
##kirk
##ovek
080
gag
ong
rov
##amont
##amura
##inaga
##talus
elos
emea
harp
lent
reim
some
stol
thur
##triton
batak
cyano
desir
uribe
##ialaren
##igaster
##landeko
##untzeko
apenas
artxid
dramat
lineal
mespre
panama
parker
sonata
zigilu
##tearekin
anastas
bidasoa
hornitu
kostuak
liberty
manipul
nobleen
batuketa
building
dituenez
guerrero
mendekua
prebentz
raimundo
estatutua
haietatik
larranaga
molekulen
auzitegiak
peromyscus
aurrekontua
erakusketan
ezagutzaren
nemacheilus
telmatobius
kapitalismoaren
nekazaritzarako
##339
##onda
035
056
961
##oscop
##verly
1567
1610
capo
duin
gate
java
kare
karn
manu
miel
owen
poit
salt
##aketan
verne
##alismoa
##intzari
bihurr
eajren
genuen
hitzek
inazio
kotoia
optiko
planta
clarias
lanekin
ontzian
shannon
zabalik
##pterygius
aldirien
biziaren
organoak
prototip
zabalena
dominique
eragozpen
liverpool
sektorean
tradizioak
argazkilari
antolatzaile
ezkerraldeko
##ст
##883
##uit
lj
##amur
##orne
##unek
934
mio
##ilera
##ketei
1359
gezi
lost
sieg
what
adier
aritz
bresc
denik
entze
flash
tibet
vegas
aberri
andana
angela
eratua
finkoa
forman
greene
heliko
nagoya
reggio
agertuz
aguilar
ekuator
pixkana
sukarra
theatre
frontean
musikako
pseudoch
sinesten
teilatua
valverde
##ografiaren
argitzeko
errazagoa
hurbilago
institute
metrotara
bisitatzen
itsasargia
kontzejura
partzialki
television
bitartekari
iraunkorrak
sozialismoa
zapalkuntza
kontsideratu
proposamenak
nazionalarekin
##cov
##noj
##oul
##bank
##tzek
oko
##etown
##hotep
1348
1450
1689
borr
edge
mile
nash
prag
sald
##alismo
##omidae
aebek
alien
award
forua
gasen
hitch
modal
oliba
philo
quark
raven
setio
wille
birusa
campyl
destil
geneva
giltza
hamaik
maximo
somers
txantx
agintar
balentr
biharam
grandis
mausole
agintald
augustin
hispania
jarrerak
neurrian
patricia
planetan
##imaculatus
bateratua
boteretsu
gutxitzen
hurbilean
konklabea
lehorreko
lorturiko
oxfordeko
partekatu
plethodon
teknikari
zirenetik
orbitatzen
antartikako
berarentzat
zentralaren
phylloscopus
espainiakoaren
arrakastatsuena
##esh
##alth
##arie
##atel
##erac
##ilbe
##naud
##ovic
##udes
##ussy
##utin
fit
##dunen
##haryn
##idion
##issel
##sberg
avis
cien
oina
sism
sour
sper
aeron
duero
gephy
gorbe
grise
karst
lamar
magaz
saiya
telec
##ketarik
##rologus
iruzur
kobrea
komeni
mitrid
okerra
rhynch
sydney
txirri
bakaila
erdikoa
formala
nonbait
agertzea
alferrik
bidaliko
dinamika
espermat
gerrilla
paisaiak
percidae
sentimen
dagokiona
espainiaz
gaztetxea
laguntzea
abandonatu
agintaldia
baitzeuden
edertasuna
hartzidura
herrigunean
konstelazio
mendebalean
noizbehinka
udalerririk
atlantikoaren
enneapterygius
##df
##iom
##alle
##anza
##dong
##ebro
##gako
##hota
##hrim
##orak
949
997
hik
##ilvan
##irrek
##istol
##tailu
bezp
esqu
lakt
obel
odin
paco
vest
##nikeko
burbu
eaeko
manet
salmo
txuri
##omyidae
##terekin
arbola
asmoak
neguak
salern
ahotsak
angelua
hondatu
kostako
lineala
liparis
mutilak
tronuan
uretako
alarguna
marketin
aintziran
deportiva
euskarara
hautespen
hierarkia
landatzen
marrazten
programan
konpontzen
koefiziente
hedabideetan
nabarmentzekoa
parlamenturako
##350
##act
##eds
##ttg
007
##ccion
##idioa
##olina
1766
clos
kend
priv
##mensis
ahoan
folkl
intim
prado
##igileak
##itikoak
benton
enkart
grammy
igaroz
daukana
errespe
goiburu
hilezko
leinuak
organoa
apaindur
biziraun
erythrol
eskandal
garaikoa
sendagai
bankuaren
herrixkan
sendagile
erradikala
estruktura
filosofiko
askorentzat
egunkarietan
ekoizpenaren
kaleratutako
mugikortasun
elkarrengandik
##opl
##rar
##uay
##auta
##bois
##ebel
##ibol
##jako
##umba
060
dit
hoy
jay
##didae
##foret
1336
1342
1697
1727
nutr
pens
perg
sien
ziez
##etazko
##orrera
earth
fabor
kalku
luxem
meiji
saihe
terre
##alderen
##atarrak
arkuak
depend
esklus
guipuz
hastea
isatsa
legeen
zuloak
zumaia
berrira
osatzea
uruguai
alderdik
alkohola
binakako
eibarren
estatutu
kristina
polonian
tragedia
valencia
zutabeen
bohemiako
erlatiboa
etiopiako
kopuruari
jabetzakoa
kanporatua
konbentzio
laguntzari
ohartarazi
arduradunak
katedraleko
izendatutako
nederlanderaz
##330
##536
##568
##gre
##irr
##vec
dc
##adow
##cryp
##gora
##guin
##raft
018
064
qui
##atela
burn
cerr
dios
egil
giul
jung
kath
nish
quad
scol
trab
##manuel
##rakzio
gisan
kleop
logan
ostor
shack
swans
zorra
##alearen
bideoa
didier
engain
makila
martsu
microg
naziak
ugaldu
##ienetako
##oscincus
azpigen
azukrea
colombe
dinasti
eratzea
fantast
fayette
goierri
hizketa
ontario
zutenen
ararteko
azkarrak
biribila
dioxidoa
erreinua
grafikoa
jolasten
kokatuak
lisboako
motorrak
zigorrak
##amprologus
diseinuak
enontekio
santurtzi
scorpaena
zaindaria
bitxikeria
europarrak
geometriko
multimedia
harrigarria
sobietarren
ostorhinchus
itsasadarraren
ministerioaren
##oo
к
##354
##ixa
##eann
030
927
gap
##adiak
##eziak
##osuke
##upean
1502
1571
agar
buko
come
corv
elef
kern
khar
logo
poet
shen
##erabil
agnes
heart
jokin
polif
tents
crista
estras
isidro
lizeoa
milton
person
detroit
eskuind
milanen
neolito
odolean
poligon
##iacanthus
aldaerak
humboldt
jeronimo
newtonen
agintaldi
hyloxalus
kaltetzen
lantegian
liberalek
menderako
norvegiar
planetako
alacanteko
amaieratik
edukitzeko
erregimena
gehienezko
izengoitiz
nabarmenen
espedizioan
kondairaren
minbiziaren
erythrolamprus
大
##335
##531
##jur
##akia
##apor
##atov
##azak
##ives
##lain
##omed
##sent
##tiba
011
075
pum
spo
##urnus
1517
1592
epic
hibr
litu
lute
mest
ocho
padu
rita
stig
wiel
bunde
centr
hiero
induk
polyp
satir
sodan
##arensis
##tamendu
baloia
bowell
doroth
itzala
moduak
multin
neskal
pakete
pluton
premia
seinal
zoriga
kontson
nerabez
pitagor
##ophilidae
begiratu
fundazio
itzulian
marraztu
zentroan
aragoikoa
esploratu
familiari
ikusitako
israeldar
modernoko
arraunlari
baieztapen
ebidentzia
esklabotza
grabatzeko
orientalis
eskualdeetako
##yah
##aben
##rado
012
067
eis
enc
sut
tej
##iales
##iodon
##minak
akad
bosc
here
pitx
rios
##inella
##katuta
armaj
audio
castr
dolni
egotz
namib
plain
segun
dotore
iranen
palmon
saltsa
zeruan
##izazioan
augusta
bankuak
batzuez
cryptob
danubio
errekak
gartzia
gwynedd
mendoza
mugaren
ordenak
platino
zeremon
##ketarekin
banderan
elastiko
homogene
zentroko
balentzia
bategatik
diseinuan
gizatalde
historiak
johnsonen
asteroidea
hiritarren
kazetariak
presioaren
testamentu
udalerriek
automatikoa
espainiatik
gaixotasunen
jarraitzailea
legebiltzarra
##mp
×
##337
##338
##534
##538
##564
##888
##cek
##agle
##esse
##fren
##nach
020
062
085
ane
pug
##artea
1322
1330
1699
adop
angl
bian
perd
##inclus
##yllium
adark
doako
ferry
galia
lluis
magna
torqu
##ersheim
##itzekoa
##upacion
bergar
ganbar
genuke
harira
konpil
mozten
pintur
planet
poltsa
tximin
zingir
automob
bietako
brigada
erromak
arabiera
bagridae
estatuek
gatazkan
mehatxua
thompson
akademiak
elisabeth
esklaboen
galdeketa
harrapari
harresien
sedimentu
zenbakien
aldakorrak
handietako
harrapakin
jaurtitzen
lehengusua
lehiaketak
abiaduraren
burdinbidea
errespetatu
abeslariaren
frantziarren
geografikoki
interesgarri
kareharrizko
erabiltzaileek
##669
##him
##phe
##uls
##atxe
##gate
##igal
##isha
##kens
##mens
092
cod
hyn
##icata
##onica
##thera
1620
1729
alai
aler
kual
matt
paso
tipo
##phorus
carac
doana
empor
gamba
huang
lonch
mizen
onati
carmar
foster
guerra
monako
mutiko
patron
txalup
urtegi
apropos
barrura
kontrap
larriki
modurik
amaituko
amerindi
antigeno
bermeoko
espazial
gazterik
higadura
aleksandr
hitzaldia
jokoetako
rovaniemi
salamanca
irabazleak
metalurgia
telesailak
zalditeria
elkarlotzen
gastrotheca
lehenengoan
aurkikuntzak
kontseiluaren
nazionalismoa
erreferentziak
demokratikoaren
##334
##358
##359
##500
##773
##chu
##bila
##pond
078
fif
roi
wim
##ative
##ombre
##ovitx
##txina
1150
abba
bago
brod
egos
niel
work
##orhina
arden
arreb
ebaki
erein
fisik
gelan
likid
pogon
samar
ventr
##ionalis
aldapa
beretu
doinua
dundee
invern
lezake
suarez
toskan
damasko
dudarik
errudun
guipuzc
hendaia
iraungo
luteran
musikak
sapporo
zalduna
dakarren
erdilari
eskatuko
festival
habearte
mercedes
metrotik
adostasun
asanblada
barkamena
karlomagn
tratatzen
estatuetan
morfologia
taldeetako
erregeordea
konbinatzen
apaingarriak
melanotaenia
pentsamendua
udaletxearen
autobiografia
argitaletxearen
##ра
м
##550
##bos
##loi
##tab
##egan
##ires
##ulon
004
boa
gle
mov
moy
sia
flem
hope
##ondoak
alkim
makil
prosa
##hinidae
##tarioen
etenik
fluido
ninten
pseude
rivers
urtzen
##teriaren
arrieta
ertaina
eskalan
urrundu
auzoetan
hegaldia
irratiko
mexikora
onartuko
sirakusa
tenpluan
zaindari
zehatzik
amerikara
bonaparte
integratu
japonicus
jaurerria
menperatu
oinplanoa
proteinen
aldameneko
aplikazioa
arazoetako
ikuskizuna
murgilduta
pentsamolde
sobietarrek
adierazpenak
ministroaren
profesionalak
proportzional
##ady
##lini
##uron
##zana
046
052
emb
yah
##culus
##dryas
##edako
##iberr
##izion
1786
adif
atro
ibon
jaki
limo
##aturus
##castle
##tensis
diana
esten
larry
mexik
rhein
sukar
coruna
hutsez
lepoko
substr
vander
##ografian
arrokak
hamabos
pseudop
ziotela
zorizko
arbasoak
arloetan
daudenez
gogoratu
jennifer
onartzea
sullivan
alpeetako
diskurtso
formatuan
handiekin
altzairuzko
balkanetako
betebeharra
elektronika
argitaletxea
fringillidae
gobernadorea
izenburuarekin
tenperaturaren
##cot
##auen
##gela
##ival
##toan
gla
noz
sle
##igorr
alga
clav
glam
kanb
olig
pole
varg
##itzara
##opogon
##tzetan
alleg
himil
irina
obren
pacif
txirr
utzia
zauri
askeak
bizian
ororen
pareta
philos
simple
##aturikoa
##itasunak
##ostomias
andrews
boophis
gaitzak
gorrian
nikolai
deritzen
ekimenak
galderak
jendeari
kapitala
pobrezia
taldetik
defentsan
erreginen
italiaren
latinetik
olerkaria
populatua
ventforet
ekitaldian
normandiar
eraztunaren
mendilerroko
eleberrigilea
erresonantzia
eskandinaviako
cryptoblepharus
##351
##551
##556
##557
##559
##eac
##ict
##ils
##tay
##arca
##augh
##caya
##dean
##uran
005
022
cag
fog
inm
ref
##ailuz
##bruck
##ibela
##recht
##roren
1227
1354
1709
6500
abol
elfo
lauz
rola
vend
amiet
epean
essex
estek
eszep
eurek
fritz
grace
nacho
##antzako
##itzatik
##zentzia
banaka
rudolf
samien
sestao
winter
alderik
atarian
bolivar
lurjabe
oinetan
picidae
psikoan
tresnen
academia
berririk
gehiagoz
jakintsu
alderdian
datorrena
saltzaile
agintepean
biltzarrak
borroketan
concepcion
eraberritu
ameriketara
basamortuan
dagokionean
errepresioa
hornitzaile
afganistango
derrigorrezko
hizkuntzalari
parlamentuaren
thamnophilidae
probintziarekin
##boy
##gis
##hov
##vek
##frey
##icon
##ubia
##zain
fij
tea
##atina
1238
bele
deep
scyl
##lavako
##onesia
azeri
azpij
euras
goien
lorea
tanta
zinta
basoan
betier
bilduz
borboi
cuatro
einste
estrab
ezpain
horman
houten
logiko
mochok
murphy
sahara
tropen
##agailuak
arrazen
bereizk
erakund
erreper
haurrei
kroazia
soinuak
tronura
francesc
goitizen
senideak
ustiapen
elorrioko
geroxeago
salatzeko
txikiaren
uruguaiko
kulturalak
magnitudea
paraleloan
positiboak
salmonidae
barrualdean
hemigrammus
arriskutsuak
lurrazalaren
scorpaenidae
herbehereetan
erregealdiaren
proportzionala
→
##139
##332
##352
##461
##467
##885
bj
##ariz
##bern
##emil
##ffen
##hock
##irin
jut
moc
##allen
##armon
hozk
kana
oreo
tind
tong
winn
zigo
##donald
##goetan
##onimoa
amand
batuz
charl
gekko
irrik
serio
silla
sutan
svita
thorn
##ediaren
apustu
basoko
behean
ehunak
errepl
etxeen
fronto
immigr
balantz
berriei
eserita
hedadur
mugarik
saihets
segidan
castello
himilkon
motakoak
triangel
zornotza
benetazko
bizidunak
euskaratu
indonesia
silesiako
bikotearen
inozentzio
kolektiboa
kongresuak
astroblepus
characidium
ekonomikoen
espedizioak
napoleondar
terminologia
baldintzatzen
sukaldaritzan
interesgarriak
##ln
##nod
hd
##asak
##dora
##hara
##ship
tiz
usa
##beltz
##ingek
##raino
##sheim
ches
disc
mous
odor
calle
dance
kontx
nunez
wells
##keshire
baroja
basile
claire
hutseg
konkor
mintza
operan
plectr
tyrone
apirila
aspektu
bideoak
grabita
konberg
leipzig
mendiek
orotara
uniform
##fasciatus
aitzakia
aralarko
azalpena
baimenik
besteren
eraikiak
jaioberr
kanabera
luzeetan
moderatu
multzoko
serrasal
agintaria
erreporta
scorpaeno
aintzinako
ilustrazio
oposizioko
sozialismo
basamortuko
historikoen
diferentzial
hyperoliidae
matematikaren
pachydactylus
##331
##357
##437
##537
##561
##562
##881
##ogia
##usia
058
pux
##aurre
##hofen
##kiren
##ptero
1687
alec
arga
bude
desn
hoch
tala
znoj
##dearen
##ocidae
ading
contr
leloa
mantx
txing
##opeltis
anbigu
antrim
emozio
izanen
platys
tornio
ustiak
ahaldun
burmuin
dantzak
estimul
gerriko
entreten
frontera
kontzien
aitzindar
berrezark
chongqing
doneztebe
erantzule
gaitzaren
gorputzen
izarraren
montreuil
superkopa
erreformak
nekazariek
biltzarrean
gipuzkoarra
gobernuburu
ikerketaren
konposaketa
sumendiaren
irlanderazko
nuklearraren
pembrokeshire
##ρα
в
cc
##enko
##mail
##oney
##tros
##udan
009
079
coa
idi
joz
aeth
azok
bilo
frig
hano
naze
pico
rana
salz
sind
view
zian
##ctidae
carre
cohen
gibel
redon
selin
##garrian
inklin
izotza
nahiak
people
rivera
zamora
##tichthys
ahizpak
anitzak
gymnoph
hausten
nolakoa
paviako
udalean
bandaren
belgikar
berregok
coracina
dirudien
emirerri
ezkondua
genezake
portland
borboikoa
pentsaera
planteatu
rousillon
agrupacion
bildumaren
igorritako
batzuentzat
misteriotsu
artifizialak
karpatoetako
sailkapenean
tenperaturan
argazkigintza
konposatzaile
espezializatua
ospetsuenetako
errealitatearen
##cq
##439
##532
##654
##658
##662
##664
##ehe
##ved
##dena
##essa
##esti
##onde
##phar
##very
032
045
985
lia
##brand
##ology
##opoma
asoz
baza
efiz
steg
##argues
##ogobio
##uromys
aeros
arian
aurel
bokal
emari
heter
hirum
konig
leuko
lland
mantu
neill
stell
##ythites
azpeit
ebroko
estuki
georgi
haatik
mehatz
probes
pronto
segmen
aurrizk
carchar
erreska
gainbeg
gorroto
hizlari
ireland
thalass
galizian
honelako
metaliko
sarirako
segituan
supermer
topaketa
landareek
zenbakiko
espezifiko
estimatzen
saiakuntza
atmosferako
indoeuropar
mertzenario
psikologiko
aristotelesen
##636
##993
##gel
##lou
##ður
##bano
##ethe
##odes
##quim
##uges
##ypus
025
abe
aeg
##ablan
##ionek
##oglob
##txoen
1357
1659
amik
chac
lema
loko
nava
peso
##anaren
##azalea
##erdiko
##ididae
##iosoma
clare
irune
juana
magia
maior
momen
motib
onean
sturn
tanke
trata
txund
esatea
fortun
iraila
konfed
korrel
mutrik
nuluak
##ikatzeko
denetan
direnen
erredak
jicingo
kontrab
landatu
muinoak
przewal
segurua
ukatzen
brothers
historio
holstein
oliveira
inverness
juridikoa
lehiakide
okupatzen
sorrarazi
fenomenoak
gelditzeko
indartsuen
izenburuak
kontzilioa
nuklearrak
zaharragoa
frantziatik
guatemalako
ingeniariak
organismoak
zuzenbideko
industrialde
kartagotarren
lehendakariorde
##jn
##ła
##222
##eray
002
072
row
uts
##abako
##ticus
1024
1320
1582
bent
cyph
diam
exot
forj
gana
girl
hang
ilia
lara
miko
pike
rail
sero
trek
tsun
##orriak
##terrak
alpin
avila
desaf
eddie
eskum
exeku
gloss
lodia
never
strep
zebra
##iorekin
burtsa
deabru
diskre
landua
manzan
satira
zatiki
ebazpen
erasoen
fuentes
konprim
neuilly
ordeztu
pascual
sudango
biktimen
daramate
galtzada
irratiak
richmond
teorikoa
txotxong
bidaltzea
frankfurt
guillermo
inspiratu
kognitibo
landetako
nagusitik
ardatzaren
aurreiritz
derrigortu
elektroien
idatziriko
leporatzen
portugesez
gastronomia
intermedius
jerusalemgo
edinburgheko
ezberdinekin
##539
##632
##996
##das
##vag
##ampo
##etia
##iego
##itat
##unay
##urin
015
027
044
isp
kik
luh
myx
uef
##ensen
##ereus
##omela
##ulles
1338
1632
1702
ache
bakt
blin
iraz
kauk
macr
##aguako
##izenak
##ontzia
##senius
batra
bonif
brien
donap
eskub
quadr
ahalko
armagh
begien
erritm
gipuzk
ibarre
rousse
zintzo
arazoen
claudio
eraikiz
fishbas
gastuak
geruzak
gineako
glaziar
jakingo
martsup
maxwell
postura
potasio
ziurtag
cinnyris
egoerari
eguberri
florence
griffith
ordeneko
telegraf
txakurra
zinemara
znojmoko
errealeko
futbolean
garapenak
idazteari
klasikoko
negoziatu
patologia
supernoba
webgunean
emakumeena
kongresuko
distiratsua
esportatzen
euskaldunon
ezberdineko
hippocampus
itsasadarra
jaioterriko
laguntzarik
lurrazalean
unibertsoan
enpresarekin
mediterraneoan
##110
##469
##533
##554
##560
##656
##659
##660
##rio
mn
##bras
##izek
034
jav
ved
##itekn
1231
1526
1564
asto
font
lass
pitz
suak
unea
xele
xiph
dicae
dotor
ebaku
kidek
plane
polts
scrip
##ilabrus
barner
bundes
dieten
espart
hotsak
prisma
beijing
dotrina
esklabu
ezkerra
mikrouh
oreinak
phoenix
turkian
egunsent
gaindiko
kanariar
menditik
nabaritu
panamako
printzes
borondate
ekuazioak
jariatzen
strigidae
testuetan
amaitutako
biztanleko
boteretsua
handiagoko
mormyridae
elektronikoak
kontzeptuaren
mediterraneoa
##400
##600
##747
##776
##neo
oi
##azan
##meri
##tsch
099
bix
dah
zia
##chard
##ingue
1130
barc
coph
grem
oxyn
polk
##aburua
##elsuma
##uletan
##ystoma
badio
bakun
bryan
entom
erreb
exper
fedea
ilara
linda
muina
##tsuetan
ahuntz
esaera
hautsa
marjin
taiwan
##erantzia
##ikazioak
budista
inkesta
kinross
nahaste
neutroi
pertzep
suffolk
uriarte
zelaiak
apurtzen
collegen
eslaviar
ezarrita
kopenhag
metrotan
phelsuma
pinturak
poligono
politekn
shanghai
asmakizun
detektibe
estilokoa
galdetzen
kanpainak
orreagako
pianorako
testuaren
zuelakoan
bultzatzea
estatistik
estropadak
hebridetan
homosexual
industriag
proiektatu
saturnoren
babiloniako
irabazitako
erreformaren
espainiakoak
instalazioak
ingalaterraren
azpimarratzekoa
##138
##169
##433
##442
##743
##777
##998
##bie
##jima
021
026
061
098
eiz
hms
pho
##eguna
##ilhac
1240
1516
1721
adap
cost
drag
emer
falc
gaio
##edonia
##ierako
cabez
garre
hezeg
mccar
orlic
##atzetik
##burgeko
##issimus
anitza
dukesa
ekaina
fernan
flavio
indize
lexiko
mozkor
onaren
sartua
edouard
holland
lodzeko
mugetan
niigata
paramil
zeramik
bahiketa
bezeroak
bokalean
garatzea
islandia
transexu
arruntena
bresciako
etorkinen
gaindituz
aurkikuntz
elikatzeko
vatikanoko
astronomiko
arrantzaleen
kontakizunak
materialaren
heptapteridae
##xt
##135
##451
##811
##kik
##sson
023
axo
lax
##izioz
##oidea
1522
1642
alph
dong
orko
vich
##enaren
afric
ahate
arsen
atarr
chand
enple
galer
monde
suzko
##eriketa
##ilearen
aitari
akorde
bankua
itxaro
kumeak
leptob
onurak
orioko
priest
sarien
tumore
aritzea
asimetr
ertzeko
grampus
mutazio
science
urrutia
zuzenki
aurkitua
azerbaij
burutzea
pleasant
zabaleta
aranguren
beherantz
kolpearen
merkatuko
apezpikuak
ekonomiako
hartzearen
katolikoek
mochokidae
estudioetan
euskotrenen
harrapatuta
laukizuzena
ordezkarien
estatistikan
herrigunetik
inbaditzaile
supermerkatua
ezberdintasunak
##131
##137
##452
##468
##552
##652
##657
##668
##doro
##izil
##otia
##wara
047
066
068
iey
##igion
##illak
1318
1410
1755
1763
bogo
kasa
mako
sion
thes
##katuak
futur
lloyd
negro
techn
zuhur
##inoaren
basket
desert
gisara
ipuina
paramo
salvel
tipper
trebin
zeinen
##acanthus
##ionatzen
asiriar
aspaldi
astindu
edateko
idaztea
krustaz
niloren
ohiaren
anableps
berdindu
biktimak
donapale
ecsenius
formakoa
metatzen
somerset
stirling
zailagoa
zinegotz
antologia
argudiatu
bathyraja
erasoaren
gurutzada
lehorrean
perfektua
udaberria
adiskideen
antolatzea
biolentzia
borondatea
erregealdi
antolakunde
egokitzapen
erromantikoa
irakaskuntzan
hamarraldiaren
##117
##430
##745
##771
##ydd
gn
##arty
##idal
##ushi
##uvre
cox
dew
doz
fla
ima
ops
yon
##estra
##imako
1519
anax
kens
mano
roma
zitz
##errean
artax
bakez
diogu
felic
harea
hasiz
volks
##itoaren
##tzerako
antigu
avispa
bilbor
proban
sindar
terape
turner
vallee
##idurinae
dresden
gephyro
iragark
kasurik
kongreg
lycodon
mitokon
naturaz
aipatuko
apaindua
lineatus
sektorea
benedikto
digitalak
getariako
hollyhock
karlistak
montanako
norantzan
objektibo
toponimoa
aukeraketa
bythitidae
distiratsu
eskualdeen
garaietako
izenburuko
kolorekoak
leptopelis
mendigunea
kontserbatu
crocidurinae
gogorarazten
hemisferioko
telebistaren
demokratikoak
herzegovinako
kolaboratzaile
ب
##212
##278
##440
##450
##631
##651
##667
##731
##856
##esp
##ode
##zie
##ckek
##eris
##iosa
##lise
##mano
##tekn
071
obo
pyg
wur
##jozko
abil
afek
cine
fail
intu
isab
kome
ward
##aparta
##forden
##ierara
##trikoa
azkon
bacon
haund
johns
locus
monti
perla
rouge
viana
gorost
guggen
hannah
helios
jabeen
lanera
marteko
mundura
salazar
turkmen
aberdeen
austrian
elkarban
gabekoak
kuantita
urrunago
bultzatuz
dagozkien
erronkari
greenwich
guadalcan
mintzaira
nagusiari
sisoridae
artilleria
bisigodoen
erromantze
gaitasunak
hizkuntzaz
konponbide
paraleloak
errusiarren
probintzien
errenteriako
lepidotrigla
intentsitatea
##130
##147
##436
##456
##665
##chev
##dion
##gins
##icky
##kill
##tany
##unas
016
953
jag
joy
txa
##adari
##iasek
##omero
##quera
##romys
agen
birs
caro
chim
dans
dave
dels
garn
neos
rubr
##tegien
alerg
altxa
ceske
edith
ertza
hypor
salem
zinka
##auville
amonen
aranak
arteen
autoak
bandak
begeta
bismar
ebolut
pierce
ticino
##itaterik
basilea
elorrio
english
ezohiko
gailuak
inskrip
izquier
provinc
scylior
zilindr
albumean
alfabeta
eskulang
handiari
lehorrak
akademiko
almeriako
cisticola
egiptoren
ekologiko
bazituzten
frankistek
ingurunean
koalizioak
burujabetza
gobernatzeko
probintziakoa
desberdintasuna
##112
##119
##141
##149
##151
##235
##298
##448
##567
##760
##764
##anz
##cce
##det
##gog
##unk
##tedt
037
cuv
cym
##etoko
##idera
##odion
##ratak
##wayko
1534
2668
clan
heil
isbn
odis
ques
zulu
##inopus
baria
calat
draco
gernu
pasad
toulo
tourn
##itudean
##ophagus
barber
celtic
ezkata
hutsak
ikusia
jaraun
louise
mental
orriak
osotik
scarus
sidney
troglo
zeneko
adituak
arriaga
batrach
erythro
hondoan
nezumia
pausoak
saturno
semeari
strauss
bizitzea
delakoak
dizkiote
ebazteko
fontenay
grabatua
omenaldi
tronutik
elkarteen
gobernuek
meteorito
pontevedr
sartutako
suedieraz
txanponak
arabiarrak
batzarreko
ditzaketen
europarren
nabarmenki
ptilinopus
salvelinus
valentzian
arkitektoek
hainbatetan
konpainiako
berritzailea
enpresaburua
planteamendu
federazioaren
jasokundearen
administrazioan
##154
##282
##290
##995
##kow
##ome
##hart
##irek
##taur
014
028
089
096
erc
okt
voc
##alina
##igula
##orien
##oster
1237
1334
1590
1630
agua
core
nied
pett
quim
rang
skal
xian
##aztegi
##isteko
foruz
korap
opari
parti
paste
tabor
towns
zuloa
bernar
camino
cardin
didakt
hodiak
izenik
kelvin
klasea
kopern
sharon
tanaka
zurien
auzotik
ikurrak
inberts
koroatu
molusku
tangara
ezarriko
indigena
jasotzea
lapurdin
michelle
ugariena
uribarri
zerikusi
accipiter
aurpegian
dekorazio
gainazala
geldituko
gibraltar
murriztea
teknikoak
tontorrik
zarautzen
eskeintzen
lanengatik
sorreraren
varsoviako
antibiotiko
baserriaren
bilakatzeko
eragilearen
erreparatuz
bultzatutako
hondarribiko
herritartasuna
phyllodactylus
zientzialariak
erlazionatutako
##153
##435
##530
##634
##870
##942
##947
##kub
##lag
##tau
##chim
##eroy
##mine
##turg
##vska
gij
kix
lay
##duren
##osiak
1559
1612
1638
1714
1745
6200
8800
dalm
goia
orte
otus
peio
sona
tund
##merako
barea
gramo
laser
capita
clarke
glazia
letren
mintzo
nicola
orduak
sendai
sokrat
teodos
##mophilus
aljeria
aurelio
deituko
geratuz
lekukoa
revista
babeslea
diamante
ezeztatu
kolektib
lanbidea
txostena
beethoven
elkarrera
gerrarako
interfaze
solairuak
augustoren
courcelles
jokalariek
konpromiso
lehergailu
muraenidae
ordezkatua
sartaldeko
barandiaran
bortizkeria
ikasturtean
ingurumenaren
jarraitzaileen
##на
##639
##650
##751
##800
##861
##965
##atzu
##inaz
##oide
##oter
bry
eae
fav
ios
kot
tis
ucc
zug
##istem
##japyx
1525
2036
2834
6900
azen
banu
fouc
intz
leib
pant
piaz
txis
zuto
##tation
akust
ornog
oskor
saman
timor
txalo
##katzeko
##rtasuna
bangla
basoen
garate
kaleen
labris
madame
maliko
marmol
zegozk
amateur
argente
bizilag
etxarri
gaixotu
rodolfo
silizio
velasco
zeinean
zingira
beltzean
erosketa
hardware
lehendik
nicholas
sinadura
tenpluko
badajozko
[...]
